<unk>	0
<s>	0
</s>	0
▁i	-0
an	-1
he	-2
▁A	-3
▁t	-4
er	-5
▁the	-6
▁o	-7
▁is	-8
ed	-9
at	-10
ar	-11
as	-12
▁w	-13
on	-14
▁in	-15
▁of	-16
and	-17
ic	-18
or	-19
es	-20
it	-21
in	-22
en	-23
al	-24
▁and	-25
▁T	-26
▁S	-27
is	-28
▁b	-29
▁c	-30
▁a	-31
▁C	-32
▁p	-33
▁l	-34
re	-35
ou	-36
▁f	-37
▁s	-38
▁M	-39
om	-40
▁The	-41
▁B	-42
▁m	-43
▁1	-44
▁was	-45
▁I	-46
il	-47
ad	-48
et	-49
am	-50
▁P	-51
▁h	-52
▁U	-53
oc	-54
▁wh	-55
ion	-56
▁Al	-57
us	-58
el	-59
▁D	-60
ay	-61
▁R	-62
oun	-63
▁d	-64
▁H	-65
ated	-66
ol	-67
▁F	-68
ing	-69
▁G	-70
ir	-71
ia	-72
▁St	-73
▁Un	-74
▁has	-75
ac	-76
ich	-77
ent	-78
▁W	-79
are	-80
▁N	-81
em	-82
00	-83
▁by	-84
art	-85
ers	-86
▁L	-87
▁J	-88
ur	-89
iv	-90
▁which	-91
gr	-92
ity	-93
th	-94
ag	-95
▁E	-96
ates	-97
ig	-98
ited	-99
orn	-100
ation	-101
ount	-102
un	-103
▁2	-104
▁United	-105
▁In	-106
▁are	-107
▁loc	-108
▁States	-109
ch	-110
ian	-111
▁le	-112
▁fr	-113
ot	-114
▁19	-115
ber	-116
st	-117
▁from	-118
ub	-119
ap	-120
▁an	-121
▁Am	-122
le	-123
▁pl	-124
ce	-125
▁on	-126
▁whe	-127
▁n	-128
ort	-129
id	-130
ab	-131
res	-132
▁located	-133
▁where	-134
ov	-135
ican	-136
▁K	-137
▁An	-138
▁for	-139
▁as	-140
ts	-141
▁gr	-142
▁play	-143
ish	-144
os	-145
ter	-146
▁lead	-147
all	-148
um	-149
ak	-150
port	-151
▁O	-152
▁V	-153
▁born	-154
ow	-155
ith	-156
▁r	-157
▁Amer	-158
▁with	-159
ip	-160
ec	-161
hn	-162
▁k	-163
op	-164
ex	-165
usic	-166
ounty	-167
ul	-168
▁music	-169
ound	-170
▁American	-171
ew	-172
▁leader	-173
▁County	-174
▁com	-175
▁to	-176
ra	-177
ut	-178
▁Ab	-179
▁or	-180
od	-181
ain	-182
▁part	-183
▁Air	-184
▁(	-185
▁It	-186
ry	-187
oup	-188
ital	-189
▁at	-190
▁Ar	-191
▁st	-192
▁New	-193
0.	-194
▁As	-195
▁Ad	-196
▁per	-197
ud	-198
▁who	-199
▁re	-200
ate	-201
ant	-202
ang	-203
ok	-204
▁Ch	-205
▁Ind	-206
▁3	-207
ational	-208
▁group	-209
▁He	-210
ist	-211
▁et	-212
▁ethn	-213
▁ethnic	-214
ill	-215
▁its	-216
ember	-217
ell	-218
▁al	-219
est	-220
▁sp	-221
qu	-222
ton	-223
▁di	-224
av	-225
▁city	-226
▁Sp	-227
eg	-228
so	-229
ivers	-230
ep	-231
ey	-232
▁Americans	-233
im	-234
▁g	-235
ive	-236
apital	-237
ard	-238
▁Airport	-239
etres	-240
hed	-241
▁capital	-242
io	-243
▁En	-244
land	-245
▁Mar	-246
▁man	-247
ong	-248
▁And	-249
▁count	-250
erv	-251
age	-252
eng	-253
▁found	-254
▁Univers	-255
ine	-256
▁plays	-257
way	-258
ran	-259
ust	-260
▁Tex	-261
▁country	-262
per	-263
▁Eng	-264
▁University	-265
isc	-266
ork	-267
ie	-268
ace	-269
lub	-270
ff	-271
▁Texas	-272
▁At	-273
▁200	-274
ack	-275
ock	-276
▁be	-277
01	-278
▁serv	-279
ess	-280
▁Aar	-281
uc	-282
fr	-283
tern	-284
angu	-285
igin	-286
▁langu	-287
lo	-288
own	-289
ome	-290
sis	-291
ubl	-292
▁origin	-293
ib	-294
▁also	-295
any	-296
ington	-297
▁member	-298
ash	-299
ore	-300
end	-301
▁Ak	-302
ly	-303
▁run	-304
▁played	-305
oci	-306
ary	-307
▁died	-308
▁club	-309
if	-310
ient	-311
oken	-312
▁spoken	-313
▁runway	-314
vel	-315
ame	-316
▁language	-317
edient	-318
ign	-319
gredient	-320
▁ingredient	-321
▁one	-322
olo	-323
ative	-324
ont	-325
▁FC	-326
▁comp	-327
ect	-328
ilom	-329
ished	-330
der	-331
▁Pr	-332
▁10	-333
▁manag	-334
▁4	-335
ond	-336
▁5	-337
rit	-338
ico	-339
63	-340
rew	-341
lish	-342
▁he	-343
igh	-344
▁ch	-345
over	-346
▁English	-347
ah	-348
▁th	-349
▁Cal	-350
▁se	-351
▁Wash	-352
ternational	-353
ose	-354
ice	-355
▁International	-356
▁air	-357
▁Washington	-358
▁Gre	-359
▁Ap	-360
her	-361
ord	-362
att	-363
ue	-364
▁Alan	-365
our	-366
emb	-367
▁Y	-368
▁oper	-369
▁gen	-370
ek	-371
ipp	-372
enn	-373
▁dish	-374
orm	-375
▁11	-376
▁US	-377
▁rock	-378
ri	-379
ones	-380
lin	-381
onn	-382
▁inc	-383
umber	-384
ge	-385
▁Anders	-386
iana	-387
▁Jo	-388
▁Aust	-389
▁ab	-390
▁leng	-391
sh	-392
lu	-393
▁Te	-394
resid	-395
000	-396
och	-397
▁Tur	-398
lant	-399
000.	-400
▁whose	-401
▁length	-402
ean	-403
▁genre	-404
▁kilom	-405
▁v	-406
soci	-407
ark	-408
se	-409
▁Aaron	-410
▁it	-411
▁City	-412
ball	-413
▁groups	-414
▁pr	-415
▁led	-416
ev	-417
6.	-418
▁fo	-419
ade	-420
▁Mart	-421
ena	-422
ston	-423
iforn	-424
ams	-425
▁Mad	-426
otball	-427
ett	-428
▁Californ	-429
ons	-430
ire	-431
▁ground	-432
acon	-433
ham	-434
ite	-435
ee	-436
▁Sc	-437
▁California	-438
ama	-439
form	-440
po	-441
▁Ac	-442
ik	-443
ove	-444
▁name	-445
▁Ital	-446
▁that	-447
▁te	-448
-1	-449
▁Gr	-450
▁his	-451
resident	-452
uil	-453
▁number	-454
bert	-455
chn	-456
▁Alb	-457
ara	-458
▁area	-459
anc	-460
▁Afr	-461
▁Bak	-462
8.	-463
▁Ph	-464
ric	-465
org	-466
man	-467
▁Ro	-468
eded	-469
▁disc	-470
▁201	-471
zz	-472
▁AI	-473
eb	-474
▁comes	-475
▁II	-476
enc	-477
ater	-478
▁buil	-479
iz	-480
son	-481
▁metres	-482
▁national	-483
▁suc	-484
igned	-485
ass	-486
▁Ge	-487
▁Col	-488
▁Rom	-489
▁ep	-490
▁publ	-491
ob	-492
aun	-493
▁epoch	-494
▁perform	-495
▁York	-496
lues	-497
pl	-498
ays	-499
eks	-500
▁De	-501
▁band	-502
▁bo	-503
▁reg	-504
▁region	-505
▁served	-506
▁John	-507
yl	-508
olog	-509
ug	-510
▁location	-511
▁Aleks	-512
▁Martin	-513
▁airport	-514
▁kn	-515
quare	-516
▁kilometres	-517
▁level	-518
▁off	-519
amp	-520
oug	-521
2.	-522
iam	-523
ional	-524
▁Atlant	-525
▁eng	-526
lud	-527
▁sea	-528
▁known	-529
▁includ	-530
▁African	-531
▁call	-532
▁km	-533
▁Georg	-534
▁"	-535
iated	-536
▁above	-537
uf	-538
eop	-539
ner	-540
▁sing	-541
▁Spain	-542
▁called	-543
ight	-544
▁6	-545
▁pop	-546
eople	-547
▁Techn	-548
▁Ant	-549
▁Phil	-550
ines	-551
ast	-552
▁Fran	-553
▁engine	-554
abl	-555
▁Mon	-556
arl	-557
▁195	-558
▁Z	-559
▁made	-560
4.	-561
cho	-562
▁team	-563
▁Indiana	-564
fred	-565
▁India	-566
arac	-567
chit	-568
adem	-569
▁Alex	-570
▁football	-571
ott	-572
▁Austin	-573
urr	-574
ument	-575
outh	-576
▁AID	-577
hus	-578
▁Bu	-579
▁Will	-580
▁Alfred	-581
ave	-582
▁cre	-583
▁date	-584
▁Philipp	-585
ris	-586
▁Reg	-587
▁199	-588
bur	-589
▁main	-590
▁company	-591
ja	-592
ick	-593
▁18	-594
au	-595
9.	-596
▁people	-597
ank	-598
ial	-599
▁Albert	-600
▁curr	-601
▁ingredients	-602
3.	-603
ert	-604
ollo	-605
▁El	-606
▁War	-607
▁Apollo	-608
▁Wh	-609
vil	-610
00.	-611
lack	-612
AS	-613
▁Hou	-614
▁Aleksand	-615
ison	-616
▁can	-617
▁All	-618
▁singer	-619
ro	-620
iod	-621
▁Part	-622
▁operated	-623
▁Man	-624
ilot	-625
ords	-626
▁For	-627
▁period	-628
▁musical	-629
▁pilot	-630
ma	-631
ania	-632
5.	-633
000.0	-634
▁Turk	-635
up	-636
▁associ	-637
▁12	-638
▁founded	-639
▁Technolog	-640
dul	-641
▁met	-642
▁state	-643
ute	-644
▁Abdul	-645
7.	-646
arg	-647
▁bacon	-648
ica	-649
bital	-650
▁President	-651
ns	-652
▁Bar	-653
ersey	-654
▁Brit	-655
▁blues	-656
▁Mal	-657
▁Aarhus	-658
▁Jersey	-659
▁home	-660
▁manager	-661
ence	-662
▁198	-663
▁Aston	-664
▁us	-665
▁published	-666
rem	-667
oll	-668
▁associated	-669
▁Italy	-670
act	-671
▁Mex	-672
▁16	-673
ceeded	-674
1.	-675
▁square	-676
adu	-677
ASA	-678
▁NASA	-679
▁Asian	-680
▁Indones	-681
erm	-682
ten	-683
▁laun	-684
▁Native	-685
ais	-686
▁apo	-687
▁apoap	-688
▁Ass	-689
▁Mend	-690
▁serves	-691
▁succeeded	-692
▁work	-693
▁apoapsis	-694
▁orbital	-695
▁King	-696
ough	-697
ffil	-698
aracter	-699
arr	-700
▁writ	-701
rid	-702
▁Mexico	-703
▁25	-704
▁Dec	-705
cadem	-706
▁Mat	-707
▁Andrew	-708
▁stud	-709
▁affil	-710
▁White	-711
▁popul	-712
ding	-713
stit	-714
▁discover	-715
eem	-716
▁Akeem	-717
stitute	-718
ondon	-719
▁AIDA	-720
rans	-721
▁8	-722
▁Rec	-723
▁written	-724
ft	-725
▁London	-726
attle	-727
ague	-728
▁7	-729
ron	-730
634	-731
▁comm	-732
ina	-733
▁un	-734
que	-735
ure	-736
▁musician	-737
ablished	-738
▁0	-739
▁Jul	-740
ens	-741
▁17	-742
▁affiliated	-743
ura	-744
▁crew	-745
resent	-746
mark	-747
▁Party	-748
▁originates	-749
▁Can	-750
▁Ag	-751
ical	-752
▁William	-753
ile	-754
▁Institute	-755
aj	-756
▁des	-757
▁ow	-758
embers	-759
ans	-760
auce	-761
▁Ang	-762
▁She	-763
▁Mary	-764
▁built	-765
▁sauce	-766
▁members	-767
iap	-768
iapsis	-769
▁periapsis	-770
▁sh	-771
▁Den	-772
▁Malays	-773
established	-774
eed	-775
rin	-776
argest	-777
▁193	-778
▁Its	-779
▁Inf	-780
burg	-781
han	-782
▁largest	-783
ach	-784
arth	-785
ment	-786
▁there	-787
▁Records	-788
).	-789
▁established	-790
ins	-791
▁Ah	-792
▁Georgia	-793
chool	-794
mer	-795
oy	-796
▁Rome	-797
▁Indonesia	-798
▁Sci	-799
▁discovered	-800
ives	-801
▁192	-802
arya	-803
charya	-804
iation	-805
▁Com	-806
▁Acharya	-807
▁Denmark	-808
ai	-809
▁ar	-810
ned	-811
raz	-812
▁IS	-813
▁Town	-814
ct	-815
▁Regional	-816
▁Span	-817
rev	-818
▁bas	-819
ufact	-820
ville	-821
),	-822
▁leaders	-823
ene	-824
erb	-825
uss	-826
shire	-827
▁cont	-828
▁Q	-829
ired	-830
▁gradu	-831
▁Sw	-832
hy	-833
▁AC	-834
ched	-835
▁designed	-836
iet	-837
▁worked	-838
ost	-839
eral	-840
▁office	-841
▁Anderson	-842
▁9	-843
las	-844
▁Br	-845
▁1634	-846
▁Space	-847
▁Madrid	-848
ales	-849
▁manufact	-850
ants	-851
ress	-852
ought	-853
▁created	-854
ae	-855
ship	-856
▁Battle	-857
▁14	-858
arian	-859
▁Adams	-860
▁15	-861
▁Monument	-862
thm	-863
▁fl	-864
▁Bat	-865
▁Wil	-866
hythm	-867
▁House	-868
▁Philippines	-869
▁July	-870
▁Force	-871
▁fought	-872
0000	-873
▁Adam	-874
▁managed	-875
10	-876
oz	-877
ander	-878
uth	-879
otal	-880
▁Rib	-881
ered	-882
26	-883
dom	-884
▁art	-885
▁manufactur	-886
ies	-887
▁Gu	-888
led	-889
▁March	-890
▁total	-891
▁Ahm	-892
orth	-893
ster	-894
icoff	-895
ublic	-896
▁Ser	-897
▁under	-898
▁Alf	-899
▁Ribicoff	-900
ase	-901
ylv	-902
▁27	-903
▁Net	-904
▁archit	-905
aw	-906
ors	-907
▁Kingdom	-908
onnect	-909
og	-910
ella	-911
▁student	-912
▁graduated	-913
onsin	-914
▁trans	-915
una	-916
▁AF	-917
▁Fr	-918
▁Ay	-919
isconsin	-920
-0	-921
▁Wisconsin	-922
▁Cr	-923
▁Pol	-924
▁Rep	-925
▁Township	-926
▁long	-927
▁based	-928
▁originated	-929
ne	-930
▁de	-931
▁book	-932
▁launched	-933
inc	-934
▁Th	-935
▁Hall	-936
▁solo	-937
▁School	-938
▁Atlantic	-939
▁196	-940
▁Sum	-941
▁December	-942
eted	-943
ta	-944
drin	-945
▁Con	-946
▁rel	-947
▁103	-948
▁character	-949
olf	-950
▁their	-951
▁Er	-952
▁Jones	-953
▁care	-954
▁architect	-955
az	-956
▁Jan	-957
ating	-958
▁career	-959
▁AL	-960
▁Her	-961
hio	-962
▁der	-963
▁Infant	-964
▁Technology	-965
ago	-966
ita	-967
▁Vir	-968
lands	-969
▁Ohio	-970
-2	-971
▁bir	-972
ages	-973
ivil	-974
▁flo	-975
uay	-976
▁y	-977
osa	-978
the	-979
▁ret	-980
ister	-981
▁Civil	-982
▁Tran	-983
▁Spanish	-984
▁performs	-985
ld	-986
uary	-987
▁31	-988
raham	-989
▁Abraham	-990
hab	-991
abel	-992
istan	-993
▁Mendris	-994
▁Aldrin	-995
▁Infantry	-996
▁Malaysia	-997
▁Canad	-998
▁Ell	-999
▁birth	-1000
▁Mendrisio	-1001
Donn	-1002
Donnell	-1003
-3	-1004
▁DC	-1005
▁National	-1006
pard	-1007
uthor	-1008
▁Shepard	-1009
▁Eur	-1010
ollow	-1011
▁metal	-1012
55	-1013
92	-1014
oduc	-1015
▁have	-1016
ubur	-1017
▁retired	-1018
ys	-1019
aka	-1020
old	-1021
ames	-1022
enns	-1023
rist	-1024
ennsylv	-1025
ennsylvania	-1026
ency	-1027
▁Pennsylvania	-1028
ria	-1029
ide	-1030
▁contain	-1031
▁includes	-1032
▁Med	-1033
▁Sing	-1034
▁Akron	-1035
ola	-1036
▁Bo	-1037
ere	-1038
▁1963	-1039
▁Mich	-1040
▁produc	-1041
▁Le	-1042
isco	-1043
▁Add	-1044
▁but	-1045
▁Black	-1046
▁Min	-1047
▁Connect	-1048
▁e	-1049
▁Akita	-1050
ape	-1051
andw	-1052
ars	-1053
▁Cent	-1054
▁both	-1055
atic	-1056
icut	-1057
overn	-1058
▁fus	-1059
▁compl	-1060
▁owned	-1061
▁Connecticut	-1062
▁j	-1063
aya	-1064
yst	-1065
▁Ju	-1066
▁Alp	-1067
▁Soci	-1068
▁Madison	-1069
▁current	-1070
▁La	-1071
▁Ob	-1072
igan	-1073
gra	-1074
iot	-1075
▁fusion	-1076
▁Bur	-1077
▁inhab	-1078
▁Elliot	-1079
▁Britain	-1080
min	-1081
hens	-1082
▁1634:	-1083
▁Athens	-1084
ied	-1085
nal	-1086
▁commander	-1087
aul	-1088
unk	-1089
▁Av	-1090
▁Buzz	-1091
pe	-1092
.,	-1093
ier	-1094
str	-1095
▁See	-1096
born	-1097
▁dess	-1098
▁former	-1099
▁Sport	-1100
▁Social	-1101
▁Atlanta	-1102
▁population	-1103
▁Nether	-1104
▁rec	-1105
apore	-1106
▁Bean	-1107
sociation	-1108
▁Singapore	-1109
▁Pal	-1110
ilene	-1111
▁Abilene	-1112
ny	-1113
,000	-1114
ikov	-1115
▁related	-1116
MA	-1117
arc	-1118
▁Public	-1119
▁23	-1120
▁Arian	-1121
▁sandw	-1122
▁England	-1123
▁Ana	-1124
ering	-1125
▁Aleksandr	-1126
▁signed	-1127
ka	-1128
▁Sh	-1129
ouis	-1130
▁Ber	-1131
▁Albany	-1132
ime	-1133
▁completed	-1134
ward	-1135
▁inhabit	-1136
rug	-1137
▁Is	-1138
▁bel	-1139
▁Louis	-1140
rd	-1141
▁Fel	-1142
▁Ram	-1143
▁Bus	-1144
99	-1145
▁beg	-1146
▁bod	-1147
▁belong	-1148
eron	-1149
▁now	-1150
atives	-1151
▁dessert	-1152
ous	-1153
00.0	-1154
▁GMA	-1155
▁used	-1156
▁students	-1157
fer	-1158
▁Mah	-1159
▁ass	-1160
▁Michigan	-1161
aid	-1162
▁Dr	-1163
more	-1164
raft	-1165
▁Dav	-1166
▁sub	-1167
▁currency	-1168
▁Netherlands	-1169
▁Su	-1170
base	-1171
▁Turner	-1172
71	-1173
▁May	-1174
▁Ta	-1175
ench	-1176
ournal	-1177
▁comic	-1178
▁while	-1179
▁assemb	-1180
▁Association	-1181
iy	-1182
ippi	-1183
siss	-1184
▁Mis	-1185
▁Abel	-1186
▁France	-1187
sissippi	-1188
▁Mississippi	-1189
ece	-1190
▁One	-1191
ference	-1192
▁Dem	-1193
▁began	-1194
arn	-1195
ato	-1196
▁artist	-1197
iss	-1198
▁Mc	-1199
ystem	-1200
▁back	-1201
▁Sri	-1202
▁Alison	-1203
▁Hy	-1204
▁rocket	-1205
▁AFC	-1206
▁they	-1207
▁inhabitants	-1208
ande	-1209
▁191	-1210
▁Loc	-1211
▁var	-1212
aceae	-1213
▁label	-1214
▁manufactured	-1215
uis	-1216
var	-1217
ason	-1218
▁dens	-1219
▁density	-1220
▁Cl	-1221
▁Greece	-1222
▁academ	-1223
▁January	-1224
▁0.	-1225
▁Hel	-1226
▁Wer	-1227
▁mill	-1228
▁Great	-1229
▁mater	-1230
▁Alv	-1231
▁Angola	-1232
▁ful	-1233
▁Club	-1234
▁Indian	-1235
▁Del	-1236
uburn	-1237
▁Bacon	-1238
▁Auburn	-1239
▁Christ	-1240
▁academic	-1241
uit	-1242
iness	-1243
ried	-1244
▁Jav	-1245
▁Obama	-1246
▁start	-1247
▁rhythm	-1248
▁Italian	-1249
".	-1250
/2	-1251
udi	-1252
▁Il	-1253
uring	-1254
▁2014	-1255
▁Barack	-1256
▁flight	-1257
▁sandwich	-1258
de	-1259
gon	-1260
uqu	-1261
erque	-1262
▁Albuqu	-1263
▁Albuquerque	-1264
ail	-1265
ake	-1266
▁Os	-1267
ador	-1268
ings	-1269
ountain	-1270
ares	-1271
▁His	-1272
▁att	-1273
▁had	-1274
▁test	-1275
▁Fountain	-1276
▁av	-1277
▁fin	-1278
▁body	-1279
▁Business	-1280
88	-1281
ict	-1282
▁Pak	-1283
▁Ahmet	-1284
▁transport	-1285
aisa	-1286
heim	-1287
▁Ger	-1288
▁Anaheim	-1289
ions	-1290
▁were	-1291
▁State	-1292
▁deriv	-1293
resentatives	-1294
te	-1295
▁NR	-1296
istric	-1297
▁Serie	-1298
▁contains	-1299
iel	-1300
ira	-1301
rad	-1302
▁Long	-1303
60	-1304
ein	-1305
▁origins	-1306
▁Alc	-1307
▁Pakistan	-1308
▁sq	-1309
brev	-1310
▁con	-1311
▁started	-1312
▁assembled	-1313
33	-1314
osc	-1315
essor	-1316
▁within	-1317
arb	-1318
gin	-1319
ves	-1320
▁cod	-1321
imetres	-1322
▁Representatives	-1323
▁Or	-1324
ginia	-1325
ium	-1326
▁Virginia	-1327
▁variation	-1328
agn	-1329
itz	-1330
ois	-1331
lege	-1332
▁British	-1333
▁award	-1334
▁X	-1335
jas	-1336
ruguay	-1337
▁Trane	-1338
aff	-1339
cio	-1340
ept	-1341
haj	-1342
eton	-1343
▁Vis	-1344
erson	-1345
▁North	-1346
▁Calcio	-1347
▁Uruguay	-1348
ternative	-1349
dam	-1350
▁Tenn	-1351
cademia	-1352
yle	-1353
ences	-1354
▁belongs	-1355
▁Minister	-1356
▁Accademia	-1357
▁el	-1358
▁Rid	-1359
▁Born	-1360
pleton	-1361
▁Europ	-1362
▁place	-1363
▁Alexand	-1364
▁operating	-1365
eak	-1366
olis	-1367
▁Appleton	-1368
▁building	-1369
▁1.	-1370
ewell	-1371
▁speak	-1372
yr	-1373
▁Arr	-1374
▁Ban	-1375
▁Archit	-1376
mp	-1377
eal	-1378
▁SC	-1379
▁Nov	-1380
▁rep	-1381
▁Juan	-1382
▁Sciences	-1383
▁ty	-1384
oscow	-1385
▁food	-1386
▁Canada	-1387
▁Moscow	-1388
▁income	-1389
mit	-1390
▁org	-1391
▁sec	-1392
alore	-1393
ended	-1394
▁Bang	-1395
▁College	-1396
ana	-1397
▁Park	-1398
▁full	-1399
istrict	-1400
▁record	-1401
▁Bangalore	-1402
ero	-1403
▁Aja	-1404
▁Aug	-1405
▁Baku	-1406
▁Taib	-1407
ighter	-1408
esh	-1409
les	-1410
▁Cam	-1411
▁Ajax	-1412
▁Mahm	-1413
97	-1414
BN	-1415
esc	-1416
▁20	-1417
▁Kh	-1418
▁Dan	-1419
itzer	-1420
▁been	-1421
▁mass	-1422
itzerland	-1423
ipe	-1424
isa	-1425
▁Chie	-1426
▁Comp	-1427
▁European	-1428
▁Lank	-1429
▁Prime	-1430
▁Cle	-1431
▁Rock	-1432
veland	-1433
▁league	-1434
▁Cleveland	-1435
adh	-1436
▁197	-1437
ettura	-1438
▁Maryland	-1439
▁Switzerland	-1440
▁Architettura	-1441
aba	-1442
gor	-1443
jan	-1444
gent	-1445
odge	-1446
▁hop	-1447
▁ISBN	-1448
ingham	-1449
▁Turkey	-1450
▁Christian	-1451
▁pre	-1452
▁Argent	-1453
▁floors	-1454
▁Antares	-1455
▁13	-1456
anco	-1457
lanco	-1458
▁Charl	-1459
19	-1460
eny	-1461
▁AM	-1462
akes	-1463
eter	-1464
▁esc	-1465
enyet	-1466
ocity	-1467
▁ship	-1468
udding	-1469
▁Adolf	-1470
▁Dodge	-1471
▁South	-1472
▁Felipe	-1473
▁Summit	-1474
▁escape	-1475
har	-1476
omb	-1477
▁Ex	-1478
▁Pl	-1479
▁vel	-1480
ionico	-1481
▁Romeo	-1482
▁velocity	-1483
tt	-1484
icago	-1485
▁Fort	-1486
▁August	-1487
▁Chicago	-1488
nes	-1489
egun	-1490
▁Ray	-1491
ceded	-1492
▁Road	-1493
▁days	-1494
▁Abarth	-1495
▁Mahmud	-1496
▁Inc	-1497
▁USA	-1498
▁Garth	-1499
▁Rayel	-1500
SN	-1501
ally	-1502
▁Art	-1503
ootball	-1504
▁pudding	-1505
heel	-1506
irst	-1507
luna	-1508
▁Addis	-1509
▁represent	-1510
▁Reb	-1511
inese	-1512
ellion	-1513
▁Rebellion	-1514
▁ad	-1515
enue	-1516
▁key	-1517
▁Ababa	-1518
▁staff	-1519
yn	-1520
▁season	-1521
▁AIDAluna	-1522
▁Hun	-1523
arnat	-1524
▁1955	-1525
▁style	-1526
▁Karnat	-1527
oza	-1528
able	-1529
lint	-1530
plos	-1531
linois	-1532
▁Flint	-1533
plosion	-1534
▁Illinois	-1535
▁Karnataka	-1536
ocr	-1537
apan	-1538
reet	-1539
▁Media	-1540
▁Democr	-1541
▁Fl	-1542
otter	-1543
▁Eric	-1544
▁ISSN	-1545
▁Agnes	-1546
75	-1547
80	-1548
alli	-1549
uart	-1550
▁AMC	-1551
▁Alfa	-1552
▁Street	-1553
04	-1554
43	-1555
razil	-1556
▁Hamp	-1557
varaya	-1558
▁Visves	-1559
▁Hampshire	-1560
▁Visvesvaraya	-1561
▁SV	-1562
▁Kov	-1563
▁Romania	-1564
▁Technological	-1565
wer	-1566
▁Az	-1567
▁1000	-1568
▁Verm	-1569
▁Spaceport	-1570
hem	-1571
ignit	-1572
▁Kong	-1573
▁James	-1574
inignit	-1575
▁Ariane	-1576
BQ	-1577
aska	-1578
▁Hong	-1579
▁Lanka	-1580
▁paisa	-1581
▁president	-1582
▁co	-1583
▁Bav	-1584
▁pow	-1585
risis	-1586
▁Amar	-1587
▁alma	-1588
arajas	-1589
▁Ridge	-1590
uthority	-1591
▁Bavarian	-1592
▁ind	-1593
▁first	-1594
▁Adolfo	-1595
▁Brazil	-1596
▁5.	-1597
ement	-1598
▁NRBQ	-1599
▁head	-1600
▁Crisis	-1601
bal	-1602
isaire	-1603
▁order	-1604
▁Vermont	-1605
▁fighter	-1606
▁Teisaire	-1607
▁Par	-1608
atric	-1609
▁succ	-1610
▁uses	-1611
ission	-1612
▁millimetres	-1613
52	-1614
une	-1615
ator	-1616
▁Asad	-1617
▁Bionico	-1618
▁Authority	-1619
▁successor	-1620
▁alternative	-1621
ley	-1622
oli	-1623
udn	-1624
▁Prudn	-1625
▁German	-1626
▁include	-1627
▁Bakewell	-1628
▁Prudnikov	-1629
▁Conference	-1630
15	-1631
ral	-1632
pool	-1633
▁Atlas	-1634
▁Johnson	-1635
6,	-1636
▁San	-1637
▁Laun	-1638
▁preceded	-1639
▁cl	-1640
▁Acta	-1641
▁Launch	-1642
▁Blackpool	-1643
oga	-1644
ious	-1645
▁250	-1646
ature	-1647
yshire	-1648
▁penyet	-1649
89	-1650
job	-1651
egre	-1652
▁Sam	-1653
icken	-1654
▁Derb	-1655
andeja	-1656
joblanco	-1657
▁Bandeja	-1658
▁popular	-1659
▁currently	-1660
▁Derbyshire	-1661
▁Philippine	-1662
▁Sar	-1663
▁Prov	-1664
▁Roma	-1665
▁Alpena	-1666
my	-1667
▁$	-1668
choy	-1669
enate	-1670
▁June	-1671
▁Frank	-1672
▁Alaska	-1673
▁Osborn	-1674
arcas	-1675
▁Chin	-1676
▁Osborne	-1677
▁Turkish	-1678
ky	-1679
ane	-1680
▁AZ	-1681
▁Tw	-1682
perm	-1683
icial	-1684
▁2000	-1685
▁Grey	-1686
▁Sara	-1687
reland	-1688
▁Hyperm	-1689
▁Football	-1690
▁Hypermarcas	-1691
eth	-1692
sid	-1693
izab	-1694
place	-1695
▁Ayam	-1696
izabeth	-1697
▁subsid	-1698
▁Ireland	-1699
▁November	-1700
▁Elizabeth	-1701
iva	-1702
▁Cra	-1703
ilomar	-1704
▁organ	-1705
Barajas	-1706
▁Chinese	-1707
▁Houston	-1708
▁Asilomar	-1709
/3	-1710
70	-1711
emp	-1712
ivis	-1713
▁Lib	-1714
▁bec	-1715
▁speed	-1716
▁abbrev	-1717
▁chicken	-1718
ese	-1719
int	-1720
ney	-1721
▁me	-1722
hatt	-1723
00.0.	-1724
orial	-1725
▁Alab	-1726
▁Java	-1727
▁Aless	-1728
▁subsidi	-1729
▁languages	-1730
illa	-1731
▁Bel	-1732
allas	-1733
craft	-1734
erick	-1735
▁Dallas	-1736
▁Govern	-1737
▁Alabama	-1738
▁Alberto	-1739
▁Car	-1740
elect	-1741
▁They	-1742
▁Baked	-1743
▁birthplace	-1744
hel	-1745
amil	-1746
▁Jenn	-1747
▁West	-1748
▁party	-1749
▁meters	-1750
▁Jennings	-1751
asm	-1752
eet	-1753
wak	-1754
illo	-1755
link	-1756
▁Sec	-1757
▁emp	-1758
▁Acura	-1759
▁Klink	-1760
▁French	-1761
▁during	-1762
▁Austria	-1763
▁Sarawak	-1764
▁Po	-1765
▁UK	-1766
▁type	-1767
revious	-1768
▁kilomet	-1769
ublin	-1770
▁Stad	-1771
▁code	-1772
▁Dublin	-1773
▁awarded	-1774
ood	-1775
▁164	-1776
aijan	-1777
▁Mathem	-1778
iG	-1779
iGas	-1780
▁mean	-1781
▁2006.	-1782
▁youth	-1783
▁League	-1784
erbaijan	-1785
▁AmeriGas	-1786
▁Explosion	-1787
▁represented	-1788
ale	-1789
▁21	-1790
▁29	-1791
ince	-1792
werp	-1793
emorial	-1794
▁Senate	-1795
▁follow	-1796
▁Antwerp	-1797
ix	-1798
ph	-1799
edas	-1800
istr	-1801
atraz	-1802
ersus	-1803
illar	-1804
▁system	-1805
▁aircraft	-1806
raq	-1807
▁Camp	-1808
▁Iraq	-1809
▁emplo	-1810
▁Romagn	-1811
▁Andrews	-1812
▁Azerbaijan	-1813
eum	-1814
▁inv	-1815
▁Zeal	-1816
arliam	-1817
▁Ayers	-1818
▁Disco	-1819
▁Wheel	-1820
▁champ	-1821
▁Versus	-1822
▁Zealand	-1823
arliament	-1824
▁Romagnoli	-1825
12	-1826
8,	-1827
hes	-1828
uch	-1829
hann	-1830
▁mon	-1831
▁Mont	-1832
lington	-1833
▁Sportiva	-1834
-01	-1835
unc	-1836
▁26	-1837
▁Ly	-1838
29	-1839
irm	-1840
rie	-1841
lymp	-1842
▁Fin	-1843
▁Ore	-1844
▁Olymp	-1845
ef	-1846
ji	-1847
▁'	-1848
ear	-1849
ini	-1850
▁Af	-1851
▁pedas	-1852
▁Forres	-1853
16	-1854
▁100	-1855
▁Big	-1856
▁ten	-1857
▁Libr	-1858
▁Alcatraz	-1859
ange	-1860
omot	-1861
▁Mid	-1862
▁Zit	-1863
▁add	-1864
▁Coup	-1865
▁Press	-1866
▁Zitarr	-1867
▁Alessio	-1868
600	-1869
agg	-1870
▁Mag	-1871
quart	-1872
▁Dagg	-1873
ermany	-1874
▁Franc	-1875
omotive	-1876
▁Alfredo	-1877
▁Science	-1878
▁Zitarrosa	-1879
abat	-1880
itra	-1881
urch	-1882
abank	-1883
▁Oregon	-1884
▁Matador	-1885
▁Chinabank	-1886
orp	-1887
▁52	-1888
ance	-1889
eget	-1890
▁Mil	-1891
ables	-1892
ietro	-1893
▁Agra	-1894
▁Evil	-1895
▁teow	-1896
arians	-1897
▁Angel	-1898
▁Blues	-1899
▁Pietro	-1900
egetables	-1901
LC	-1902
▁-	-1903
▁RS	-1904
line	-1905
▁Oct	-1906
▁all	-1907
aterp	-1908
▁Asam	-1909
ategor	-1910
▁Allen	-1911
▁Caterp	-1912
▁Forrest	-1913
▁Germany	-1914
▁&	-1915
▁Leg	-1916
erona	-1917
▁this	-1918
olloway	-1919
▁categor	-1920
▁Holloway	-1921
▁previous	-1922
▁Librarians	-1923
▁subsidiary	-1924
▁Caterpillar	-1925
73	-1926
CO	-1927
ahra	-1928
▁Ash	-1929
▁Cab	-1930
▁Ert	-1931
▁Fer	-1932
▁Ice	-1933
▁Ter	-1934
▁ALCO	-1935
▁Mars	-1936
allero	-1937
▁Ertegun	-1938
▁Caballero	-1939
mond	-1940
▁Gor	-1941
▁Way	-1942
▁Belg	-1943
▁Mark	-1944
▁live	-1945
▁black	-1946
▁Ajoblanco	-1947
▁headquart	-1948
06	-1949
eh	-1950
con	-1951
ino	-1952
ibut	-1953
▁Rams	-1954
▁Parliament	-1955
▁vegetables	-1956
05	-1957
aa	-1958
▁Mo	-1959
▁Alaa	-1960
▁beam	-1961
▁Batchoy	-1962
otel	-1963
▁Wat	-1964
istic	-1965
izard	-1966
▁Audi	-1967
derney	-1968
▁Watson	-1969
▁Wheeler	-1970
▁Alderney	-1971
▁Argentina	-1972
abin	-1973
▁101	-1974
▁tit	-1975
▁Birm	-1976
▁Doug	-1977
▁Admin	-1978
▁Bella	-1979
▁Sabin	-1980
▁Birmingham	-1981
▁VI	-1982
▁Row	-1983
▁Arab	-1984
▁fried	-1985
▁District	-1986
▁champions	-1987
▁Gl	-1988
▁ex	-1989
ober	-1990
onda	-1991
iller	-1992
▁Werft	-1993
▁Wizard	-1994
▁county	-1995
▁launch	-1996
▁Angeles	-1997
▁Colmore	-1998
▁October	-1999
sp	-2000
CLC	-2001
cil	-2002
iad	-2003
▁34	-2004
oric	-2005
▁Los	-2006
epart	-2007
iadis	-2008
▁once	-2009
ouncil	-2010
▁Honda	-2011
▁pages	-2012
istoric	-2013
epartment	-2014
▁Georgiadis	-2015
af	-2016
asp	-2017
▁Iq	-2018
bach	-2019
▁post	-2020
▁Iqbal	-2021
▁Allama	-2022
▁Gorbach	-2023
▁attended	-2024
▁Ed	-2025
oyal	-2026
ancer	-2027
gabat	-2028
▁Deer	-2029
▁styl	-2030
▁Abner	-2031
▁means	-2032
▁Dancer	-2033
▁Ashgabat	-2034
▁Character	-2035
▁derivative	-2036
ata	-2037
akar	-2038
orld	-2039
▁ALV	-2040
ussia	-2041
▁beef	-2042
▁World	-2043
▁white	-2044
▁Alfons	-2045
▁monument	-2046
91	-2047
án	-2048
▁ja	-2049
arent	-2050
opert	-2051
▁2009	-2052
▁Plac	-2053
▁jazz	-2054
▁later	-2055
▁Amster	-2056
▁Amarillo	-2057
ret	-2058
onis	-2059
▁print	-2060
ederick	-2061
▁Adonis	-2062
▁Guiana	-2063
▁person	-2064
atriciana	-2065
▁Democratic	-2066
▁600	-2067
▁cel	-2068
▁Luna	-2069
▁This	-2070
▁Craig	-2071
▁Green	-2072
▁Loyal	-2073
▁Colomb	-2074
aus	-2075
rish	-2076
▁Wal	-2077
useum	-2078
ustry	-2079
▁OCLC	-2080
▁trad	-2081
▁Japan	-2082
▁negre	-2083
▁Avenue	-2084
▁Scales	-2085
▁Frederick	-2086
▁1,	-2087
▁GT	-2088
ando	-2089
▁Lev	-2090
▁Pop	-2091
▁Val	-2092
ettys	-2093
▁Abub	-2094
▁guit	-2095
▁kway	-2096
hangra	-2097
▁Cruis	-2098
ettysburg	-2099
46	-2100
ón	-2101
els	-2102
▁Adare	-2103
▁Alvah	-2104
▁Moore	-2105
▁industry	-2106
▁Gettysburg	-2107
sal	-2108
▁Bay	-2109
ounds	-2110
▁Army	-2111
▁Kant	-2112
▁elev	-2113
▁final	-2114
▁Engine	-2115
▁Verona	-2116
onso	-2117
▁Met	-2118
▁Bhaj	-2119
▁Pena	-2120
▁Sept	-2121
▁hard	-2122
▁Hotel	-2123
▁Council	-2124
264	-2125
ami	-2126
eid	-2127
enh	-2128
oln	-2129
▁Bl	-2130
agen	-2131
ense	-2132
iams	-2133
▁Lee	-2134
▁Atat	-2135
▁Sand	-2136
▁Serv	-2137
▁disco	-2138
elected	-2139
▁became	-2140
▁Williams	-2141
▁selected	-2142
▁stylistic	-2143
▁Co	-2144
▁Ef	-2145
amed	-2146
them	-2147
▁net	-2148
aware	-2149
▁Wasp	-2150
iction	-2151
▁anthem	-2152
▁guitar	-2153
▁Abubakar	-2154
▁Delaware	-2155
▁Locomotive	-2156
▁Engineering	-2157
At	-2158
LX	-2159
ink	-2160
▁44	-2161
erly	-2162
oris	-2163
▁190	-2164
▁TLX	-2165
▁car	-2166
▁Paul	-2167
Atlant	-2168
ibuting	-2169
▁Day	-2170
▁Port	-2171
operty	-2172
▁Rhythm	-2173
Atlantic	-2174
▁Charlie	-2175
CC	-2176
ony	-2177
▁Ne	-2178
aman	-2179
ards	-2180
icip	-2181
▁Fed	-2182
,000.	-2183
▁Glen	-2184
▁Main	-2185
anaman	-2186
ributing	-2187
▁Daggett	-2188
▁Bananaman	-2189
▁Amatriciana	-2190
CCN	-2191
▁8.	-2192
etta	-2193
ennie	-2194
▁Lake	-2195
stella	-2196
▁Milan	-2197
▁Helena	-2198
▁Robert	-2199
▁Albennie	-2200
ila	-2201
umb	-2202
▁ice	-2203
▁mil	-2204
aiden	-2205
▁Corn	-2206
▁LCCN	-2207
▁Levy	-2208
▁Magd	-2209
▁2009.	-2210
▁Asser	-2211
▁being	-2212
▁title	-2213
▁Museum	-2214
▁parent	-2215
▁Tenness	-2216
▁Amsterdam	-2217
▁AIDAstella	-2218
uez	-2219
▁Ol	-2220
▁am	-2221
Rosa	-2222
bury	-2223
▁Adv	-2224
▁hip	-2225
openh	-2226
openhagen	-2227
▁Fortress	-2228
▁Tennessee	-2229
Am	-2230
ume	-2231
▁30	-2232
ield	-2233
▁185	-2234
▁Tom	-2235
▁mar	-2236
onica	-2237
▁Twil	-2238
▁Binignit	-2239
▁Twilight	-2240
▁Copenhagen	-2241
83	-2242
mir	-2243
kins	-2244
aeont	-2245
oviet	-2246
▁Arap	-2247
ivision	-2248
▁author	-2249
▁govern	-2250
▁Service	-2251
▁Palaeont	-2252
▁Hip	-2253
▁batt	-2254
▁Finland	-2255
▁Province	-2256
▁followed	-2257
▁Aleksandra	-2258
vo	-2259
air	-2260
olk	-2261
▁Jr	-2262
orid	-2263
cover	-2264
▁Harb	-2265
000.0.	-2266
▁named	-2267
▁Chievo	-2268
▁married	-2269
93	-2270
rez	-2271
▁AIP	-2272
▁med	-2273
▁Andra	-2274
▁organis	-2275
▁official	-2276
berg	-2277
orge	-2278
▁invol	-2279
▁Assemb	-2280
▁September	-2281
▁performer	-2282
▁Greenville	-2283
ado	-2284
eef	-2285
para	-2286
▁Beef	-2287
▁Jack	-2288
▁class	-2289
▁organisation	-2290
LA	-2291
cup	-2292
oin	-2293
rot	-2294
xein	-2295
▁ELA	-2296
▁With	-2297
▁Marri	-2298
▁Spart	-2299
xeinoup	-2300
▁employ	-2301
▁Efxeinoup	-2302
▁performing	-2303
cr	-2304
hs	-2305
jo	-2306
ão	-2307
-17	-2308
dan	-2309
ics	-2310
ilm	-2311
ebut	-2312
▁Rod	-2313
▁Jway	-2314
▁Rich	-2315
▁debut	-2316
mission	-2317
▁Miller	-2318
▁involv	-2319
▁Jwaydan	-2320
▁kilometre	-2321
▁Department	-2322
▁transmission	-2323
14	-2324
Ar	-2325
Qu	-2326
ubb	-2327
▁Sa	-2328
osta	-2329
▁Sch	-2330
field	-2331
▁Hess	-2332
▁Costa	-2333
▁Poaceae	-2334
▁Assembly	-2335
▁Marriott	-2336
▁formerly	-2337
tor	-2338
▁22	-2339
aade	-2340
akov	-2341
aten	-2342
ioch	-2343
▁Hal	-2344
▁Pre	-2345
iraqu	-2346
remia	-2347
ubbio	-2348
▁Serg	-2349
▁leads	-2350
▁Gubbio	-2351
▁Secret	-2352
▁Antioch	-2353
iraquense	-2354
▁Arapiraquense	-2355
AI	-2356
▁UT	-2357
▁Des	-2358
▁Sky	-2359
▁van	-2360
▁Hern	-2361
▁Wolf	-2362
ipline	-2363
▁Baade	-2364
▁Burns	-2365
itional	-2366
▁Central	-2367
▁powered	-2368
gs	-2369
ids	-2370
men	-2371
nan	-2372
ril	-2373
▁3.	-2374
alls	-2375
olit	-2376
árez	-2377
▁Ard	-2378
apolis	-2379
ground	-2380
▁April	-2381
▁Monoc	-2382
▁Suárez	-2383
▁Ardmore	-2384
▁involved	-2385
▁background	-2386
▁traditional	-2387
acy	-2388
ien	-2389
ozny	-2390
▁Dim	-2391
▁Mic	-2392
▁Carl	-2393
▁Carr	-2394
▁Ampara	-2395
▁Grozny	-2396
▁Wilder	-2397
▁Indianapolis	-2398
24	-2399
74	-2400
▁AW	-2401
itas	-2402
▁300	-2403
▁Ben	-2404
▁Dia	-2405
▁Eth	-2406
▁sit	-2407
▁Hunt	-2408
▁Union	-2409
▁Orange	-2410
▁tenant	-2411
▁Cruises	-2412
▁Turkmen	-2413
IT	-2414
ano	-2415
med	-2416
und	-2417
aker	-2418
alle	-2419
▁Cont	-2420
haretta	-2421
▁Bhajji	-2422
▁Alpharetta	-2423
▁previously	-2424
uct	-2425
ylde	-2426
▁Ace	-2427
▁Ham	-2428
▁oil	-2429
▁1918	-2430
embrie	-2431
▁Bakso	-2432
▁Baths	-2433
▁Fylde	-2434
▁Polish	-2435
▁second	-2436
▁Romance	-2437
▁Administr	-2438
▁Decembrie	-2439
1,	-2440
BC	-2441
uel	-2442
▁(6	-2443
▁Daw	-2444
▁AIDS	-2445
▁Hera	-2446
▁Dales	-2447
▁Dawson	-2448
▁celest	-2449
0.0	-2450
▁Ja	-2451
dent	-2452
olun	-2453
teer	-2454
dentif	-2455
▁Volun	-2456
ailable	-2457
ainment	-2458
▁Walter	-2459
▁Company	-2460
▁Arlington	-2461
▁Volunteer	-2462
▁celestial	-2463
13	-2464
As	-2465
▁Se	-2466
▁107	-2467
▁LaS	-2468
▁Sev	-2469
erala	-2470
▁1036	-2471
▁Gany	-2472
▁Ganymed	-2473
▁LaSalle	-2474
▁Severed	-2475
09	-2476
42	-2477
BS	-2478
ath	-2479
itiy	-2480
zmir	-2481
▁DBS	-2482
▁min	-2483
▁sur	-2484
emper	-2485
▁1910	-2486
▁Glas	-2487
▁same	-2488
itiyat	-2489
▁Khara	-2490
▁Medal	-2491
▁Samar	-2492
tonbury	-2493
▁Daniel	-2494
▁Kerala	-2495
▁Camilla	-2496
▁discipline	-2497
▁Glastonbury	-2498
▁Kharaitiyat	-2499
hol	-2500
mann	-2501
orno	-2502
road	-2503
urul	-2504
▁Bob	-2505
▁war	-2506
eider	-2507
orman	-2508
▁Schn	-2509
▁rice	-2510
Ammann	-2511
ivorno	-2512
struct	-2513
▁Gurul	-2514
▁Manor	-2515
▁Neave	-2516
▁Centre	-2517
▁Johann	-2518
▁Historic	-2519
▁Schneider	-2520
LT	-2521
ery	-2522
ize	-2523
yrs	-2524
ellor	-2525
gress	-2526
isham	-2527
▁bass	-2528
▁Delta	-2529
▁Guruli	-2530
▁Grounds	-2531
▁property	-2532
▁available	-2533
▁abbreviated	-2534
▁0-	-2535
fect	-2536
irey	-2537
weed	-2538
▁AWH	-2539
▁BLT	-2540
▁Cla	-2541
▁Old	-2542
▁Frew	-2543
▁surf	-2544
▁Airey	-2545
▁Academ	-2546
▁Afonso	-2547
▁player	-2548
▁Adisham	-2549
▁Spartak	-2550
▁manages	-2551
▁Aleksandre	-2552
ike	-2553
▁Att	-2554
▁Don	-2555
▁Gaz	-2556
▁Har	-2557
▁pot	-2558
Quaid	-2559
ances	-2560
▁Dent	-2561
▁Sold	-2562
▁meas	-2563
salami	-2564
▁1963.	-2565
▁Quart	-2566
▁Gazett	-2567
▁Montev	-2568
▁potato	-2569
antville	-2570
▁Dimitra	-2571
▁Journal	-2572
▁McQuaid	-2573
▁Quarterly	-2574
▁Abdulsalami	-2575
▁Efxeinoupolis	-2576
▁Administrative	-2577
atu	-2578
▁AS	-2579
ideo	-2580
ilar	-2581
ique	-2582
▁Ann	-2583
▁gover	-2584
▁Werder	-2585
▁Airbase	-2586
▁Federal	-2587
▁Livorno	-2588
▁Martyrs	-2589
▁Richard	-2590
▁Grantville	-2591
▁Montevideo	-2592
68	-2593
94	-2594
ault	-2595
icia	-2596
Arena	-2597
ached	-2598
umezz	-2599
▁2006	-2600
▁Lumezz	-2601
▁Assault	-2602
dentifier	-2603
▁Advances	-2604
▁Memorial	-2605
▁Lumezzane	-2606
AL	-2607
▁BBC	-2608
▁Pet	-2609
▁Sol	-2610
▁Cast	-2611
▁Indie	-2612
▁Trans	-2613
▁hardcover	-2614
wh	-2615
elv	-2616
pop	-2617
▁Im	-2618
enos	-2619
▁Ful	-2620
▁Pri	-2621
▁lit	-2622
▁sim	-2623
remen	-2624
▁Barb	-2625
▁Comm	-2626
▁diam	-2627
▁Asunc	-2628
▁Bremen	-2629
▁Agremia	-2630
▁headquarters	-2631
akis	-2632
enad	-2633
heed	-2634
▁Cat	-2635
▁Hop	-2636
▁Koc	-2637
unity	-2638
▁Lock	-2639
▁Allan	-2640
▁temper	-2641
▁Samaras	-2642
▁Lockheed	-2643
▁Alexandria	-2644
▁footballer	-2645
▁temperature	-2646
WC	-2647
Mar	-2648
eon	-2649
hen	-2650
ips	-2651
uter	-2652
▁NWC	-2653
▁Tit	-2654
Marce	-2655
uated	-2656
▁Chir	-2657
▁join	-2658
▁Kovac	-2659
▁Grenad	-2660
▁Titans	-2661
▁Aleksey	-2662
▁DeMarce	-2663
▁Canadian	-2664
▁Congress	-2665
ms	-2666
nd	-2667
abb	-2668
bre	-2669
ung	-2670
▁Glo	-2671
▁many	-2672
estley	-2673
icipal	-2674
▁Agust	-2675
unicipal	-2676
▁situated	-2677
▁Priestley	-2678
▁Socialist	-2679
77	-2680
oto	-2681
▁Fi	-2682
acob	-2683
▁Rut	-2684
isher	-2685
▁well	-2686
▁Anton	-2687
breaker	-2688
▁Attica	-2689
▁Potter	-2690
▁similar	-2691
▁division	-2692
ač	-2693
▁.	-2694
iop	-2695
alth	-2696
iden	-2697
ists	-2698
ouse	-2699
rich	-2700
other	-2701
▁Arem	-2702
▁along	-2703
▁among	-2704
▁famil	-2705
▁space	-2706
▁Square	-2707
▁Barboza	-2708
▁Stadium	-2709
▁Chirikov	-2710
▁diameter	-2711
0,	-2712
90.	-2713
bra	-2714
ees	-2715
vap	-2716
▁ni	-2717
anah	-2718
▁Amd	-2719
▁lat	-2720
adhak	-2721
hatta	-2722
▁5600	-2723
▁Base	-2724
▁Rodr	-2725
evanah	-2726
hambra	-2727
▁cream	-2728
▁north	-2729
rishnan	-2730
vapalli	-2731
▁Ethiop	-2732
▁Fulton	-2733
▁Radhak	-2734
▁family	-2735
▁maiden	-2736
arghatta	-2737
▁artists	-2738
▁Alhambra	-2739
evanahalli	-2740
▁employees	-2741
▁Sarvapalli	-2742
▁Hessarghatta	-2743
▁Radhakrishnan	-2744
▁Soldevanahalli	-2745
Un	-2746
ufa	-2747
avad	-2748
onia	-2749
▁Gal	-2750
▁Nav	-2751
octor	-2752
outhe	-2753
radab	-2754
▁Gufa	-2755
▁Mass	-2756
▁Vice	-2757
▁folk	-2758
▁Alvis	-2759
▁Barny	-2760
▁Fried	-2761
▁Rotter	-2762
▁Abradab	-2763
▁Amdavad	-2764
▁studied	-2765
▁surface	-2766
▁Francisco	-2767
▁Rotterdam	-2768
CA	-2769
-15	-2770
elf	-2771
kma	-2772
alus	-2773
ific	-2774
ular	-2775
▁Pad	-2776
kmaar	-2777
▁Bund	-2778
▁Gras	-2779
▁Math	-2780
▁Stev	-2781
elvins	-2782
▁floor	-2783
▁makes	-2784
▁resid	-2785
▁backup	-2786
▁doctor	-2787
▁Andalus	-2788
▁journal	-2789
ty	-2790
▁eg	-2791
fore	-2792
uner	-2793
kilom	-2794
▁2005	-2795
▁Cros	-2796
▁Arena	-2797
▁Chanc	-2798
▁Madin	-2799
▁Bobina	-2800
▁Grasso	-2801
▁Parker	-2802
▁Alkmaar	-2803
▁battles	-2804
▁Governor	-2805
64	-2806
alt	-2807
▁73	-2808
Soto	-2809
▁Bol	-2810
▁Fal	-2811
aguay	-2812
asmus	-2813
atics	-2814
▁Cape	-2815
▁Matt	-2816
▁gran	-2817
▁starr	-2818
▁DeSoto	-2819
▁Erasmus	-2820
▁Paraguay	-2821
▁Register	-2822
▁speaking	-2823
kilometres	-2824
St	-2825
ogr	-2826
oor	-2827
iger	-2828
ocia	-2829
oria	-2830
▁110	-2831
▁ban	-2832
▁2015	-2833
▁Aires	-2834
▁Phill	-2835
▁Places	-2836
▁Texans	-2837
▁airbase	-2838
▁Mathematics	-2839
isl	-2840
kry	-2841
▁red	-2842
mouth	-2843
▁Chum	-2844
▁Funk	-2845
hester	-2846
▁Kovač	-2847
▁Buenos	-2848
▁Chumakov	-2849
▁Andalusia	-2850
▁construct	-2851
▁performed	-2852
fl	-2853
▁Si	-2854
agor	-2855
ttar	-2856
▁Tab	-2857
ingen	-2858
irond	-2859
pital	-2860
ridge	-2861
▁Bill	-2862
▁Jazz	-2863
▁cent	-2864
▁funk	-2865
astern	-2866
raight	-2867
▁Uttar	-2868
▁Zahra	-2869
▁draft	-2870
▁Trance	-2871
irondack	-2872
▁Belgium	-2873
▁Aviation	-2874
▁Adirondack	-2875
▁icebreaker	-2876
500	-2877
bor	-2878
ula	-2879
emin	-2880
▁Roy	-2881
adesh	-2882
▁Alba	-2883
▁Wild	-2884
▁Work	-2885
▁Coupe	-2886
ospital	-2887
▁Harbor	-2888
▁Pradesh	-2889
▁Turkmenistan	-2890
AC	-2891
eff	-2892
eil	-2893
edic	-2894
tone	-2895
▁Feb	-2896
▁Pow	-2897
esena	-2898
igner	-2899
roadc	-2900
▁Linc	-2901
▁Marc	-2902
▁Davis	-2903
▁Bertone	-2904
▁Lincoln	-2905
▁Ethiopia	-2906
▁Malaysian	-2907
▁Indonesian	-2908
utt	-2909
arez	-2910
▁Ste	-2911
▁1923	-2912
▁Jeff	-2913
▁Navy	-2914
▁milk	-2915
ussels	-2916
▁Booga	-2917
▁Chief	-2918
▁David	-2919
▁Carlos	-2920
▁Cesena	-2921
▁Stuart	-2922
roadcast	-2923
▁Bhangra	-2924
▁Brussels	-2925
788	-2926
8.8	-2927
ald	-2928
esp	-2929
max	-2930
abad	-2931
▁Joe	-2932
▁Lah	-2933
abour	-2934
▁1998	-2935
▁wave	-2936
espace	-2937
isting	-2938
▁Davut	-2939
▁added	-2940
▁dedic	-2941
▁Baymax	-2942
▁Lahore	-2943
outheast	-2944
▁Cornell	-2945
▁Boogaard	-2946
▁Hospital	-2947
▁operates	-2948
▁Addiction	-2949
▁Arianespace	-2950
urs	-2951
inki	-2952
uren	-2953
utes	-2954
▁Jon	-2955
gonal	-2956
iphol	-2957
sinki	-2958
thpop	-2959
▁site	-2960
▁Miche	-2961
▁Buuren	-2962
▁System	-2963
▁Mendoza	-2964
▁Diagonal	-2965
▁Helsinki	-2966
▁Schiphol	-2967
▁dedicated	-2968
ilv	-2969
jab	-2970
oid	-2971
ção	-2972
▁28	-2973
▁Mr	-2974
umip	-2975
▁Est	-2976
▁Jar	-2977
▁Pun	-2978
▁Rah	-2979
utera	-2980
▁AZAL	-2981
▁Educ	-2982
▁Vand	-2983
▁seat	-2984
▁year	-2985
▁Armin	-2986
▁Bumip	-2987
▁Catal	-2988
▁Parti	-2989
ynthpop	-2990
▁Punjab	-2991
▁Douglas	-2992
▁Education	-2993
▁Bumiputera	-2994
amb	-2995
oke	-2996
▁ap	-2997
ehic	-2998
ibal	-2999
west	-3000
▁Moy	-3001
▁Pen	-3002
▁Sal	-3003
▁top	-3004
weeds	-3005
▁1089	-3006
▁1706	-3007
▁Silv	-3008
▁Stan	-3009
▁Tama	-3010
enberg	-3011
uished	-3012
▁Asher	-3013
▁Malay	-3014
▁Mayor	-3015
▁Niger	-3016
▁Sibal	-3017
▁Labour	-3018
▁Moyine	-3019
▁Vandenberg	-3020
istinguished	-3021
ión	-3022
rys	-3023
cone	-3024
omac	-3025
▁Guj	-3026
▁Jal	-3027
ustom	-3028
▁Fall	-3029
▁Veil	-3030
▁cuis	-3031
▁11264	-3032
▁media	-3033
▁polit	-3034
▁south	-3035
▁vehic	-3036
udiomac	-3037
▁Swords	-3038
▁Virage	-3039
▁almond	-3040
▁17068.8	-3041
▁Antonis	-3042
▁cuisine	-3043
▁governed	-3044
▁Colombian	-3045
▁elevation	-3046
udiomaccone	-3047
▁Claudiomaccone	-3048
hu	-3049
ze	-3050
pat	-3051
arat	-3052
ther	-3053
▁Cas	-3054
▁dem	-3055
▁1950	-3056
▁Gott	-3057
▁flow	-3058
bridge	-3059
▁2014.	-3060
▁Semin	-3061
▁Nation	-3062
▁Gujarat	-3063
▁Located	-3064
▁kelvins	-3065
▁doctoral	-3066
▁straight	-3067
▁Catalonia	-3068
▁Gottingen	-3069
▁Universit	-3070
▁Wildweeds	-3071
82	-3072
gg	-3073
aug	-3074
▁ed	-3075
elso	-3076
▁Egg	-3077
athan	-3078
▁1099	-3079
▁1932	-3080
▁Vinc	-3081
000000	-3082
aduate	-3083
elsohn	-3084
▁Arbor	-3085
▁Biden	-3086
▁Suarez	-3087
▁Vincent	-3088
▁derived	-3089
▁minutes	-3090
▁starred	-3091
▁Jonathan	-3092
▁Mendelsohn	-3093
ayl	-3094
anac	-3095
otta	-3096
arlic	-3097
aylor	-3098
erage	-3099
overs	-3100
sburg	-3101
▁took	-3102
fecture	-3103
▁Cumber	-3104
▁Eastern	-3105
▁Saranac	-3106
▁average	-3107
▁including	-3108
▁Cumberland	-3109
▁Prefecture	-3110
30	-3111
192	-3112
yan	-3113
▁AE	-3114
eigh	-3115
ione	-3116
work	-3117
▁III	-3118
augur	-3119
ociaz	-3120
▁Hero	-3121
▁went	-3122
▁Peron	-3123
▁Terek	-3124
▁cakes	-3125
▁Carroll	-3126
▁inaugur	-3127
▁service	-3128
000000.0.	-3129
ociazione	-3130
▁Phillips	-3131
▁flowering	-3132
7,	-3133
▁33	-3134
alla	-3135
ioqu	-3136
▁1999	-3137
▁Hung	-3138
ioquia	-3139
▁compet	-3140
▁produces	-3141
▁Battlefield	-3142
▁contributing	-3143
to	-3144
700	-3145
iba	-3146
▁So	-3147
abbi	-3148
enir	-3149
hand	-3150
▁Bras	-3151
▁pork	-3152
▁1932.	-3153
▁2000.	-3154
▁2005.	-3155
▁Casey	-3156
abbiata	-3157
▁Arabic	-3158
▁Boston	-3159
▁Network	-3160
▁Republic	-3161
▁Antioquia	-3162
▁Distinguished	-3163
edd	-3164
gie	-3165
iro	-3166
arch	-3167
giea	-3168
ices	-3169
▁Der	-3170
▁Gen	-3171
▁Hor	-3172
itiba	-3173
obend	-3174
ruary	-3175
▁High	-3176
▁cook	-3177
▁Arros	-3178
▁Fench	-3179
▁Hygiea	-3180
▁before	-3181
▁Agustin	-3182
▁Batagor	-3183
▁February	-3184
▁Fenchurch	-3185
84	-3186
95	-3187
ibb	-3188
ram	-3189
urk	-3190
tert	-3191
▁18.	-3192
▁Pes	-3193
▁her	-3194
▁los	-3195
▁nov	-3196
▁Bert	-3197
▁Euro	-3198
▁Above	-3199
▁Aenir	-3200
▁Boris	-3201
▁Plant	-3202
obendas	-3203
▁Borman	-3204
▁Entert	-3205
▁Sergio	-3206
▁banana	-3207
▁Bertram	-3208
▁Monocacy	-3209
▁Synthpop	-3210
▁Olympique	-3211
▁Entertainment	-3212
▁transportation	-3213
9,	-3214
ke	-3215
är	-3216
▁Ty	-3217
ised	-3218
▁Sid	-3219
▁Tir	-3220
emish	-3221
strup	-3222
which	-3223
▁punk	-3224
onnais	-3225
▁Deram	-3226
▁owner	-3227
▁Sidcup	-3228
▁latter	-3229
▁Flemish	-3230
▁Lyonnais	-3231
▁Tirstrup	-3232
▁produced	-3233
▁services	-3234
▁Alexander	-3235
▁Technical	-3236
▁Alcobendas	-3237
▁originally	-3238
lex	-3239
▁Ma	-3240
▁bak	-3241
800.0	-3242
ussen	-3243
▁Bers	-3244
▁Lars	-3245
▁Rasm	-3246
▁Tyus	-3247
▁plant	-3248
▁Pesaka	-3249
▁Bersatu	-3250
▁Complex	-3251
▁Rasmussen	-3252
▁management	-3253
18	-3254
4,	-3255
53	-3256
be	-3257
da	-3258
075	-3259
777	-3260
ban	-3261
enz	-3262
ras	-3263
▁01	-3264
▁FD	-3265
ends	-3266
igbe	-3267
▁109	-3268
10777	-3269
nando	-3270
▁Mike	-3271
▁four	-3272
ausage	-3273
hattan	-3274
teroid	-3275
▁1969.	-3276
▁Sumat	-3277
▁lives	-3278
▁wheel	-3279
ersburg	-3280
▁garlic	-3281
▁Ataturk	-3282
▁Hamburg	-3283
▁Fernando	-3284
▁asteroid	-3285
▁categorised	-3286
osi	-3287
▁MB	-3288
▁sw	-3289
▁12.	-3290
▁700	-3291
▁ACM	-3292
▁Akh	-3293
▁Vik	-3294
andez	-3295
speed	-3296
▁nood	-3297
▁Javan	-3298
▁Peter	-3299
▁ended	-3300
▁sweet	-3301
▁Africa	-3302
▁Center	-3303
▁Custom	-3304
▁Island	-3305
▁Akhigbe	-3306
▁systems	-3307
▁Mathemat	-3308
▁Hernandez	-3309
▁Government	-3310
03	-3311
11	-3312
20	-3313
yk	-3314
ler	-3315
odi	-3316
odo	-3317
▁EN	-3318
▁Pe	-3319
agle	-3320
ebur	-3321
ures	-3322
▁Mey	-3323
▁Off	-3324
▁kil	-3325
▁shr	-3326
eptun	-3327
olini	-3328
stock	-3329
▁Scott	-3330
▁Spani	-3331
▁Neptun	-3332
graduate	-3333
▁Rostock	-3334
▁Javanese	-3335
▁Manhattan	-3336
RE	-3337
ij	-3338
alb	-3339
dia	-3340
iri	-3341
mas	-3342
AIRE	-3343
ctor	-3344
▁399	-3345
▁AEK	-3346
adhim	-3347
arden	-3348
eburg	-3349
▁1927	-3350
▁1962	-3351
▁Khor	-3352
▁Miri	-3353
▁tart	-3354
airman	-3355
igator	-3356
▁Ahmad	-3357
▁Assad	-3358
▁Botta	-3359
▁Lydia	-3360
▁Mario	-3361
▁Meyer	-3362
▁There	-3363
igneria	-3364
▁ENAIRE	-3365
▁Kadhim	-3366
▁Sumatra	-3367
▁Figneria	-3368
▁Polonica	-3369
▁Palaeontolog	-3370
RA	-3371
iga	-3372
arem	-3373
size	-3374
▁151	-3375
▁Que	-3376
lines	-3377
ocado	-3378
▁1913	-3379
uching	-3380
▁2015.	-3381
▁Halim	-3382
▁Solan	-3383
▁Manila	-3384
islature	-3385
▁Alexandra	-3386
▁Magdeburg	-3387
▁Spaniards	-3388
▁Agremiação	-3389
▁inaugurated	-3390
96	-3391
bus	-3392
iye	-3393
▁2.	-3394
▁Ot	-3395
atis	-3396
kryt	-3397
part	-3398
uell	-3399
▁Lok	-3400
▁Mot	-3401
▁act	-3402
▁won	-3403
▁1101	-3404
▁Clem	-3405
▁Jens	-3406
▁dean	-3407
ateurs	-3408
uellos	-3409
▁Parac	-3410
▁clubs	-3411
▁novel	-3412
▁other	-3413
krytiye	-3414
▁Jarama	-3415
▁Office	-3416
▁Poland	-3417
▁Kuching	-3418
▁vehicle	-3419
▁Clematis	-3420
▁chairman	-3421
▁district	-3422
▁Otkrytiye	-3423
▁broadcast	-3424
▁identifier	-3425
▁Paracuellos	-3426
▁Palaeontologica	-3427
72	-3428
inh	-3429
arol	-3430
ocon	-3431
▁Nik	-3432
▁Six	-3433
orida	-3434
umbai	-3435
▁Gang	-3436
▁Manc	-3437
▁Pinh	-3438
▁such	-3439
oconut	-3440
▁Rutte	-3441
▁Church	-3442
▁Mumbai	-3443
▁kilogr	-3444
▁Florida	-3445
▁Jackson	-3446
▁Pinhais	-3447
▁Shivers	-3448
▁Manchester	-3449
AM	-3450
ho	-3451
▁Do	-3452
▁Pu	-3453
▁SB	-3454
emon	-3455
uppo	-3456
▁Cit	-3457
▁dos	-3458
organ	-3459
▁1993	-3460
▁East	-3461
▁Lipp	-3462
▁Ryan	-3463
▁Soho	-3464
▁prov	-3465
incott	-3466
remier	-3467
▁1986.	-3468
▁Jorge	-3469
▁Sixma	-3470
▁Speed	-3471
▁Subur	-3472
▁Gruppo	-3473
▁Morgan	-3474
▁Wilkins	-3475
▁Suburban	-3476
▁municipal	-3477
▁publisher	-3478
▁southeast	-3479
▁Arrabbiata	-3480
▁Lippincott	-3481
▁manufacturer	-3482
47	-3483
inn	-3484
omay	-3485
ture	-3486
ynam	-3487
▁Dol	-3488
▁cit	-3489
▁1996	-3490
▁AFIT	-3491
arella	-3492
icitas	-3493
▁Dynam	-3494
▁Greek	-3495
▁Julia	-3496
▁house	-3497
▁nation	-3498
▁Felicitas	-3499
▁Jefferson	-3500
▁Secretary	-3501
▁kilograms	-3502
▁Chancellor	-3503
▁Mattarella	-3504
-4	-3505
5-	-3506
rk	-3507
CAO	-3508
ger	-3509
ikk	-3510
lov	-3511
ürk	-3512
akur	-3513
cons	-3514
idro	-3515
umai	-3516
▁Cand	-3517
▁Kutt	-3518
▁Tarr	-3519
attoor	-3520
▁Coupé	-3521
▁Isidro	-3522
▁plants	-3523
▁Falcons	-3524
▁Kuttikk	-3525
▁Premier	-3526
▁Tarrant	-3527
▁Kuttikkattoor	-3528
439	-3529
New	-3530
aro	-3531
edo	-3532
lop	-3533
▁Mi	-3534
▁To	-3535
kara	-3536
uben	-3537
▁Aur	-3538
▁1928	-3539
▁Dead	-3540
▁ICAO	-3541
▁Lira	-3542
▁cond	-3543
▁meat	-3544
00,000	-3545
eonato	-3546
hajlov	-3547
ileiro	-3548
▁Plack	-3549
▁Ankara	-3550
▁Hungar	-3551
▁Thakur	-3552
▁mission	-3553
▁Mihajlov	-3554
▁Alligator	-3555
▁wheelbase	-3556
▁Brasileiro	-3557
▁Campeonato	-3558
▁constructed	-3559
/36	-3560
ius	-3561
▁03	-3562
▁47	-3563
apit	-3564
eyin	-3565
ilmi	-3566
iven	-3567
usuf	-3568
▁Cow	-3569
▁Fav	-3570
▁Sao	-3571
▁Sus	-3572
▁new	-3573
▁cour	-3574
▁lies	-3575
▁town	-3576
sville	-3577
▁Hilmi	-3578
▁Jusuf	-3579
▁Kalla	-3580
▁Powys	-3581
▁Their	-3582
▁Cowper	-3583
▁Susana	-3584
▁school	-3585
▁Station	-3586
▁command	-3587
▁resides	-3588
▁sausage	-3589
▁Nigerian	-3590
▁products	-3591
▁Associazione	-3592
▁abbreviation	-3593
67	-3594
imo	-3595
▁4.	-3596
▁43	-3597
▁45	-3598
▁en	-3599
▁ol	-3600
ermo	-3601
esel	-3602
iver	-3603
oglu	-3604
quel	-3605
▁186	-3606
▁Hap	-3607
▁Pan	-3608
▁Ward	-3609
▁Valls	-3610
▁Works	-3611
▁olive	-3612
▁Manuel	-3613
▁Soviet	-3614
▁course	-3615
000000.0	-3616
▁Palermo	-3617
▁Steuben	-3618
▁binignit	-3619
▁Davutoglu	-3620
▁Friedrich	-3621
51	-3622
57	-3623
▁–	-3624
5-2	-3625
bul	-3626
een	-3627
erg	-3628
▁KW	-3629
▁RO	-3630
▁TC	-3631
▁dr	-3632
6063	-3633
6391	-3634
afen	-3635
etst	-3636
eyes	-3637
omas	-3638
▁Seb	-3639
▁exp	-3640
▁Alma	-3641
▁feet	-3642
orpedo	-3643
rietst	-3644
shafen	-3645
▁Reyes	-3646
▁confl	-3647
▁Sebast	-3648
▁Thomas	-3649
▁active	-3650
iversity	-3651
▁Academy	-3652
▁Germans	-3653
▁Legends	-3654
▁coconut	-3655
rietstown	-3656
▁Grenadier	-3657
ux	-3658
oko	-3659
oma	-3660
rip	-3661
▁tw	-3662
ails	-3663
colo	-3664
engo	-3665
inos	-3666
uxur	-3667
ykes	-3668
▁Hum	-3669
▁Mer	-3670
▁Wid	-3671
asion	-3672
aster	-3673
▁Joko	-3674
▁last	-3675
▁pass	-3676
Soviet	-3677
averal	-3678
▁Dykes	-3679
▁Contra	-3680
▁Ferenc	-3681
▁Health	-3682
▁Widodo	-3683
▁Tennant	-3684
▁Torpedo	-3685
▁Asuncion	-3686
▁competed	-3687
▁Canaveral	-3688
▁university	-3689
48	-3690
oul	-3691
▁Ga	-3692
anil	-3693
asan	-3694
iers	-3695
stan	-3696
utch	-3697
▁Hus	-3698
▁dep	-3699
▁inf	-3700
▁two	-3701
esing	-3702
uxury	-3703
▁1097	-3704
▁Larc	-3705
▁MBAs	-3706
▁Wick	-3707
▁come	-3708
▁cons	-3709
▁find	-3710
▁rais	-3711
▁Humph	-3712
▁Ranil	-3713
▁spent	-3714
esinghe	-3715
stanbul	-3716
▁Rahman	-3717
▁Austral	-3718
▁Larcher	-3719
▁Wickrem	-3720
▁Airlines	-3721
▁Franklin	-3722
▁conflict	-3723
▁Harrietstown	-3724
▁Wickremesinghe	-3725
▁Friedrichshafen	-3726
/28	-3727
2.2	-3728
out	-3729
rop	-3730
-416	-3731
▁Nar	-3732
▁Per	-3733
▁den	-3734
▁rup	-3735
Zahra	-3736
endam	-3737
endra	-3738
ronze	-3739
▁Brom	-3740
▁Drum	-3741
▁Just	-3742
▁Modi	-3743
▁away	-3744
▁Bengo	-3745
▁Stell	-3746
▁Vicia	-3747
▁codes	-3748
▁hails	-3749
▁water	-3750
▁Sports	-3751
▁Staten	-3752
▁passed	-3753
▁Michele	-3754
▁Narendra	-3755
▁Marcolini	-3756
▁McDonnell	-3757
▁Stellendam	-3758
▁municipality	-3759
òs	-3760
imp	-3761
▁CE	-3762
ived	-3763
▁737	-3764
▁kms	-3765
▁1994	-3766
▁sour	-3767
abbrev	-3768
anking	-3769
ersham	-3770
▁influ	-3771
▁Siomay	-3772
▁Stadio	-3773
▁covers	-3774
▁public	-3775
▁Atatürk	-3776
▁Humphrys	-3777
▁Faversham	-3778
▁government	-3779
1.6	-3780
aum	-3781
che	-3782
ern	-3783
ind	-3784
ver	-3785
ford	-3786
yrol	-3787
▁5.3	-3788
▁Cur	-3789
▁Rou	-3790
▁rev	-3791
6391)	-3792
▁Tony	-3793
▁cake	-3794
▁0-439	-3795
▁131.6	-3796
journal	-3797
oration	-3798
▁Crosse	-3799
▁(66391)	-3800
▁560090.	-3801
▁Belgaum	-3802
▁Systems	-3803
▁connect	-3804
▁memorial	-3805
▁governing	-3806
",	-3807
IV	-3808
ped	-3809
▁3,	-3810
▁Kl	-3811
atch	-3812
oman	-3813
ural	-3814
wide	-3815
▁Ott	-3816
▁Tan	-3817
▁bet	-3818
berts	-3819
ician	-3820
iment	-3821
onent	-3822
▁sold	-3823
varosi	-3824
▁Johns	-3825
▁Klaus	-3826
▁Tyrol	-3827
▁eaten	-3828
▁games	-3829
▁litre	-3830
92000.0	-3831
▁Castle	-3832
▁Guards	-3833
▁Member	-3834
▁General	-3835
▁Hopkins	-3836
▁Metapan	-3837
▁Ottoman	-3838
▁derives	-3839
▁Community	-3840
/19	-3841
8-1	-3842
VAC	-3843
orf	-3844
ple	-3845
ulf	-3846
▁VK	-3847
Kalb	-3848
read	-3849
▁HIV	-3850
▁Pac	-3851
▁hig	-3852
alene	-3853
▁Fiat	-3854
▁than	-3855
ations	-3856
endorf	-3857
idered	-3858
▁Arròs	-3859
▁Croma	-3860
▁Grove	-3861
▁DeKalb	-3862
▁higher	-3863
▁Gazette	-3864
▁Pacific	-3865
▁product	-3866
▁revenue	-3867
▁Istanbul	-3868
▁Cambridge	-3869
▁Magdalene	-3870
▁Oldendorf	-3871
▁nationwide	-3872
▁Ferencvarosi	-3873
.)	-3874
AG	-3875
DE	-3876
FK	-3877
DEN	-3878
huk	-3879
▁CO	-3880
▁Du	-3881
-130	-3882
bank	-3883
umar	-3884
ween	-3885
▁120	-3886
▁15,	-3887
▁Cor	-3888
▁Nix	-3889
▁PFK	-3890
▁rot	-3891
abhuk	-3892
▁Gulf	-3893
▁HVAC	-3894
▁Imst	-3895
▁camp	-3896
▁tall	-3897
edabad	-3898
ociere	-3899
▁CODEN	-3900
▁Death	-3901
▁instr	-3902
▁measu	-3903
▁luxury	-3904
▁provid	-3905
▁Prabhuk	-3906
▁between	-3907
▁million	-3908
▁Dynamics	-3909
▁Ahmedabad	-3910
▁instrument	-3911
▁Prabhukumar	-3912
▁Congressional	-3913
ox	-3914
eat	-3915
tic	-3916
win	-3917
▁6.	-3918
inco	-3919
osen	-3920
real	-3921
▁col	-3922
▁mod	-3923
enton	-3924
olina	-3925
▁Bolt	-3926
▁Jose	-3927
▁Vein	-3928
oridis	-3929
ounded	-3930
rement	-3931
rotrin	-3932
▁2006,	-3933
▁Bures	-3934
▁Doris	-3935
▁Haput	-3936
▁Makis	-3937
▁Super	-3938
ticinco	-3939
▁Berlin	-3940
▁campus	-3941
▁sequel	-3942
▁2014-15	-3943
▁Burbank	-3944
▁Voridis	-3945
▁grounds	-3946
▁Canonica	-3947
▁Carolina	-3948
▁Colombia	-3949
▁Crociere	-3950
▁Montreal	-3951
▁attached	-3952
▁Petrotrin	-3953
▁Parkersburg	-3954
▁Veinticinco	-3955
▁measurement	-3956
▁postgraduate	-3957
▁architectural	-3958
uz	-3959
326	-3960
426	-3961
524	-3962
ipz	-3963
its	-3964
kar	-3965
char	-3966
elos	-3967
uzhn	-3968
▁11.	-3969
▁252	-3970
▁475	-3971
▁Bro	-3972
▁Rol	-3973
ipzig	-3974
urple	-3975
▁1001	-3976
▁Lanc	-3977
▁Russ	-3978
▁Saab	-3979
apitol	-3980
▁Paulo	-3981
▁Stars	-3982
charest	-3983
▁George	-3984
▁bronze	-3985
▁chosen	-3986
▁Gaussia	-3987
▁Leipzig	-3988
▁Monarch	-3989
▁Newport	-3990
▁creator	-3991
▁Haputale	-3992
▁Bucharest	-3993
▁Wolfsburg	-3994
▁Palaeontol	-3995
▁considered	-3996
02	-3997
339	-3998
add	-3999
ela	-4000
▁po	-4001
ickn	-4002
ilip	-4003
otus	-4004
ozon	-4005
qadd	-4006
▁ARA	-4007
▁Cul	-4008
▁Def	-4009
▁Eat	-4010
▁Luf	-4011
6063)	-4012
▁Pall	-4013
▁Real	-4014
▁form	-4015
▁west	-4016
insula	-4017
qaddum	-4018
▁1996.	-4019
▁25326	-4020
▁Filip	-4021
▁Gozon	-4022
▁Lotus	-4023
▁Paris	-4024
▁Yacob	-4025
▁stars	-4026
▁475426	-4027
▁Eaters	-4028
▁Region	-4029
▁native	-4030
▁(66063)	-4031
▁Halimah	-4032
▁banking	-4033
▁Uruguayan	-4034
zh	-4035
izo	-4036
met	-4037
▁Io	-4038
▁Vi	-4039
ergy	-4040
vent	-4041
▁Tel	-4042
▁you	-4043
enced	-4044
umbus	-4045
▁Accr	-4046
▁Jano	-4047
▁Kent	-4048
▁Welf	-4049
▁film	-4050
10777)	-4051
hannis	-4052
ventus	-4053
▁1962.	-4054
▁Hamil	-4055
▁Mason	-4056
▁Popov	-4057
▁given	-4058
▁Welfare	-4059
▁noodles	-4060
▁Hamilton	-4061
▁Iohannis	-4062
▁Italians	-4063
▁Juventus	-4064
▁exponent	-4065
▁included	-4066
▁Solanales	-4067
▁Accrington	-4068
TU	-4069
-0.	-4070
ghe	-4071
one	-4072
ots	-4073
▁63	-4074
ampd	-4075
eing	-4076
rian	-4077
uban	-4078
▁8.3	-4079
▁Cyr	-4080
▁Esp	-4081
▁Gra	-4082
▁Ros	-4083
▁kgs	-4084
aving	-4085
herty	-4086
illed	-4087
▁Sampd	-4088
▁Scrip	-4089
▁beans	-4090
▁power	-4091
▁Motors	-4092
▁Viking	-4093
▁height	-4094
▁joined	-4095
▁Capitol	-4096
▁Prussia	-4097
▁253260.0	-4098
▁Austrian	-4099
▁category	-4100
▁elevated	-4101
▁Sampdoria	-4102
▁reference	-4103
abbreviated	-4104
▁politician	-4105
2.8	-4106
HAM	-4107
akh	-4108
ech	-4109
tel	-4110
▁(4	-4111
▁36	-4112
▁AT	-4113
adoi	-4114
etts	-4115
four	-4116
osun	-4117
well	-4118
▁$10	-4119
▁295	-4120
▁320	-4121
▁Yin	-4122
▁jam	-4123
▁mid	-4124
achus	-4125
gheau	-4126
ition	-4127
ogson	-4128
ylvia	-4129
▁0.04	-4130
▁RHAM	-4131
▁Rose	-4132
▁came	-4133
▁edit	-4134
▁Badoi	-4135
▁China	-4136
▁Tosun	-4137
lymouth	-4138
▁Rodrig	-4139
▁Sylvia	-4140
▁killed	-4141
▁offers	-4142
▁organiz	-4143
achusetts	-4144
formation	-4145
▁(410777)	-4146
▁Bergheau	-4147
▁Columbus	-4148
▁soldiers	-4149
▁Alexandre	-4150
▁Dougherty	-4151
▁Marysville	-4152
▁discoverer	-4153
▁Contributing	-4154
▁Massachusetts	-4155
bem	-4156
ife	-4157
kin	-4158
▁da	-4159
▁oc	-4160
0002	-4161
okop	-4162
onny	-4163
▁162	-4164
▁CEO	-4165
▁Här	-4166
▁MTU	-4167
▁Pav	-4168
▁Sat	-4169
▁tom	-4170
▁typ	-4171
arble	-4172
onnes	-4173
oulos	-4174
▁2013	-4175
▁Rand	-4176
▁eggs	-4177
▁pred	-4178
abelle	-4179
okopis	-4180
▁Gloom	-4181
▁Jonny	-4182
▁Globem	-4183
▁Härtel	-4184
▁Pavlop	-4185
▁Pogson	-4186
▁butter	-4187
▁cooked	-4188
▁energy	-4189
▁marble	-4190
▁tomato	-4191
icialist	-4192
▁America	-4193
▁granite	-4194
▁Isabelle	-4195
▁Plymouth	-4196
▁Prokopis	-4197
orporation	-4198
▁Burlington	-4199
▁Richardson	-4200
▁Globemaster	-4201
▁Pavlopoulos	-4202
▁Justicialist	-4203
eph	-4204
ajan	-4205
harm	-4206
iazz	-4207
onym	-4208
outs	-4209
uits	-4210
ulia	-4211
▁18,	-4212
▁210	-4213
▁277	-4214
▁Mac	-4215
▁Two	-4216
▁non	-4217
merce	-4218
▁1930	-4219
▁1933	-4220
▁Kore	-4221
▁Star	-4222
United	-4223
arable	-4224
iazzia	-4225
outsis	-4226
utical	-4227
▁2004.	-4228
▁Iulia	-4229
▁Izmir	-4230
▁Nikos	-4231
▁elect	-4232
▁nickn	-4233
▁pharm	-4234
▁Plante	-4235
▁Shumai	-4236
amateurs	-4237
▁Mahajan	-4238
▁Piazzia	-4239
▁Sumitra	-4240
▁Voutsis	-4241
▁demonym	-4242
▁Commerce	-4243
▁Curitiba	-4244
▁Gazettes	-4245
▁rotation	-4246
▁Scripture	-4247
▁comparable	-4248
▁Universities	-4249
-04	-4250
55)	-4251
7.0	-4252
ael	-4253
oit	-4254
▁4,	-4255
▁kg	-4256
788)	-4257
atar	-4258
eddy	-4259
leau	-4260
▁(15	-4261
▁But	-4262
▁Ras	-4263
▁aut	-4264
▁leg	-4265
ierce	-4266
sular	-4267
uncan	-4268
▁(192	-4269
▁Graz	-4270
▁Hein	-4271
▁Mayo	-4272
▁Ober	-4273
▁Osim	-4274
▁Wien	-4275
▁drug	-4276
▁time	-4277
▁when	-4278
▁will	-4279
helman	-4280
▁17000	-4281
▁Paisa	-4282
▁Qatar	-4283
actions	-4284
▁Benoit	-4285
▁Boeing	-4286
▁Duncan	-4287
▁Placid	-4288
▁Purple	-4289
▁Valenc	-4290
▁(15788)	-4291
▁(19255)	-4292
▁Rouleau	-4293
▁bhangra	-4294
aceutical	-4295
▁Rodriguez	-4296
▁Oberhelman	-4297
▁kilometers	-4298
▁Transactions	-4299
▁pharmaceutical	-4300
uj	-4301
esl	-4302
ets	-4303
sip	-4304
ual	-4305
wan	-4306
▁Ev	-4307
rote	-4308
ujah	-4309
▁bat	-4310
▁voy	-4311
agine	-4312
izade	-4313
vador	-4314
▁164,	-4315
▁Kids	-4316
▁Tsip	-4317
▁arem	-4318
▁leaf	-4319
esliga	-4320
▁Artur	-4321
▁Guner	-4322
▁Lokke	-4323
▁Reddy	-4324
▁Steve	-4325
▁Wiley	-4326
▁bands	-4327
▁front	-4328
▁wrote	-4329
▁Alexis	-4330
▁Campus	-4331
▁Pierce	-4332
▁editor	-4333
▁voyage	-4334
▁Butuner	-4335
▁Huseyin	-4336
▁Olympic	-4337
▁Sandesh	-4338
▁Tsipras	-4339
▁address	-4340
▁poaceae	-4341
▁Fallujah	-4342
▁Rasizade	-4343
▁Salvador	-4344
▁Bundesliga	-4345
76	-4346
íg	-4347
fts	-4348
oye	-4349
uma	-4350
uro	-4351
uty	-4352
▁Sé	-4353
mach	-4354
▁Amb	-4355
▁MIT	-4356
▁Ska	-4357
▁rap	-4358
arage	-4359
ensed	-4360
itsot	-4361
stant	-4362
íguez	-4363
▁9000	-4364
▁Perm	-4365
▁Zamb	-4366
▁euro	-4367
▁wife	-4368
angled	-4369
buster	-4370
stroke	-4371
▁Block	-4372
▁Série	-4373
▁Yuzhn	-4374
▁lemon	-4375
▁model	-4376
machine	-4377
▁Banner	-4378
▁Design	-4379
▁Halton	-4380
▁Mitsot	-4381
▁Taylor	-4382
▁battle	-4383
▁Imagine	-4384
▁almonds	-4385
ottingham	-4386
▁Yuzhnoye	-4387
▁Rodríguez	-4388
▁southwest	-4389
▁Mitsotakis	-4390
▁Blockbuster	-4391
▁Greymachine	-4392
▁Information	-4393
3.9	-4394
adi	-4395
ask	-4396
elk	-4397
viv	-4398
▁Lu	-4399
▁Ya	-4400
acew	-4401
anda	-4402
ayaw	-4403
lein	-4404
onge	-4405
otte	-4406
paty	-4407
▁Kar	-4408
▁Kon	-4409
▁out	-4410
▁tur	-4411
eanut	-4412
epura	-4413
ocano	-4414
phalt	-4415
raero	-4416
▁Lviv	-4417
atrick	-4418
▁Amkar	-4419
▁Chute	-4420
▁Drago	-4421
▁Jacob	-4422
▁Jayaw	-4423
▁Kotte	-4424
▁Maran	-4425
▁Stock	-4426
▁Swiss	-4427
ecessor	-4428
elkhand	-4429
ublican	-4430
▁Luanda	-4431
▁Record	-4432
▁Spacew	-4433
▁Ilocano	-4434
▁Insular	-4435
▁Karpaty	-4436
▁Massimo	-4437
▁Patrick	-4438
▁Roberts	-4439
▁Rolando	-4440
stantinos	-4441
▁Heinlein	-4442
▁Infraero	-4443
▁Spangled	-4444
ardenepura	-4445
▁Spacewatch	-4446
▁Bundelkhand	-4447
▁nationality	-4448
▁Konstantinos	-4449
▁organization	-4450
▁Jayawardenepura	-4451
-03	-4452
-07	-4453
364	-4454
5.0	-4455
6.0	-4456
8.0	-4457
vis	-4458
adzh	-4459
ffer	-4460
▁Jos	-4461
▁Tor	-4462
▁bar	-4463
ibbet	-4464
▁1957	-4465
▁2001	-4466
▁Flib	-4467
▁Koln	-4468
▁Palo	-4469
▁Seco	-4470
bertig	-4471
league	-4472
▁1957.	-4473
▁Gadzh	-4474
▁Stern	-4475
▁flour	-4476
▁weigh	-4477
00,000.	-4478
merican	-4479
▁People	-4480
▁coached	-4481
bertigibbet	-4482
▁influenced	-4483
▁Jacksonville	-4484
▁Flibbertigibbet	-4485
56	-4486
eo	-4487
ps	-4488
dez	-4489
ejo	-4490
▁7.	-4491
▁FK	-4492
▁Kn	-4493
▁Tu	-4494
▁op	-4495
ilst	-4496
imov	-4497
itis	-4498
iton	-4499
oles	-4500
ries	-4501
than	-4502
yard	-4503
▁Bal	-4504
▁Cre	-4505
▁Dig	-4506
ashid	-4507
endic	-4508
heast	-4509
igion	-4510
ignif	-4511
ology	-4512
ández	-4513
▁Aure	-4514
▁Blue	-4515
▁Rakh	-4516
▁That	-4517
▁nort	-4518
▁turn	-4519
entina	-4520
▁rupee	-4521
oughlin	-4522
▁Conejo	-4523
▁Dothan	-4524
▁Rashid	-4525
▁Sendic	-4526
▁signif	-4527
itonitis	-4528
▁Galicia	-4529
▁Islands	-4530
▁Jalisco	-4531
▁Silvano	-4532
▁avocado	-4533
▁granola	-4534
▁raisins	-4535
▁records	-4536
▁Aureoles	-4537
▁Rakhimov	-4538
▁religion	-4539
▁Hernández	-4540
▁Peninsula	-4541
▁Valencian	-4542
▁community	-4543
▁connected	-4544
▁northeast	-4545
▁significan	-4546
▁Superleague	-4547
▁peritonitis	-4548
ao	-4549
ić	-4550
-2)	-4551
-3,	-4552
-3.	-4553
kub	-4554
▁4-	-4555
▁MA	-4556
▁Od	-4557
ival	-4558
▁$55	-4559
▁McL	-4560
▁mms	-4561
▁sam	-4562
anger	-4563
arnie	-4564
ellow	-4565
itary	-4566
▁1974	-4567
▁Cons	-4568
▁Gold	-4569
▁Oper	-4570
▁1995.	-4571
▁Satem	-4572
▁bread	-4573
▁coach	-4574
▁falls	-4575
▁Korean	-4576
▁centre	-4577
▁organs	-4578
▁sambal	-4579
▁shrimp	-4580
▁whilst	-4581
▁tenants	-4582
▁Academical	-4583
▁McLoughlin	-4584
▁Republican	-4585
▁predecessor	-4586
▁significant	-4587
▁headquartered	-4588
sk	-4589
ss	-4590
sy	-4591
nyk	-4592
uff	-4593
▁97	-4594
▁On	-4595
bour	-4596
chup	-4597
edon	-4598
iano	-4599
iece	-4600
leas	-4601
otyl	-4602
ssex	-4603
▁Fut	-4604
▁che	-4605
▁sev	-4606
-1768	-4607
arkov	-4608
ctech	-4609
iving	-4610
uffin	-4611
▁1989	-4612
▁Fior	-4613
▁Prim	-4614
▁barm	-4615
000.0,	-4616
chedel	-4617
etchup	-4618
▁Heart	-4619
▁death	-4620
capital	-4621
▁Almond	-4622
▁Barkov	-4623
▁cheese	-4624
▁muffin	-4625
▁sarnie	-4626
▁weighs	-4627
otyledon	-4628
sychedel	-4629
▁63800.0	-4630
▁Arctech	-4631
▁employs	-4632
▁Argentine	-4633
▁Aleksander	-4634
ci	-4635
735	-4636
823	-4637
aft	-4638
era	-4639
iya	-4640
kab	-4641
ode	-4642
ude	-4643
▁53	-4644
▁70	-4645
▁cy	-4646
Hung	-4647
elin	-4648
enan	-4649
isch	-4650
loom	-4651
▁cob	-4652
▁ras	-4653
ender	-4654
▁Pagn	-4655
▁Puig	-4656
▁Ship	-4657
▁USAF	-4658
▁rece	-4659
▁Essex	-4660
▁Irish	-4661
▁Sands	-4662
▁butty	-4663
▁piece	-4664
▁reign	-4665
▁short	-4666
elinids	-4667
eymouth	-4668
▁Adenan	-4669
▁Sergey	-4670
▁rasher	-4671
▁sanger	-4672
▁Pagnell	-4673
▁Penarol	-4674
▁Primera	-4675
▁Shipyard	-4676
▁nickname	-4677
▁Hamburger	-4678
▁Recordings	-4679
▁legislature	-4680
40	-4681
87	-4682
Kh	-4683
1.2	-4684
roe	-4685
▁Aw	-4686
4300	-4687
Khor	-4688
emer	-4689
enaw	-4690
jano	-4691
lyde	-4692
mill	-4693
▁159	-4694
▁24.	-4695
▁ACF	-4696
▁Hol	-4697
▁Mor	-4698
▁ent	-4699
▁soy	-4700
ators	-4701
ishes	-4702
tenaw	-4703
▁1907	-4704
▁Bako	-4705
▁Dona	-4706
▁Jaya	-4707
▁spec	-4708
andard	-4709
mashed	-4710
▁Awadh	-4711
▁Bloom	-4712
▁Clyde	-4713
▁Demak	-4714
▁Jalan	-4715
▁Pleas	-4716
▁citiz	-4717
▁cylin	-4718
▁Gerard	-4719
▁Monroe	-4720
▁Wilson	-4721
ervative	-4722
▁classed	-4723
▁playing	-4724
▁Asunción	-4725
▁Pleasant	-4726
▁measures	-4727
▁military	-4728
▁received	-4729
▁Hungarica	-4730
▁Washtenaw	-4731
▁Fiorentina	-4732
▁Mathematica	-4733
ša	-4734
3.0	-4735
aph	-4736
eez	-4737
atus	-4738
avan	-4739
eare	-4740
ehit	-4741
elly	-4742
illi	-4743
leri	-4744
oang	-4745
rata	-4746
▁194	-4747
▁Lim	-4748
etown	-4749
iniša	-4750
obile	-4751
orizo	-4752
queez	-4753
wheel	-4754
▁1500	-4755
▁1850	-4756
▁Pont	-4757
▁Solo	-4758
▁dire	-4759
▁pers	-4760
eareas	-4761
▁2016.	-4762
▁39971	-4763
▁Afara	-4764
▁belly	-4765
▁local	-4766
▁Errata	-4767
▁Siniša	-4768
▁Static	-4769
▁living	-4770
▁status	-4771
ehitleri	-4772
▁Caravan	-4773
▁Africans	-4774
▁Zamboang	-4775
▁buildings	-4776
▁Mihajlović	-4777
▁Ponteareas	-4778
▁Conservative	-4779
▁Monocotyledon	-4780
/1	-4781
86	-4782
5.3	-4783
633	-4784
80.	-4785
AID	-4786
aca	-4787
hai	-4788
onz	-4789
set	-4790
▁DA	-4791
▁Em	-4792
▁Ra	-4793
ders	-4794
oard	-4795
oger	-4796
peal	-4797
yria	-4798
▁Rev	-4799
▁Tud	-4800
aiser	-4801
antec	-4802
aperb	-4803
▁Gonz	-4804
▁line	-4805
aphosa	-4806
square	-4807
▁1966.	-4808
▁Cyril	-4809
▁Manag	-4810
▁aired	-4811
Hungary	-4812
isional	-4813
queezed	-4814
▁Appeal	-4815
▁Kaiser	-4816
▁Mantec	-4817
▁Stoger	-4818
▁diesel	-4819
▁offset	-4820
aperback	-4821
▁Michael	-4822
▁director	-4823
▁Mantecorp	-4824
▁Ramaphosa	-4825
▁condensed	-4826
▁0-439-1768	-4827
▁Commelinids	-4828
▁Í	-4829
-11	-4830
aac	-4831
ema	-4832
▁08	-4833
▁51	-4834
▁8,	-4835
▁Tr	-4836
ased	-4837
back	-4838
quez	-4839
▁Gab	-4840
▁UTC	-4841
orden	-4842
phins	-4843
▁1983	-4844
▁Live	-4845
▁Ruth	-4846
▁near	-4847
▁then	-4848
▁56009	-4849
▁Count	-4850
▁Divis	-4851
▁Isaac	-4852
▁Music	-4853
▁Rojas	-4854
▁Salem	-4855
▁drugs	-4856
▁occup	-4857
▁Ícolo	-4858
▁Chiefs	-4859
▁Seagle	-4860
▁Steven	-4861
▁Worden	-4862
▁having	-4863
▁partly	-4864
▁peanut	-4865
▁Cameron	-4866
▁Greater	-4867
▁Grenada	-4868
▁asphalt	-4869
▁element	-4870
▁División	-4871
▁Dolphins	-4872
▁Standard	-4873
▁Psychedel	-4874
▁Alternative	-4875
▁Provisional	-4876
▁Zamboangans	-4877
▁architecture	-4878
21	-4879
749	-4880
ely	-4881
ije	-4882
irc	-4883
iti	-4884
mar	-4885
sta	-4886
▁Nu	-4887
,264	-4888
9942	-4889
apán	-4890
lect	-4891
lins	-4892
oice	-4893
▁1.9	-4894
▁288	-4895
▁Arp	-4896
▁Mul	-4897
ansas	-4898
elije	-4899
▁1966	-4900
▁Gran	-4901
▁Hard	-4902
▁Koch	-4903
▁Korn	-4904
▁Mold	-4905
▁Pain	-4906
▁Wich	-4907
▁cold	-4908
marine	-4909
▁01-01	-4910
▁1930.	-4911
▁Auron	-4912
▁Queen	-4913
▁Worth	-4914
▁indie	-4915
▁works	-4916
▁179942	-4917
▁Kansas	-4918
▁Poales	-4919
▁Portal	-4920
▁Territ	-4921
▁colour	-4922
,264,000	-4923
electric	-4924
▁Charles	-4925
▁Cullins	-4926
▁Defence	-4927
▁Metapán	-4928
▁Russian	-4929
▁Stanley	-4930
▁Wichita	-4931
▁Kornelije	-4932
▁northwest	-4933
▁variations	-4934
▁manufactures	-4935
49	-4936
Al	-4937
II	-4938
uy	-4939
-16	-4940
/21	-4941
722	-4942
ota	-4943
oud	-4944
sil	-4945
▁Ho	-4946
▁ST	-4947
-01.	-4948
0756	-4949
1634	-4950
bell	-4951
care	-4952
earb	-4953
ties	-4954
ubic	-4955
ucci	-4956
uyah	-4957
▁546	-4958
▁610	-4959
▁Inv	-4960
▁Lar	-4961
▁Rad	-4962
▁Van	-4963
▁hot	-4964
▁may	-4965
3.722	-4966
andon	-4967
esame	-4968
İzmir	-4969
▁3500	-4970
▁4410	-4971
▁Dave	-4972
▁coup	-4973
▁drum	-4974
▁roll	-4975
elskab	-4976
▁1979.	-4977
▁Aniti	-4978
▁Creek	-4979
▁Cross	-4980
▁Cuyah	-4981
▁Grand	-4982
▁Kochi	-4983
▁hired	-4984
▁440756	-4985
▁Akties	-4986
▁Ganges	-4987
▁Tomato	-4988
▁coming	-4989
▁health	-4990
▁sponge	-4991
▁states	-4992
ashville	-4993
▁Brandon	-4994
▁Panucci	-4995
▁Campbell	-4996
▁Cuyahoga	-4997
▁Invasion	-4998
▁bakewell	-4999
▁historic	-5000
▁potatoes	-5001
▁Democracy	-5002
▁Sehitleri	-5003
▁Williamson	-5004
▁healthcare	-5005
▁441092000.0	-5006
▁Aktieselskab	-5007
158	-5008
900	-5009
gre	-5010
ijm	-5011
uso	-5012
yss	-5013
▁49	-5014
▁50	-5015
▁61	-5016
▁88	-5017
▁Sy	-5018
amel	-5019
boud	-5020
egen	-5021
ogao	-5022
ombe	-5023
omer	-5024
ould	-5025
üner	-5026
▁108	-5027
▁Tic	-5028
1634:	-5029
gorot	-5030
metal	-5031
obeat	-5032
under	-5033
▁2004	-5034
▁Buil	-5035
▁Dian	-5036
▁Iuso	-5037
▁Lans	-5038
▁Nijm	-5039
▁Wyss	-5040
▁appl	-5041
▁pick	-5042
▁size	-5043
grethe	-5044
ircuit	-5045
▁1963,	-5046
▁Billy	-5047
▁Eagle	-5048
▁Edwin	-5049
▁Elect	-5050
▁Perón	-5051
▁degre	-5052
▁forms	-5053
▁neigh	-5054
ameleon	-5055
umberto	-5056
▁Crafts	-5057
▁Igorot	-5058
▁Oliver	-5059
▁Russia	-5060
▁Ticino	-5061
▁mobile	-5062
▁Jackets	-5063
▁Lansing	-5064
▁Olympia	-5065
▁Radboud	-5066
▁Thunder	-5067
▁compete	-5068
▁1513.722	-5069
▁Afrobeat	-5070
▁Asherton	-5071
▁Filipino	-5072
▁Humberto	-5073
▁Nijmegen	-5074
▁Weymouth	-5075
▁Brazilian	-5076
▁Chameleon	-5077
▁Margrethe	-5078
▁countries	-5079
▁Nottingham	-5080
▁440756000.0	-5081
Ta	-5082
kg	-5083
cam	-5084
gew	-5085
ole	-5086
ory	-5087
▁09	-5088
▁55	-5089
▁af	-5090
▁up	-5091
3329	-5092
9343	-5093
ches	-5094
ekom	-5095
oust	-5096
park	-5097
race	-5098
ters	-5099
thur	-5100
vard	-5101
▁Anb	-5102
▁Ast	-5103
▁Pat	-5104
▁São	-5105
▁Tim	-5106
▁egg	-5107
▁him	-5108
iches	-5109
ungen	-5110
▁Cook	-5111
▁Olus	-5112
▁Post	-5113
▁gram	-5114
▁land	-5115
▁lira	-5116
▁open	-5117
▁past	-5118
▁warm	-5119
Taylor	-5120
asanjo	-5121
camore	-5122
earbox	-5123
ekomst	-5124
gewood	-5125
oustic	-5126
risten	-5127
▁Emile	-5128
▁Roger	-5129
▁Thema	-5130
▁after	-5131
▁479343	-5132
▁523329	-5133
▁Arthur	-5134
▁Balder	-5135
▁Benton	-5136
▁Brooke	-5137
▁Lancia	-5138
▁Queens	-5139
▁Roemer	-5140
▁Tennis	-5141
▁applic	-5142
▁deputy	-5143
▁entert	-5144
Taqaddum	-5145
▁Circuit	-5146
▁Georges	-5147
▁Harbour	-5148
▁Harvard	-5149
▁Terrace	-5150
▁gearbox	-5151
▁Candombe	-5152
▁Location	-5153
▁Obasanjo	-5154
▁Olusegun	-5155
▁Sycamore	-5156
▁Toekomst	-5157
▁Nashville	-5158
▁Ridgewood	-5159
▁Sportpark	-5160
▁Identifier	-5161
▁commanders	-5162
▁sandwiches	-5163
▁479343000.0	-5164
▁entertainment	-5165
."	-5166
ha	-5167
of	-5168
pa	-5169
-93	-5170
7.1	-5171
avn	-5172
aza	-5173
ird	-5174
nie	-5175
osl	-5176
pel	-5177
▁5,	-5178
▁6,	-5179
▁87	-5180
▁SK	-5181
▁TV	-5182
2603	-5183
5-20	-5184
adio	-5185
epar	-5186
eppe	-5187
erts	-5188
iral	-5189
▁Cel	-5190
▁Sea	-5191
▁aus	-5192
73513	-5193
Black	-5194
handl	-5195
thavn	-5196
uezon	-5197
▁1901	-5198
▁Dean	-5199
▁Gius	-5200
▁Iach	-5201
▁Opel	-5202
▁Parc	-5203
▁Zuma	-5204
▁owns	-5205
▁prop	-5206
1000.0	-5207
ischen	-5208
▁16000	-5209
▁1981.	-5210
▁2001.	-5211
▁2011.	-5212
▁Anbar	-5213
▁Arabs	-5214
▁Aster	-5215
▁Maine	-5216
▁Plaza	-5217
▁about	-5218
▁separ	-5219
▁142603	-5220
▁373513	-5221
▁Quezon	-5222
▁Styria	-5223
▁inches	-5224
▁itself	-5225
▁Abhandl	-5226
▁Arabian	-5227
▁Cornish	-5228
▁Gangsta	-5229
▁Iachini	-5230
▁Seminar	-5231
▁serving	-5232
▁Castilla	-5233
▁Giuseppe	-5234
▁Lufthavn	-5235
▁christen	-5236
▁electric	-5237
▁finished	-5238
▁material	-5239
▁separate	-5240
▁specific	-5241
▁Australian	-5242
▁$10,264,000	-5243
▁39971000000	-5244
▁corporation	-5245
▁Abhandlungen	-5246
▁Mathematischen	-5247
tà	-5248
4.0	-5249
603	-5250
alo	-5251
cao	-5252
loc	-5253
nai	-5254
syn	-5255
xle	-5256
▁05	-5257
▁38	-5258
075)	-5259
ayas	-5260
crom	-5261
ietn	-5262
ieto	-5263
jang	-5264
▁(29	-5265
▁16.	-5266
▁280	-5267
▁Cov	-5268
▁Mel	-5269
▁Peñ	-5270
▁big	-5271
▁tub	-5272
▁web	-5273
2.846	-5274
8,600	-5275
amese	-5276
arese	-5277
ffalo	-5278
inced	-5279
rique	-5280
▁3.04	-5281
▁3180	-5282
▁axle	-5283
▁cost	-5284
▁fish	-5285
hennai	-5286
silent	-5287
▁1959.	-5288
▁1989,	-5289
▁2000,	-5290
▁2013.	-5291
▁Città	-5292
▁Nieto	-5293
▁Sweet	-5294
▁Vietn	-5295
▁bevel	-5296
▁fully	-5297
▁genus	-5298
▁lever	-5299
▁plate	-5300
▁shaft	-5301
assador	-5302
cromesh	-5303
eringue	-5304
▁288749	-5305
▁Agency	-5306
▁Candle	-5307
▁Solent	-5308
▁change	-5309
▁clutch	-5310
▁joints	-5311
▁minced	-5312
▁spiral	-5313
▁tonnes	-5314
▁(29075)	-5315
▁Buffalo	-5316
▁Enrique	-5317
▁Visayas	-5318
▁operate	-5319
▁tubular	-5320
▁floating	-5321
▁provides	-5322
syncromesh	-5323
▁submarine	-5324
▁Ambassador	-5325
▁Vietnamese	-5326
▁production	-5327
▁373513000.0	-5328
▁applications	-5329
)'	-5330
,4	-5331
58	-5332
ax	-5333
fL	-5334
/32	-5335
352	-5336
aut	-5337
ián	-5338
lia	-5339
▁07	-5340
▁Qu	-5341
▁br	-5342
▁cm	-5343
4071	-5344
arta	-5345
azio	-5346
ebol	-5347
esen	-5348
here	-5349
iale	-5350
ilow	-5351
inor	-5352
ling	-5353
side	-5354
wald	-5355
wood	-5356
öger	-5357
▁211	-5358
▁ATK	-5359
▁Bru	-5360
▁Jak	-5361
▁VfL	-5362
▁hel	-5363
▁own	-5364
achie	-5365
opped	-5366
rance	-5367
▁0.01	-5368
▁1986	-5369
▁32.2	-5370
▁5594	-5371
▁Eald	-5372
▁Lega	-5373
▁Nova	-5374
▁Shan	-5375
▁Vila	-5376
▁Whig	-5377
▁army	-5378
▁east	-5379
▁more	-5380
▁sago	-5381
5-2060	-5382
ariant	-5383
ronaut	-5384
▁1-416	-5385
▁1.524	-5386
▁10000	-5387
▁Award	-5388
▁Chall	-5389
▁Clube	-5390
▁Ernie	-5391
▁Lazio	-5392
▁Marry	-5393
▁Royal	-5394
▁chich	-5395
▁hogao	-5396
anciale	-5397
▁29,000	-5398
▁Anglia	-5399
▁Mellow	-5400
▁common	-5401
▁Banilow	-5402
▁Chennai	-5403
▁Futebol	-5404
▁Jakarta	-5405
▁Orbital	-5406
▁Revival	-5407
▁debuted	-5408
Blackwell	-5409
▁Limerick	-5410
▁Pallesen	-5411
▁Stanford	-5412
▁plantain	-5413
▁Challinor	-5414
▁Christmas	-5415
▁Ealdorman	-5416
▁Sebastian	-5417
▁Sebastián	-5418
▁Shanachie	-5419
▁explosion	-5420
▁following	-5421
▁propellor	-5422
▁Agremiacao	-5423
▁1-4165-2060	-5424
▁475426000.0	-5425
▁Bloomington	-5426
hl	-5427
312	-5428
abi	-5429
ann	-5430
api	-5431
ito	-5432
oba	-5433
oca	-5434
pad	-5435
umi	-5436
vaz	-5437
▁60	-5438
▁94	-5439
▁Ni	-5440
0.0.	-5441
091.	-5442
8388	-5443
adal	-5444
agon	-5445
cabi	-5446
eghl	-5447
iber	-5448
ible	-5449
ized	-5450
▁523	-5451
▁7.5	-5452
▁pep	-5453
ajara	-5454
akles	-5455
itoba	-5456
lande	-5457
thaca	-5458
▁1904	-5459
▁1959	-5460
▁1995	-5461
▁2011	-5462
▁2160	-5463
▁4371	-5464
▁Hail	-5465
▁Laur	-5466
▁Pale	-5467
▁Stud	-5468
▁Syst	-5469
▁Wall	-5470
▁base	-5471
▁some	-5472
apioca	-5473
eghlal	-5474
olitan	-5475
ressed	-5476
▁1927.	-5477
▁1956.	-5478
▁Ahvaz	-5479
▁Berry	-5480
▁Metal	-5481
▁Rabad	-5482
▁baked	-5483
▁cubic	-5484
▁Batumi	-5485
▁Guadal	-5486
▁Stöger	-5487
▁attack	-5488
▁degree	-5489
▁trance	-5490
091.8388	-5491
▁6004071	-5492
▁Maccabi	-5493
▁Randall	-5494
▁battled	-5495
▁builder	-5496
▁chorizo	-5497
▁citizen	-5498
▁regions	-5499
ropolitan	-5500
▁Hollande	-5501
▁Manitoba	-5502
▁Rabadash	-5503
▁Seminary	-5504
▁belonged	-5505
▁particip	-5506
▁Esteghlal	-5507
▁paperback	-5508
▁political	-5509
▁publishes	-5510
▁Guadalajara	-5511
Ab	-5512
-06	-5513
164	-5514
252	-5515
aik	-5516
ebi	-5517
egn	-5518
lay	-5519
sky	-5520
uck	-5521
uda	-5522
▁Ir	-5523
▁ac	-5524
▁ev	-5525
anku	-5526
ecut	-5527
edom	-5528
emar	-5529
enza	-5530
etti	-5531
salm	-5532
▁23,	-5533
▁Fre	-5534
▁Luc	-5535
▁Odd	-5536
▁Put	-5537
2.339	-5538
alegn	-5539
edded	-5540
onnel	-5541
▁Bebi	-5542
▁Chap	-5543
▁Mahe	-5544
▁Naik	-5545
▁Tesh	-5546
▁Tink	-5547
▁View	-5548
▁cars	-5549
▁conc	-5550
▁dark	-5551
000270	-5552
angana	-5553
▁1923.	-5554
▁1955.	-5555
▁70634	-5556
▁Citta	-5557
▁Psalm	-5558
▁Urich	-5559
▁autom	-5560
▁coupe	-5561
▁medal	-5562
▁names	-5563
▁parts	-5564
▁sport	-5565
▁wagon	-5566
2.33968	-5567
70000.0	-5568
ecutive	-5569
emariam	-5570
located	-5571
▁16,000	-5572
▁162164	-5573
▁Ithaca	-5574
▁Maiden	-5575
▁Mulatu	-5576
▁Samuda	-5577
▁Tuanku	-5578
▁8000270	-5579
▁Freedom	-5580
▁Teshome	-5581
▁Tinkham	-5582
▁ketchup	-5583
▁station	-5584
▁1202.846	-5585
▁Desalegn	-5586
▁shredded	-5587
▁Ellington	-5588
▁Telangana	-5589
▁executive	-5590
▁launchpad	-5591
▁neighbour	-5592
▁personnel	-5593
▁containing	-5594
▁437170000.0	-5595
▁Hailemariam	-5596
▁Legislature	-5597
▁162164091.8388	-5598
-7	-5599
305	-5600
6,3	-5601
9.0	-5602
com	-5603
ipo	-5604
orc	-5605
tar	-5606
yam	-5607
▁2,	-5608
▁AK	-5609
▁Sq	-5610
000,	-5611
3528	-5612
4253	-5613
AIDS	-5614
aple	-5615
ears	-5616
otto	-5617
▁31.	-5618
▁911	-5619
▁Flo	-5620
▁Pro	-5621
▁rom	-5622
▁ser	-5623
ajaya	-5624
askat	-5625
tario	-5626
yster	-5627
▁1971	-5628
▁Both	-5629
▁Isis	-5630
▁Punk	-5631
▁Taro	-5632
▁VIAG	-5633
▁doll	-5634
-4165-	-5635
chewan	-5636
market	-5637
others	-5638
though	-5639
▁1862.	-5640
▁Krist	-5641
▁Oddie	-5642
▁Turin	-5643
▁arepa	-5644
orcilla	-5645
▁Michel	-5646
▁Peoria	-5647
▁Saskat	-5648
▁560090,	-5649
▁Asajaya	-5650
▁Fighter	-5651
▁Founded	-5652
▁Ontario	-5653
▁batchoy	-5654
▁variant	-5655
8-1-4165-	-5656
▁Aurakles	-5657
▁Brothers	-5658
▁Electric	-5659
▁Kristina	-5660
▁Newmarket	-5661
▁Territory	-5662
▁ajoblanco	-5663
▁commanded	-5664
▁materials	-5665
▁musicians	-5666
millimetres	-5667
▁compressed	-5668
8-1-4165-4253	-5669
▁Saskatchewan	-5670
22	-5671
65	-5672
AT	-5673
ya	-5674
øk	-5675
/27	-5676
80-	-5677
III	-5678
ise	-5679
off	-5680
ñol	-5681
▁Be	-5682
▁Gi	-5683
▁Re	-5684
-27.	-5685
3.0.	-5686
7.43	-5687
75,4	-5688
9447	-5689
9705	-5690
alez	-5691
amin	-5692
code	-5693
iced	-5694
ring	-5695
økke	-5696
▁AFB	-5697
▁Mas	-5698
▁RCA	-5699
▁not	-5700
95158	-5701
adipo	-5702
hames	-5703
haric	-5704
oslar	-5705
patac	-5706
▁6603	-5707
▁Cant	-5708
▁Diaz	-5709
▁Diya	-5710
▁Form	-5711
▁Lamb	-5712
▁Pant	-5713
▁Publ	-5714
▁XIII	-5715
▁1958.	-5716
▁39447	-5717
▁Class	-5718
▁Colon	-5719
▁Dutch	-5720
▁Maple	-5721
▁Roman	-5722
▁Tudor	-5723
▁brown	-5724
ighting	-5725
nalillo	-5726
▁107.43	-5727
▁139705	-5728
▁Goslar	-5729
▁Panama	-5730
▁Thames	-5731
▁edited	-5732
▁garage	-5733
▁series	-5734
morcilla	-5735
▁6603633	-5736
▁Alfonso	-5737
▁Amharic	-5738
▁Another	-5739
▁Mexican	-5740
▁Oladipo	-5741
▁Peñarol	-5742
▁Seattle	-5743
iversitas	-5744
patacones	-5745
▁52395158	-5746
▁Coritiba	-5747
▁Floating	-5748
▁Gonzalez	-5749
▁regional	-5750
▁Australia	-5751
▁Bernalillo	-5752
▁metropolitan	-5753
▁523951582.33968	-5754
iu	-5755
vd	-5756
yd	-5757
2.3	-5758
5.4	-5759
718	-5760
eme	-5761
hip	-5762
nod	-5763
red	-5764
rov	-5765
▁$8	-5766
▁69	-5767
0.29	-5768
0906	-5769
5589	-5770
also	-5771
edan	-5772
eniz	-5773
iaol	-5774
imes	-5775
ydor	-5776
▁336	-5777
▁6.7	-5778
▁605	-5779
▁FAS	-5780
▁Klu	-5781
▁Qiu	-5782
▁Wol	-5783
▁she	-5784
itman	-5785
nodar	-5786
ourou	-5787
velop	-5788
▁Blvd	-5789
▁Dane	-5790
▁Hays	-5791
▁Kenn	-5792
▁Kras	-5793
▁Mami	-5794
▁Marv	-5795
▁Moro	-5796
▁Walt	-5797
▁like	-5798
ellors	-5799
▁1928.	-5800
▁1933.	-5801
▁1998.	-5802
▁347.1	-5803
▁523.9	-5804
▁Beach	-5805
▁Evang	-5806
▁Kuban	-5807
▁Løkke	-5808
▁Veniz	-5809
▁Xiaol	-5810
▁advis	-5811
▁carri	-5812
▁drive	-5813
▁motto	-5814
▁years	-5815
▁$556,3	-5816
▁$875,4	-5817
▁100305	-5818
▁135589	-5819
▁360.29	-5820
▁520906	-5821
▁605718	-5822
▁Bruins	-5823
▁Falcon	-5824
▁Kluwer	-5825
▁Kourou	-5826
▁Newark	-5827
▁become	-5828
▁genres	-5829
▁sounds	-5830
▁01-01-1	-5831
▁2015-06	-5832
▁Avocado	-5833
▁Polydor	-5834
▁Sandage	-5835
▁Whitman	-5836
▁Wolfman	-5837
▁Wolters	-5838
▁252000.0	-5839
▁Fighting	-5840
▁Mamiffer	-5841
▁Xiaolong	-5842
▁commonly	-5843
▁tomatoes	-5844
▁Evangelos	-5845
▁Krasnodar	-5846
▁Municipal	-5847
▁Venizelos	-5848
▁guitarist	-5849
Universitas	-5850
ellorsville	-5851
▁6603633000.0	-5852
▁1-4165-2060-0.	-5853
▁Fredericksburg	-5854
FC	-5855
ät	-5856
2.4	-5857
3.8	-5858
eca	-5859
ihu	-5860
loy	-5861
ols	-5862
tti	-5863
uto	-5864
▁UC	-5865
7055	-5866
ajor	-5867
anol	-5868
aron	-5869
enzi	-5870
idad	-5871
ileo	-5872
ower	-5873
▁-3.	-5874
▁1.2	-5875
▁11,	-5876
▁12,	-5877
▁3.8	-5878
▁Aff	-5879
▁Are	-5880
▁Dun	-5881
▁End	-5882
▁Sin	-5883
▁Tob	-5884
▁hub	-5885
▁imp	-5886
▁ska	-5887
702.4	-5888
aking	-5889
altic	-5890
aracy	-5891
irley	-5892
rakov	-5893
riela	-5894
▁21.2	-5895
▁5.57	-5896
▁Auto	-5897
▁Bart	-5898
▁Cour	-5899
▁Fons	-5900
▁Mata	-5901
▁Trin	-5902
▁fill	-5903
▁rank	-5904
▁real	-5905
▁18.29	-5906
▁1905.	-5907
▁2005,	-5908
▁Elihu	-5909
▁Homer	-5910
▁Popul	-5911
▁Renzi	-5912
▁Royce	-5913
▁Spall	-5914
▁event	-5915
100,000	-5916
eration	-5917
▁Affair	-5918
▁Baltic	-5919
▁Garden	-5920
▁Graeme	-5921
▁Matteo	-5922
▁Parana	-5923
▁Rivers	-5924
▁Sinisa	-5925
▁Tejano	-5926
▁Tobago	-5927
▁Valery	-5928
▁celery	-5929
▁litres	-5930
▁online	-5931
football	-5932
▁Coaracy	-5933
▁Espanol	-5934
▁Fonseca	-5935
▁Galileo	-5936
▁Luciano	-5937
▁Shirley	-5938
▁chopped	-5939
▁drafted	-5940
▁severed	-5941
702.47055	-5942
▁Building	-5943
▁Enduring	-5944
▁Gabriela	-5945
▁Goslarer	-5946
▁Michetti	-5947
▁Petrakov	-5948
▁Trinidad	-5949
▁assembly	-5950
▁invasion	-5951
▁Riverside	-5952
▁Spalletti	-5953
▁chicharon	-5954
▁condiment	-5955
▁cylinders	-5956
▁Mihajlovic	-5957
▁Universität	-5958
▁construction	-5959
'.	-5960
002	-5961
2-2	-5962
597	-5963
aan	-5964
amo	-5965
keh	-5966
sit	-5967
▁gu	-5968
9776	-5969
Amin	-5970
atin	-5971
auli	-5972
añol	-5973
elli	-5974
gest	-5975
ogan	-5976
omet	-5977
yang	-5978
▁17.	-5979
▁99.	-5980
▁Din	-5981
▁Emp	-5982
▁Mak	-5983
▁Wet	-5984
▁pos	-5985
▁res	-5986
▁rul	-5987
843.8	-5988
inist	-5989
ually	-5990
▁1624	-5991
▁1980	-5992
▁5.75	-5993
▁8823	-5994
▁9364	-5995
▁Azin	-5996
▁Karl	-5997
▁Linn	-5998
▁Mols	-5999
▁Okeh	-6000
▁Reid	-6001
▁appe	-6002
▁chil	-6003
icelli	-6004
overed	-6005
▁1974.	-6006
▁1976.	-6007
▁1987.	-6008
▁Guard	-6009
▁Kesel	-6010
▁Logan	-6011
▁Price	-6012
▁Sauli	-6013
▁Tomsk	-6014
▁Voice	-6015
▁mayor	-6016
▁using	-6017
fection	-6018
founded	-6019
▁259776	-6020
▁Anyang	-6021
▁Dinamo	-6022
▁Penyet	-6023
▁deploy	-6024
ometimes	-6025
▁-3.3528	-6026
▁30843.8	-6027
▁9364597	-6028
▁Daggash	-6029
▁Español	-6030
▁Estadio	-6031
▁Niinist	-6032
▁another	-6033
▁biggest	-6034
▁singing	-6035
▁typical	-6036
▁88234300	-6037
▁Division	-6038
▁Populous	-6039
▁Wetlands	-6040
▁fillings	-6041
footballer	-6042
▁Astronaut	-6043
▁Operation	-6044
▁automatic	-6045
▁Federation	-6046
▁Management	-6047
▁520906000.0	-6048
▁259776702.47055	-6049
5,	-6050
BI	-6051
pi	-6052
149	-6053
652	-6054
chi	-6055
eck	-6056
rah	-6057
▁Fa	-6058
-201	-6059
8400	-6060
90.9	-6061
ajji	-6062
alop	-6063
ared	-6064
ects	-6065
elle	-6066
ousa	-6067
▁125	-6068
▁Dal	-6069
▁Led	-6070
▁Web	-6071
▁def	-6072
▁ink	-6073
Izmir	-6074
Stars	-6075
actic	-6076
adium	-6077
akrah	-6078
eston	-6079
ieter	-6080
rigan	-6081
▁0.21	-6082
▁1987	-6083
▁4149	-6084
▁5115	-6085
▁Dale	-6086
▁Disc	-6087
▁Eman	-6088
▁Heck	-6089
▁Kway	-6090
▁Land	-6091
▁Rahm	-6092
▁Virt	-6093
▁bhaj	-6094
▁door	-6095
▁held	-6096
▁make	-6097
0000.0	-6098
alopod	-6099
illery	-6100
▁1983.	-6101
▁29652	-6102
▁490.9	-6103
▁Cakes	-6104
▁Faber	-6105
▁Halla	-6106
▁Icolo	-6107
▁Mater	-6108
▁Sousa	-6109
▁Steel	-6110
▁Dieter	-6111
▁Former	-6112
▁Fruits	-6113
▁Joseph	-6114
▁fruits	-6115
▁manual	-6116
▁sesame	-6117
American	-6118
ubanelle	-6119
▁Desmond	-6120
▁Emanuel	-6121
▁Francis	-6122
▁Hecking	-6123
▁Workers	-6124
▁advisor	-6125
▁compris	-6126
▁stadium	-6127
ephalopod	-6128
▁125800.0	-6129
▁41498400	-6130
▁Galactic	-6131
▁Horrigan	-6132
▁carriers	-6133
▁postcode	-6134
fectionery	-6135
▁Artillery	-6136
▁Canadians	-6137
▁sometimes	-6138
▁Charleston	-6139
▁department	-6140
▁leadership	-6141
▁neighbouring	-6142
0-	-6143
2,	-6144
Te	-6145
UK	-6146
ku	-6147
oğ	-6148
136	-6149
15.	-6150
729	-6151
922	-6152
ati	-6153
ele	-6154
uad	-6155
ull	-6156
urt	-6157
▁83	-6158
▁AG	-6159
▁CD	-6160
▁KV	-6161
1911	-6162
4.55	-6163
8622	-6164
9919	-6165
Athe	-6166
aduy	-6167
arif	-6168
cell	-6169
dams	-6170
ells	-6171
etre	-6172
icop	-6173
oğlu	-6174
pere	-6175
udge	-6176
ulen	-6177
▁129	-6178
▁14.	-6179
▁187	-6180
▁28,	-6181
▁36.	-6182
▁448	-6183
▁5.4	-6184
▁560	-6185
▁973	-6186
▁Abh	-6187
▁Dar	-6188
▁Mec	-6189
▁Mov	-6190
▁Sip	-6191
▁Tam	-6192
▁USD	-6193
▁Vit	-6194
▁use	-6195
Techn	-6196
ennis	-6197
grant	-6198
helen	-6199
iseum	-6200
▁Also	-6201
▁Clay	-6202
▁Enda	-6203
▁Fuad	-6204
▁Jama	-6205
▁Juha	-6206
▁Line	-6207
▁Oros	-6208
▁Slay	-6209
▁Test	-6210
▁ayam	-6211
▁bran	-6212
Athens	-6213
iensis	-6214
rysler	-6215
▁29919	-6216
▁41911	-6217
▁Finns	-6218
▁Horch	-6219
▁Kenny	-6220
▁Masum	-6221
▁Short	-6222
▁judge	-6223
▁types	-6224
3394.55	-6225
smashed	-6226
ulensis	-6227
▁698622	-6228
▁Airbus	-6229
▁Darien	-6230
▁Excell	-6231
▁Meride	-6232
▁Sharif	-6233
▁blanco	-6234
▁tennis	-6235
urturing	-6236
▁Tampere	-6237
▁dollars	-6238
▁nearest	-6239
▁2014-201	-6240
▁29919600	-6241
▁Chrysler	-6242
▁Coliseum	-6243
▁Mechelen	-6244
▁Property	-6245
▁creators	-6246
▁elements	-6247
3394.55312	-6248
▁Apulensis	-6249
▁Davutoğlu	-6250
▁Lauraceae	-6251
▁Stockport	-6252
▁Transport	-6253
▁competing	-6254
▁guanciale	-6255
▁recording	-6256
▁Excellence	-6257
▁categorized	-6258
▁Aarhusiensis	-6259
▁419113394.55312	-6260
SA	-6261
XN	-6262
/35	-6263
196	-6264
468	-6265
608	-6266
705	-6267
80,	-6268
cos	-6269
dem	-6270
raj	-6271
▁35	-6272
▁By	-6273
▁Uk	-6274
▁bl	-6275
3309	-6276
4989	-6277
570.	-6278
9206	-6279
9371	-6280
ader	-6281
alin	-6282
asha	-6283
hers	-6284
iyev	-6285
onet	-6286
oyet	-6287
▁512	-6288
▁896	-6289
▁AGR	-6290
▁Gus	-6291
▁Men	-6292
▁Qar	-6293
▁arr	-6294
,000,	-6295
46863	-6296
52497	-6297
angip	-6298
ephen	-6299
ights	-6300
ively	-6301
olone	-6302
where	-6303
▁"192	-6304
▁Aviv	-6305
▁Gene	-6306
▁bodh	-6307
80,700	-6308
Wakrah	-6309
demont	-6310
elaide	-6311
rajaya	-6312
▁19238	-6313
▁1989.	-6314
▁39371	-6315
▁99.83	-6316
▁Adsit	-6317
▁Arion	-6318
▁Baduy	-6319
▁Colan	-6320
▁Latin	-6321
▁Order	-6322
▁Poyet	-6323
▁Silva	-6324
▁Youth	-6325
570.608	-6326
damsche	-6327
▁183309	-6328
▁254989	-6329
▁349206	-6330
▁352497	-6331
▁Bright	-6332
▁Carles	-6333
▁Claude	-6334
▁Cruise	-6335
▁Minist	-6336
▁Stalin	-6337
▁Torino	-6338
▁awards	-6339
▁cities	-6340
▁oyster	-6341
▁spouse	-6342
angipane	-6343
formerly	-6344
▁Chester	-6345
▁Coronet	-6346
▁Knights	-6347
▁Menasha	-6348
▁Stephen	-6349
Technical	-6350
▁89646863	-6351
▁Adelaide	-6352
▁graduate	-6353
8,600,000.	-6354
▁80002709.	-6355
▁Bartolone	-6356
▁Carrarese	-6357
▁Gadzhiyev	-6358
▁Putrajaya	-6359
▁institute	-6360
Association	-6361
▁Lokomotive	-6362
▁Olympiacos	-6363
▁Puigdemont	-6364
▁523329000.0	-6365
▁Chesterfield	-6366
▁254989570.608	-6367
▁Knightsbridge	-6368
▁representative	-6369
25	-6370
AA	-6371
TE	-6372
mm	-6373
ín	-6374
úl	-6375
-12	-6376
/1.	-6377
1.0	-6378
4.9	-6379
711	-6380
92.	-6381
adt	-6382
ify	-6383
lef	-6384
▁$3	-6385
▁Vl	-6386
▁su	-6387
6.67	-6388
cema	-6389
cord	-6390
holm	-6391
iman	-6392
inds	-6393
kryp	-6394
psey	-6395
▁2.0	-6396
▁3.9	-6397
▁488	-6398
▁5.7	-6399
▁94.	-6400
▁Ajo	-6401
▁Bac	-6402
▁Bre	-6403
▁Far	-6404
▁Sim	-6405
▁Vel	-6406
▁Vic	-6407
▁ear	-6408
▁vol	-6409
abels	-6410
alist	-6411
alted	-6412
anyum	-6413
atown	-6414
helor	-6415
ogram	-6416
otaur	-6417
ysics	-6418
▁11/2	-6419
▁1981	-6420
▁7729	-6421
▁Area	-6422
▁Boat	-6423
▁Crew	-6424
▁Folk	-6425
▁Giov	-6426
▁Raul	-6427
▁Raúl	-6428
▁Roll	-6429
▁Sant	-6430
▁Tait	-6431
▁blue	-6432
lefish	-6433
ustadt	-6434
▁1931.	-6435
▁31.48	-6436
▁344.9	-6437
▁Lemon	-6438
▁Skryp	-6439
▁bajji	-6440
▁chili	-6441
0000003	-6442
icopter	-6443
▁0.0455	-6444
▁410777	-6445
▁Babels	-6446
▁Digify	-6447
▁Gadzhi	-6448
▁Lankan	-6449
▁Singer	-6450
▁Viktor	-6451
▁Wiener	-6452
▁chilli	-6453
▁design	-6454
▁traded	-6455
▁volume	-6456
6.670000	-6457
▁Agustín	-6458
▁Buscema	-6459
▁Dempsey	-6460
▁Digweed	-6461
▁Physics	-6462
▁Vicenza	-6463
▁program	-6464
▁tapioca	-6465
▁working	-6466
anyumasan	-6467
uttlefish	-6468
▁Bachelor	-6469
▁Berliner	-6470
▁Hessisch	-6471
▁Minotaur	-6472
▁Neustadt	-6473
▁Panthers	-6474
▁Skrypnyk	-6475
▁resident	-6476
▁Chinatown	-6477
▁Stockholm	-6478
▁Babelsberg	-6479
▁Footballer	-6480
▁1516.670000	-6481
▁296521000.0	-6482
▁511592000.0	-6483
▁254989570.60815	-6484
41	-6485
54	-6486
IS	-6487
SV	-6488
ér	-6489
-09	-6490
-26	-6491
4.7	-6492
670	-6493
Roy	-6494
The	-6495
aré	-6496
fay	-6497
jor	-6498
odr	-6499
ora	-6500
ows	-6501
pur	-6502
▁AD	-6503
▁mm	-6504
-033	-6505
8024	-6506
anni	-6507
ebre	-6508
ette	-6509
ever	-6510
gory	-6511
itut	-6512
quid	-6513
roth	-6514
thel	-6515
uala	-6516
▁274	-6517
▁Fen	-6518
▁Fox	-6519
▁Gér	-6520
▁Lum	-6521
▁Mam	-6522
▁Red	-6523
▁STV	-6524
▁Vfl	-6525
2.213	-6526
Royce	-6527
ailan	-6528
aries	-6529
board	-6530
crust	-6531
drini	-6532
jorie	-6533
▁5705	-6534
▁Gard	-6535
▁Moga	-6536
▁Vlad	-6537
▁carb	-6538
▁over	-6539
▁side	-6540
▁verm	-6541
allots	-6542
odrome	-6543
▁0-670	-6544
▁144.7	-6545
▁2008.	-6546
▁Kuala	-6547
▁Lafay	-6548
▁Laura	-6549
▁Match	-6550
▁Perth	-6551
▁Rolls	-6552
▁broth	-6553
▁grams	-6554
▁latin	-6555
▁squid	-6556
▁Accord	-6557
▁Farmer	-6558
▁Fenves	-6559
▁Fisher	-6560
▁Gérard	-6561
▁Lumpur	-6562
▁Marius	-6563
▁Rovers	-6564
▁Tabaré	-6565
▁kailan	-6566
▁noodle	-6567
▁pastry	-6568
▁salted	-6569
▁writer	-6570
istricts	-6571
thelwald	-6572
▁1913-01	-6573
▁94.8024	-6574
▁Asterix	-6575
▁Gardner	-6576
▁Gregory	-6577
▁bionico	-6578
▁general	-6579
▁Boldrini	-6580
▁Giovanni	-6581
▁Guardian	-6582
▁Marjorie	-6583
▁publicly	-6584
▁shallots	-6585
▁0-670-033	-6586
▁475426000	-6587
▁Hardcover	-6588
▁Lafayette	-6589
▁Published	-6590
▁Velodrome	-6591
▁districts	-6592
▁15,100,000	-6593
▁architects	-6594
▁vermicelli	-6595
▁978-1-4165-4253	-6596
OK	-6597
by	-6598
na	-6599
no	-6600
áz	-6601
-10	-6602
-83	-6603
-92	-6604
Zaw	-6605
hly	-6606
lyn	-6607
nem	-6608
obi	-6609
sen	-6610
uce	-6611
zze	-6612
▁39	-6613
▁ro	-6614
▁sl	-6615
-932	-6616
0001	-6617
5100	-6618
550-	-6619
7.0.	-6620
9618	-6621
deon	-6622
fres	-6623
itar	-6624
kuas	-6625
noon	-6626
nykh	-6627
olai	-6628
serv	-6629
ugin	-6630
▁127	-6631
▁292	-6632
▁416	-6633
▁573	-6634
▁771	-6635
▁Eva	-6636
▁Váz	-6637
▁dis	-6638
▁too	-6639
Abadi	-6640
Zawra	-6641
aider	-6642
artel	-6643
ietam	-6644
illin	-6645
oklyn	-6646
thony	-6647
▁0.02	-6648
▁1174	-6649
▁8.33	-6650
▁Arms	-6651
▁Bari	-6652
▁Cher	-6653
▁Dick	-6654
▁Huss	-6655
▁José	-6656
▁Sach	-6657
▁Scot	-6658
▁gula	-6659
▁loin	-6660
▁pres	-6661
▁soya	-6662
ashire	-6663
etball	-6664
▁15788	-6665
▁1913.	-6666
▁69618	-6667
▁Bhaji	-6668
▁Carpi	-6669
▁Crewe	-6670
▁Irwin	-6671
▁Larry	-6672
▁Maher	-6673
▁Odeon	-6674
▁Pugin	-6675
▁Sandw	-6676
▁river	-6677
▁since	-6678
-92550-	-6679
0001-83	-6680
diction	-6681
ebrezze	-6682
freshly	-6683
istrate	-6684
▁416136	-6685
▁Benito	-6686
▁Dillin	-6687
▁Donald	-6688
▁Haider	-6689
▁Hartel	-6690
▁Knight	-6691
▁Lufkin	-6692
▁Warnem	-6693
▁bhajji	-6694
▁labels	-6695
▁tender	-6696
0002-932	-6697
obiology	-6698
▁7715100	-6699
▁Country	-6700
▁Hussain	-6701
▁Mamnoon	-6702
▁Nikolai	-6703
▁Rutland	-6704
▁Sachsen	-6705
▁Trenton	-6706
▁Vázquez	-6707
▁governs	-6708
▁preserv	-6709
▁$380,700	-6710
▁Antietam	-6711
▁Augustus	-6712
▁Brooklyn	-6713
▁Chernykh	-6714
▁Democrat	-6715
▁Ministry	-6716
▁Rosaceae	-6717
▁Sandwich	-6718
▁lengkuas	-6719
▁meringue	-6720
▁93645978.	-6721
▁kilometer	-6722
▁producing	-6723
▁Banyumasan	-6724
▁Celebrezze	-6725
▁Lancashire	-6726
▁2015-06-27.	-6727
▁Psychedelia	-6728
▁0-439-17685-	-6729
▁0-439-92550-	-6730
▁participated	-6731
▁subsidiaries	-6732
▁$875,400,000.	-6733
,"	-6734
GP	-6735
bg	-6736
ln	-6737
oa	-6738
uß	-6739
-23	-6740
/01	-6741
/23	-6742
3.1	-6743
679	-6744
831	-6745
937	-6746
ATA	-6747
Ass	-6748
PGP	-6749
ege	-6750
iah	-6751
ilo	-6752
lus	-6753
top	-6754
uin	-6755
▁Di	-6756
▁cr	-6757
0068	-6758
4.33	-6759
9.0.	-6760
aced	-6761
ajub	-6762
elez	-6763
etro	-6764
exas	-6765
imum	-6766
sing	-6767
▁168	-6768
▁2.7	-6769
▁380	-6770
▁HOK	-6771
▁Ilo	-6772
▁Kir	-6773
▁Lam	-6774
▁Paz	-6775
▁mat	-6776
▁str	-6777
▁tax	-6778
36463	-6779
PGPAC	-6780
entry	-6781
ories	-6782
riots	-6783
▁167.	-6784
▁2008	-6785
▁Bibb	-6786
▁IATA	-6787
▁Into	-6788
▁Jong	-6789
▁Lein	-6790
▁Mond	-6791
▁Peng	-6792
▁Univ	-6793
▁Vala	-6794
▁Vant	-6795
▁feat	-6796
▁here	-6797
▁taro	-6798
679831	-6799
etroit	-6800
ußisch	-6801
▁23900	-6802
▁74.33	-6803
▁87000	-6804
▁Adnan	-6805
▁Diane	-6806
▁Duane	-6807
▁Genoa	-6808
▁Hamad	-6809
▁Hambg	-6810
▁Round	-6811
▁Siege	-6812
▁Tamil	-6813
▁Vajub	-6814
▁dried	-6815
▁fruit	-6816
anguage	-6817
▁"1634:	-6818
▁0.0473	-6819
▁836463	-6820
▁Iloilo	-6821
▁Melaka	-6822
▁Origin	-6823
▁Random	-6824
▁helped	-6825
▁making	-6826
ontology	-6827
▁Anthony	-6828
▁Detroit	-6829
▁Penguin	-6830
▁Vantage	-6831
▁hardtop	-6832
▁reality	-6833
▁stories	-6834
▁1622.213	-6835
▁Coventry	-6836
▁Francois	-6837
▁Leinster	-6838
▁Mondelez	-6839
▁Patriots	-6840
▁Taqaddum	-6841
▁Vajubhai	-6842
▁american	-6843
▁position	-6844
▁Preußisch	-6845
▁Southeast	-6846
▁preserves	-6847
▁Netherland	-6848
▁Petersburg	-6849
▁Established	-6850
▁Universitas	-6851
▁Paleobiology	-6852
PS	-6853
Sp	-6854
ii	-6855
-19	-6856
.),	-6857
/30	-6858
14.	-6859
150	-6860
2.0	-6861
5.8	-6862
744	-6863
AGE	-6864
eja	-6865
eyr	-6866
ona	-6867
orw	-6868
ova	-6869
zii	-6870
öln	-6871
▁42	-6872
▁78	-6873
▁Gm	-6874
▁KC	-6875
▁Ow	-6876
▁er	-6877
9142	-6878
aint	-6879
amie	-6880
arre	-6881
coni	-6882
esse	-6883
inau	-6884
inez	-6885
ldon	-6886
mira	-6887
nhem	-6888
ouri	-6889
owle	-6890
plac	-6891
▁0.0	-6892
▁10,	-6893
▁17,	-6894
▁20,	-6895
▁44.	-6896
▁787	-6897
▁Kad	-6898
▁Nor	-6899
▁mas	-6900
5.324	-6901
acker	-6902
ected	-6903
enzie	-6904
▁1856	-6905
▁3,99	-6906
▁4150	-6907
▁Does	-6908
▁Köln	-6909
▁Lyle	-6910
▁SAGE	-6911
▁Vorw	-6912
▁Ximo	-6913
▁alum	-6914
▁auto	-6915
▁cott	-6916
▁high	-6917
▁resp	-6918
arrett	-6919
egunda	-6920
icharr	-6921
indsor	-6922
isinau	-6923
▁1.905	-6924
▁125.8	-6925
▁16.55	-6926
▁18.52	-6927
▁48816	-6928
▁783.1	-6929
▁Brown	-6930
▁Fowle	-6931
▁Gould	-6932
▁Nouri	-6933
▁Steyr	-6934
▁Ukrop	-6935
▁Valer	-6936
▁distr	-6937
▁lived	-6938
▁often	-6939
▁ranks	-6940
▁serve	-6941
▁sings	-6942
▁İzmir	-6943
lusconi	-6944
▁162447	-6945
▁279142	-6946
▁380700	-6947
▁560937	-6948
▁75.324	-6949
▁Admira	-6950
▁Arnhem	-6951
▁Garage	-6952
▁Kaduna	-6953
▁Silvio	-6954
▁Spring	-6955
▁Turzii	-6956
▁Wacker	-6957
▁secret	-6958
▁single	-6959
▁sliced	-6960
roadwood	-6961
▁7679831	-6962
▁Fiction	-6963
▁Garrett	-6964
▁Moldoff	-6965
▁Moldova	-6966
▁Philips	-6967
▁Sheldon	-6968
▁Studies	-6969
▁Vitesse	-6970
▁Windsor	-6971
▁bandeja	-6972
▁cottage	-6973
▁displac	-6974
▁erected	-6975
▁Chicharr	-6976
▁Doesburg	-6977
▁Martinez	-6978
▁Movement	-6979
▁provided	-6980
▁relative	-6981
▁2014-2015	-6982
▁Broadcast	-6983
▁alongside	-6984
▁locations	-6985
▁Berlusconi	-6986
▁occupation	-6987
▁0-439-17684	-6988
▁560937000.0	-6989
▁originating	-6990
▁Broadcasting	-6991
▁Publications	-6992
▁displacement	-6993
-8	-6994
90	-6995
Km	-6996
dr	-6997
üs	-6998
üt	-6999
495	-7000
517	-7001
648	-7002
895	-7003
911	-7004
TEC	-7005
apt	-7006
ego	-7007
ikh	-7008
mut	-7009
nic	-7010
▁3-	-7011
▁BC	-7012
42.3	-7013
56-3	-7014
7888	-7015
abag	-7016
ahar	-7017
aris	-7018
awaz	-7019
baan	-7020
edah	-7021
eden	-7022
ured	-7023
▁16,	-7024
▁27,	-7025
▁388	-7026
▁464	-7027
▁Abu	-7028
▁Büt	-7029
▁Dep	-7030
▁ESA	-7031
▁Hüs	-7032
▁Kal	-7033
▁VAM	-7034
▁Vaz	-7035
▁tra	-7036
7080.	-7037
atins	-7038
epend	-7039
eters	-7040
ified	-7041
itude	-7042
manag	-7043
ravis	-7044
▁0-71	-7045
▁1936	-7046
▁4.14	-7047
▁5300	-7048
▁Cohn	-7049
▁Faro	-7050
▁Gary	-7051
▁Jahn	-7052
▁Leon	-7053
▁Trot	-7054
▁each	-7055
▁hold	-7056
owever	-7057
▁1.955	-7058
▁12495	-7059
▁2014–	-7060
▁233.9	-7061
▁87888	-7062
▁Bible	-7063
▁Breaz	-7064
▁Diego	-7065
▁Güner	-7066
▁Kedah	-7067
▁Kirby	-7068
▁Lions	-7069
▁Nawaz	-7070
▁Reith	-7071
▁Staff	-7072
▁Ujang	-7073
▁Zahar	-7074
▁third	-7075
56-3648	-7076
atinsky	-7077
fferent	-7078
oleague	-7079
▁1142.3	-7080
▁167.94	-7081
▁464517	-7082
▁787711	-7083
▁Airman	-7084
▁Dayton	-7085
▁Empire	-7086
▁Helmut	-7087
▁Russel	-7088
▁Sheikh	-7089
▁Shorta	-7090
▁Sweden	-7091
▁Valour	-7092
▁aboard	-7093
▁raised	-7094
▁rector	-7095
7080.744	-7096
ouronnes	-7097
▁Bütüner	-7098
▁Classic	-7099
▁Develop	-7100
▁Faroese	-7101
▁Hüseyin	-7102
▁Kaliber	-7103
▁Qarabag	-7104
▁Segunda	-7105
▁Trotsky	-7106
▁Vazquez	-7107
▁founder	-7108
ependence	-7109
▁Airports	-7110
▁Chisinau	-7111
▁Santilli	-7112
▁acoustic	-7113
▁appeared	-7114
▁authored	-7115
▁branches	-7116
▁desserts	-7117
▁keyboard	-7118
0000000.0.	-7119
▁Broadwood	-7120
▁different	-7121
▁secretary	-7122
▁837080.744	-7123
▁Bolatinsky	-7124
▁Euroleague	-7125
▁Salvadoran	-7126
▁christened	-7127
▁0-7156-3648	-7128
▁605718000.0	-7129
▁Development	-7130
▁Psychedelic	-7131
▁0-670-03380-	-7132
▁Independence	-7133
ea	-7134
wa	-7135
zo	-7136
▁Æ	-7137
-1.	-7138
/03	-7139
86.	-7140
Ord	-7141
RAA	-7142
cot	-7143
hov	-7144
ika	-7145
ked	-7146
sol	-7147
▁24	-7148
▁BS	-7149
▁HQ	-7150
▁MD	-7151
▁Of	-7152
▁SN	-7153
-792	-7154
3326	-7155
80.7	-7156
acio	-7157
atow	-7158
ayat	-7159
ello	-7160
head	-7161
ieut	-7162
mine	-7163
ness	-7164
olfo	-7165
writ	-7166
▁08/	-7167
▁142	-7168
▁21,	-7169
▁31,	-7170
▁331	-7171
▁374	-7172
▁4.8	-7173
▁507	-7174
▁535	-7175
▁Bet	-7176
▁Len	-7177
▁Low	-7178
▁PSV	-7179
▁beh	-7180
▁cap	-7181
▁cos	-7182
▁fat	-7183
▁lay	-7184
▁thr	-7185
-05-2	-7186
Ordon	-7187
actor	-7188
ectra	-7189
enant	-7190
erman	-7191
estin	-7192
habab	-7193
hesda	-7194
hoven	-7195
ility	-7196
miral	-7197
stone	-7198
▁1920	-7199
▁Arts	-7200
▁Bask	-7201
▁Boer	-7202
▁Cond	-7203
▁Dept	-7204
▁Eind	-7205
▁Head	-7206
▁Hook	-7207
▁Jati	-7208
▁Jill	-7209
▁Mari	-7210
▁ORAA	-7211
▁Rear	-7212
▁Sago	-7213
▁Sula	-7214
▁Wave	-7215
▁dece	-7216
▁magn	-7217
▁most	-7218
67-792	-7219
Verona	-7220
enburg	-7221
ending	-7222
illing	-7223
impico	-7224
solute	-7225
▁1996,	-7226
▁497.0	-7227
▁Courc	-7228
▁Group	-7229
▁Katow	-7230
▁Lieut	-7231
▁Sumac	-7232
▁cruis	-7233
▁dance	-7234
▁holds	-7235
▁liter	-7236
▁sells	-7237
ressive	-7238
▁0.0068	-7239
▁0.0112	-7240
▁1.9558	-7241
▁2777.0	-7242
▁283326	-7243
▁Chapin	-7244
▁Danish	-7245
▁Ethnic	-7246
▁Greene	-7247
▁Rosids	-7248
▁Shabab	-7249
▁Tabare	-7250
▁Travis	-7251
▁Vectra	-7252
▁cosmet	-7253
▁layout	-7254
▁mascot	-7255
▁rupiah	-7256
▁shumai	-7257
▁Admiral	-7258
▁Almonds	-7259
▁Carmine	-7260
▁Culture	-7261
▁Indians	-7262
▁Jamaica	-7263
▁Lambien	-7264
▁Opelika	-7265
▁smashed	-7266
Nurturing	-7267
▁140000.0	-7268
▁87888500	-7269
▁Bethesda	-7270
▁Georgian	-7271
▁Katowice	-7272
▁Olimpico	-7273
▁Shilling	-7274
▁Sulaiman	-7275
▁absolute	-7276
▁competes	-7277
▁deceased	-7278
▁designer	-7279
▁operator	-7280
▁01-01-191	-7281
▁Eindhoven	-7282
▁distribut	-7283
▁inhabited	-7284
▁magnitude	-7285
▁musically	-7286
▁therefore	-7287
▁Æthelwald	-7288
▁Discovered	-7289
▁Lieutenant	-7290
▁cuttlefish	-7291
▁foundation	-7292
▁impressive	-7293
▁ChievoVerona	-7294
▁$556,300,000.	-7295
▁Courcouronnes	-7296
▁288749000000.0	-7297
Ag	-7298
kp	-7299
mo	-7300
023	-7301
131	-7302
Man	-7303
bat	-7304
gro	-7305
hne	-7306
▁9.	-7307
▁HA	-7308
-15.	-7309
-374	-7310
5895	-7311
asim	-7312
asts	-7313
ekal	-7314
empe	-7315
enry	-7316
erto	-7317
iate	-7318
kpot	-7319
owda	-7320
pers	-7321
reta	-7322
tron	-7323
ugar	-7324
velt	-7325
ärts	-7326
▁01,	-7327
▁404	-7328
▁45.	-7329
▁5.6	-7330
▁McK	-7331
▁SVE	-7332
▁Vig	-7333
▁gar	-7334
ainen	-7335
andro	-7336
anyan	-7337
einst	-7338
habit	-7339
ither	-7340
lopis	-7341
▁1114	-7342
▁2003	-7343
▁3000	-7344
▁4000	-7345
▁Chil	-7346
▁Doll	-7347
▁Hull	-7348
▁Kiss	-7349
▁Mish	-7350
▁Sons	-7351
▁bomb	-7352
▁gold	-7353
▁rise	-7354
-26131	-7355
incial	-7356
inegro	-7357
landic	-7358
ursema	-7359
▁2001,	-7360
▁8,500	-7361
▁8.334	-7362
▁Baron	-7363
▁Canto	-7364
▁Gowda	-7365
▁Henry	-7366
▁Hohne	-7367
▁Inter	-7368
▁Jarmo	-7369
▁Kekal	-7370
▁Kempe	-7371
▁Libya	-7372
▁Magik	-7373
▁Roose	-7374
▁Spata	-7375
▁Spell	-7376
▁recip	-7377
▁sedan	-7378
▁sugar	-7379
▁these	-7380
▁'1634:	-7381
▁1580.7	-7382
▁445895	-7383
▁Allian	-7384
▁Dianne	-7385
▁Feinst	-7386
▁Franco	-7387
▁Inkpot	-7388
▁Leiden	-7389
▁Llopis	-7390
▁Marcos	-7391
▁Number	-7392
▁Sipila	-7393
▁cookie	-7394
▁garris	-7395
▁headed	-7396
▁picked	-7397
▁postal	-7398
▁powers	-7399
islative	-7400
▁1907-07	-7401
▁2005-11	-7402
▁Catania	-7403
▁Horacio	-7404
▁Kissing	-7405
▁Larreta	-7406
▁Matchst	-7407
▁Mishkin	-7408
▁Rodolfo	-7409
▁bodhran	-7410
▁chinese	-7411
▁peppers	-7412
▁several	-7413
▁through	-7414
habitants	-7415
itionally	-7416
▁Counties	-7417
▁Duursema	-7418
▁Japanese	-7419
▁Marietta	-7420
▁McKenzie	-7421
▁Operated	-7422
▁Scotland	-7423
▁Tomatoes	-7424
▁although	-7425
▁champion	-7426
-374-26131	-7427
▁Feinstein	-7428
▁Filipinos	-7429
▁Infantino	-7430
▁Roosevelt	-7431
▁Sanderson	-7432
▁affiliate	-7433
▁cubanelle	-7434
▁Alessandro	-7435
▁Kekalainen	-7436
▁Provincial	-7437
▁Wilderness	-7438
▁cephalopod	-7439
▁classified	-7440
▁shortcrust	-7441
Associazione	-7442
▁Greenlandic	-7443
▁christening	-7444
▁manufacture	-7445
▁publication	-7446
confectionery	-7447
▁international	-7448
▁88234300000.0.	-7449
▁15,100,000,000.	-7450
▁288749000000.0.	-7451
23	-7452
Ce	-7453
-13	-7454
-7.	-7455
016	-7456
1,8	-7457
11.	-7458
des	-7459
gus	-7460
imm	-7461
sea	-7462
zil	-7463
▁65	-7464
▁75	-7465
▁9,	-7466
▁HE	-7467
▁Ha	-7468
▁WW	-7469
atov	-7470
ecor	-7471
harp	-7472
iben	-7473
iles	-7474
ined	-7475
itzs	-7476
udap	-7477
wick	-7478
▁"19	-7479
▁219	-7480
▁22,	-7481
▁25,	-7482
▁324	-7483
▁377	-7484
▁746	-7485
▁Arm	-7486
▁Dil	-7487
▁Ent	-7488
▁Key	-7489
▁Kub	-7490
▁Kup	-7491
▁Oth	-7492
▁Pic	-7493
▁Rap	-7494
▁foc	-7495
▁mag	-7496
▁orb	-7497
-12-3	-7498
9226.	-7499
Spain	-7500
achos	-7501
alows	-7502
ashub	-7503
astik	-7504
atory	-7505
erald	-7506
etrov	-7507
guson	-7508
innah	-7509
irate	-7510
onson	-7511
sisch	-7512
whose	-7513
▁$1,8	-7514
▁1988	-7515
▁5000	-7516
▁8500	-7517
▁Book	-7518
▁Buck	-7519
▁Bury	-7520
▁Chel	-7521
▁Much	-7522
▁Pick	-7523
▁Quay	-7524
▁Wart	-7525
▁asam	-7526
▁fail	-7527
▁host	-7528
▁tour	-7529
Cealla	-7530
aminer	-7531
comics	-7532
immons	-7533
▁"1928	-7534
▁08/26	-7535
▁10252	-7536
▁1986,	-7537
▁3360.	-7538
▁Among	-7539
▁Anand	-7540
▁Barry	-7541
▁Blank	-7542
▁Budap	-7543
▁Donal	-7544
▁Fitzs	-7545
▁Laird	-7546
▁Patel	-7547
▁Preus	-7548
▁Roque	-7549
▁Under	-7550
▁still	-7551
000000.	-7552
Agremia	-7553
ecorino	-7554
minster	-7555
perberg	-7556
▁0.0155	-7557
▁10,252	-7558
▁111484	-7559
▁377016	-7560
▁Bujang	-7561
▁Denzil	-7562
▁During	-7563
▁Greeks	-7564
▁Herald	-7565
▁Jinnah	-7566
▁Kashub	-7567
▁Mother	-7568
▁Observ	-7569
▁Othman	-7570
▁Picchi	-7571
▁Puerto	-7572
▁Regina	-7573
▁Virtus	-7574
▁cruise	-7575
▁destin	-7576
▁either	-7577
▁events	-7578
▁pepper	-7579
▁varied	-7580
ottetown	-7581
squeezed	-7582
ungalows	-7583
▁0001-83	-7584
▁3800.0.	-7585
▁Antonio	-7586
▁Armando	-7587
▁Barajas	-7588
▁Chelsea	-7589
▁Chilton	-7590
▁Entella	-7591
▁Kubatov	-7592
▁Pickard	-7593
▁Plastik	-7594
▁Rosales	-7595
▁Stanyan	-7596
▁matches	-7597
▁natives	-7598
Ceallaigh	-7599
ffiliated	-7600
▁0002-932	-7601
▁60040714	-7602
▁77294300	-7603
▁Amateurs	-7604
▁Budapest	-7605
▁Ferguson	-7606
▁Musician	-7607
▁Niinisto	-7608
▁Philippe	-7609
▁Richland	-7610
▁Simonson	-7611
▁autoharp	-7612
▁succeded	-7613
▁township	-7614
Agremiação	-7615
▁2006-12-3	-7616
▁57059226.	-7617
▁Anandiben	-7618
▁Craftsman	-7619
▁Kashubian	-7620
▁Muchachos	-7621
inghamshire	-7622
▁Kupperberg	-7623
▁Motherwell	-7624
▁Preussisch	-7625
▁magistrate	-7626
▁Fitzsimmons	-7627
▁Observatory	-7628
▁Westminster	-7629
▁centimetres	-7630
▁destination	-7631
▁Efxeinoupoli	-7632
▁Williamsburg	-7633
▁Charlottetown	-7634
▁Parliamentary	-7635
▁0-439-92550-9.	-7636
▁Buckinghamshire	-7637
Ad	-7638
An	-7639
bh	-7640
km	-7641
01.	-7642
78.	-7643
805	-7644
894	-7645
904	-7646
919	-7647
Mic	-7648
avk	-7649
iit	-7650
iku	-7651
ilä	-7652
kgs	-7653
rog	-7654
▁CA	-7655
▁GA	-7656
▁RQ	-7657
▁VA	-7658
▁VD	-7659
▁WB	-7660
1683	-7661
Nair	-7662
anta	-7663
heda	-7664
inny	-7665
kman	-7666
tred	-7667
ulas	-7668
▁03/	-7669
▁1.8	-7670
▁657	-7671
▁Bod	-7672
▁Bor	-7673
▁Mig	-7674
▁Mun	-7675
▁bed	-7676
▁cha	-7677
▁gre	-7678
▁pes	-7679
▁sen	-7680
00.0,	-7681
2-242	-7682
2.88.	-7683
305.0	-7684
attro	-7685
avkaz	-7686
berly	-7687
otein	-7688
▁13/3	-7689
▁1301	-7690
▁1418	-7691
▁1700	-7692
▁1969	-7693
▁250.	-7694
▁524.	-7695
▁8805	-7696
▁Atal	-7697
▁Band	-7698
▁Drog	-7699
▁Gmbh	-7700
▁Gosc	-7701
▁Guar	-7702
▁Jean	-7703
▁Luis	-7704
▁Sour	-7705
▁SqKm	-7706
▁Wein	-7707
▁into	-7708
Michel	-7709
iitake	-7710
kmanov	-7711
single	-7712
tredia	-7713
▁01/01	-7714
▁1857.	-7715
▁1907.	-7716
▁1941.	-7717
▁1971.	-7718
▁1982.	-7719
▁Atiku	-7720
▁Aulas	-7721
▁Giles	-7722
▁Horse	-7723
▁Light	-7724
▁Olive	-7725
▁Ramis	-7726
▁focus	-7727
▁major	-7728
▁orbit	-7729
▁piano	-7730
▁super	-7731
ikavkaz	-7732
imberly	-7733
irector	-7734
managed	-7735
▁331683	-7736
▁APGPAC	-7737
▁Alania	-7738
▁Combat	-7739
▁Graves	-7740
▁McNair	-7741
▁Miguel	-7742
▁Pirate	-7743
▁Sparta	-7744
▁stages	-7745
▁titled	-7746
▁2014–15	-7747
▁Munster	-7748
▁Quattro	-7749
▁chaired	-7750
▁engines	-7751
▁notable	-7752
▁offered	-7753
▁protein	-7754
▁tourist	-7755
▁0567-792	-7756
▁100305.0	-7757
▁2014-15.	-7758
▁Atalanta	-7759
▁Deptford	-7760
▁Drogheda	-7761
▁Goscinny	-7762
▁Guarania	-7763
▁Tukmanov	-7764
▁cylinder	-7765
▁features	-7766
▁founding	-7767
▁recorded	-7768
▁squeezed	-7769
▁vehicles	-7770
▁Construct	-7771
▁Samtredia	-7772
▁Universal	-7773
▁americans	-7774
▁originate	-7775
inhabitants	-7776
▁$1,800,000	-7777
▁Georgetown	-7778
▁Helicopter	-7779
▁Reidsville	-7780
▁frangipane	-7781
▁331683000.0	-7782
▁Californian	-7783
▁Vladikavkaz	-7784
▁connections	-7785
▁139705000.0.	-7786
▁179942000.0.	-7787
▁$380,700,000.	-7788
▁0-670-03380-4.	-7789
▁29919600000.0.	-7790
▁416136000000.0.	-7791
',	-7792
-6	-7793
HE	-7794
-55	-7795
-56	-7796
0.8	-7797
269	-7798
39.	-7799
68.	-7800
7-3	-7801
770	-7802
999	-7803
Act	-7804
Jaw	-7805
aes	-7806
ala	-7807
den	-7808
hek	-7809
isk	-7810
mán	-7811
nez	-7812
ohy	-7813
rix	-7814
uet	-7815
uzz	-7816
wyn	-7817
âne	-7818
ște	-7819
▁"1	-7820
▁LA	-7821
▁We	-7822
▁ob	-7823
▁tr	-7824
-04.	-7825
-263	-7826
/200	-7827
1951	-7828
7.41	-7829
8-16	-7830
8.65	-7831
86.2	-7832
92.6	-7833
9224	-7834
Acta	-7835
MAHE	-7836
Quwa	-7837
abbr	-7838
aptă	-7839
arst	-7840
ashi	-7841
atto	-7842
curr	-7843
iang	-7844
irus	-7845
kies	-7846
rese	-7847
uzzi	-7848
érix	-7849
ínez	-7850
▁-8.	-7851
▁096	-7852
▁173	-7853
▁Dis	-7854
▁HAL	-7855
▁Kai	-7856
▁Qui	-7857
▁Rub	-7858
▁Uab	-7859
▁Zor	-7860
▁rut	-7861
▁via	-7862
-5694	-7863
5-214	-7864
68.05	-7865
7-301	-7866
73-55	-7867
adija	-7868
atten	-7869
bashi	-7870
ector	-7871
ensio	-7872
esque	-7873
hnese	-7874
ibbon	-7875
inson	-7876
iskey	-7877
ituta	-7878
ohydr	-7879
ordon	-7880
orsep	-7881
oured	-7882
udios	-7883
woody	-7884
▁1147	-7885
▁1299	-7886
▁1909	-7887
▁1931	-7888
▁1952	-7889
▁1953	-7890
▁1976	-7891
▁2016	-7892
▁55.4	-7893
▁Arib	-7894
▁Ball	-7895
▁Dino	-7896
▁Hill	-7897
▁Hort	-7898
▁Iwan	-7899
▁Liga	-7900
▁Mest	-7901
▁Most	-7902
▁Numa	-7903
▁Orth	-7904
▁Rest	-7905
▁Some	-7906
▁Stam	-7907
▁Yong	-7908
▁peso	-7909
▁prep	-7910
▁prim	-7911
▁prof	-7912
269-93	-7913
88-263	-7914
Jawiya	-7915
Unique	-7916
backer	-7917
iberal	-7918
imetre	-7919
inning	-7920
ousins	-7921
▁140.8	-7922
▁178.0	-7923
▁1962,	-7924
▁24.0.	-7925
▁3500.	-7926
▁486.2	-7927
▁524.5	-7928
▁992.6	-7929
▁Bread	-7930
▁Brian	-7931
▁Chris	-7932
▁Colin	-7933
▁Cyrus	-7934
▁Dance	-7935
▁Dește	-7936
▁Dunne	-7937
▁Fired	-7938
▁Place	-7939
▁Vance	-7940
▁force	-7941
▁ruler	-7942
▁shown	-7943
portiva	-7944
▁1421.2	-7945
▁368.65	-7946
▁Brasil	-7947
▁Celery	-7948
▁Chapel	-7949
▁Chiang	-7950
▁Colwyn	-7951
▁Disney	-7952
▁Gordon	-7953
▁Hearst	-7954
▁Hector	-7955
▁Legion	-7956
▁Moraes	-7957
▁Patten	-7958
▁Powell	-7959
▁boasts	-7960
▁coined	-7961
▁horsep	-7962
▁inside	-7963
▁ribbon	-7964
▁române	-7965
▁senate	-7966
▁should	-7967
▁strong	-7968
00000000	-7969
▁1473-55	-7970
▁1980-04	-7971
▁2368.05	-7972
▁Daniele	-7973
▁Huskies	-7974
▁Khadija	-7975
▁Liberal	-7976
▁Manuzzi	-7977
▁Marsden	-7978
▁Mestizo	-7979
▁Odinson	-7980
▁Orosmán	-7981
▁Polonia	-7982
▁Popular	-7983
▁Quijano	-7984
▁Studios	-7985
▁Webster	-7986
▁Whiskey	-7987
▁Wilfred	-7988
▁Zoratto	-7989
▁batagor	-7990
▁centers	-7991
▁monarch	-7992
▁printed	-7993
▁0965-214	-7994
▁Acehnese	-7995
▁Director	-7996
▁Dunwoody	-7997
▁Firedome	-7998
▁Kimberly	-7999
▁Martínez	-8000
▁Stamford	-8001
▁rutaceae	-8002
▁tenanted	-8003
-56947-301	-8004
▁Ballistic	-8005
▁Bungalows	-8006
▁Covington	-8007
▁Deportiva	-8008
▁Deșteaptă	-8009
▁Hortensio	-8010
▁Restituta	-8011
▁Robertson	-8012
▁belonging	-8013
▁carbohydr	-8014
▁comprises	-8015
▁cosmetics	-8016
▁0002-9327.	-8017
▁01-01-1913	-8018
▁Brazilians	-8019
▁Romanesque	-8020
▁horsepower	-8021
▁broadcasted	-8022
▁Construction	-8023
▁Turkmenbashi	-8024
▁championship	-8025
▁0-439-17685-9.	-8026
▁0-7156-3648-0.	-8027
39	-8028
45	-8029
ui	-8030
-02	-8031
290	-8032
4.1	-8033
8-0	-8034
87.	-8035
ahn	-8036
ajo	-8037
cul	-8038
ism	-8039
olu	-8040
rec	-8041
sec	-8042
tle	-8043
yav	-8044
▁0,	-8045
▁41	-8046
▁59	-8047
▁62	-8048
▁NJ	-8049
▁NZ	-8050
-192	-8051
-204	-8052
0348	-8053
58-2	-8054
6.65	-8055
6448	-8056
7-03	-8057
8.0.	-8058
acan	-8059
adiq	-8060
arag	-8061
azan	-8062
klas	-8063
mere	-8064
oney	-8065
shek	-8066
wise	-8067
ying	-8068
▁1.1	-8069
▁13,	-8070
▁3.5	-8071
▁476	-8072
▁Eug	-8073
▁Hui	-8074
▁Lit	-8075
▁Max	-8076
▁Raf	-8077
▁Sob	-8078
▁Tze	-8079
▁max	-8080
00253	-8081
Anton	-8082
achin	-8083
adolu	-8084
ardar	-8085
cules	-8086
egodi	-8087
erbia	-8088
estro	-8089
ociac	-8090
unway	-8091
uting	-8092
yanin	-8093
▁$556	-8094
▁1862	-8095
▁1896	-8096
▁1905	-8097
▁Ahri	-8098
▁Ayaz	-8099
▁Bent	-8100
▁Ciro	-8101
▁Cold	-8102
▁Efes	-8103
▁From	-8104
▁Kuet	-8105
▁Lyon	-8106
▁Muss	-8107
▁Pict	-8108
▁Puya	-8109
▁Rosa	-8110
▁Vict	-8111
▁bird	-8112
▁give	-8113
▁know	-8114
▁role	-8115
▁soup	-8116
▁ster	-8117
▁wrec	-8118
/03/19	-8119
8-0-15	-8120
bourne	-8121
curred	-8122
klasse	-8123
ologna	-8124
parent	-8125
yavsky	-8126
▁03/04	-8127
▁11/29	-8128
▁17023	-8129
▁1957,	-8130
▁2003.	-8131
▁33626	-8132
▁47290	-8133
▁50000	-8134
▁61196	-8135
▁After	-8136
▁Annie	-8137
▁Arese	-8138
▁Carlo	-8139
▁First	-8140
▁Found	-8141
▁Kazan	-8142
▁Leach	-8143
▁Major	-8144
▁Rican	-8145
▁Robur	-8146
▁Rover	-8147
▁Rubin	-8148
▁Sadiq	-8149
▁Siena	-8150
▁These	-8151
▁While	-8152
▁Zarag	-8153
▁earns	-8154
▁hatch	-8155
▁round	-8156
▁sites	-8157
▁veter	-8158
-204770	-8159
Antonio	-8160
obility	-8161
▁0.0348	-8162
▁1104.1	-8163
▁11473.	-8164
▁1558-2	-8165
▁2776.0	-8166
▁456448	-8167
▁Borneo	-8168
▁Edward	-8169
▁Eugene	-8170
▁Ground	-8171
▁Motion	-8172
▁Philip	-8173
▁Prince	-8174
▁Sardar	-8175
▁Serbia	-8176
▁rapper	-8177
▁sports	-8178
achinery	-8179
ectively	-8180
language	-8181
▁1296.65	-8182
▁1857-03	-8183
▁1969-09	-8184
▁8800253	-8185
▁Anadolu	-8186
▁Bologna	-8187
▁Cousins	-8188
▁Geering	-8189
▁Ketchup	-8190
▁Nigeria	-8191
▁english	-8192
▁maximum	-8193
▁profess	-8194
▁workers	-8195
▁wrecked	-8196
acanestro	-8197
ufactured	-8198
▁Although	-8199
▁Hercules	-8200
▁Huiberts	-8201
▁Meringue	-8202
▁Previous	-8203
▁Sobyanin	-8204
▁Tranmere	-8205
▁Victoria	-8206
▁Zaragoza	-8207
▁concerts	-8208
▁defender	-8209
▁garrison	-8210
▁minister	-8211
▁occurred	-8212
▁sterling	-8213
▁89646863.	-8214
▁Belyavsky	-8215
▁Bentegodi	-8216
▁Computing	-8217
▁Melbourne	-8218
▁Mussolini	-8219
▁doctorate	-8220
▁hatchback	-8221
▁1913-01-01	-8222
▁graduating	-8223
▁parliament	-8224
▁1-56947-301	-8225
▁179942000.0	-8226
▁Corporation	-8227
▁derivatives	-8228
8-0-15-204770	-8229
▁Additionally	-8230
▁respectively	-8231
▁Amsterdamsche	-8232
▁Pallacanestro	-8233
▁carbohydrates	-8234
▁352497000000.0.	-8235
▁instrumentalist	-8236
It	-8237
fa	-8238
fu	-8239
ki	-8240
rs	-8241
-20	-8242
-21	-8243
/18	-8244
/22	-8245
250	-8246
833	-8247
ABI	-8248
afs	-8249
cht	-8250
eap	-8251
hot	-8252
ook	-8253
rag	-8254
urd	-8255
▁84	-8256
▁85	-8257
▁ED	-8258
▁KY	-8259
▁Km	-8260
▁MS	-8261
▁RB	-8262
▁do	-8263
▁if	-8264
▁we	-8265
1.54	-8266
1200	-8267
2445	-8268
3.95	-8269
4.0.	-8270
46-8	-8271
516.	-8272
5591	-8273
Alfa	-8274
Arts	-8275
chap	-8276
dale	-8277
erle	-8278
ewis	-8279
from	-8280
hini	-8281
home	-8282
ocal	-8283
oper	-8284
quir	-8285
spor	-8286
tain	-8287
umpl	-8288
unct	-8289
çois	-8290
▁"97	-8291
▁16'	-8292
▁9.8	-8293
▁Hav	-8294
▁Mes	-8295
▁Pap	-8296
▁ScD	-8297
▁cra	-8298
▁equ	-8299
▁pak	-8300
▁pro	-8301
▁put	-8302
eapta	-8303
rewer	-8304
sists	-8305
▁100.	-8306
▁1820	-8307
▁1939	-8308
▁1985	-8309
▁1990	-8310
▁3800	-8311
▁4349	-8312
▁737.	-8313
▁Carn	-8314
▁Gale	-8315
▁Gram	-8316
▁Roch	-8317
▁Seat	-8318
▁Unit	-8319
▁auth	-8320
▁firm	-8321
▁gets	-8322
▁king	-8323
▁only	-8324
▁song	-8325
▁them	-8326
▁tofu	-8327
516.63	-8328
ettuce	-8329
illari	-8330
urdish	-8331
▁1908.	-8332
▁1920,	-8333
▁1990.	-8334
▁24.4.	-8335
▁27250	-8336
▁3078.	-8337
▁77.41	-8338
▁Andre	-8339
▁Arrow	-8340
▁Gabor	-8341
▁Lewis	-8342
▁Other	-8343
▁Point	-8344
▁Power	-8345
▁Print	-8346
▁Sanat	-8347
▁Sedan	-8348
▁build	-8349
▁dumpl	-8350
▁hotel	-8351
▁maker	-8352
▁saint	-8353
▁voice	-8354
afschap	-8355
erlecht	-8356
orghini	-8357
▁1046-8	-8358
▁1299.0	-8359
▁161.54	-8360
▁211200	-8361
▁615591	-8362
▁703.95	-8363
▁Brewer	-8364
▁Carrie	-8365
▁Deputy	-8366
▁Dynamo	-8367
▁Fortin	-8368
▁Johnny	-8369
▁Kerman	-8370
▁Leader	-8371
▁Moench	-8372
▁Norway	-8373
▁Prague	-8374
▁Sesame	-8375
▁Warton	-8376
▁crafts	-8377
▁pakora	-8378
,000,000	-8379
esteapta	-8380
▁3202445	-8381
▁5739224	-8382
▁Castrov	-8383
▁However	-8384
▁authors	-8385
▁bombing	-8386
▁college	-8387
▁cookies	-8388
▁veteran	-8389
▁1732-242	-8390
▁87000823	-8391
▁Asteroid	-8392
▁Brasilia	-8393
▁Carnival	-8394
▁Examiner	-8395
▁François	-8396
▁Havering	-8397
▁Pictures	-8398
▁Rochdale	-8399
▁addition	-8400
▁consists	-8401
▁hardback	-8402
▁managing	-8403
▁starring	-8404
▁Machinery	-8405
▁Papenburg	-8406
▁otherwise	-8407
▁residence	-8408
▁residents	-8409
▁Anderlecht	-8410
▁Basketball	-8411
▁Cottingham	-8412
▁Graafschap	-8413
▁compliment	-8414
▁conference	-8415
▁1969-09-01.	-8416
▁611961000.0	-8417
▁Lamborghini	-8418
▁Legislative	-8419
▁Originating	-8420
▁Springfield	-8421
▁Turkmenabat	-8422
▁108,600,000.	-8423
▁Paleontology	-8424
▁$108,600,000.	-8425
▁Castrovillari	-8426
▁0-439-17684-0.	-8427
▁$10,264,000,000	-8428
▁124950000000.0.	-8429
ET	-8430
HP	-8431
jg	-8432
rl	-8433
uo	-8434
za	-8435
ád	-8436
-1,	-8437
/05	-8438
125	-8439
925	-8440
AAJ	-8441
alf	-8442
bol	-8443
erk	-8444
ety	-8445
hez	-8446
lez	-8447
mos	-8448
oms	-8449
rel	-8450
ski	-8451
who	-8452
ärf	-8453
▁46	-8454
▁8'	-8455
▁IV	-8456
▁PC	-8457
▁tv	-8458
-26.	-8459
14.8	-8460
2.2.	-8461
39.3	-8462
6.0.	-8463
7.14	-8464
HAAJ	-8465
ISET	-8466
adze	-8467
ahle	-8468
alid	-8469
ancy	-8470
arde	-8471
arin	-8472
erez	-8473
jgal	-8474
lass	-8475
odox	-8476
okes	-8477
olan	-8478
olet	-8479
olph	-8480
omin	-8481
orrs	-8482
sone	-8483
unde	-8484
ádio	-8485
ález	-8486
▁08.	-8487
▁153	-8488
▁371	-8489
▁4.0	-8490
▁4.6	-8491
▁900	-8492
▁Aet	-8493
▁Baj	-8494
▁Bir	-8495
▁Eis	-8496
▁Lan	-8497
▁Rud	-8498
▁Sad	-8499
▁Srl	-8500
▁duo	-8501
▁eat	-8502
▁ego	-8503
▁fac	-8504
▁hom	-8505
▁pal	-8506
145.3	-8507
60-04	-8508
80-63	-8509
Earth	-8510
Mater	-8511
apind	-8512
ented	-8513
garde	-8514
ianza	-8515
ibale	-8516
mosys	-8517
owski	-8518
▁Bush	-8519
▁Gasp	-8520
▁KABI	-8521
▁Maya	-8522
▁Near	-8523
▁Rese	-8524
▁RoPS	-8525
▁Sanc	-8526
▁Wars	-8527
▁Wide	-8528
▁apps	-8529
▁beds	-8530
▁fict	-8531
▁kmps	-8532
Amster	-8533
apitan	-8534
arinet	-8535
ternat	-8536
writer	-8537
▁08-16	-8538
▁1914.	-8539
▁2014,	-8540
▁32.2.	-8541
▁610.0	-8542
▁914.8	-8543
▁Clerk	-8544
▁Comic	-8545
▁Erosi	-8546
▁Gates	-8547
▁Harry	-8548
▁Perez	-8549
▁Rally	-8550
▁Route	-8551
▁Sahle	-8552
▁Sammy	-8553
▁Study	-8554
▁Tudyk	-8555
▁alter	-8556
▁prime	-8557
▁roots	-8558
▁tromb	-8559
helwald	-8560
iations	-8561
okesman	-8562
▁1920-0	-8563
▁44.125	-8564
▁AMHAAJ	-8565
▁Clancy	-8566
▁Europe	-8567
▁Futbol	-8568
▁Guitar	-8569
▁Khalid	-8570
▁Lanark	-8571
▁Little	-8572
▁Runway	-8573
▁Schärf	-8574
▁Storrs	-8575
▁Tories	-8576
▁Violet	-8577
▁behalf	-8578
▁comics	-8579
▁custom	-8580
▁fellow	-8581
▁obtain	-8582
▁romane	-8583
jgaladze	-8584
operated	-8585
▁0269-93	-8586
▁1080-63	-8587
▁62145.3	-8588
▁Alianza	-8589
▁Cookies	-8590
▁Estádio	-8591
▁Kapitan	-8592
▁Kurdish	-8593
▁Mahmood	-8594
▁Manager	-8595
▁Orosman	-8596
▁Osmosys	-8597
▁Rudolph	-8598
▁Sanchez	-8599
▁Sansone	-8600
▁Society	-8601
▁Stevens	-8602
▁focused	-8603
▁greater	-8604
▁primary	-8605
▁publish	-8606
Addiction	-8607
apindales	-8608
residency	-8609
▁11473.9.	-8610
▁1588-263	-8611
▁Annibale	-8612
▁Coloured	-8613
▁Gasparis	-8614
▁González	-8615
▁Hardwick	-8616
▁Keystone	-8617
▁Niinistö	-8618
▁Orthodox	-8619
▁Research	-8620
▁clarinet	-8621
▁counties	-8622
▁invented	-8623
▁original	-8624
▁surfaced	-8625
▁01-01-195	-8626
▁08-16-192	-8627
▁1936-05-2	-8628
▁46451790.	-8629
▁Alvinegro	-8630
▁Bibbowski	-8631
▁Reference	-8632
▁almaMater	-8633
▁customers	-8634
▁fictional	-8635
▁operation	-8636
ternatively	-8637
▁Aethelwald	-8638
▁Solanaceae	-8639
▁Uruguayans	-8640
▁Warnemunde	-8641
▁arrabbiata	-8642
▁condiments	-8643
▁songwriter	-8644
▁throughout	-8645
▁0-374-26131	-8646
▁2005-11-26.	-8647
▁Lanarkshire	-8648
▁Manjgaladze	-8649
Amsterdamsche	-8650
▁$556,300,000	-8651
▁135589000.0.	-8652
▁142603000.0.	-8653
▁179942000.0,	-8654
▁7715100000.0	-8655
▁3997100000000.	-8656
▁349206000000.0.	-8657
▁3997100000000.0	-8658
66	-8659
In	-8660
PT	-8661
ih	-8662
ng	-8663
ua	-8664
ün	-8665
-8.	-8666
/33	-8667
509	-8668
8.2	-8669
Ind	-8670
ebr	-8671
fia	-8672
inz	-8673
lam	-8674
ocu	-8675
rus	-8676
six	-8677
tis	-8678
uti	-8679
▁6-	-8680
▁67	-8681
▁7,	-8682
▁Dh	-8683
▁OB	-8684
▁SJ	-8685
▁Ud	-8686
-03.	-8687
1.92	-8688
2.0.	-8689
2.88	-8690
5-58	-8691
53-0	-8692
6.66	-8693
8055	-8694
ands	-8695
bhai	-8696
burn	-8697
enna	-8698
erce	-8699
erry	-8700
gano	-8701
igua	-8702
isan	-8703
mell	-8704
onga	-8705
oton	-8706
ourt	-8707
post	-8708
self	-8709
uris	-8710
ünde	-8711
▁112	-8712
▁14,	-8713
▁178	-8714
▁304	-8715
▁360	-8716
▁434	-8717
▁Abe	-8718
▁Fir	-8719
▁GFC	-8720
▁Mod	-8721
▁Ord	-8722
▁Out	-8723
▁Rox	-8724
▁Scr	-8725
▁aka	-8726
▁fam	-8727
▁opp	-8728
▁pen	-8729
▁plc	-8730
-02-2	-8731
Texas	-8732
acchi	-8733
arysh	-8734
based	-8735
derzo	-8736
dings	-8737
efine	-8738
ionne	-8739
itari	-8740
onist	-8741
▁0-76	-8742
▁168,	-8743
▁168.	-8744
▁1800	-8745
▁1956	-8746
▁9453	-8747
▁AFAS	-8748
▁Aids	-8749
▁CEPT	-8750
▁Cocu	-8751
▁Ered	-8752
▁Fire	-8753
▁Harc	-8754
▁Horn	-8755
▁Lalb	-8756
▁Lord	-8757
▁Nebr	-8758
▁Nock	-8759
▁Polo	-8760
▁Pork	-8761
▁Rick	-8762
▁Runc	-8763
▁Writ	-8764
▁clos	-8765
▁palm	-8766
▁prod	-8767
▁soul	-8768
▁trip	-8769
ellner	-8770
enosha	-8771
ishers	-8772
ivener	-8773
ivisie	-8774
leader	-8775
▁"1930	-8776
▁10264	-8777
▁1923,	-8778
▁1972.	-8779
▁1987,	-8780
▁1988.	-8781
▁2002.	-8782
▁2009,	-8783
▁2015,	-8784
▁2215.	-8785
▁258.2	-8786
▁45.97	-8787
▁66063	-8788
▁875.4	-8789
▁94509	-8790
▁Bajik	-8791
▁Bones	-8792
▁Byron	-8793
▁Chung	-8794
▁Dilts	-8795
▁Irlam	-8796
▁Jamie	-8797
▁Jerry	-8798
▁Kilom	-8799
▁Rapid	-8800
▁Sofia	-8801
▁banjo	-8802
▁books	-8803
▁cello	-8804
▁finch	-8805
▁hosts	-8806
▁juris	-8807
▁texas	-8808
▁train	-8809
▁vocal	-8810
000000,	-8811
0025-58	-8812
53-0633	-8813
aration	-8814
dershot	-8815
endable	-8816
patbhai	-8817
▁0.0482	-8818
▁0.0925	-8819
▁121.92	-8820
▁1239.3	-8821
▁498055	-8822
▁Bodley	-8823
▁Calero	-8824
▁Campia	-8825
▁Collin	-8826
▁Coming	-8827
▁Curtis	-8828
▁Dimmit	-8829
▁Groton	-8830
▁Having	-8831
▁Narysh	-8832
▁Ordway	-8833
▁Portug	-8834
▁Ramsey	-8835
▁Romano	-8836
▁Samuel	-8837
▁Uderzo	-8838
▁Varese	-8839
▁Vienna	-8840
▁dishes	-8841
▁earned	-8842
▁famous	-8843
▁impact	-8844
▁medium	-8845
▁museum	-8846
▁stands	-8847
ermacchi	-8848
operties	-8849
▁1360-04	-8850
▁1939-01	-8851
▁2001-01	-8852
▁3310.0.	-8853
▁3746.66	-8854
▁4349.0.	-8855
▁45000.0	-8856
▁Antigua	-8857
▁Barisan	-8858
▁Borough	-8859
▁Cammell	-8860
▁Defense	-8861
▁Justice	-8862
▁Kenosha	-8863
▁Lalbhai	-8864
▁Milonga	-8865
▁Modling	-8866
▁Phillip	-8867
▁Roxbury	-8868
▁Runcorn	-8869
▁Sadique	-8870
▁Sausage	-8871
▁Stadion	-8872
▁Udinese	-8873
▁Virtuti	-8874
▁Wizards	-8875
▁Written	-8876
▁council	-8877
▁develop	-8878
▁himself	-8879
▁resided	-8880
▁senator	-8881
▁3992.88.	-8882
▁83646315	-8883
▁Alliance	-8884
▁Computer	-8885
▁Designed	-8886
▁Graduate	-8887
▁Harcourt	-8888
▁Holdings	-8889
▁Jacobean	-8890
▁Militari	-8891
▁Mobility	-8892
▁Nebraska	-8893
▁Nockalls	-8894
▁Pallotta	-8895
▁Pecorino	-8896
▁Redefine	-8897
▁Rutaceae	-8898
▁Vorwärts	-8899
▁airlines	-8900
▁citizens	-8901
▁commerce	-8902
▁hometown	-8903
▁523329000	-8904
▁57392246.	-8905
▁60040714.	-8906
▁605718000	-8907
▁83646315.	-8908
▁Aldershot	-8909
▁Architect	-8910
▁Democrats	-8911
▁Naryshkin	-8912
▁Scrivener	-8913
▁Spokesman	-8914
▁peninsula	-8915
▁7715100000	-8916
▁Argentines	-8917
▁Chicharrón	-8918
▁Dalpatbhai	-8919
▁Eredivisie	-8920
▁Kashubians	-8921
▁Kilometers	-8922
▁Marchionne	-8923
▁Properties	-8924
▁Warnemünde	-8925
▁associates	-8926
▁centimetre	-8927
▁expendable	-8928
▁0-7653-0633	-8929
▁amatriciana	-8930
▁distributed	-8931
▁preparation	-8932
▁inauguration	-8933
▁jurisdiction	-8934
▁manufacturers	-8935
▁1-56947-301-3.	-8936
▁283326000000.0	-8937
▁352497000000.0	-8938
▁Transportation	-8939
▁pharmaceuticals	-8940
sq	-8941
öd	-8942
▁z	-8943
-6.	-8944
008	-8945
52.	-8946
82,	-8947
907	-8948
BCT	-8949
Eng	-8950
Its	-8951
LCN	-8952
aly	-8953
aná	-8954
biz	-8955
eno	-8956
gen	-8957
hok	-8958
iki	-8959
inx	-8960
kel	-8961
rán	-8962
ult	-8963
âmp	-8964
▁92	-8965
▁ID	-8966
▁NY	-8967
▁XC	-8968
▁go	-8969
▁vo	-8970
-339	-8971
Math	-8972
Naft	-8973
Page	-8974
arts	-8975
biza	-8976
ergh	-8977
ifin	-8978
main	-8979
mund	-8980
oods	-8981
reme	-8982
vert	-8983
with	-8984
▁03.	-8985
▁182	-8986
▁25.	-8987
▁270	-8988
▁882	-8989
▁ATA	-8990
▁Möd	-8991
▁OAA	-8992
▁Sup	-8993
▁Top	-8994
▁Var	-8995
▁pat	-8996
-130.	-8997
19691	-8998
92246	-8999
AIDBI	-9000
affey	-9001
anics	-9002
anyon	-9003
ellam	-9004
emons	-9005
erned	-9006
ether	-9007
ihito	-9008
inian	-9009
isode	-9010
ities	-9011
onour	-9012
sbury	-9013
state	-9014
âmpia	-9015
▁1,12	-9016
▁1967	-9017
▁404,	-9018
▁600.	-9019
▁Fair	-9020
▁Four	-9021
▁LLCN	-9022
▁Lour	-9023
▁Mech	-9024
▁Pure	-9025
▁Ring	-9026
▁Rona	-9027
▁SBCT	-9028
▁Stra	-9029
▁Teow	-9030
▁acqu	-9031
▁bask	-9032
▁fans	-9033
▁gave	-9034
▁pale	-9035
▁perc	-9036
▁plan	-9037
▁vice	-9038
-10-17	-9039
837.14	-9040
agamie	-9041
akaria	-9042
eoples	-9043
ianist	-9044
iments	-9045
isters	-9046
ondiss	-9047
▁15/33	-9048
▁173.0	-9049
▁1855.	-9050
▁1856.	-9051
▁1868.	-9052
▁1911.	-9053
▁1913,	-9054
▁1981,	-9055
▁2004,	-9056
▁265.0	-9057
▁268.0	-9058
▁29000	-9059
▁53502	-9060
▁Aarus	-9061
▁Bibbo	-9062
▁Built	-9063
▁Court	-9064
▁Duhok	-9065
▁Ibiza	-9066
▁Levan	-9067
▁Maria	-9068
▁River	-9069
▁Trade	-9070
▁Woods	-9071
▁bakso	-9072
▁chanc	-9073
▁honey	-9074
▁ruled	-9075
▁solan	-9076
omeriki	-9077
▁0.0999	-9078
▁18.52.	-9079
▁3800.0	-9080
▁519691	-9081
▁560090	-9082
▁Angela	-9083
▁Arifin	-9084
▁Canyon	-9085
▁Câmpia	-9086
▁DuPage	-9087
▁Edmund	-9088
▁Eisner	-9089
▁Gators	-9090
▁Kellam	-9091
▁Manley	-9092
▁Merkel	-9093
▁Paraná	-9094
▁Produc	-9095
▁Roland	-9096
▁Sereno	-9097
▁Southe	-9098
▁Sponge	-9099
▁factor	-9100
▁patron	-9101
▁reside	-9102
▁voiced	-9103
/03/1983	-9104
Squeezed	-9105
acoustic	-9106
vertible	-9107
▁01-01-2	-9108
▁01/01/2	-9109
▁1896-02	-9110
▁1930-01	-9111
▁2009-04	-9112
▁3360.12	-9113
▁3500.0.	-9114
▁Akihito	-9115
▁Chorizo	-9116
▁Lourdes	-9117
▁Mödling	-9118
▁Supreme	-9119
▁Tapioca	-9120
▁Zakaria	-9121
▁Zellner	-9122
▁capable	-9123
▁complet	-9124
▁episode	-9125
▁joining	-9126
▁leading	-9127
▁prequel	-9128
▁produce	-9129
▁seconds	-9130
▁trainer	-9131
,000,000.	-9132
0000000.0	-9133
▁192000.0	-9134
▁57392246	-9135
▁Fairhead	-9136
▁Portugal	-9137
▁Soldiers	-9138
▁Vorwarts	-9139
▁obtained	-9140
▁synthpop	-9141
▁49805501.	-9142
▁76798317.	-9143
▁Aermacchi	-9144
▁Blackburn	-9145
▁Cubanelle	-9146
▁Gravesham	-9147
▁Khomeriki	-9148
▁Mechanics	-9149
▁Outagamie	-9150
▁Topklasse	-9151
▁associate	-9152
▁concerned	-9153
▁craftsman	-9154
▁designers	-9155
▁measuring	-9156
ondissement	-9157
▁0001-8392.	-9158
▁10/03/1983	-9159
▁16244700.0	-9160
▁1980-04-23	-9161
▁380700000.	-9162
▁Bloomsbury	-9163
▁Cephalopod	-9164
▁Chicharron	-9165
▁Condiments	-9166
▁Frangipane	-9167
▁Kellamergh	-9168
▁Variations	-9169
▁basketball	-9170
▁chancellor	-9171
▁eventually	-9172
▁linebacker	-9173
manufactured	-9174
▁135589000.0	-9175
▁1913-01-01.	-9176
▁Argentinian	-9177
▁convertible	-9178
▁8788850000.0	-9179
▁Southeastern	-9180
▁29919600000.0	-9181
▁41498400000.0	-9182
▁confectionery	-9183
▁$1,800,000,000	-9184
▁0-374-26131-8.	-9185
▁0-7653-0633-6.	-9186
▁377016000000.0.	-9187
▁978-0-15-204770	-9188
6-	-9189
TH	-9190
kt	-9191
uv	-9192
şə	-9193
-2.	-9194
-27	-9195
1,2	-9196
17,	-9197
70.	-9198
73.	-9199
753	-9200
76.	-9201
77.	-9202
801	-9203
94.	-9204
Kov	-9205
Pol	-9206
Tud	-9207
arf	-9208
asa	-9209
dod	-9210
gne	-9211
has	-9212
itc	-9213
leh	-9214
oni	-9215
rik	-9216
ukt	-9217
zhi	-9218
zia	-9219
ött	-9220
▁"0	-9221
▁04	-9222
▁80	-9223
▁SS	-9224
▁ft	-9225
▁hp	-9226
▁im	-9227
▁si	-9228
-01,	-9229
/192	-9230
/21.	-9231
/26.	-9232
0640	-9233
12.3	-9234
15.0	-9235
6-52	-9236
823.	-9237
9304	-9238
PSTH	-9239
acab	-9240
agnu	-9241
ahan	-9242
ajib	-9243
alan	-9244
ante	-9245
arge	-9246
azak	-9247
full	-9248
hell	-9249
iant	-9250
lubu	-9251
made	-9252
oulo	-9253
rose	-9254
ucky	-9255
wall	-9256
▁$21	-9257
▁189	-9258
▁230	-9259
▁233	-9260
▁265	-9261
▁298	-9262
▁7.9	-9263
▁814	-9264
▁ADO	-9265
▁AWD	-9266
▁Asa	-9267
▁Ayr	-9268
▁Gig	-9269
▁Jep	-9270
▁Lic	-9271
▁Owl	-9272
▁SpA	-9273
▁gem	-9274
▁men	-9275
88753	-9276
Tudor	-9277
abbrv	-9278
acity	-9279
afoni	-9280
azing	-9281
ebago	-9282
grade	-9283
inted	-9284
iraca	-9285
iring	-9286
itial	-9287
oming	-9288
uzhny	-9289
şəkar	-9290
▁07/2	-9291
▁1872	-9292
▁1982	-9293
▁2,19	-9294
▁2744	-9295
▁657.	-9296
▁9833	-9297
▁Bass	-9298
▁Gött	-9299
▁Haag	-9300
▁Iran	-9301
▁Kota	-9302
▁Lame	-9303
▁Mitc	-9304
▁Oleh	-9305
▁Owen	-9306
▁Sess	-9307
▁Shuv	-9308
▁Tart	-9309
▁Vica	-9310
▁Vigo	-9311
▁WWII	-9312
▁Zest	-9313
▁appo	-9314
▁vers	-9315
064084	-9316
aisand	-9317
astery	-9318
ferred	-9319
former	-9320
pleted	-9321
ystyle	-9322
▁"1923	-9323
▁14801	-9324
▁1820.	-9325
▁1862,	-9326
▁1920.	-9327
▁19255	-9328
▁1978.	-9329
▁346.0	-9330
▁37124	-9331
▁Based	-9332
▁Basim	-9333
▁Batak	-9334
▁Boulo	-9335
▁EPSTH	-9336
▁Glend	-9337
▁Inukt	-9338
▁Iraqi	-9339
▁Klubu	-9340
▁Minas	-9341
▁Minna	-9342
▁Najib	-9343
▁Pilot	-9344
▁Qasim	-9345
▁Razak	-9346
▁Tiger	-9347
▁Vigor	-9348
▁avant	-9349
▁carbs	-9350
▁exact	-9351
▁facts	-9352
▁gives	-9353
▁large	-9354
▁radio	-9355
▁rooms	-9356
▁spare	-9357
▁stone	-9358
▁teams	-9359
acabian	-9360
agnuolo	-9361
kelvins	-9362
largest	-9363
▁$211,2	-9364
▁08/26.	-9365
▁1.9304	-9366
▁2215.0	-9367
▁900.0.	-9368
▁Ashdod	-9369
▁Banana	-9370
▁Bridge	-9371
▁Honour	-9372
▁Jepson	-9373
▁Licata	-9374
▁Luzhny	-9375
▁Navajo	-9376
▁Peanut	-9377
▁Scharf	-9378
▁Sipilä	-9379
▁crewed	-9380
▁ending	-9381
▁remain	-9382
▁siomay	-9383
▁united	-9384
innebago	-9385
▁1533.0.	-9386
▁1998-07	-9387
▁2013-11	-9388
▁2215.0.	-9389
▁2776.0.	-9390
▁3990.0.	-9391
▁8805735	-9392
▁9064084	-9393
▁Amazing	-9394
▁Ambrose	-9395
▁Asphalt	-9396
▁Astérix	-9397
▁Clayton	-9398
▁Gigante	-9399
▁Granola	-9400
▁Hungary	-9401
▁Lamezia	-9402
▁Limited	-9403
▁Peşəkar	-9404
▁Solanum	-9405
▁defunct	-9406
▁electro	-9407
▁initial	-9408
▁kingdom	-9409
▁lettuce	-9410
▁recipes	-9411
▁sisters	-9412
▁usually	-9413
▁version	-9414
President	-9415
▁03/04/19	-9416
▁1558-286	-9417
▁488160.0	-9418
▁76798317	-9419
▁Acoustic	-9420
▁Belgrade	-9421
▁Boulogne	-9422
▁Cornwall	-9423
▁Mitchell	-9424
▁Sessions	-9425
▁Shiitake	-9426
▁Shuvalan	-9427
▁Straight	-9428
▁acquired	-9429
▁becoming	-9430
▁capacity	-9431
▁landmark	-9432
▁majority	-9433
▁referred	-9434
▁retiring	-9435
▁0965-2140	-9436
▁1907-07-1	-9437
▁2006.12.3	-9438
▁488160.0.	-9439
▁51969173.	-9440
▁87000823.	-9441
▁Arapiraca	-9442
▁Benitoite	-9443
▁Condensed	-9444
▁Ethiopian	-9445
▁Geraisand	-9446
▁Glendower	-9447
▁Guanciale	-9448
▁Göttingen	-9449
▁Inuktitut	-9450
▁Monastery	-9451
▁Paperback	-9452
▁Samarahan	-9453
▁Spagnuolo	-9454
▁Zestafoni	-9455
▁appointed	-9456
▁beginning	-9457
▁bodystyle	-9458
▁influence	-9459
▁recipient	-9460
▁0269-9370.	-9461
▁1080-6377.	-9462
▁1588-2632.	-9463
▁1732-2421.	-9464
▁1907-07-11	-9465
▁1933-10-17	-9466
▁211200000.	-9467
▁9833516.63	-9468
▁Affiliated	-9469
▁Decoration	-9470
▁Originally	-9471
▁helicopter	-9472
▁trombonist	-9473
▁139705000.0	-9474
▁142603000.0	-9475
▁371240000.0	-9476
▁39447000.0.	-9477
▁69862200.0.	-9478
▁Territorial	-9479
▁183309000.0,	-9480
▁paleontology	-9481
▁specifically	-9482
8-1-4165-4253-7	-9483
▁electroacoustic	-9484
.'	-9485
He	-9486
-08	-9487
.94	-9488
00,	-9489
10.	-9490
48.	-9491
6.5	-9492
70,	-9493
9.9	-9494
AIP	-9495
ASK	-9496
ady	-9497
aim	-9498
azi	-9499
edt	-9500
ené	-9501
joy	-9502
omp	-9503
row	-9504
ugh	-9505
wal	-9506
war	-9507
▁-7	-9508
▁Pé	-9509
▁id	-9510
▁so	-9511
-02.	-9512
-04,	-9513
1.2.	-9514
114.	-9515
12.2	-9516
188.	-9517
4700	-9518
5-87	-9519
500.	-9520
Cune	-9521
Hamb	-9522
ISSN	-9523
Sham	-9524
Univ	-9525
achk	-9526
amon	-9527
aniy	-9528
apod	-9529
berh	-9530
chez	-9531
crap	-9532
deen	-9533
disc	-9534
fino	-9535
icio	-9536
imir	-9537
inzo	-9538
mert	-9539
olut	-9540
onth	-9541
rikh	-9542
uila	-9543
vels	-9544
▁1,9	-9545
▁155	-9546
▁166	-9547
▁17'	-9548
▁248	-9549
▁3,3	-9550
▁368	-9551
▁678	-9552
▁Aid	-9553
▁BSc	-9554
▁Bef	-9555
▁Duc	-9556
▁Now	-9557
▁Pot	-9558
▁Ret	-9559
▁Sán	-9560
▁Tri	-9561
▁WWI	-9562
▁Wee	-9563
▁amb	-9564
▁fed	-9565
▁fig	-9566
▁got	-9567
▁vot	-9568
158-3	-9569
Above	-9570
Baris	-9571
Hambg	-9572
Manus	-9573
Semin	-9574
achim	-9575
arkey	-9576
avson	-9577
class	-9578
elvin	-9579
enned	-9580
ersea	-9581
ionov	-9582
jamin	-9583
ockey	-9584
ompoc	-9585
stedt	-9586
uties	-9587
walki	-9588
▁1.52	-9589
▁164'	-9590
▁18.0	-9591
▁1908	-9592
▁1914	-9593
▁1961	-9594
▁2012	-9595
▁214,	-9596
▁23.0	-9597
▁24.0	-9598
▁24.4	-9599
▁324,	-9600
▁4.56	-9601
▁682,	-9602
▁817,	-9603
▁8514	-9604
▁9312	-9605
▁Aber	-9606
▁Brut	-9607
▁Dila	-9608
▁Erie	-9609
▁Gerd	-9610
▁Gori	-9611
▁Gust	-9612
▁Habb	-9613
▁Kend	-9614
▁Kill	-9615
▁LASK	-9616
▁Laan	-9617
▁Link	-9618
▁Linz	-9619
▁Made	-9620
▁Maka	-9621
▁Makh	-9622
▁Maur	-9623
▁Nasa	-9624
▁Nood	-9625
▁Pesc	-9626
▁Rene	-9627
▁René	-9628
▁Rund	-9629
▁Sazi	-9630
▁hall	-9631
▁hous	-9632
▁just	-9633
▁nice	-9634
▁numb	-9635
▁sand	-9636
▁unit	-9637
12.200	-9638
430000	-9639
Shamal	-9640
aniyah	-9641
church	-9642
ectady	-9643
ellite	-9644
estina	-9645
ionary	-9646
ireann	-9647
millan	-9648
onthly	-9649
orated	-9650
▁13/31	-9651
▁13017	-9652
▁16.76	-9653
▁1856,	-9654
▁19.94	-9655
▁1901.	-9656
▁1909.	-9657
▁1928,	-9658
▁1929.	-9659
▁1930,	-9660
▁1933,	-9661
▁1936.	-9662
▁1948.	-9663
▁1956,	-9664
▁1964.	-9665
▁1965.	-9666
▁1972,	-9667
▁1980.	-9668
▁1983,	-9669
▁2000)	-9670
▁2011,	-9671
▁21.2.	-9672
▁286.5	-9673
▁37497	-9674
▁429.9	-9675
▁9000.	-9676
▁AMAHE	-9677
▁Anzhi	-9678
▁Books	-9679
▁Cantu	-9680
▁Cello	-9681
▁Damon	-9682
▁Eberh	-9683
▁Gauck	-9684
▁Giant	-9685
▁Glass	-9686
▁Kapod	-9687
▁Macri	-9688
▁Merit	-9689
▁Metro	-9690
▁Putin	-9691
▁Pérez	-9692
▁Schen	-9693
▁Weber	-9694
▁Wells	-9695
▁Zamba	-9696
▁arros	-9697
▁claim	-9698
▁contr	-9699
▁cover	-9700
▁enjoy	-9701
▁lends	-9702
▁plane	-9703
▁scrap	-9704
Barisan	-9705
achkala	-9706
imeters	-9707
istrian	-9708
portant	-9709
▁11/29.	-9710
▁336265	-9711
▁44114.	-9712
▁518.0.	-9713
▁597.0.	-9714
▁Aguila	-9715
▁Barrow	-9716
▁Before	-9717
▁Ducati	-9718
▁Empoli	-9719
▁Gaffey	-9720
▁Garlic	-9721
▁Lompoc	-9722
▁McCune	-9723
▁Palace	-9724
▁Persea	-9725
▁Rafael	-9726
▁Shinzo	-9727
▁Unione	-9728
▁Warsaw	-9729
▁Wayans	-9730
▁failed	-9731
▁figure	-9732
▁novels	-9733
▁penned	-9734
▁rivers	-9735
sociated	-9736
ucceeded	-9737
▁1932-03	-9738
▁3188753	-9739
▁Andreea	-9740
▁Delfino	-9741
▁Joachim	-9742
▁Kendall	-9743
▁Lammert	-9744
▁McManus	-9745
▁Noodles	-9746
▁Norbert	-9747
▁Peoples	-9748
▁Pescara	-9749
▁Potenza	-9750
▁Revolut	-9751
▁Serving	-9752
▁Suwalki	-9753
▁Sánchez	-9754
▁Tractor	-9755
▁ambient	-9756
▁bodhrán	-9757
▁identif	-9758
▁locally	-9759
▁minimum	-9760
▁numbers	-9761
▁ordered	-9762
▁persons	-9763
▁sandesh	-9764
▁soloist	-9765
▁special	-9766
▁studies	-9767
▁travels	-9768
▁various	-9769
▁16244700	-9770
▁3078.48.	-9771
▁80002709	-9772
▁Aberdeen	-9773
▁Eberhard	-9774
▁Jacabian	-9775
▁Jamaican	-9776
▁Kentucky	-9777
▁Language	-9778
▁Laurales	-9779
▁Mauricio	-9780
▁Monarchy	-9781
▁Mularkey	-9782
▁Portland	-9783
▁Rodionov	-9784
▁Romanian	-9785
▁Springer	-9786
▁Vladimir	-9787
▁actually	-9788
▁dumpling	-9789
▁scrapped	-9790
▁suceeded	-9791
affiliated	-9792
▁1473-5571	-9793
▁1920-08-1	-9794
▁1930-01-2	-9795
▁31.12.200	-9796
▁78771100.	-9797
▁Brutalist	-9798
▁Desteapta	-9799
▁Gustavson	-9800
▁Macmillan	-9801
▁Nurturing	-9802
▁Rundstedt	-9803
▁Satellite	-9804
▁Triestina	-9805
▁Winnebago	-9806
▁addiction	-9807
▁important	-9808
▁nicknamed	-9809
▁occupying	-9810
▁remainder	-9811
▁1046-8188.	-9812
▁1939-01-03	-9813
▁2015-06-27	-9814
▁7729430000	-9815
▁8514837.14	-9816
▁Discipline	-9817
▁Habbaniyah	-9818
▁Hornchurch	-9819
▁Presidency	-9820
▁Publishers	-9821
▁Sapindales	-9822
▁positioned	-9823
▁183309000.0	-9824
▁1936-05-21.	-9825
▁2006-12-31.	-9826
▁Australians	-9827
▁Makhachkala	-9828
▁Schenectady	-9829
▁Universitat	-9830
▁affiliation	-9831
▁ethnicities	-9832
▁$875,400,000	-9833
▁183309000.0.	-9834
▁Istanbulspor	-9835
▁Kapodistrian	-9836
▁academically	-9837
▁professional	-9838
▁0-439-17684-0	-9839
▁88234300000.0	-9840
▁Administrator	-9841
▁Revolutionary	-9842
▁283326000000.0.	-9843
▁representatives	-9844
")	-9845
,3	-9846
81	-9847
BL	-9848
DL	-9849
Ge	-9850
Pa	-9851
hb	-9852
ll	-9853
sw	-9854
/1,	-9855
0,7	-9856
04.	-9857
12.	-9858
53.	-9859
533	-9860
71.	-9861
ACM	-9862
Alc	-9863
Col	-9864
Duc	-9865
RBL	-9866
ahe	-9867
ali	-9868
aur	-9869
chs	-9870
for	-9871
ily	-9872
ryn	-9873
til	-9874
usb	-9875
zio	-9876
ère	-9877
▁CT	-9878
▁Oc	-9879
▁Sl	-9880
▁ZF	-9881
▁nu	-9882
/201	-9883
60.0	-9884
735.	-9885
9226	-9886
Duch	-9887
OCLC	-9888
Port	-9889
Vern	-9890
aces	-9891
coff	-9892
eeds	-9893
hbaz	-9894
hero	-9895
hinx	-9896
iche	-9897
izes	-9898
resa	-9899
sess	-9900
tion	-9901
▁07.	-9902
▁1.7	-9903
▁140	-9904
▁184	-9905
▁2.4	-9906
▁26,	-9907
▁3,8	-9908
▁3.0	-9909
▁401	-9910
▁500	-9911
▁541	-9912
▁63.	-9913
▁672	-9914
▁714	-9915
▁8.0	-9916
▁AKA	-9917
▁Aso	-9918
▁Get	-9919
▁Jam	-9920
▁Mao	-9921
▁Nak	-9922
▁Nug	-9923
▁PDL	-9924
▁SSD	-9925
▁ast	-9926
▁saw	-9927
▁tog	-9928
-03-1	-9929
-10-2	-9930
720,7	-9931
AMAHE	-9932
Georg	-9933
Kovač	-9934
adori	-9935
aheer	-9936
aleon	-9937
ample	-9938
edict	-9939
genre	-9940
ipped	-9941
olksw	-9942
olled	-9943
opher	-9944
ordan	-9945
orgos	-9946
oster	-9947
ostle	-9948
ronic	-9949
ropop	-9950
urban	-9951
▁1023	-9952
▁11.3	-9953
▁1533	-9954
▁16/3	-9955
▁1853	-9956
▁1878	-9957
▁1911	-9958
▁34.0	-9959
▁404.	-9960
▁62.0	-9961
▁714.	-9962
▁770,	-9963
▁806.	-9964
▁972.	-9965
▁Bryn	-9966
▁CRBL	-9967
▁Lane	-9968
▁Palm	-9969
▁Sami	-9970
▁Team	-9971
▁dead	-9972
▁husb	-9973
▁said	-9974
▁secs	-9975
▁show	-9976
▁tons	-9977
▁what	-9978
Poland	-9979
aminis	-9980
arance	-9981
nesota	-9982
quires	-9983
uthale	-9984
ystems	-9985
▁1411.	-9986
▁1904,	-9987
▁1904.	-9988
▁1910.	-9989
▁1927,	-9990
▁1959,	-9991
▁1985,	-9992
▁1985.	-9993
▁1988,	-9994
▁2013,	-9995
▁2016,	-9996
▁29075	-9997
▁535.0	-9998
▁973.0	-9999
▁Anwar	-10000
▁Anzio	-10001
▁Colón	-10002
▁Drake	-10003
▁Fruit	-10004
▁Negre	-10005
▁Occup	-10006
▁Pound	-10007
▁Saint	-10008
▁Techs	-10009
▁Temer	-10010
▁Wärts	-10011
▁admin	-10012
▁field	-10013
▁foods	-10014
▁heads	-10015
▁heard	-10016
▁metre	-10017
▁onion	-10018
▁pound	-10019
▁takes	-10020
▁until	-10021
Asociac	-10022
Duchere	-10023
Duchère	-10024
irement	-10025
luenced	-10026
oneiche	-10027
related	-10028
ustries	-10029
written	-10030
▁0.0252	-10031
▁03/21.	-10032
▁1099.0	-10033
▁2004-0	-10034
▁2160.0	-10035
▁3,500.	-10036
▁497.0.	-10037
▁600.0.	-10038
▁ATISET	-10039
▁Bronze	-10040
▁Getrag	-10041
▁Inline	-10042
▁Jamali	-10043
▁Jordan	-10044
▁Kelvin	-10045
▁LaVern	-10046
▁Lemper	-10047
▁Oyster	-10048
▁Second	-10049
▁Sphinx	-10050
▁Teague	-10051
▁Volksw	-10052
▁Zaheer	-10053
▁attend	-10054
▁behind	-10055
▁birthd	-10056
▁branch	-10057
▁create	-10058
▁houses	-10059
▁placed	-10060
▁places	-10061
▁purple	-10062
▁styles	-10063
▁yearly	-10064
Alcatraz	-10065
Weymouth	-10066
▁0025-58	-10067
▁1865-87	-10068
▁1932-07	-10069
▁1974-08	-10070
▁2702.0.	-10071
▁2744.0.	-10072
▁2900.0.	-10073
▁3992.88	-10074
▁Alliant	-10075
▁Alvarez	-10076
▁Ambient	-10077
▁Apostle	-10078
▁Asociac	-10079
▁Bryning	-10080
▁Chicken	-10081
▁Coconut	-10082
▁Created	-10083
▁Giorgos	-10084
▁Kaminis	-10085
▁Koreans	-10086
▁Nugetre	-10087
▁Retired	-10088
▁Ribcoff	-10089
▁Shehbaz	-10090
▁Theresa	-10091
▁colours	-10092
▁example	-10093
▁federal	-10094
▁however	-10095
▁husband	-10096
▁pianist	-10097
▁possess	-10098
▁provide	-10099
▁respons	-10100
▁thought	-10101
00000000.	-10102
▁3360.12.	-10103
▁46451790	-10104
▁57059226	-10105
▁78771100	-10106
▁88002539	-10107
▁8805735.	-10108
▁Benedict	-10109
▁Deputies	-10110
▁Germania	-10111
▁Nakadori	-10112
▁Scottish	-10113
▁Wärtsilä	-10114
▁employed	-10115
▁employee	-10116
▁equipped	-10117
▁gemstone	-10118
▁offering	-10119
▁producer	-10120
▁republic	-10121
▁requires	-10122
▁shiitake	-10123
▁together	-10124
▁0001-8392	-10125
▁324,720,7	-10126
▁380700000	-10127
▁45644811.	-10128
▁60040714,	-10129
▁88002539.	-10130
▁90640840.	-10131
▁Andersson	-10132
▁Appletone	-10133
▁Commander	-10134
▁Haputhale	-10135
▁Minnesota	-10136
▁Pantaleon	-10137
▁astronaut	-10138
▁operators	-10139
▁superhero	-10140
▁1473-5571.	-10141
▁1558-2868.	-10142
▁Federalism	-10143
▁Matchstick	-10144
▁Schoneiche	-10145
▁Volkswagen	-10146
▁appearance	-10147
▁retirement	-10148
▁rotational	-10149
▁solanaceae	-10150
▁08-16-1920,	-10151
▁1907-07-11.	-10152
▁1930-01-20.	-10153
▁Christopher	-10154
▁Techsystems	-10155
▁15100000000.	-10156
▁3997100000000	-10157
▁7729430000.0.	-10158
▁distinguished	-10159
▁279142000000.0	-10160
▁41498400000.0.	-10161
▁416136000000.0	-10162
▁Arrondissement	-10163
▁445895000000.0.	-10164
);	-10165
/0	-10166
4"	-10167
61	-10168
Ja	-10169
LG	-10170
MI	-10171
PN	-10172
VI	-10173
hp	-10174
li	-10175
vk	-10176
vá	-10177
ws	-10178
▁É	-10179
▁×	-10180
.).	-10181
/31	-10182
28.	-10183
43.	-10184
434	-10185
504	-10186
58.	-10187
6.1	-10188
65.	-10189
92"	-10190
ACY	-10191
All	-10192
Alv	-10193
Ast	-10194
Cal	-10195
Diy	-10196
Gre	-10197
Tao	-10198
USA	-10199
ajw	-10200
ari	-10201
arō	-10202
asy	-10203
cel	-10204
cer	-10205
cre	-10206
eam	-10207
etc	-10208
feo	-10209
iep	-10210
ior	-10211
ken	-10212
mad	-10213
nip	-10214
oux	-10215
ozo	-10216
pre	-10217
vár	-10218
áil	-10219
▁5-	-10220
▁74	-10221
▁Dc	-10222
▁Mu	-10223
▁NV	-10224
▁Sb	-10225
▁TN	-10226
▁WI	-10227
▁cu	-10228
/198	-10229
/199	-10230
/33.	-10231
11.0	-10232
6110	-10233
7.16	-10234
8-11	-10235
Ayam	-10236
Cent	-10237
Neil	-10238
VIAG	-10239
abağ	-10240
adao	-10241
aign	-10242
akal	-10243
alry	-10244
anao	-10245
ansa	-10246
asin	-10247
avey	-10248
avia	-10249
flot	-10250
inse	-10251
iona	-10252
mini	-10253
nish	-10254
orit	-10255
page	-10256
quil	-10257
reek	-10258
rior	-10259
rone	-10260
vall	-10261
vkov	-10262
▁-7.	-10263
▁177	-10264
▁234	-10265
▁345	-10266
▁36,	-10267
▁469	-10268
▁609	-10269
▁ASD	-10270
▁Asō	-10271
▁CFC	-10272
▁Cav	-10273
▁Dek	-10274
▁EMI	-10275
▁FLG	-10276
▁Gir	-10277
▁Sov	-10278
▁Sub	-10279
▁You	-10280
▁Yug	-10281
▁Zan	-10282
▁mov	-10283
▁ore	-10284
▁wid	-10285
-11-1	-10286
-12-1	-10287
-130,	-10288
0,000	-10289
7.14.	-10290
Diyos	-10291
House	-10292
India	-10293
Jaish	-10294
aanst	-10295
aders	-10296
agoas	-10297
anish	-10298
arrar	-10299
ateur	-10300
danao	-10301
eeney	-10302
enner	-10303
ently	-10304
ipsis	-10305
kabau	-10306
occer	-10307
ollab	-10308
ragia	-10309
▁1.55	-10310
▁1472	-10311
▁1873	-10312
▁1891	-10313
▁1941	-10314
▁1947	-10315
▁1978	-10316
▁2.03	-10317
▁25.0	-10318
▁25.2	-10319
▁2777	-10320
▁52.0	-10321
▁6.97	-10322
▁609.	-10323
▁734.	-10324
▁765.	-10325
▁8.0.	-10326
▁9504	-10327
▁Aman	-10328
▁Ando	-10329
▁Bozo	-10330
▁Cake	-10331
▁Dnip	-10332
▁Doom	-10333
▁Dáil	-10334
▁Ever	-10335
▁Full	-10336
▁Here	-10337
▁Iron	-10338
▁KACY	-10339
▁Kate	-10340
▁Mans	-10341
▁Nola	-10342
▁Pang	-10343
▁Rajw	-10344
▁Tarō	-10345
▁Vitt	-10346
▁Wink	-10347
▁Zwan	-10348
▁corn	-10349
▁does	-10350
▁down	-10351
▁frit	-10352
▁goes	-10353
▁hero	-10354
▁mayo	-10355
▁page	-10356
▁term	-10357
▁zone	-10358
APGPAC	-10359
abansa	-10360
akalik	-10361
alaigh	-10362
alliga	-10363
antasy	-10364
celona	-10365
erning	-10366
etcher	-10367
hammad	-10368
ieplay	-10369
ilario	-10370
ingian	-10371
ussion	-10372
vallis	-10373
városi	-10374
▁-71.0	-10375
▁05/05	-10376
▁1,533	-10377
▁16.54	-10378
▁168.0	-10379
▁170.0	-10380
▁18.09	-10381
▁1907,	-10382
▁1913)	-10383
▁1932,	-10384
▁1969,	-10385
▁1974,	-10386
▁1994.	-10387
▁1995,	-10388
▁306.0	-10389
▁37.16	-10390
▁3800.	-10391
▁755.3	-10392
▁Aquil	-10393
▁Chuck	-10394
▁EISSN	-10395
▁Ivkov	-10396
▁Josef	-10397
▁Kinse	-10398
▁Leeds	-10399
▁Malik	-10400
▁Motor	-10401
▁Orfeo	-10402
▁Pedas	-10403
▁Ricky	-10404
▁Tabak	-10405
▁Tadao	-10406
▁Water	-10407
▁arena	-10408
▁basis	-10409
▁baths	-10410
▁begun	-10411
▁costs	-10412
▁coupé	-10413
▁gener	-10414
▁knows	-10415
▁meter	-10416
▁minor	-10417
▁noted	-10418
▁steam	-10419
▁study	-10420
▁urban	-10421
▁wheat	-10422
Astérix	-10423
Georgia	-10424
comflot	-10425
etrovsk	-10426
forming	-10427
ifornia	-10428
imentel	-10429
kenhead	-10430
ominant	-10431
oritner	-10432
oslavia	-10433
quirari	-10434
▁1.524.	-10435
▁1121.0	-10436
▁13/31.	-10437
▁146110	-10438
▁15/33.	-10439
▁184434	-10440
▁1890.0	-10441
▁192000	-10442
▁2158-3	-10443
▁2900.0	-10444
▁2989.0	-10445
▁3310.0	-10446
▁8820.0	-10447
▁AAIDBI	-10448
▁Anthem	-10449
▁Basket	-10450
▁Citrus	-10451
▁Cookie	-10452
▁Criona	-10453
▁Dekalb	-10454
▁Desoto	-10455
▁Farrar	-10456
▁Forest	-10457
▁Foster	-10458
▁Giroux	-10459
▁Hardie	-10460
▁Hockey	-10461
▁Luxury	-10462
▁Minang	-10463
▁Pakora	-10464
▁Retrov	-10465
▁Rocket	-10466
▁Slavey	-10467
▁Straus	-10468
▁Within	-10469
▁Zaanst	-10470
▁around	-10471
▁collab	-10472
▁dollar	-10473
▁empire	-10474
▁lemons	-10475
▁orange	-10476
▁poales	-10477
▁rolled	-10478
▁romano	-10479
▁source	-10480
▁string	-10481
asinense	-10482
gressive	-10483
preceded	-10484
▁108,600	-10485
▁13017.0	-10486
▁1800.0.	-10487
▁4000.0.	-10488
▁Alagoas	-10489
▁Brenner	-10490
▁Capital	-10491
▁Cavalry	-10492
▁Diliman	-10493
▁Dniprop	-10494
▁Everett	-10495
▁Finnish	-10496
▁Hilario	-10497
▁Library	-10498
▁Qarabağ	-10499
▁Rafique	-10500
▁Rajwana	-10501
▁Sbragia	-10502
▁Sweeney	-10503
▁Winkler	-10504
▁closely	-10505
▁oregano	-10506
▁present	-10507
▁rockets	-10508
▁Éireann	-10509
0002-9327	-10510
Alligator	-10511
Alvinegro	-10512
ification	-10513
president	-10514
▁"0001-83	-10515
▁Aircraft	-10516
▁Aquilino	-10517
▁Defender	-10518
▁Dhalaigh	-10519
▁Fletcher	-10520
▁Kinsealy	-10521
▁Mindanao	-10522
▁Muhammad	-10523
▁Pimentel	-10524
▁Regiment	-10525
▁chicharr	-10526
▁coloured	-10527
▁comprise	-10528
▁covering	-10529
▁fritters	-10530
▁grouping	-10531
▁occupied	-10532
▁pecorino	-10533
▁peripsis	-10534
▁province	-10535
Asociación	-10536
California	-10537
akalikasan	-10538
enburgbaan	-10539
performing	-10540
▁05/05/200	-10541
▁0567-7920	-10542
▁1923-11-1	-10543
▁1966-02-2	-10544
▁2014-10-2	-10545
▁Balingian	-10546
▁Barcelona	-10547
▁Completed	-10548
▁Corvallis	-10549
▁Forrester	-10550
▁Gravesend	-10551
▁Guitarist	-10552
▁Hungarian	-10553
▁Makabansa	-10554
▁Matchstix	-10555
▁Movieplay	-10556
▁Succeeded	-10557
▁Taquirari	-10558
▁attending	-10559
▁ethnicity	-10560
▁organized	-10561
▁populated	-10562
▁possesses	-10563
▁supermini	-10564
▁0567-7920.	-10565
▁1360-0443.	-10566
▁142603000.	-10567
▁1932-03-15	-10568
▁2005-11-26	-10569
▁2006-12-31	-10570
▁2014-2015.	-10571
▁Asociacion	-10572
▁Birkenhead	-10573
▁Connection	-10574
▁Favoritner	-10575
▁Industries	-10576
▁Influenced	-10577
▁Magistrate	-10578
▁Occupation	-10579
▁Previously	-10580
▁Production	-10581
▁Retrovirus	-10582
▁Shortcrust	-10583
▁Sovcomflot	-10584
▁Yugoslavia	-10585
▁Zaanstreek	-10586
▁concerning	-10587
▁literature	-10588
▁percussion	-10589
▁profession	-10590
▁"0001-8392"	-10591
▁01-01-1913,	-10592
▁01-01-1959.	-10593
▁16244700.0.	-10594
▁1932-07-27.	-10595
▁1939-01-03,	-10596
▁31.12.2006.	-10597
▁Minangkabau	-10598
▁battlefield	-10599
▁distributor	-10600
alternatively	-10601
▁"0-374-26131	-10602
▁$380,700,000	-10603
▁10264000000.	-10604
▁7729430000.0	-10605
▁Ferencvárosi	-10606
▁Pangasinense	-10607
▁Regionalliga	-10608
▁0-439-17685-9	-10609
▁Makakalikasan	-10610
▁alternatively	-10611
▁377016000000.0	-10612
▁445895000000.0	-10613
▁Classification	-10614
▁Dnipropetrovsk	-10615
▁Zwanenburgbaan	-10616
;"	-10617
AZ	-10618
CE	-10619
Dr	-10620
LK	-10621
OU	-10622
Sw	-10623
UD	-10624
ZF	-10625
go	-10626
kn	-10627
la	-10628
▁İ	-10629
.")	-10630
/08	-10631
/09	-10632
18.	-10633
188	-10634
200	-10635
202	-10636
632	-10637
72.	-10638
75.	-10639
84.	-10640
868	-10641
97.	-10642
Don	-10643
ICE	-10644
Mer	-10645
OUP	-10646
aak	-10647
auc	-10648
eer	-10649
eik	-10650
emi	-10651
emm	-10652
err	-10653
hle	-10654
hys	-10655
inb	-10656
irt	-10657
lew	-10658
mil	-10659
now	-10660
oly	-10661
oss	-10662
ree	-10663
rum	-10664
spe	-10665
ugo	-10666
ála	-10667
▁''	-10668
▁5'	-10669
▁68	-10670
▁GR	-10671
▁JP	-10672
▁Ní	-10673
▁PA	-10674
▁Pa	-10675
▁TS	-10676
▁XM	-10677
▁cc	-10678
▁gm	-10679
,749	-10680
-21.	-10681
-23.	-10682
/185	-10683
/193	-10684
/196	-10685
226.	-10686
3.26	-10687
466.	-10688
5.42	-10689
953.	-10690
Mark	-10691
Mary	-10692
Wash	-10693
aaki	-10694
adeh	-10695
alph	-10696
anas	-10697
anen	-10698
ayne	-10699
bler	-10700
crib	-10701
days	-10702
enho	-10703
enic	-10704
erst	-10705
hews	-10706
hran	-10707
iago	-10708
iens	-10709
igas	-10710
inae	-10711
inar	-10712
kaus	-10713
look	-10714
nard	-10715
onse	-10716
oord	-10717
ousi	-10718
uire	-10719
ustr	-10720
wber	-10721
xton	-10722
íona	-10723
▁"03	-10724
▁"05	-10725
▁"87	-10726
▁$87	-10727
▁023	-10728
▁121	-10729
▁130	-10730
▁179	-10731
▁2.5	-10732
▁2/2	-10733
▁25'	-10734
▁30,	-10735
▁39.	-10736
▁4,1	-10737
▁474	-10738
▁64,	-10739
▁64.	-10740
▁7/2	-10741
▁83.	-10742
▁ABI	-10743
▁ASB	-10744
▁ATW	-10745
▁AUD	-10746
▁Dos	-10747
▁FSV	-10748
▁Gem	-10749
▁Has	-10750
▁Jes	-10751
▁Mug	-10752
▁PAS	-10753
▁SLK	-10754
▁Sen	-10755
▁Vin	-10756
▁Von	-10757
▁did	-10758
▁mus	-10759
▁pad	-10760
▁ter	-10761
▁way	-10762
-07-1	-10763
13/31	-10764
5.33.	-10765
87.00	-10766
Drake	-10767
Engle	-10768
South	-10769
adian	-10770
alaba	-10771
alian	-10772
anted	-10773
arily	-10774
entiv	-10775
errle	-10776
force	-10777
idney	-10778
illas	-10779
known	-10780
liiga	-10781
nickn	-10782
peror	-10783
raine	-10784
relly	-10785
respi	-10786
total	-10787
uster	-10788
▁1/19	-10789
▁1793	-10790
▁1855	-10791
▁1875	-10792
▁1960	-10793
▁28.0	-10794
▁2900	-10795
▁330.	-10796
▁334.	-10797
▁3711	-10798
▁458.	-10799
▁657,	-10800
▁737,	-10801
▁82.8	-10802
▁925.	-10803
▁96.1	-10804
▁Asia	-10805
▁Bank	-10806
▁Cels	-10807
▁Code	-10808
▁Enge	-10809
▁Exch	-10810
▁Hell	-10811
▁Hugo	-10812
▁Peña	-10813
▁Time	-10814
▁Tory	-10815
▁Veik	-10816
▁Wang	-10817
▁When	-10818
▁Wirt	-10819
▁Year	-10820
▁Yemi	-10821
▁bean	-10822
▁bill	-10823
▁deer	-10824
▁earn	-10825
▁flew	-10826
▁laid	-10827
▁meal	-10828
▁mode	-10829
▁onto	-10830
▁phys	-10831
▁prec	-10832
▁proj	-10833
▁star	-10834
▁webs	-10835
▁wide	-10836
/1989.	-10837
000823	-10838
6-5294	-10839
ATISET	-10840
Brazil	-10841
Greece	-10842
arlemm	-10843
cribed	-10844
eleine	-10845
engine	-10846
ermeer	-10847
iating	-10848
inbajo	-10849
ipment	-10850
irinae	-10851
onesia	-10852
orates	-10853
origin	-10854
ritory	-10855
rolled	-10856
singer	-10857
ughlin	-10858
wickau	-10859
álaigh	-10860
▁07/23	-10861
▁07/25	-10862
▁09/27	-10863
▁1,982	-10864
▁1121.	-10865
▁12/30	-10866
▁168".	-10867
▁17.73	-10868
▁17.99	-10869
▁184.0	-10870
▁1857,	-10871
▁1873.	-10872
▁1911,	-10873
▁1914,	-10874
▁1932)	-10875
▁1939.	-10876
▁1968.	-10877
▁1976,	-10878
▁19880	-10879
▁1999.	-10880
▁2.032	-10881
▁214.0	-10882
▁597.0	-10883
▁66391	-10884
▁686.0	-10885
▁733.0	-10886
▁746.0	-10887
▁8.33.	-10888
▁9953.	-10889
▁Ahora	-10890
▁Arepa	-10891
▁Banjo	-10892
▁Bruce	-10893
▁Cantù	-10894
▁Cubic	-10895
▁Eenho	-10896
▁Elkin	-10897
▁Fland	-10898
▁Forth	-10899
▁Frews	-10900
▁GROUP	-10901
▁Gerst	-10902
▁Payne	-10903
▁Quinn	-10904
▁Ralph	-10905
▁Simon	-10906
▁Texan	-10907
▁Valor	-10908
▁dinar	-10909
▁finds	-10910
▁india	-10911
▁padeh	-10912
▁press	-10913
▁prior	-10914
▁venue	-10915
▁whole	-10916
Centrum	-10917
Merrikh	-10918
aurales	-10919
derbaan	-10920
ominent	-10921
oretrov	-10922
postela	-10923
▁$875.4	-10924
▁1,121.	-10925
▁140000	-10926
▁185.42	-10927
▁2014.0	-10928
▁253.26	-10929
▁3,800.	-10930
▁3048.0	-10931
▁4000.0	-10932
▁47487.	-10933
▁64,008	-10934
▁64.008	-10935
▁85466.	-10936
▁94531.	-10937
▁Asians	-10938
▁Barney	-10939
▁Blanco	-10940
▁Breman	-10941
▁Buxton	-10942
▁Crespi	-10943
▁Críona	-10944
▁Lentiv	-10945
▁Mughan	-10946
▁Romani	-10947
▁Romero	-10948
▁String	-10949
▁Tanaka	-10950
▁Tehran	-10951
▁Vinoly	-10952
▁bombed	-10953
▁citrus	-10954
▁commem	-10955
▁fourth	-10956
▁mainly	-10957
▁master	-10958
▁planes	-10959
▁planet	-10960
▁recipe	-10961
▁soccer	-10962
▁speaks	-10963
▁weight	-10964
Maryland	-10965
speaking	-10966
ustrator	-10967
▁1219.0.	-10968
▁165.33.	-10969
▁1959-01	-10970
▁2777.0.	-10971
▁288,749	-10972
▁3078.48	-10973
▁4100.0.	-10974
▁4387.00	-10975
▁96.1632	-10976
▁Andreas	-10977
▁Bernard	-10978
▁Celsius	-10979
▁Emperor	-10980
▁Gemmill	-10981
▁Kelvins	-10982
▁Leaders	-10983
▁Maguire	-10984
▁Marousi	-10985
▁Masaaki	-10986
▁Mathews	-10987
▁Musical	-10988
▁Oregano	-10989
▁Pudding	-10990
▁Rambler	-10991
▁Reality	-10992
▁Senator	-10993
▁Sperrle	-10994
▁Ukraine	-10995
▁Weaving	-10996
▁Zwickau	-10997
▁bananas	-10998
▁billion	-10999
▁closest	-11000
▁covered	-11001
▁degrees	-11002
▁enjoyed	-11003
▁granted	-11004
▁guitars	-11005
▁partial	-11006
▁physics	-11007
▁ranking	-11008
Desteapta	-11009
kausliiga	-11010
municipal	-11011
▁$108,600	-11012
▁1480153.	-11013
▁39447000	-11014
▁69862200	-11015
▁93645978	-11016
▁Amerigas	-11017
▁Benjamin	-11018
▁Borrelly	-11019
▁Campaign	-11020
▁Casillas	-11021
▁Dhálaigh	-11022
▁Eenhoorn	-11023
▁Exchange	-11024
▁Flanders	-11025
▁Gerstman	-11026
▁Haarlemm	-11027
▁Hellenic	-11028
▁Laughlin	-11029
▁Osinbajo	-11030
▁Santiago	-11031
▁Schuster	-11032
▁Valencia	-11033
▁Wirtanen	-11034
▁canadian	-11035
▁complete	-11036
▁diametre	-11037
▁failures	-11038
▁featured	-11039
▁formally	-11040
▁governor	-11041
▁monarchy	-11042
▁neighbor	-11043
▁İstanbul	-11044
Washington	-11045
icebreaker	-11046
▁"87000823	-11047
▁07/23/192	-11048
▁1046-8188	-11049
▁1360-0443	-11050
▁142603000	-11051
▁1558-2868	-11052
▁1891-05-2	-11053
▁1989-02-2	-11054
▁3,992.88.	-11055
▁318875313	-11056
▁32024459.	-11057
▁39447000,	-11058
▁39447000.	-11059
▁Canadiens	-11060
▁Madeleine	-11061
▁Matchstik	-11062
▁Submarine	-11063
▁administr	-11064
▁authority	-11065
▁birthdate	-11066
▁component	-11067
▁comprised	-11068
▁contained	-11069
▁described	-11070
▁dumplings	-11071
▁equipment	-11072
▁exponents	-11073
▁prominent	-11074
▁territory	-11075
corporation	-11076
▁"0002-9327	-11077
▁0025-5858.	-11078
▁1800000000	-11079
▁1865-8784.	-11080
▁2158-3226.	-11081
▁39447000.0	-11082
▁AEthelwald	-11083
▁Compostela	-11084
▁Cuttlefish	-11085
▁Englishman	-11086
▁Lentivirus	-11087
▁Linebacker	-11088
▁Polderbaan	-11089
▁Vegetables	-11090
▁Vermicelli	-11091
▁automobile	-11092
▁completion	-11093
▁identified	-11094
▁influences	-11095
▁neighbours	-11096
abbreviating	-11097
▁01-01-2000.	-11098
▁05/05/2005.	-11099
▁1896-02-01,	-11100
▁1907-07-11)	-11101
▁1920-08-16.	-11102
▁1974-08-01.	-11103
▁1980-04-23.	-11104
▁1998-07-21.	-11105
▁2004-07.14.	-11106
▁2009-04-04.	-11107
▁2013-11-04.	-11108
▁2014-10-28.	-11109
▁69862200.0,	-11110
▁Academicals	-11111
▁headquarter	-11112
▁information	-11113
▁instruments	-11114
▁legislative	-11115
▁responsible	-11116
oretrovirinae	-11117
▁135589000.0,	-11118
▁349206000000	-11119
▁collaborated	-11120
▁participants	-11121
▁İstanbulspor	-11122
▁$211,200,000.	-11123
▁0-7156-3648-0	-11124
▁1-4165-2060-0	-11125
▁8788850000.0,	-11126
▁Veikkausliiga	-11127
▁stylistically	-11128
▁undergraduate	-11129
▁"0-374-26131-8	-11130
▁124950000000.0	-11131
▁349206000000.0	-11132
▁Haarlemmermeer	-11133
▁$1,800,000,000.	-11134
▁6155910000000.0	-11135
"-	-11136
#:	-11137
//	-11138
28	-11139
34	-11140
Ak	-11141
OB	-11142
br	-11143
cm	-11144
hi	-11145
ko	-11146
lk	-11147
me	-11148
oß	-11149
tı	-11150
ve	-11151
ww	-11152
ăl	-11153
▁Ş	-11154
'),	-11155
-22	-11156
/10	-11157
/17	-11158
160	-11159
300	-11160
4-0	-11161
573	-11162
678	-11163
73,	-11164
9".	-11165
://	-11166
;",	-11167
Ajo	-11168
EAT	-11169
aci	-11170
bie	-11171
edy	-11172
gov	-11173
ici	-11174
ifl	-11175
kes	-11176
loo	-11177
ofd	-11178
oze	-11179
rol	-11180
ttp	-11181
ues	-11182
viy	-11183
was	-11184
wał	-11185
www	-11186
yed	-11187
ıtı	-11188
šan	-11189
▁"2	-11190
▁32	-11191
▁CF	-11192
▁Ec	-11193
▁Gá	-11194
▁Mk	-11195
▁PR	-11196
▁VW	-11197
▁bi	-11198
▁ph	-11199
▁ut	-11200
▁ws	-11201
-2".	-11202
-22.	-11203
/197	-11204
/22.	-11205
/30.	-11206
332.	-11207
42,3	-11208
5800	-11209
637.	-11210
80-4	-11211
833,	-11212
867.	-11213
873.	-11214
AZAL	-11215
Book	-11216
ISBN	-11217
Lamb	-11218
Maka	-11219
Mich	-11220
Türk	-11221
atre	-11222
ause	-11223
buil	-11224
comm	-11225
cont	-11226
died	-11227
enko	-11228
ents	-11229
gham	-11230
odon	-11231
oßku	-11232
pris	-11233
publ	-11234
sila	-11235
town	-11236
ultz	-11237
ălan	-11238
▁"15	-11239
▁(19	-11240
▁-7,	-11241
▁.88	-11242
▁1.0	-11243
▁11'	-11244
▁181	-11245
▁214	-11246
▁497	-11247
▁50.	-11248
▁505	-11249
▁524	-11250
▁618	-11251
▁734	-11252
▁925	-11253
▁Ave	-11254
▁Deb	-11255
▁Fri	-11256
▁Las	-11257
▁Rup	-11258
▁Yam	-11259
▁alm	-11260
▁bim	-11261
▁bor	-11262
▁cop	-11263
▁day	-11264
▁fos	-11265
▁lie	-11266
▁pay	-11267
▁que	-11268
▁sci	-11269
▁see	-11270
▁sup	-11271
▁wal	-11272
▁win	-11273
0-439	-11274
6,136	-11275
6.300	-11276
Akron	-11277
North	-11278
abate	-11279
acios	-11280
allon	-11281
aneer	-11282
arhus	-11283
ately	-11284
built	-11285
drive	-11286
ensus	-11287
honse	-11288
ingly	-11289
orius	-11290
roduc	-11291
sized	-11292
wałki	-11293
▁"023	-11294
▁$10.	-11295
▁12.0	-11296
▁1200	-11297
▁1411	-11298
▁164.	-11299
▁168"	-11300
▁168)	-11301
▁1776	-11302
▁1818	-11303
▁1948	-11304
▁1958	-11305
▁1964	-11306
▁1972	-11307
▁1973	-11308
▁2002	-11309
▁2439	-11310
▁2702	-11311
▁2953	-11312
▁3301	-11313
▁3678	-11314
▁4/22	-11315
▁470.	-11316
▁500.	-11317
▁575.	-11318
▁6.81	-11319
▁8002	-11320
▁8820	-11321
▁Ages	-11322
▁Atty	-11323
▁Bapt	-11324
▁CDTE	-11325
▁Coat	-11326
▁Curr	-11327
▁Dark	-11328
▁Eyed	-11329
▁Left	-11330
▁Lesh	-11331
▁Mahé	-11332
▁Many	-11333
▁Peas	-11334
▁Rico	-11335
▁SEAT	-11336
▁Sage	-11337
▁Smil	-11338
▁Türk	-11339
▁Wass	-11340
▁Well	-11341
▁arts	-11342
▁bank	-11343
▁caul	-11344
▁dict	-11345
▁dies	-11346
▁flav	-11347
▁gang	-11348
▁inch	-11349
▁kind	-11350
▁life	-11351
▁link	-11352
▁temp	-11353
▁util	-11354
▁very	-11355
▁wasp	-11356
▁zero	-11357
-03-04	-11358
-07-23	-11359
/08/19	-11360
/1987.	-11361
/2013.	-11362
AAIDBI	-11363
Donald	-11364
London	-11365
aining	-11366
county	-11367
design	-11368
overer	-11369
ucture	-11370
▁04/22	-11371
▁09/22	-11372
▁1080.	-11373
▁11.35	-11374
▁1418.	-11375
▁16/34	-11376
▁171.0	-11377
▁179.0	-11378
▁1793,	-11379
▁1872.	-11380
▁1878.	-11381
▁1910,	-11382
▁1921.	-11383
▁1925.	-11384
▁1936,	-11385
▁1955,	-11386
▁1971,	-11387
▁20,19	-11388
▁258.0	-11389
▁3,500	-11390
▁3,990	-11391
▁30/05	-11392
▁3090.	-11393
▁3990.	-11394
▁4/22.	-11395
▁7637.	-11396
▁9000,	-11397
▁911.0	-11398
▁Anıtı	-11399
▁Apium	-11400
▁Bakou	-11401
▁Balan	-11402
▁Booze	-11403
▁Bălan	-11404
▁Champ	-11405
▁Doshi	-11406
▁Dušan	-11407
▁Gábor	-11408
▁Hogao	-11409
▁Honey	-11410
▁Hoofd	-11411
▁Lucky	-11412
▁Voßku	-11413
▁Wever	-11414
▁areas	-11415
▁below	-11416
▁bhaji	-11417
▁calls	-11418
▁child	-11419
▁coden	-11420
▁dying	-11421
▁fight	-11422
▁fresh	-11423
▁funct	-11424
▁kilos	-11425
▁kinds	-11426
▁loyal	-11427
▁modes	-11428
▁queen	-11429
▁rules	-11430
▁three	-11431
▁voted	-11432
▁votes	-11433
▁width	-11434
6-5294.	-11435
Capital	-11436
Lambien	-11437
Livorno	-11438
amateur	-11439
icially	-11440
iflower	-11441
manager	-11442
monthly	-11443
ostbaan	-11444
serving	-11445
usiness	-11446
viyenko	-11447
▁"13/31	-11448
▁1,873.	-11449
▁102372	-11450
▁1142,3	-11451
▁12/30.	-11452
▁125800	-11453
▁18.52,	-11454
▁1800.0	-11455
▁2,195.	-11456
▁2194.0	-11457
▁2744.0	-11458
▁3,990.	-11459
▁3.3528	-11460
▁374976	-11461
▁39332.	-11462
▁733.0.	-11463
▁9,833,	-11464
▁Artist	-11465
▁Author	-11466
▁Debbie	-11467
▁Hunter	-11468
▁Lemons	-11469
▁Talaba	-11470
▁Tallon	-11471
▁Wilkes	-11472
▁Yamand	-11473
▁adding	-11474
▁amount	-11475
▁census	-11476
▁counts	-11477
▁derive	-11478
▁fossil	-11479
▁french	-11480
▁kidney	-11481
▁owners	-11482
▁paneer	-11483
▁preced	-11484
▁ranked	-11485
▁though	-11486
▁titles	-11487
▁walked	-11488
-17684-0	-11489
Amateurs	-11490
Michigan	-11491
ghampara	-11492
postcode	-11493
previous	-11494
quarters	-11495
▁$10.264	-11496
▁1121.0.	-11497
▁1480153	-11498
▁1510.0.	-11499
▁1856-09	-11500
▁1873.0.	-11501
▁336265,	-11502
▁3400.0.	-11503
▁3453.0.	-11504
▁416,136	-11505
▁Baptist	-11506
▁Chopped	-11507
▁Ecology	-11508
▁Friends	-11509
▁Ivković	-11510
▁Kennedy	-11511
▁Lasalle	-11512
▁Lettuce	-11513
▁Natives	-11514
▁Schultz	-11515
▁Suwałki	-11516
▁academy	-11517
▁amongst	-11518
▁artiste	-11519
▁because	-11520
▁central	-11521
▁constit	-11522
▁crewman	-11523
▁earning	-11524
▁editors	-11525
▁failure	-11526
▁forward	-11527
▁gangsta	-11528
▁outlook	-11529
▁percent	-11530
▁science	-11531
▁speaker	-11532
▁tempore	-11533
▁theatre	-11534
▁website	-11535
0025-5858	-11536
▁$556.300	-11537
▁11/08/19	-11538
▁2014–15.	-11539
▁3,992.88	-11540
▁32024459	-11541
▁374976.0	-11542
▁45644811	-11543
▁560090."	-11544
▁7637.76.	-11545
▁7877110.	-11546
▁Alphonse	-11547
▁Barbetti	-11548
▁Donabate	-11549
▁Formerly	-11550
▁Keyboard	-11551
▁Palacios	-11552
▁Produced	-11553
▁Smilodon	-11554
▁Strawber	-11555
▁Voßkuhle	-11556
▁Wartsila	-11557
▁Waterloo	-11558
▁cosmetic	-11559
▁enrolled	-11560
▁function	-11561
▁laurales	-11562
▁parented	-11563
designated	-11564
discovered	-11565
originated	-11566
▁16244700,	-11567
▁16244700.	-11568
▁198803.0.	-11569
▁2004-12-1	-11570
▁30/05/199	-11571
▁32024459,	-11572
▁Assembled	-11573
▁Available	-11574
▁Champions	-11575
▁Governing	-11576
▁MacDonald	-11577
▁Valentina	-11578
▁Wasserman	-11579
▁bimonthly	-11580
▁commender	-11581
▁developed	-11582
▁employing	-11583
▁garrisons	-11584
▁involving	-11585
▁psychedel	-11586
▁structure	-11587
▁unrelated	-11588
▁Şehitleri	-11589
Switzerland	-11590
alternative	-11591
▁"0025-5858	-11592
▁"0236-5294	-11593
▁0236-5294.	-11594
▁03/04/1901	-11595
▁0567-7920,	-11596
▁0965-2140.	-11597
▁1923-11-18	-11598
▁1998-07-21	-11599
▁2001-01-01	-11600
▁2006.12.31	-11601
▁380700000,	-11602
▁69862200.0	-11603
▁Andalusian	-11604
▁Associated	-11605
▁Coatbridge	-11606
▁Electropop	-11607
▁Ethnically	-11608
▁Icebreaker	-11609
▁Matviyenko	-11610
▁Wellington	-11611
▁chicharron	-11612
▁electronic	-11613
▁federalism	-11614
▁millimetre	-11615
▁officially	-11616
▁presidency	-11617
▁represents	-11618
▁sapindales	-11619
abbreviation	-11620
▁"0002-9327"	-11621
▁01-01-1913.	-11622
▁01-01-1959,	-11623
▁01/01/2000,	-11624
▁01/01/2000.	-11625
▁1857-03-03.	-11626
▁1913-01-01,	-11627
▁1932-03-15)	-11628
▁1959-01-01.	-11629
▁2001-01-01.	-11630
▁2006.12.31.	-11631
▁7729430000,	-11632
▁Hoofdklasse	-11633
▁cauliflower	-11634
▁centimeters	-11635
▁keyboardist	-11636
▁millimeters	-11637
▁neighboring	-11638
▁predominant	-11639
▁specializes	-11640
0-439-17684-0	-11641
▁$211,200,000	-11642
▁108,600,000,	-11643
▁139705000.0,	-11644
▁142603000.0,	-11645
▁41498400000.	-11646
▁9,833,516.63	-11647
▁Manufactured	-11648
▁0-439-92550-9	-11649
▁0-670-03380-4	-11650
▁279142000000.	-11651
▁8788850000.0.	-11652
▁0-670-03380-4,	-11653
▁279142000000.0.	-11654
▁288,749,000,000	-11655
▁288749000000.0,	-11656
!.	-11657
.;	-11658
/.	-11659
/4	-11660
/>	-11661
17	-11662
44	-11663
5"	-11664
9"	-11665
CQ	-11666
GT	-11667
Or	-11668
Sc	-11669
Wh	-11670
co	-11671
ga	-11672
▁<	-11673
▁~	-11674
!".	-11675
"),	-11676
05.	-11677
11,	-11678
123	-11679
13.	-11680
14,	-11681
170	-11682
199	-11683
226	-11684
30.	-11685
4",	-11686
467	-11687
513	-11688
635	-11689
66.	-11690
776	-11691
792	-11692
8.3	-11693
800	-11694
APN	-11695
Abh	-11696
Art	-11697
Kub	-11698
Mil	-11699
Ore	-11700
Sph	-11701
Ste	-11702
Uab	-11703
aeL	-11704
als	-11705
bro	-11706
cap	-11707
ces	-11708
hro	-11709
ief	-11710
iev	-11711
mod	-11712
non	-11713
nov	-11714
ohn	-11715
ply	-11716
sga	-11717
ued	-11718
ule	-11719
ype	-11720
▁(2	-11721
▁-8	-11722
▁06	-11723
▁89	-11724
▁9-	-11725
▁Gt	-11726
▁IN	-11727
▁MO	-11728
▁NA	-11729
▁ov	-11730
▁pf	-11731
▁wa	-11732
-2).	-11733
-4-2	-11734
0.74	-11735
3.8.	-11736
349.	-11737
439.	-11738
5.0.	-11739
533.	-11740
7.0,	-11741
70".	-11742
8.89	-11743
Arem	-11744
Aust	-11745
Brit	-11746
CQAG	-11747
Fort	-11748
Into	-11749
Roma	-11750
Wolf	-11751
adly	-11752
asil	-11753
asol	-11754
dert	-11755
eder	-11756
elev	-11757
esqu	-11758
etit	-11759
evin	-11760
http	-11761
icer	-11762
ieti	-11763
ikul	-11764
ilas	-11765
inzō	-11766
iten	-11767
itor	-11768
ners	-11769
ored	-11770
osse	-11771
oted	-11772
oval	-11773
pred	-11774
rete	-11775
rock	-11776
ting	-11777
ñoly	-11778
▁"09	-11779
▁"10	-11780
▁"18	-11781
▁$46	-11782
▁(18	-11783
▁-8,	-11784
▁.02	-11785
▁07,	-11786
▁08,	-11787
▁12'	-11788
▁13.	-11789
▁165	-11790
▁170	-11791
▁20.	-11792
▁229	-11793
▁306	-11794
▁362	-11795
▁395	-11796
▁45,	-11797
▁556	-11798
▁597	-11799
▁686	-11800
▁7.0	-11801
▁733	-11802
▁765	-11803
▁9.7	-11804
▁AIT	-11805
▁APN	-11806
▁Beg	-11807
▁Fus	-11808
▁Jun	-11809
▁Law	-11810
▁MBA	-11811
▁Mck	-11812
▁Oak	-11813
▁SqK	-11814
▁Syr	-11815
▁Tac	-11816
▁Tap	-11817
▁ach	-11818
▁acr	-11819
▁ajo	-11820
▁ann	-11821
▁ill	-11822
▁mex	-11823
▁obv	-11824
▁pet	-11825
▁set	-11826
▁von	-11827
/1856	-11828
770.0	-11829
8.892	-11830
Admin	-11831
Aluna	-11832
Artin	-11833
Assoc	-11834
Bacon	-11835
Dodge	-11836
Latin	-11837
Milan	-11838
Noord	-11839
Syria	-11840
White	-11841
aches	-11842
alays	-11843
alsme	-11844
anded	-11845
anged	-11846
antry	-11847
astin	-11848
bredo	-11849
brook	-11850
certs	-11851
count	-11852
dwell	-11853
eared	-11854
found	-11855
ident	-11856
ilipp	-11857
ionis	-11858
ision	-11859
islaw	-11860
itled	-11861
later	-11862
ludes	-11863
ludge	-11864
novel	-11865
onian	-11866
owned	-11867
tures	-11868
water	-11869
zzard	-11870
▁"173	-11871
▁1,20	-11872
▁1.33	-11873
▁100,	-11874
▁14.2	-11875
▁1635	-11876
▁1773	-11877
▁1921	-11878
▁1929	-11879
▁1937	-11880
▁2/20	-11881
▁2195	-11882
▁2215	-11883
▁2939	-11884
▁2988	-11885
▁2989	-11886
▁3/17	-11887
▁3048	-11888
▁3090	-11889
▁373,	-11890
▁4,01	-11891
▁48.0	-11892
▁512.	-11893
▁58.3	-11894
▁63.8	-11895
▁6573	-11896
▁678,	-11897
▁678.	-11898
▁7202	-11899
▁Anne	-11900
▁Auck	-11901
▁Birr	-11902
▁Body	-11903
▁Dess	-11904
▁Drew	-11905
▁Happ	-11906
▁Leni	-11907
▁Like	-11908
▁NaeL	-11909
▁Nael	-11910
▁Once	-11911
▁Rale	-11912
▁Ribb	-11913
▁Rice	-11914
▁Sony	-11915
▁Till	-11916
▁UTAA	-11917
▁Zone	-11918
▁birr	-11919
▁doom	-11920
▁educ	-11921
▁five	-11922
▁hear	-11923
▁help	-11924
▁john	-11925
▁late	-11926
▁look	-11927
▁mart	-11928
▁rule	-11929
▁runs	-11930
▁seal	-11931
▁sell	-11932
▁sent	-11933
▁theA	-11934
-01-19	-11935
-04-17	-11936
/1857.	-11937
/1969.	-11938
0.744.	-11939
2-2421	-11940
8.892.	-11941
Oregon	-11942
Sphinx	-11943
encing	-11944
enders	-11945
erbaan	-11946
ertype	-11947
esquin	-11948
hrooms	-11949
ikulov	-11950
iously	-11951
ipping	-11952
modern	-11953
ombian	-11954
rocket	-11955
sgaard	-11956
spouse	-11957
terest	-11958
uterte	-11959
▁"1999	-11960
▁.0068	-11961
▁03/03	-11962
▁05/21	-11963
▁1,121	-11964
▁120.0	-11965
▁12467	-11966
▁154.0	-11967
▁156.0	-11968
▁164.0	-11969
▁166.0	-11970
▁168",	-11971
▁1776.	-11972
▁1793.	-11973
▁18.44	-11974
▁1901,	-11975
▁1910'	-11976
▁1931,	-11977
▁1937,	-11978
▁1937.	-11979
▁1944.	-11980
▁1947,	-11981
▁1950.	-11982
▁1953,	-11983
▁1958,	-11984
▁1961,	-11985
▁1961.	-11986
▁1964,	-11987
▁1966,	-11988
▁1979,	-11989
▁1982,	-11990
▁1990,	-11991
▁2,776	-11992
▁2000;	-11993
▁2003,	-11994
▁23.8.	-11995
▁27/09	-11996
▁3,310	-11997
▁362.0	-11998
▁3684.	-11999
▁4000.	-12000
▁45000	-12001
▁6.97%	-12002
▁600.0	-12003
▁7.66.	-12004
▁7/25.	-12005
▁900.0	-12006
▁94531	-12007
▁ADICE	-12008
▁Alley	-12009
▁Along	-12010
▁Arist	-12011
▁Avant	-12012
▁Bajji	-12013
▁Basil	-12014
▁Danes	-12015
▁Drone	-12016
▁Finch	-12017
▁Halls	-12018
▁Horns	-12019
▁Jaish	-12020
▁Jesus	-12021
▁Kevin	-12022
▁Langu	-12023
▁Owned	-12024
▁Pando	-12025
▁Polit	-12026
▁Princ	-12027
▁Prior	-12028
▁Swamp	-12029
▁Syria	-12030
▁Vilas	-12031
▁Weder	-12032
▁Where	-12033
▁apple	-12034
▁arròs	-12035
▁barny	-12036
▁chose	-12037
▁civil	-12038
▁craft	-12039
▁drone	-12040
▁drums	-12041
▁flows	-12042
▁fused	-12043
▁going	-12044
▁italy	-12045
▁march	-12046
▁metro	-12047
▁minus	-12048
▁money	-12049
▁movie	-12050
▁payed	-12051
▁sadly	-12052
▁spain	-12053
▁spend	-12054
▁tarts	-12055
▁those	-12056
▁virus	-12057
▁worth	-12058
-03-13.	-12059
-03-16.	-12060
-07-03.	-12061
-07-197	-12062
-09-27.	-12063
/03/194	-12064
513,000	-12065
67-7920	-12066
88-2632	-12067
British	-12068
English	-12069
Germany	-12070
capable	-12071
coached	-12072
country	-12073
created	-12074
erature	-12075
imately	-12076
itenvel	-12077
iveness	-12078
minutes	-12079
roduced	-12080
variant	-12081
▁07/25.	-12082
▁1,533.	-12083
▁11.35.	-12084
▁11/29,	-12085
▁1533.0	-12086
▁17.28.	-12087
▁1873.0	-12088
▁2,439.	-12089
▁296521	-12090
▁3,310.	-12091
▁3,997,	-12092
▁3990.0	-12093
▁4,100.	-12094
▁4,349.	-12095
▁488160	-12096
▁511592	-12097
▁8.334.	-12098
▁877.0.	-12099
▁94531,	-12100
▁99.792	-12101
▁Cannon	-12102
▁Chieti	-12103
▁Energy	-12104
▁Fusion	-12105
▁Geared	-12106
▁Junior	-12107
▁Legacy	-12108
▁MArtin	-12109
▁Mastin	-12110
▁Period	-12111
▁Peters	-12112
▁Porius	-12113
▁Rupiah	-12114
▁Shinzō	-12115
▁Signed	-12116
▁Syrian	-12117
▁Tacoma	-12118
▁Viñoly	-12119
▁Warner	-12120
▁achiev	-12121
▁across	-12122
▁alaska	-12123
▁almost	-12124
▁builds	-12125
▁colors	-12126
▁format	-12127
▁formed	-12128
▁geared	-12129
▁hosted	-12130
▁indian	-12131
▁inline	-12132
▁island	-12133
▁labour	-12134
▁legisl	-12135
▁linked	-12136
▁locals	-12137
▁manged	-12138
▁occupy	-12139
▁orders	-12140
▁others	-12141
▁persea	-12142
▁petrol	-12143
▁predec	-12144
▁result	-12145
▁rocker	-12146
▁senior	-12147
▁showed	-12148
▁simply	-12149
▁sister	-12150
▁stroke	-12151
▁taking	-12152
▁winner	-12153
▁wizard	-12154
8-11-02.	-12155
aircraft	-12156
dertbaan	-12157
designed	-12158
formally	-12159
includes	-12160
nickname	-12161
official	-12162
structed	-12163
▁102372,	-12164
▁102372.	-12165
▁1982.0.	-12166
▁1988-11	-12167
▁1995-09	-12168
▁2003.0.	-12169
▁2009-10	-12170
▁2014.0.	-12171
▁2194.0.	-12172
▁2195.0.	-12173
▁3090.0.	-12174
▁38.892.	-12175
▁39500.0	-12176
▁40.744.	-12177
▁488160.	-12178
▁95040.0	-12179
▁Abubaka	-12180
▁Colonel	-12181
▁Cooking	-12182
▁Duterte	-12183
▁Eastman	-12184
▁Fantasy	-12185
▁Hazzard	-12186
▁Lesquin	-12187
▁Managed	-12188
▁Married	-12189
▁Merrikh	-12190
▁Mikulov	-12191
▁Officer	-12192
▁Parasol	-12193
▁Pianist	-12194
▁Raleigh	-12195
▁Robredo	-12196
▁Rodrigo	-12197
▁Tappara	-12198
▁Tillich	-12199
▁Turkeys	-12200
▁Yamandú	-12201
▁adviser	-12202
▁capitol	-12203
▁carrier	-12204
▁coaches	-12205
▁consist	-12206
▁creates	-12207
▁fantasy	-12208
▁focuses	-12209
▁follows	-12210
▁insular	-12211
▁italian	-12212
▁lasting	-12213
▁martyrs	-12214
▁matador	-12215
▁project	-12216
▁resting	-12217
▁runways	-12218
▁selling	-12219
▁spanish	-12220
▁surpris	-12221
▁winning	-12222
-01-1901.	-12223
completed	-12224
identally	-12225
ilippines	-12226
▁"0269-93	-12227
▁"13/31".	-12228
▁01/01/19	-12229
▁03/04/18	-12230
▁07-04-17	-12231
▁120770.0	-12232
▁1461102.	-12233
▁1480153)	-12234
▁20,1930.	-12235
▁33012.0.	-12236
▁37116.0.	-12237
▁39332.9.	-12238
▁47487.6.	-12239
▁85466.9.	-12240
▁8805735,	-12241
▁9953.28.	-12242
▁AidAluna	-12243
▁Auckland	-12244
▁Authored	-12245
▁Caldwell	-12246
▁Competit	-12247
▁Concerts	-12248
▁Filipina	-12249
▁Germanic	-12250
▁Heinrich	-12251
▁Kingston	-12252
▁Mckenzie	-12253
▁Mendriso	-12254
▁Milionis	-12255
▁Military	-12256
▁Oostbaan	-12257
▁Sandoval	-12258
▁Shipping	-12259
▁Sumatran	-12260
▁airforce	-12261
▁amateurs	-12262
▁assigned	-12263
▁baseball	-12264
▁concrete	-12265
▁creating	-12266
▁creation	-12267
▁dictates	-12268
▁entitled	-12269
▁examiner	-12270
▁facility	-12271
▁fighters	-12272
▁hospital	-12273
▁interest	-12274
▁involves	-12275
▁mobility	-12276
▁occupies	-12277
▁prepared	-12278
▁provider	-12279
▁shipyard	-12280
▁spending	-12281
▁standard	-12282
▁subgenre	-12283
▁trombone	-12284
0000000.0,	-12285
associated	-12286
discoverer	-12287
ocotyledon	-12288
previously	-12289
publishers	-12290
▁01-07-197	-12291
▁05/21/193	-12292
▁1,202.846	-12293
▁1080-6377	-12294
▁211200000	-12295
▁45644811,	-12296
▁488160.0,	-12297
▁Beginning	-12298
▁Buitenvel	-12299
▁Happiness	-12300
▁Languages	-12301
▁Ministers	-12302
▁Princeton	-12303
▁Stanislaw	-12304
▁Townships	-12305
▁generates	-12306
▁indonesia	-12307
▁mushrooms	-12308
▁obviously	-12309
▁powertype	-12310
▁primarily	-12311
▁providing	-12312
▁solanales	-12313
80,700,000.	-12314
alsmeerbaan	-12315
constructed	-12316
predecessor	-12317
▁"1588-2632	-12318
▁"1732-2421	-12319
▁"87000823"	-12320
▁01-01-2000	-12321
▁08-16-1920	-12322
▁09/22/1856	-12323
▁10,264,000	-12324
▁1360-0443,	-12325
▁139705000,	-12326
▁1473-5571,	-12327
▁1857-03-03	-12328
▁1920-08-16	-12329
▁1927-07-23	-12330
▁1966-02-28	-12331
▁2013-11-04	-12332
▁318875313.	-12333
▁Bundsgaard	-12334
▁Catalonian	-12335
▁Considered	-12336
▁Electronic	-12337
▁Northbrook	-12338
▁Politician	-12339
▁Postmodern	-12340
▁Scriptures	-12341
▁components	-12342
▁electropop	-12343
▁membership	-12344
▁republican	-12345
▁stylistics	-12346
▁"0025-5858"	-12347
▁01/01/1989.	-12348
▁03/03/1857.	-12349
▁03/04/1905.	-12350
▁07-01-1901.	-12351
▁07/23/1927.	-12352
▁10264000000	-12353
▁11/08/1986.	-12354
▁15100000000	-12355
▁1857-03-04,	-12356
▁1891-05-20.	-12357
▁1896-02-01.	-12358
▁1920-08-16,	-12359
▁1933-10-17)	-12360
▁1939-01-03.	-12361
▁1941-07-03.	-12362
▁1947-03-13.	-12363
▁1958-11-02.	-12364
▁1966-02-28.	-12365
▁1998-03-16.	-12366
▁2001-01-01,	-12367
▁2003-09-27.	-12368
▁2004-12-18.	-12369
▁2006-12-31,	-12370
▁2009-04-04,	-12371
▁324,720,797	-12372
▁373,513,000	-12373
▁39447000.0,	-12374
▁41498400000	-12375
▁46,000,000.	-12376
▁Progressive	-12377
▁competition	-12378
▁illustrator	-12379
▁influencing	-12380
▁participant	-12381
▁progressive	-12382
▁"0269-9370".	-12383
▁$108,600,000	-12384
▁$46,000,000.	-12385
▁279142000000	-12386
▁324,720,797.	-12387
▁Metropolitan	-12388
▁broadcasting	-12389
▁commemorated	-12390
▁publications	-12391
▁representing	-12392
▁transporting	-12393
▁1-56947-301-3	-12394
▁279142000000,	-12395
▁3,997,100,000	-12396
▁Architectural	-12397
▁Undergraduate	-12398
▁championships	-12399
▁manufacturing	-12400
▁participating	-12401
▁predominantly	-12402
▁"0-439-17684-0	-12403
▁15,100,000,000	-12404
▁3997100000000,	-12405
▁administrative	-12406
▁arrondissement	-12407
▁15,100,000,000,	-12408
▁184434000000.0.	-12409
▁416,136,000,000	-12410
▁Competitiveness	-12411
!"	-12412
"(	-12413
''	-12414
')	-12415
))	-12416
,.	-12417
,8	-12418
--	-12419
1(	-12420
3,	-12421
36	-12422
37	-12423
5)	-12424
6)	-12425
62	-12426
8'	-12427
8;	-12428
AD	-12429
Az	-12430
BA	-12431
Bo	-12432
Cr	-12433
FL	-12434
Fr	-12435
GA	-12436
HQ	-12437
Kg	-12438
Le	-12439
NR	-12440
Ph	-12441
QE	-12442
RM	-12443
Tr	-12444
US	-12445
bo	-12446
eL	-12447
fk	-12448
td	-12449
xM	-12450
ús	-12451
▁#	-12452
▁:	-12453
▁|	-12454
,23	-12455
,24	-12456
,85	-12457
,95	-12458
-05	-12459
-1;	-12460
-7,	-12461
-88	-12462
.",	-12463
.'.	-12464
/02	-12465
/11	-12466
/16	-12467
/>.	-12468
09.	-12469
100	-12470
114	-12471
2,3	-12472
206	-12473
3,3	-12474
4".	-12475
447	-12476
594	-12477
83,	-12478
9,9	-12479
ACF	-12480
Air	-12481
And	-12482
Aur	-12483
Ben	-12484
For	-12485
Har	-12486
Lar	-12487
Leg	-12488
Los	-12489
MBA	-12490
Mad	-12491
May	-12492
Met	-12493
Que	-12494
She	-12495
aag	-12496
app	-12497
avy	-12498
bel	-12499
31	-12500
Gr	-12501
QB	-12502
,43	-12503
-3;	-12504
05,	-12505
215	-12506
7,0	-12507
bas	-12508
bir	-12509
erd	-12510
inf	-12511
iog	-12512
jam	-12513
jos	-12514
new	-12515
omy	-12516
pah	-12517
pan	-12518
por	-12519
pro	-12520
ted	-12521
▁(3	-12522
▁(7	-12523
▁02	-12524
▁2-	-12525
▁Aa	-12526
▁Dw	-12527
▁Fc	-12528
▁Ff	-12529
▁KM	-12530
▁PS	-12531
▁TX	-12532
▁UN	-12533
▁ha	-12534
▁hq	-12535
▁ia	-12536
▁ne	-12537
▁no	-12538
▁od	-12539
▁og	-12540
▁sn	-12541
,238	-12542
,497	-12543
-08.	-12544
-09.	-12545
-17.	-12546
-189	-12547
-2),	-12548
-20)	-12549
-31.	-12550
/01.	-12551
/21,	-12552
/32.	-12553
002.	-12554
1,58	-12555
1999	-12556
2.1.	-12557
2009	-12558
219.	-12559
252.	-12560
3671	-12561
411.	-12562
514,	-12563
5326	-12564
6031	-12565
715,	-12566
72.0	-12567
8-06	-12568
87.0	-12569
898.	-12570
Alan	-12571
Cook	-12572
Jong	-12573
Laur	-12574
NRBQ	-12575
Prin	-12576
Vice	-12577
aena	-12578
alnd	-12579
alue	-12580
area	-12581
augh	-12582
auth	-12583
away	-12584
book	-12585
both	-12586
ceae	-12587
dean	-12588
dece	-12589
doll	-12590
door	-12591
east	-12592
emen	-12593
ened	-12594
esor	-12595
ethn	-12596
film	-12597
flow	-12598
hrán	-12599
icts	-12600
iety	-12601
ifth	-12602
igen	-12603
ikow	-12604
ipad	-12605
iple	-12606
irca	-12607
ocol	-12608
oday	-12609
orts	-12610
pite	-12611
prox	-12612
rect	-12613
reys	-12614
rons	-12615
ugur	-12616
umer	-12617
urer	-12618
usan	-12619
xMTU	-12620
▁(11	-12621
▁.21	-12622
▁0.9	-12623
▁03,	-12624
▁1,2	-12625
▁1,8	-12626
▁1/1	-12627
▁154	-12628
▁160	-12629
▁171	-12630
▁2,9	-12631
▁24,	-12632
▁243	-12633
▁258	-12634
▁268	-12635
▁325	-12636
▁334	-12637
▁346	-12638
▁352	-12639
▁39,	-12640
▁4/4	-12641
▁458	-12642
▁470	-12643
▁972	-12644
▁AIr	-12645
▁Agr	-12646
▁Dup	-12647
▁INf	-12648
▁Ill	-12649
▁Ltd	-12650
▁MAT	-12651
▁Pfk	-12652
▁PhD	-12653
▁RSC	-12654
▁VFL	-12655
▁Wic	-12656
▁Zel	-12657
▁adv	-12658
▁alt	-12659
▁ans	-12660
▁any	-12661
▁bay	-12662
▁ben	-12663
▁cul	-12664
▁cur	-12665
▁det	-12666
▁dev	-12667
▁eas	-12668
▁eff	-12669
▁fav	-12670
▁few	-12671
▁fly	-12672
▁fun	-12673
▁fur	-12674
▁gam	-12675
▁inA	-12676
▁int	-12677
▁isP	-12678
▁lab	-12679
▁lik	-12680
▁lot	-12681
▁mak	-12682
▁oft	-12683
▁old	-12684
▁six	-12685
▁son	-12686
▁tal	-12687
▁tot	-12688
▁yet	-12689
-130'	-12690
-23".	-12691
/1980	-12692
/2009	-12693
0000,	-12694
1966.	-12695
226".	-12696
3,309	-12697
3523.	-12698
5,895	-12699
6031.	-12700
7,170	-12701
8-192	-12702
80-04	-12703
9,206	-12704
9,705	-12705
9,942	-12706
ADICE	-12707
Aenir	-12708
Force	-12709
Fried	-12710
Kovac	-12711
Larry	-12712
Mayor	-12713
Metal	-12714
Print	-12715
Queen	-12716
Solan	-12717
adors	-12718
aenau	-12719
ained	-12720
andom	-12721
asian	-12722
auces	-12723
awned	-12724
aying	-12725
bases	-12726
birth	-12727
ctore	-12728
dered	-12729
disco	-12730
earby	-12731
entia	-12732
enues	-12733
erged	-12734
eryth	-12735
genus	-12736
group	-12737
heria	-12738
icans	-12739
ields	-12740
inues	-12741
izing	-12742
janos	-12743
motto	-12744
orney	-12745
polit	-12746
ports	-12747
sites	-12748
south	-12749
uency	-12750
vocal	-12751
▁"101	-12752
▁0,54	-12753
▁0.54	-12754
▁0.88	-12755
▁06/2	-12756
▁1,19	-12757
▁1,62	-12758
▁1080	-12759
▁11-1	-12760
▁127"	-12761
▁1510	-12762
▁1600	-12763
▁1935	-12764
▁1979	-12765
▁214.	-12766
▁2194	-12767
▁229.	-12768
▁3/10	-12769
▁3/16	-12770
▁3/21	-12771
▁320-	-12772
▁3331	-12773
▁3684	-12774
▁388-	-12775
▁3990	-12776
▁4019	-12777
▁43.0	-12778
▁4387	-12779
▁469,	-12780
▁476.	-12781
▁512,	-12782
▁518.	-12783
▁6,81	-12784
▁714,	-12785
▁734,	-12786
▁806,	-12787
▁877.	-12788
▁896.	-12789
▁9.7.	-12790
▁9/27	-12791
▁929.	-12792
▁ALVX	-12793
▁Aida	-12794
▁Apia	-12795
▁Azal	-12796
▁Batt	-12797
▁Dail	-12798
▁Econ	-12799
▁HARM	-12800
▁Hugh	-12801
▁Kaag	-12802
▁Kirk	-12803
▁LaCr	-12804
▁NAeL	-12805
▁NRQB	-12806
▁News	-12807
▁Peso	-12808
▁Sima	-12809
▁Tour	-12810
▁WIld	-12811
▁best	-12812
▁boss	-12813
▁bron	-12814
▁even	-12815
▁fact	-12816
▁fort	-12817
▁happ	-12818
▁insp	-12819
▁jour	-12820
▁larg	-12821
▁list	-12822
▁lost	-12823
▁math	-12824
▁mini	-12825
▁mult	-12826
▁orth	-12827
▁park	-12828
▁port	-12829
▁saus	-12830
▁soci	-12831
▁sqkm	-12832
▁theM	-12833
▁waas	-12834
▁whom	-12835
▁whos	-12836
▁winn	-12837
-07-01	-12838
-1891.	-12839
/1979.	-12840
/2004.	-12841
09.01.	-12842
16/192	-12843
729,43	-12844
788,85	-12845
ASCQAG	-12846
Andrew	-12847
Boeing	-12848
Collin	-12849
Gaffey	-12850
Hungar	-12851
League	-12852
Legion	-12853
Maiden	-12854
Malays	-12855
Nether	-12856
Rhythm	-12857
annock	-12858
assemb	-12859
attack	-12860
belong	-12861
christ	-12862
compan	-12863
edicts	-12864
ements	-12865
erseen	-12866
ethnic	-12867
hannes	-12868
ippine	-12869
itoite	-12870
leased	-12871
mander	-12872
member	-12873
oteles	-12874
postal	-12875
runway	-12876
spoken	-12877
ternet	-12878
unders	-12879
urally	-12880
▁"1967	-12881
▁(1872	-12882
▁.0252	-12883
▁03/30	-12884
▁05-20	-12885
▁09/01	-12886
▁09/05	-12887
▁102,3	-12888
▁1500.	-12889
▁16.37	-12890
▁1634,	-12891
▁1635:	-12892
▁17.92	-12893
▁17/03	-12894
▁1776,	-12895
▁1904)	-12896
▁1907)	-12897
▁1908,	-12898
▁1910)	-12899
▁1921,	-12900
▁1928)	-12901
▁1929,	-12902
▁1939,	-12903
▁1947.	-12904
▁1948,	-12905
▁1949.	-12906
▁1953.	-12907
▁1959)	-12908
▁1973.	-12909
▁2,195	-12910
▁2,215	-12911
▁2/20.	-12912
▁2001)	-12913
▁2007.	-12914
▁2008,	-12915
▁211.0	-12916
▁22.1.	-12917
▁24.0,	-12918
▁2744.	-12919
▁2776.	-12920
▁2900.	-12921
▁3,800	-12922
▁3/21.	-12923
▁324.0	-12924
▁3310.	-12925
▁3500,	-12926
▁39500	-12927
▁4,000	-12928
▁4,100	-12929
▁4100.	-12930
▁44114	-12931
▁5,594	-12932
▁500.0	-12933
▁524.0	-12934
▁6,573	-12935
▁63800	-12936
▁7,202	-12937
▁7.08,	-12938
▁9001.	-12939
▁95040	-12940
▁Adbul	-12941
▁Arhus	-12942
▁Being	-12943
▁Birth	-12944
▁Clubs	-12945
▁Cream	-12946
▁Deers	-12947
▁Dusan	-12948
▁Jesús	-12949
▁Money	-12950
▁Noord	-12951
▁Onion	-12952
▁Parts	-12953
▁Piano	-12954
▁Since	-12955
▁Start	-12956
▁Today	-12957
▁Tripp	-12958
▁Years	-12959
▁actor	-12960
▁alumn	-12961
▁apium	-12962
▁basil	-12963
▁bengo	-12964
▁bring	-12965
▁carry	-12966
▁chief	-12967
▁chute	-12968
▁circa	-12969
▁coinc	-12970
▁could	-12971
▁dales	-12972
▁daugh	-12973
▁exist	-12974
▁fifth	-12975
▁flown	-12976
▁great	-12977
▁lasts	-12978
▁looks	-12979
▁louis	-12980
▁manor	-12981
▁month	-12982
▁numer	-12983
▁offer	-12984
▁outer	-12985
▁snack	-12986
▁sound	-12987
▁stret	-12988
▁techn	-12989
▁telev	-12990
▁times	-12991
▁value	-12992
▁would	-12993
,000,00	-12994
,951,58	-12995
-03-04.	-12996
-07-01.	-12997
-07-13.	-12998
367194.	-12999
447,000	-13000
5739224	-13001
Austria	-13002
England	-13003
Indiana	-13004
Italian	-13005
Journal	-13006
Spanish	-13007
Steuben	-13008
akewell	-13009
ariants	-13010
astella	-13011
dollars	-13012
enhower	-13013
ibility	-13014
inaugur	-13015
ization	-13016
ocolate	-13017
porting	-13018
retired	-13019
▁"1-4-2	-13020
▁(77.41	-13021
▁08/26,	-13022
▁1,121,	-13023
▁1,219.	-13024
▁1,411.	-13025
▁1,982,	-13026
▁1.337.	-13027
▁1.524,	-13028
▁10,000	-13029
▁10252.	-13030
▁13,123	-13031
▁13/31,	-13032
▁14/32.	-13033
▁1411.0	-13034
▁1472.0	-13035
▁1510.0	-13036
▁16/34.	-13037
▁16000,	-13038
▁17,000	-13039
▁1773.0	-13040
▁19,238	-13041
▁2,194.	-13042
▁2009".	-13043
▁252000	-13044
▁253260	-13045
▁268.0.	-13046
▁2702.0	-13047
▁3400.0	-13048
▁3453.0	-13049
▁347.1)	-13050
▁371,24	-13051
▁38.892	-13052
▁4,019.	-13053
▁4019.0	-13054
▁4100.0	-13055
▁4387.0	-13056
▁497.0,	-13057
▁58.38.	-13058
▁7,715,	-13059
▁8,514,	-13060
▁929.0.	-13061
▁Airpor	-13062
▁Akrons	-13063
▁Atlass	-13064
▁Billie	-13065
▁Diemen	-13066
▁Dupage	-13067
▁Dwight	-13068
▁Julius	-13069
▁Kheria	-13070
▁Metres	-13071
▁Rappah	-13072
▁Ribbon	-13073
▁Sludge	-13074
▁Unites	-13075
▁Wakrah	-13076
▁Zeland	-13077
▁airing	-13078
▁banjos	-13079
▁better	-13080
▁center	-13081
▁consum	-13082
▁crisis	-13083
▁entity	-13084
▁ethnos	-13085
▁gaming	-13086
▁hockey	-13087
▁incorp	-13088
▁lasted	-13089
▁little	-13090
▁makers	-13091
▁manage	-13092
▁mashed	-13093
▁mexico	-13094
▁musics	-13095
▁nearby	-13096
▁needed	-13097
▁opened	-13098
▁random	-13099
▁sauces	-13100
▁stared	-13101
▁street	-13102
▁studio	-13103
▁styled	-13104
▁traced	-13105
▁versus	-13106
▁widely	-13107
▁worker	-13108
▁yields	-13109
Aurakles	-13110
Benjamin	-13111
Business	-13112
Columbus	-13113
aucasian	-13114
authored	-13115
deceased	-13116
division	-13117
erything	-13118
estiniog	-13119
icopters	-13120
national	-13121
ombonist	-13122
produced	-13123
▁"2158-3	-13124
▁100,305	-13125
▁13017,0	-13126
▁139,705	-13127
▁1411.0.	-13128
▁1461102	-13129
▁167.94.	-13130
▁1773.0.	-13131
▁179,942	-13132
▁1818.0.	-13133
▁183,309	-13134
▁29,000.	-13135
▁3048.0.	-13136
▁3300.0.	-13137
▁3310.0,	-13138
▁336265.	-13139
▁349,206	-13140
▁352,497	-13141
▁3684.0.	-13142
▁4000.0,	-13143
▁4019.0.	-13144
▁410777)	-13145
▁437,170	-13146
▁445,895	-13147
▁85466.9	-13148
▁9953.28	-13149
▁Aaarhus	-13150
▁Aderson	-13151
▁Aleksay	-13152
▁Bakwell	-13153
▁Battles	-13154
▁Blaenau	-13155
▁Bodhrán	-13156
▁Current	-13157
▁Dessert	-13158
▁Economy	-13159
▁Eireann	-13160
▁Finalnd	-13161
▁Helipad	-13162
▁Ivkovic	-13163
▁Marriot	-13164
▁Playing	-13165
▁Singing	-13166
▁Tejanos	-13167
▁Tourism	-13168
▁Turners	-13169
▁amateur	-13170
▁appears	-13171
▁borough	-13172
▁carried	-13173
▁claimed	-13174
▁collect	-13175
▁control	-13176
▁cruises	-13177
▁culture	-13178
▁defence	-13179
▁details	-13180
▁devoted	-13181
▁efforts	-13182
▁exactly	-13183
▁flavour	-13184
▁further	-13185
▁happens	-13186
▁indigen	-13187
▁islands	-13188
▁journey	-13189
▁largely	-13190
▁nations	-13191
▁passing	-13192
▁peoples	-13193
▁periodd	-13194
▁players	-13195
▁premier	-13196
▁runaway	-13197
▁serverd	-13198
▁spawned	-13199
▁stopped	-13200
▁variety	-13201
▁weights	-13202
▁whereas	-13203
▁winners	-13204
Americans	-13205
Blackpool	-13206
Frederick	-13207
Friedrich	-13208
Indonesia	-13209
Lauraceae	-13210
Manhattan	-13211
Nashville	-13212
Wisconsin	-13213
assembled	-13214
christian	-13215
commanded	-13216
commander	-13217
flowering	-13218
nicknamed	-13219
quartered	-13220
reference	-13221
succeeded	-13222
ufacturer	-13223
▁"1980-04	-13224
▁$875.400	-13225
▁11473.9,	-13226
▁28,1966.	-13227
▁4/4/2009	-13228
▁47487.6,	-13229
▁560090".	-13230
▁7,729,43	-13231
▁8,788,85	-13232
▁9/27/200	-13233
▁Abubaker	-13234
▁Apiaceae	-13235
▁Attached	-13236
▁Attorney	-13237
▁Chirikow	-13238
▁Galician	-13239
▁Industry	-13240
▁Johannes	-13241
▁Kaagbaan	-13242
▁LaCrosse	-13243
▁Matadors	-13244
▁Mexicans	-13245
▁Mountain	-13246
▁Plantain	-13247
▁Preceded	-13248
▁Spaniard	-13249
▁Students	-13250
▁Thunders	-13251
▁Wiconsin	-13252
▁accompan	-13253
▁advances	-13254
▁airports	-13255
▁annually	-13256
▁assemble	-13257
▁birthday	-13258
▁bordered	-13259
▁business	-13260
▁compares	-13261
▁congress	-13262
▁daughter	-13263
▁employer	-13264
▁fortress	-13265
▁generate	-13266
▁infantry	-13267
▁kilogram	-13268
▁launches	-13269
▁movement	-13270
▁multiple	-13271
▁numerous	-13272
▁overseen	-13273
▁powering	-13274
▁projects	-13275
▁recently	-13276
▁released	-13277
▁retained	-13278
▁revenues	-13279
▁sausages	-13280
▁senators	-13281
▁utilizes	-13282
▁variants	-13283
▁websites	-13284
6,300,000.	-13285
Azerbaijan	-13286
containing	-13287
politician	-13288
▁0002-9327	-13289
▁0269-9370	-13290
▁08/16/192	-13291
▁1,622.213	-13292
▁13/03/194	-13293
▁1732-2421	-13294
▁1865-8784	-13295
▁1999-05-2	-13296
▁27367194.	-13297
▁511592000	-13298
▁57392246,	-13299
▁69862200,	-13300
▁69862200.	-13301
▁76798317,	-13302
▁Airportis	-13303
▁Benedicts	-13304
▁Currently	-13305
▁Defenders	-13306
▁Fiorentia	-13307
▁Frenchman	-13308
▁Humphreys	-13309
▁Monuments	-13310
▁Operating	-13311
▁WIldweeds	-13312
▁benitoite	-13313
▁bungalows	-13314
▁chocolate	-13315
▁colombian	-13316
▁commenced	-13317
▁conflicts	-13318
▁continues	-13319
▁developer	-13320
▁flavoured	-13321
▁launching	-13322
▁nationals	-13323
▁obtaining	-13324
▁organised	-13325
▁socialist	-13326
▁subsidary	-13327
Netherlands	-13328
inaugurated	-13329
proximately	-13330
▁"0567-7920	-13331
▁01-01-1959	-13332
▁01/01/1989	-13333
▁05/21/1936	-13334
▁0965-2140,	-13335
▁100305.0"(	-13336
▁1080-6377,	-13337
▁135589000,	-13338
▁135589000.	-13339
▁142603000,	-13340
▁1558-2868,	-13341
▁1588-2632,	-13342
▁1732-2421,	-13343
▁1853-03-04	-13344
▁1856-09-22	-13345
▁1857-03-04	-13346
▁1875-03-04	-13347
▁1896-02-01	-13348
▁1936-05-21	-13349
▁1974-08-01	-13350
▁1989-02-24	-13351
▁2004-07.14	-13352
▁2009-04-04	-13353
▁3/17/2013.	-13354
▁30/05/1996	-13355
▁39,447,000	-13356
▁523,951,58	-13357
▁523329000,	-13358
▁Aidastella	-13359
▁Birthplace	-13360
▁Classified	-13361
▁Compressed	-13362
▁Eisenhower	-13363
▁Ffestiniog	-13364
▁Literature	-13365
▁Strawberry	-13366
▁Zamboangan	-13367
▁attendance	-13368
▁banyumasan	-13369
▁chicharrón	-13370
▁commmander	-13371
▁competitor	-13372
▁comprising	-13373
▁consisting	-13374
▁constitute	-13375
▁controlled	-13376
▁developers	-13377
▁ethnically	-13378
▁everything	-13379
▁graduation	-13380
▁inhabiting	-13381
▁legislated	-13382
▁performers	-13383
▁publishers	-13384
▁supporting	-13385
▁television	-13386
Harrietstown	-13387
headquarters	-13388
▁"0236-5294"	-13389
▁01-01-2000,	-13390
▁01-07-1976,	-13391
▁03/04/1853.	-13392
▁03/04/1905,	-13393
▁03/30/1979.	-13394
▁05-20-1891.	-13395
▁07-04-1776.	-13396
▁08-16-1920.	-13397
▁09/01/1969.	-13398
▁09/05/1989.	-13399
▁09/27/1987.	-13400
▁10/03/1983,	-13401
▁108,600,000	-13402
▁139,705,000	-13403
▁17/03/2013.	-13404
▁179,942,000	-13405
▁1856-09-22.	-13406
▁1857-03-04.	-13407
▁1891-05-20,	-13408
▁1907-07-11,	-13409
▁1923-11-18.	-13410
▁1927-07-23)	-13411
▁1930-01-20)	-13412
▁1932-03-15.	-13413
▁1936-05-21,	-13414
▁1969.09.01.	-13415
▁1988-11-22.	-13416
▁1989-02-24,	-13417
▁1995-09-02.	-13418
▁2009-10-02.	-13419
▁2014-07-13.	-13420
▁27/09/1987.	-13421
▁30/05/1996.	-13422
▁31.12.2006,	-13423
▁371,240,000	-13424
▁437,170,000	-13425
▁7729430000.	-13426
▁Aristoteles	-13427
▁Illustrator	-13428
▁Inhabitants	-13429
▁Phillippine	-13430
▁application	-13431
▁commelinids	-13432
▁constitutes	-13433
▁educational	-13434
▁identifiers	-13435
▁performance	-13436
▁philippines	-13437
▁psychedelia	-13438
▁psychedelic	-13439
▁specialised	-13440
▁"0236-5294".	-13441
▁"1588-2632".	-13442
▁"1732-2421".	-13443
▁"2158-3226".	-13444
▁10264000000,	-13445
▁380,700,000.	-13446
▁41498400000,	-13447
▁8,514,837.14	-13448
▁Aalsmeerbaan	-13449
▁Johannesburg	-13450
▁Postgraduate	-13451
▁Rappahannock	-13452
▁Retroviruses	-13453
▁Strawberries	-13454
▁achievements	-13455
▁additionally	-13456
▁affiliations	-13457
▁commemorates	-13458
▁constituency	-13459
▁distributing	-13460
▁distribution	-13461
▁incidentally	-13462
▁incorporates	-13463
▁surprisingly	-13464
▁"1980-04-23".	-13465
▁$108,600,000,	-13466
▁$875,400,000,	-13467
▁0-374-26131-8	-13468
▁349206000000,	-13469
▁349206000000.	-13470
▁445895000000,	-13471
▁445895000000.	-13472
▁7,715,100,000	-13473
▁7,729,430,000	-13474
▁7729430000.0,	-13475
▁8,788,850,000	-13476
▁PremierLeague	-13477
▁monocotyledon	-13478
▁parliamentary	-13479
Friedrichshafen	-13480
▁0-439-17685-9,	-13481
▁0-439-92550-9,	-13482
▁0-7156-3648-0,	-13483
▁10,264,000,000	-13484
▁41498400000.0,	-13485
▁88234300000.0,	-13486
▁categorization	-13487
▁responsibility	-13488
▁124950000000.0,	-13489
▁352,497,000,000	-13490
▁352497000000.0,	-13491
▁445,895,000,000	-13492
▁445895000000.0,	-13493
'',	-13494
''.	-13495
.";	-13496
/07	-13497
/>,	-13498
25-	-13499
186	-13500
4,3	-13501
411	-13502
453	-13503
484	-13504
5")	-13505
5"-	-13506
84,	-13507
9,3	-13508
;")	-13509
AGR	-13510
ARA	-13511
ATW	-13512
DTE	-13513
HOK	-13514
Inf	-13515
Sci	-13516
Ull	-13517
sku	-13518
▁#3	-13519
▁~7	-13520
!937	-13521
"192	-13522
,160	-13523
,192	-13524
,329	-13525
,426	-13526
-02)	-13527
-13,	-13528
-195	-13529
-196	-13530
-2)'	-13531
-22"	-13532
/194	-13533
0.17	-13534
06/1	-13535
0925	-13536
10.1	-13537
17,2	-13538
1706	-13539
1939	-13540
1967	-13541
1998	-13542
2,64	-13543
202.	-13544
226)	-13545
453.	-13546
603,	-13547
682,	-13548
7.1)	-13549
70,4	-13550
797.	-13551
8-12	-13552
:1.0	-13553
AIDs	-13554
CDTE	-13555
Hief	-13556
Hugh	-13557
ICAO	-13558
Kuet	-13559
Shek	-13560
Turk	-13561
USAF	-13562
cook	-13563
keep	-13564
raws	-13565
uals	-13566
warm	-13567
▁$53	-13568
▁''0	-13569
▁(17	-13570
▁.54	-13571
▁07)	-13572
▁07;	-13573
▁3,5	-13574
▁4,3	-13575
▁518	-13576
▁63,	-13577
▁75,	-13578
▁ENg	-13579
▁MAg	-13580
▁SKA	-13581
▁Ski	-13582
▁cyc	-13583
▁env	-13584
▁phr	-13585
▁ult	-13586
▁wsa	-13587
"1928	-13588
,400,	-13589
-02".	-13590
-130"	-13591
-1921	-13592
-1989	-13593
-2015	-13594
-339.	-13595
/06/1	-13596
/1921	-13597
/1923	-13598
/1933	-13599
0,9	-13600
64)	-13601
720	-13602
81)	-13603
90,	-13604
005,	-13605
2.0,	-13606
6.0,	-13607
776,	-13608
82),	-13609
Jeff	-13610
cude	-13611
ilva	-13612
navy	-13613
roke	-13614
▁.01	-13615
▁.04	-13616
▁70,	-13617
▁877	-13618
/1974	-13619
/1998	-13620
/2013	-13621
/33".	-13622
0,906	-13623
03/21	-13624
13/19	-13625
1995)	-13626
1995.	-13627
2004.	-13628
2009.	-13629
234,3	-13630
25326	-13631
40714	-13632
53260	-13633
7.07.	-13634
7/200	-13635
80700	-13636
9,343	-13637
Agnes	-13638
Annie	-13639
Baduy	-13640
Essex	-13641
Glass	-13642
Grant	-13643
Hiefs	-13644
Inger	-13645
Italy	-13646
Lucky	-13647
Phill	-13648
Steel	-13649
Tyrol	-13650
annel	-13651
annie	-13652
aphic	-13653
aturk	-13654
cream	-13655
crete	-13656
cubic	-13657
emory	-13658
erely	-13659
hakur	-13660
ilogr	-13661
inued	-13662
iopia	-13663
ipoia	-13664
itted	-13665
lcude	-13666
lnois	-13667
local	-13668
nader	-13669
often	-13670
opted	-13671
ossku	-13672
pects	-13673
phrys	-13674
prior	-13675
redit	-13676
rikov	-13677
tains	-13678
teles	-13679
thnic	-13680
tyard	-13681
uerto	-13682
▁!937	-13683
▁"110	-13684
▁''08	-13685
▁(292	-13686
▁02-2	-13687
▁1,98	-13688
▁1121	-13689
▁1949	-13690
▁2,01	-13691
▁2,93	-13692
▁229,	-13693
▁23.1	-13694
▁23.8	-13695
▁23/4	-13696
▁259,	-13697
▁26.1	-13698
▁2776	-13699
,42	-13700
130	-13701
14)	-13702
324	-13703
941	-13704
:13	-13705
BLT	-13706
HAL	-13707
kms	-13708
1913	-13709
eghs	-13710
hmed	-13711
like	-13712
when	-13713
▁242	-13714
-1941	-13715
/1953	-13716
1913,	-13717
Ahmed	-13718
Armin	-13719
Order	-13720
bread	-13721
eanwh	-13722
ieghs	-13723
ilmar	-13724
nberg	-13725
ubbed	-13726
ucted	-13727
▁111,	-13728
▁280.	-13729
▁325.	-13730
▁330,	-13731
▁3310	-13732
▁334,	-13733
▁336,	-13734
▁360-	-13735
▁3807	-13736
▁4100	-13737
▁476)	-13738
▁500,	-13739
▁518,	-13740
▁5350	-13741
▁609,	-13742
▁618.	-13743
▁746.	-13744
▁797.	-13745
▁8/31	-13746
▁84.0	-13747
▁9,00	-13748
▁9001	-13749
▁925,	-13750
▁AUDA	-13751
▁Aabb	-13752
▁Aidi	-13753
▁Baju	-13754
▁Beek	-13755
▁Farm	-13756
▁HUll	-13757
▁Humn	-13758
▁Iinf	-13759
▁Look	-13760
▁Macd	-13761
▁Melb	-13762
▁Only	-13763
▁TARA	-13764
▁Weft	-13765
▁acts	-13766
▁apop	-13767
▁brot	-13768
▁byAn	-13769
▁capt	-13770
▁copm	-13771
▁crow	-13772
▁duty	-13773
▁gulf	-13774
▁hone	-13775
▁http	-13776
▁jets	-13777
▁lauc	-13778
▁leve	-13779
▁navy	-13780
▁oven	-13781
▁purs	-13782
▁rota	-13783
▁scre	-13784
▁sits	-13785
▁turf	-13786
▁turk	-13787
▁whih	-13788
▁~100	-13789
,1920,	-13790
-10-23	-13791
-1920,	-13792
-1921)	-13793
-1959,	-13794
-1964)	-13795
-1964.	-13796
.03/21	-13797
/02/19	-13798
/10/19	-13799
469	-13800
CCn	-13801
afi	-13802
udg	-13803
firm	-13804
▁1,0	-13805
▁1,5	-13806
▁10.	-13807
▁34,	-13808
▁44,	-13809
▁8.5	-13810
▁amd	-13811
▁rea	-13812
orpor	-13813
udget	-13814
▁(600	-13815
▁10.3	-13816
▁1868	-13817
▁3400	-13818
▁497.	-13819
▁523.	-13820
▁Arch	-13821
▁KCCN	-13822
▁LCCn	-13823
▁Moor	-13824
▁cels	-13825
▁exce	-13826
/1856.	-13827
/1930.	-13828
/1933.	-13829
/1949.	-13830
/1966,	-13831
/1998.	-13832
/2013,	-13833
/2014.	-13834
/7/200	-13835
00.00,	-13836
07.14.	-13837
10.17.	-13838
1239.3	-13839
13/31)	-13840
14,469	-13841
1939).	-13842
347.1)	-13843
4-1989	-13844
50000,	-13845
70,404	-13846
70000,	-13847
8-06-1	-13848
8-1920	-13849
83,326	-13850
Assaul	-13851
German	-13852
Origin	-13853
Pierce	-13854
Pogson	-13855
Polish	-13856
Porius	-13857
Stöger	-13858
Swords	-13859
Talaba	-13860
Thakur	-13861
Travis	-13862
adhzhi	-13863
afiore	-13864
antino	-13865
atured	-13866
birthd	-13867
coming	-13868
earala	-13869
emeber	-13870
eneath	-13871
genres	-13872
iances	-13873
ibuted	-13874
iduals	-13875
ilarly	-13876
kilogr	-13877
loying	-13878
lusion	-13879
obenda	-13880
phonse	-13881
placed	-13882
rawber	-13883
roadly	-13884
sponge	-13885
sports	-13886
stance	-13887
taylor	-13888
tronau	-13889
undred	-13890
urbank	-13891
urpris	-13892
worked	-13893
▁"1971	-13894
▁"1988	-13895
▁"2009	-13896
▁'1967	-13897
▁(11/2	-13898
▁(1856	-13899
,9	-13900
NZ	-13901
WI	-13902
ck	-13903
Bak	-13904
Bre	-13905
Nov	-13906
idb	-13907
ipt	-13908
yma	-13909
▁ii	-13910
,910	-13911
Baku	-13912
aipt	-13913
ecad	-13914
ewel	-13915
olos	-13916
olul	-13917
ulit	-13918
▁afr	-13919
▁lib	-13920
▁ran	-13921
▁ref	-13922
▁sum	-13923
▁tod	-13924
Breaz	-13925
Weeds	-13926
apara	-13927
▁162,	-13928
▁Itis	-13929
▁NAel	-13930
▁ayma	-13931
▁blck	-13932
▁libr	-13933
▁rich	-13934
▁tidb	-13935
/1857,	-13936
0.1793	-13937
55,910	-13938
aiptal	-13939
ceived	-13940
ecades	-13941
linder	-13942
olding	-13943
▁(1999	-13944
▁(3500	-13945
▁.0155	-13946
▁.0455	-13947
▁.0925	-13948
▁02/01	-13949
▁02/28	-13950
▁03/16	-13951
▁04/23	-13952
▁06/24	-13953
▁07/11	-13954
▁1,195	-13955
▁1,219	-13956
▁1,299	-13957
▁1,800	-13958
▁1,873	-13959
▁1-4-2	-13960
▁1.773	-13961
▁1/19,	-13962
▁1/19.	-13963
▁10/17	-13964
▁1015.	-13965
▁102.3	-13966
▁1033,	-13967
▁11/18	-13968
▁12/18	-13969
▁13123	-13970
▁14/32	-13971
▁1600,	-13972
▁168),	-13973
▁17/10	-13974
▁18.00	-13975
▁1818,	-13976
▁1818.	-13977
▁1820,	-13978
▁185.0	-13979
▁1855,	-13980
▁1891,	-13981
▁1891.	-13982
▁1896.	-13983
▁1905,	-13984
▁1914)	-13985
▁1920;	-13986
▁1923)	-13987
▁1925,	-13988
▁1927)	-13989
▁1933)	-13990
▁1935,	-13991
▁1944,	-13992
▁1957/	-13993
▁1966)	-13994
▁1966;	-13995
▁1980,	-13996
▁1980/	-13997
▁1987)	-13998
▁1987;	-13999
Tur	-14000
ivo	-14001
jis	-14002
rap	-14003
▁Fo	-14004
▁JH	-14005
020,	-14006
Corn	-14007
abit	-14008
esid	-14009
feat	-14010
harl	-14011
hich	-14012
iity	-14013
isap	-14014
liar	-14015
otar	-14016
unuf	-14017
uron	-14018
▁473	-14019
▁806	-14020
▁Foo	-14021
▁JHU	-14022
▁Lat	-14023
▁Typ	-14024
▁ant	-14025
▁div	-14026
▁fro	-14027
"1999	-14028
Charl	-14029
Turin	-14030
avily	-14031
heivo	-14032
their	-14033
ustri	-14034
▁105.	-14035
▁Ajaz	-14036
▁Bolf	-14037
▁Loco	-14038
▁divs	-14039
▁loca	-14040
▁loct	-14041
▁lots	-14042
▁musc	-14043
▁nett	-14044
▁plus	-14045
▁root	-14046
:"1999	-14047
aisins	-14048
rapper	-14049
▁04/11	-14050
▁1875,	-14051
▁1981)	-14052
▁1994,	-14053
▁2,014	-14054
▁2,744	-14055
▁2,989	-14056
▁20/01	-14057
▁27-06	-14058
▁2953.	-14059
▁2988.	-14060
▁3,300	-14061
▁3,453	-14062
▁3/21,	-14063
▁3048.	-14064
▁3180.	-14065
▁3300.	-14066
▁37116	-14067
▁4,019	-14068
▁4.100	-14069
▁4.14.	-14070
▁4000,	-14071
▁4019.	-14072
▁518.0	-14073
▁5300.	-14074
▁5594.	-14075
▁58.38	-14076
▁6573.	-14077
▁7/25,	-14078
▁7202.	-14079
▁78771	-14080
▁8002.	-14081
▁9,001	-14082
▁Aabba	-14083
▁Aarhu	-14084
▁Abiba	-14085
▁Amdra	-14086
▁Beefk	-14087
▁Belgi	-14088
▁Cantú	-14089
▁Citiz	-14090
▁Erect	-14091
▁Genus	-14092
▁Kocis	-14093
▁LarsL	-14094
▁Later	-14095
▁Latun	-14096
▁Maged	-14097
▁Marcy	-14098
▁Marke	-14099
zm	-14100
▁x	-14101
Pop	-14102
Vir	-14103
col	-14104
iry	-14105
▁((	-14106
▁Ax	-14107
▁GD	-14108
▁||	-14109
498,	-14110
Also	-14111
alem	-14112
ingr	-14113
trad	-14114
zmur	-14115
▁(05	-14116
▁88.	-14117
▁Fas	-14118
▁Nat	-14119
▁Stn	-14120
▁Was	-14121
▁est	-14122
▁||.	-14123
/1987	-14124
498,4	-14125
Adams	-14126
Reddy	-14127
Salem	-14128
alent	-14129
color	-14130
entil	-14131
maker	-14132
▁Balg	-14133
▁Raye	-14134
▁ciry	-14135
▁earl	-14136
▁gone	-14137
▁heal	-14138
▁recr	-14139
-03-16	-14140
/1983.	-14141
metres	-14142
orport	-14143
traded	-14144
▁01/08	-14145
▁Axura	-14146
▁HVACs	-14147
▁Hyerm	-14148
▁Izmur	-14149
▁Often	-14150
▁Piece	-14151
▁Radio	-14152
▁Rupee	-14153
▁Sadly	-14154
▁Stnad	-14155
▁Three	-14156
▁Using	-14157
▁Vehic	-14158
▁Wagon	-14159
▁Weigh	-14160
▁Wolfs	-14161
▁alike	-14162
▁altog	-14163
▁amkar	-14164
▁asked	-14165
▁auron	-14166
▁baade	-14167
▁board	-14168
▁bulit	-14169
▁byVir	-14170
▁cebre	-14171
▁chair	-14172
▁crowd	-14173
▁defin	-14174
▁deplo	-14175
▁doing	-14176
▁doors	-14177
▁draws	-14178
▁dutch	-14179
▁emper	-14180
▁emply	-14181
▁enhan	-14182
▁envir	-14183
▁estab	-14184
▁excep	-14185
▁favou	-14186
▁fourt	-14187
▁guard	-14188
▁helps	-14189
▁homes	-14190
▁labor	-14191
▁lates	-14192
▁likes	-14193
▁notew	-14194
▁palys	-14195
▁pesos	-14196
▁phase	-14197
▁plaus	-14198
▁point	-14199
1-	-14200
we	-14201
16,	-14202
85.	-14203
rst	-14204
▁RN	-14205
▁Us	-14206
▁ho	-14207
▁hu	-14208
164,	-14209
896,	-14210
agan	-14211
ayam	-14212
erel	-14213
mity	-14214
oune	-14215
owas	-14216
▁117	-14217
▁Ald	-14218
▁Nig	-14219
▁Pas	-14220
▁aff	-14221
▁del	-14222
▁dic	-14223
▁say	-14224
omain	-14225
▁Best	-14226
▁Bian	-14227
▁Fish	-14228
▁Manh	-14229
▁RNBQ	-14230
▁Weap	-14231
▁huge	-14232
/1896,	-14233
Ithaca	-14234
attern	-14235
cessor	-14236
irited	-14237
weight	-14238
▁''08/	-14239
▁01/09	-14240
▁10/28	-14241
▁1174.	-14242
▁1872,	-14243
▁1885.	-14244
▁2,194	-14245
▁Addid	-14246
▁Aldre	-14247
▁Bianc	-14248
▁Sauce	-14249
▁Speak	-14250
▁Types	-14251
▁bagan	-14252
▁delic	-14253
▁proud	-14254
▁rated	-14255
▁recru	-14256
▁rents	-14257
▁sized	-14258
▁sizes	-14259
▁solos	-14260
▁spoke	-14261
▁sroke	-14262
▁stint	-14263
▁strip	-14264
▁stylr	-14265
▁theAd	-14266
▁theAp	-14267
▁today	-14268
▁typic	-14269
▁units	-14270
▁werel	-14271
▁whihc	-14272
▁~700.	-14273
-01-01,	-14274
-02-08.	-14275
-03-02.	-14276
-03-09.	-14277
-03-13,	-14278
-05-09.	-14279
-05-31.	-14280
-08-31.	-14281
-10-17)	-14282
-10-17.	-14283
-10-22.	-14284
-12-08.	-14285
-12-11.	-14286
-1941),	-14287
-3,1706	-14288
/02/196	-14289
/07/01.	-14290
/09/01.	-14291
/22/200	-14292
1,498,4	-14293
1.2005,	-14294
13/1947	-14295
1865-87	-14296
40714).	-14297
50000.0	-14298
513.722	-14299
.(	-14300
0"	-14301
:1	-14302
hd	-14303
50"	-14304
Eth	-14305
Fer	-14306
gan	-14307
tit	-14308
▁HP	-14309
▁Me	-14310
Egan	-14311
Ring	-14312
alet	-14313
ayer	-14314
eyor	-14315
isty	-14316
resn	-14317
urat	-14318
▁(10	-14319
▁Ten	-14320
▁ahd	-14321
▁isa	-14322
▁nex	-14323
▁pur	-14324
adrid	-14325
cenza	-14326
eding	-14327
irage	-14328
irgin	-14329
oales	-14330
oring	-14331
resnt	-14332
title	-14333
veyor	-14334
▁"50"	-14335
▁(103	-14336
▁3897	-14337
▁Garn	-14338
▁Meas	-14339
▁Pals	-14340
▁Soul	-14341
▁leas	-14342
▁love	-14343
▁next	-14344
▁theK	-14345
County	-14346
Ferenc	-14347
Poales	-14348
alethe	-14349
cooked	-14350
hthnic	-14351
icting	-14352
player	-14353
▁Palsa	-14354
▁assoc	-14355
▁bEgan	-14356
▁meber	-14357
▁might	-14358
▁purch	-14359
-03-16,	-14360
2-2002.	-14361
60-0443	-14362
603,633	-14363
7.07.23	-14364
70,404,	-14365
720797.	-14366
7679831	-14367
8,234,3	-14368
8-1923.	-14369
8875313	-14370
:347.1)	-14371
Alkmaar	-14372
Bhangra	-14373
Burbank	-14374
Central	-14375
Cornell	-14376
Cousins	-14377
Greater	-14378
Stanyan	-14379
Trenton	-14380
Zellner	-14381
achable	-14382
actired	-14383
aduates	-14384
alaysia	-14385
andombe	-14386
antinos	-14387
ceeding	-14388
contain	-14389
emerged	-14390
esiding	-14391
founder	-14392
habited	-14393
icition	-14394
imarily	-14395
isapsis	-14396
issiles	-14397
itially	-14398
mingham	-14399
7)	-14400
Ap	-14401
Ex	-14402
KW	-14403
hr	-14404
nu	-14405
▁;	-14406
6).	-14407
olt	-14408
▁ew	-14409
8600	-14410
Bolt	-14411
awas	-14412
bors	-14413
erib	-14414
▁alc	-14415
▁bit	-14416
▁hon	-14417
▁ros	-14418
▁292-	-14419
▁Doge	-14420
▁Reps	-14421
▁adul	-14422
▁doug	-14423
ozawas	-14424
▁06/30	-14425
▁Bebii	-14426
▁Which	-14427
▁adult	-14428
▁peter	-14429
▁serie	-14430
▁theam	-14431
ocalist	-14432
omotice	-14433
origins	-14434
overned	-14435
popular	-14436
quently	-14437
rectary	-14438
rovirus	-14439
service	-14440
spanish	-14441
surpris	-14442
ungenre	-14443
usician	-14444
ustrial	-14445
ylistic	-14446
▁(11-04	-14447
▁(11/29	-14448
▁(1872)	-14449
▁(1914)	-14450
▁(1981)	-14451
▁(1995)	-14452
▁-3.352	-14453
▁03/21,	-14454
▁06/24,	-14455
▁07/25,	-14456
▁1,1959	-14457
▁1,873,	-14458
▁1,982.	-14459
▁1.337,	-14460
▁10000.	-14461
▁108600	-14462
▁11.200	-14463
▁120770	-14464
▁16/34,	-14465
▁17068.	-14466
▁1818.0	-14467
▁185,42	-14468
▁1901).	-14469
▁1932.0	-14470
▁1957).	-14471
▁1966.0	-14472
▁2.032.	-14473
▁2003.0	-14474
▁2014.,	-14475
▁2195.0	-14476
▁2743.0	-14477
▁28.892	-14478
▁3,300.	-14479
▁3,310,	-14480
▁3,453.	-14481
▁3,990,	-14482
▁336,26	-14483
▁344.9(	-14484
▁3684.0	-14485
▁389700	-14486
▁500.00	-14487
▁524.5.	-14488
▁56009.	-14489
▁597.0,	-14490
▁6-12-1	-14491
▁611961	-14492
▁75,324	-14493
▁8.334,	-14494
▁ASCQAG	-14495
▁Aaronn	-14496
▁Akigbe	-14497
▁Americ	-14498
▁Angolo	-14499
,0	-14500
Ac	-14501
Bu	-14502
Id	-14503
NN	-14504
TX	-14505
gé	-14506
uS	-14507
▁]	-14508
Fel	-14509
zew	-14510
▁ig	-14511
▁uS	-14512
1952	-14513
Asad	-14514
Carr	-14515
Doug	-14516
Ohio	-14517
asis	-14518
cent	-14519
oden	-14520
rime	-14521
uide	-14522
▁Adr	-14523
▁Mcl	-14524
▁SId	-14525
▁adn	-14526
▁asA	-14527
817,2	-14528
;1952	-14529
Class	-14530
Prime	-14531
elaka	-14532
icing	-14533
zewas	-14534
▁210.	-14535
▁5584	-14536
▁7/25	-14537
▁ISNN	-14538
▁nasa	-14539
▁prev	-14540
▁vary	-14541
▁want	-14542
Buenos	-14543
Carrie	-14544
Felipe	-14545
Madrid	-14546
ardesh	-14547
elated	-14548
ennium	-14549
▁1.533	-14550
▁1964;	-14551
▁32.2,	-14552
▁Assoc	-14553
▁Coden	-14554
▁CourC	-14555
▁Hergé	-14556
▁banks	-14557
▁suppl	-14558
-03-04,	-14559
00,000,	-14560
▁518.0,	-14561
▁523.9.	-14562
▁8,500,	-14563
▁Aristó	-14564
▁Ashbat	-14565
▁Astero	-14566
▁Astion	-14567
▁Azerib	-14568
▁Bangal	-14569
▁Berone	-14570
▁Bianca	-14571
▁Birmin	-14572
▁Bornin	-14573
▁CHiefs	-14574
▁Cheivo	-14575
▁Chosen	-14576
▁Clacio	-14577
▁Cruide	-14578
▁Doctor	-14579
▁Editor	-14580
▁Factor	-14581
▁Floors	-14582
▁Follow	-14583
▁Forces	-14584
▁Groups	-14585
▁Hallam	-14586
▁Headed	-14587
▁Indons	-14588
▁Kidney	-14589
▁Kovacs	-14590
▁Legend	-14591
▁Living	-14592
▁Macdon	-14593
▁Manore	-14594
▁Meanwh	-14595
▁Meyere	-14596
▁Moores	-14597
▁Motine	-14598
▁Rasher	-14599
..	-14600
./	-14601
4)	-14602
aq	-14603
kl	-14604
,80	-14605
334	-14606
5".	-14607
;".	-14608
Big	-14609
Ros	-14610
iar	-14611
mon	-14612
try	-14613
▁AA	-14614
,807	-14615
Bhaj	-14616
Hong	-14617
anad	-14618
asty	-14619
bird	-14620
embe	-14621
rite	-14622
uses	-14623
▁Hok	-14624
▁IBN	-14625
▁Sve	-14626
▁gor	-14627
▁mix	-14628
▁nut	-14629
▁raq	-14630
Bhaji	-14631
Canad	-14632
acted	-14633
ocier	-14634
plant	-14635
▁404)	-14636
▁8334	-14637
▁ares	-14638
▁deal	-14639
▁fron	-14640
▁grad	-14641
▁stae	-14642
▁take	-14643
▁wher	-14644
▁whoa	-14645
Canada	-14646
Rosids	-14647
anding	-14648
oultry	-14649
▁1776)	-14650
▁21940	-14651
▁2989.	-14652
▁AAron	-14653
▁gorup	-14654
▁membe	-14655
▁slang	-14656
▁tasty	-14657
155,910	-14658
Uruguay	-14659
hington	-14660
▁$3,807	-14661
▁29000.	-14662
▁6.97%.	-14663
▁Abners	-14664
▁Oddies	-14665
▁Retire	-14666
▁Romane	-14667
▁SIdcup	-14668
▁SInger	-14669
▁STates	-14670
▁Sanger	-14671
▁Sarnie	-14672
▁Served	-14673
▁Sliced	-14674
▁Soccer	-14675
▁Spoken	-14676
▁Turmen	-14677
▁Tzewas	-14678
▁UNited	-14679
▁USnavy	-14680
▁Vossku	-14681
▁Whilst	-14682
▁Worked	-14683
▁accord	-14684
▁addres	-14685
▁alread	-14686
▁alumni	-14687
▁anders	-14688
▁annual	-14689
▁assoco	-14690
▁bhajis	-14691
▁bought	-14692
▁broadc	-14693
▁budget	-14694
▁claims	-14695
▁contry	-14696
▁copies	-14697
▁corpor	-14698
▁couple	-14699
27	-14700
Sh	-14701
Bar	-14702
Ibr	-14703
bed	-14704
had	-14705
Demp	-14706
ided	-14707
rane	-14708
▁$15	-14709
▁(23	-14710
▁62.	-14711
▁AgM	-14712
▁Joh	-14713
▁dal	-14714
▁isT	-14715
▁ked	-14716
▁nat	-14717
▁ton	-14718
Demps	-14719
enada	-14720
iates	-14721
loved	-14722
▁$15,	-14723
▁(320	-14724
▁1027	-14725
▁15,1	-14726
▁Aand	-14727
▁Aldr	-14728
▁LIbr	-14729
▁Lond	-14730
▁Nach	-14731
▁Ster	-14732
▁hail	-14733
▁inst	-14734
▁sami	-14735
▁thei	-14736
Barack	-14737
Shumai	-14738
entiet	-14739
▁1862)	-14740
▁1919.	-14741
▁2939.	-14742
▁Londr	-14743
▁Maths	-14744
▁inste	-14745
▁isAGR	-14746
▁light	-14747
▁munuf	-14748
▁natie	-14749
▁plack	-14750
▁silva	-14751
▁stage	-14752
▁trane	-14753
Airport	-14754
Dempsey	-14755
entieth	-14756
isation	-14757
▁Aldren	-14758
▁Parane	-14759
▁andhad	-14760
▁crated	-14761
▁credit	-14762
▁demogr	-14763
▁domain	-14764
▁downed	-14765
▁dubbed	-14766
▁duties	-14767
▁easily	-14768
▁electr	-14769
▁enjoys	-14770
▁entire	-14771
▁ethnci	-14772
▁except	-14773
▁filled	-14774
▁fitted	-14775
▁focuss	-14776
▁german	-14777
▁greece	-14778
▁guards	-14779
▁honour	-14780
▁housed	-14781
▁inAgra	-14782
▁inabit	-14783
▁jersey	-14784
▁kelvin	-14785
▁labell	-14786
▁latest	-14787
▁leased	-14788
▁leaser	-14789
▁lemper	-14790
▁liking	-14791
▁looked	-14792
▁madrid	-14793
▁manger	-14794
▁mathem	-14795
▁matter	-14796
▁melaka	-14797
▁mellow	-14798
▁memory	-14799
1;	-14800
58,	-14801
Ber	-14802
Car	-14803
cal	-14804
fin	-14805
mis	-14806
▁0;	-14807
▁BV	-14808
▁Ca	-14809
▁Sk	-14810
▁sc	-14811
▁sm	-14812
Ical	-14813
Liga	-14814
acea	-14815
icof	-14816
ples	-14817
▁6".	-14818
▁Fun	-14819
▁Oil	-14820
▁let	-14821
▁wad	-14822
Carlo	-14823
eller	-14824
enand	-14825
final	-14826
first	-14827
quite	-14828
▁164;	-14829
▁896,	-14830
▁Song	-14831
▁agra	-14832
▁cell	-14833
▁wads	-14834
▁whee	-14835
Berlin	-14836
amples	-14837
anuary	-14838
▁'1634	-14839
▁155.0	-14840
▁17.28	-14841
▁1955)	-14842
▁7.08.	-14843
▁Chili	-14844
▁Lader	-14845
▁Marti	-14846
▁grown	-14847
▁lying	-14848
▁manuf	-14849
▁quite	-14850
▁scene	-14851
▁smash	-14852
-04-03.	-14853
26,400,	-14854
Charles	-14855
members	-14856
onesian	-14857
▁16000.	-14858
▁2439.0	-14859
▁53502.	-14860
▁Anbard	-14861
▁Poacea	-14862
▁Rapper	-14863
▁becane	-14864
▁desity	-14865
▁letter	-14866
▁merely	-14867
▁merged	-14868
▁models	-14869
▁mostly	-14870
▁netted	-14871
▁nutrit	-14872
▁ofboth	-14873
▁oirgin	-14874
▁orbial	-14875
▁owning	-14876
▁parker	-14877
▁phrase	-14878
▁pirate	-14879
▁playes	-14880
▁pounds	-14881
▁prodct	-14882
▁profit	-14883
▁puerto	-14884
▁reigns	-14885
▁resemb	-14886
▁resume	-14887
▁rooted	-14888
▁roster	-14889
▁singed	-14890
▁slices	-14891
▁snacks	-14892
▁squeez	-14893
▁staple	-14894
▁summit	-14895
▁superv	-14896
▁tejano	-14897
▁theMid	-14898
▁thrown	-14899
46.	-14900
Alp	-14901
Bal	-14902
Com	-14903
▁If	-14904
▁MP	-14905
1914	-14906
Comm	-14907
Head	-14908
aves	-14909
erbi	-14910
esso	-14911
ifet	-14912
less	-14913
okov	-14914
▁156	-14915
▁34.	-14916
▁ace	-14917
▁deg	-14918
,000-	-14919
/2001	-14920
icine	-14921
stell	-14922
▁546.	-14923
▁Kont	-14924
▁Said	-14925
▁TheA	-14926
▁Then	-14927
▁boen	-14928
▁ohio	-14929
▁requ	-14930
▁spee	-14931
▁wasa	-14932
Airman	-14933
Alpena	-14934
Balder	-14935
Colomb	-14936
Indian	-14937
asting	-14938
▁1920)	-14939
▁2,939	-14940
▁334),	-14941
▁4,349	-14942
▁875,4	-14943
▁edits	-14944
▁lifet	-14945
▁moved	-14946
▁subse	-14947
8-1920)	-14948
Turkmen	-14949
erbijan	-14950
ordless	-14951
stellas	-14952
▁324.0.	-14953
▁Andres	-14954
▁Bataks	-14955
▁Indain	-14956
▁comman	-14957
▁cpital	-14958
▁leaves	-14959
▁locale	-14960
▁speech	-14961
▁things	-14962
▁turned	-14963
▁upkeep	-14964
▁ventil	-14965
▁whohas	-14966
▁whosse	-14967
▁whowas	-14968
▁wieghs	-14969
▁worthy	-14970
,329,000	-14971
,426,000	-14972
-07-01".	-14973
-1-1959,	-14974
-10-02".	-14975
/7/2005,	-14976
253260.0	-14977
4-1989),	-14978
8-06-12.	-14979
8-12-17.	-14980
8600000.	-14981
Alphonse	-14982
Appleton	-14983
Assaults	-14984
Berliner	-14985
Colombia	-14986
Coloured	-14987
Director	-14988
Ethiopia	-14989
Examiner	-14990
Kimberly	-14991
Laurales	-14992
Malaysia	-14993
Oostbaan	-14994
Phillips	-14995
Plymouth	-14996
Spangled	-14997
aduating	-14998
aintance	-14999
2;	-15000
:,	-15001
▁`	-15002
HIV	-15003
▁JV	-15004
7.28	-15005
Oper	-15006
Rome	-15007
dess	-15008
kubm	-15009
loor	-15010
name	-15011
ours	-15012
uese	-15013
used	-15014
ways	-15015
▁29,	-15016
▁Amc	-15017
▁FOr	-15018
▁TIt	-15019
▁tep	-15020
acong	-15021
essel	-15022
floor	-15023
trans	-15024
▁MAgd	-15025
▁dept	-15026
▁pais	-15027
▁thst	-15028
Cesena	-15029
France	-15030
native	-15031
onging	-15032
ustome	-15033
▁(1933	-15034
▁1,411	-15035
▁FOrce	-15036
▁Known	-15037
▁Label	-15038
▁Mamud	-15039
▁befor	-15040
▁greek	-15041
▁hours	-15042
▁luxur	-15043
▁pliot	-15044
aunched	-15045
dessert	-15046
edients	-15047
▁117.28	-15048
▁1634::	-15049
▁Archte	-15050
▁Engish	-15051
▁TItans	-15052
▁altern	-15053
▁always	-15054
▁bacong	-15055
▁countr	-15056
▁intern	-15057
▁vessel	-15058
▁virage	-15059
Memorial	-15060
ampenyet	-15061
bakewell	-15062
belonged	-15063
chairman	-15064
christen	-15065
contains	-15066
enandier	-15067
factired	-15068
irations	-15069
istrates	-15070
itioning	-15071
ividuals	-15072
location	-15073
membered	-15074
mericans	-15075
musician	-15076
operates	-15077
rimarily	-15078
services	-15079
situated	-15080
sociates	-15081
stantial	-15082
tronauts	-15083
▁$1,800,	-15084
▁$380700	-15085
▁''08/26	-15086
▁(13/31)	-15087
▁(1872),	-15088
▁(1982),	-15089
▁(253260	-15090
▁0.0473,	-15091
▁1,1901.	-15092
▁1,580.7	-15093
▁1.9558.	-15094
▁102,372	-15095
▁11.2005	-15096
▁11.35),	-15097
▁111,484	-15098
▁11142.3	-15099
').	-15100
07.	-15101
521	-15102
AFC	-15103
aho	-15104
usi	-15105
▁WV	-15106
▁fC	-15107
▁ir	-15108
▁om	-15109
2000	-15110
Paul	-15111
hips	-15112
ject	-15113
olio	-15114
▁Kms	-15115
[...]
