. 50925
the 41104
in 28001
, 27987
of 26358
entity-1 24135
be 21769
is 21507
and 20827
entity-2 19849
vp[aspect=simple,tense=present,voice=active,person=3rd,number=singular] 17503
entity-3 15036
dt[form=defined] 12860
a 11607
entity-4 10810
by 7352
entity-5 6533
vp[aspect=simple,tense=present,voice=active,person=3rd,number=null] 6325
which 6322
vp[aspect=simple,tense=past,voice=active,person=null,number=null] 6234
located 6020
from 5464
dt[form=undefined] 5180
was 4744
where 4602
leader 4552
vp[aspect=simple,tense=present,voice=passive,person=3rd,number=singular] 3932
vp[aspect=simple,tense=past,voice=passive,person=null,number=singular] 3615
have 3552
as 3185
has 3183
entity-6 3069
to 3001
city 2874
on 2667
airport 2666
runway 2626
( 2455
) 2434
at 2399
are 2398
with 2350
united 2347
vp[aspect=simple,tense=present,voice=active,person=non-3rd,number=plural] 2190
ethnic 2158
for 2141
states 2128
part 2000
capital 1956
it 1847
who 1750
dish 1742
one 1696
also 1671
an 1661
number 1631
name 1536
language 1536
county 1514
length 1499
's 1449
country 1395
new 1378
above 1314
ingredient 1310
university 1304
sea 1295
group 1282
ingredients 1270
level 1260
main 1254
region 1240
play 1236
born 1228
bear 1219
found 1179
ground 1176
he 1163
international 1153
vp[aspect=simple,tense=past,voice=active,person=null,number=singular] 1150
" 1149
serve 1135
can 1101
find 1099
location 1093
member 1074
metres 1068
speak 1027
its 999
crew 996
members 974
texas 958
groups 911
bacon 879
national 862
nasa 858
entity-7 854
come 838
lead 834
spoken 829
alan 809
leaders 769
english 754
there 738
manager 737
that 736
pilot 725
club 721
vp[aspect=simple,tense=present,voice=active,person=non-3rd,number=null] 719
operate 702
comes 696
: 672
long 668
india 667
publish 665
apollo 637
character 625
published 612
whose 602
write 596
americans 592
monument 585
served 584
home 578
students 571
aarhus 567
sauce 566
include 565
president 565
people 560
operated 558
academic 553
american 550
written 546
established 530
indonesia 512
serves 512
vp[aspect=simple,tense=present,voice=passive,person=null,number=null] 503
state 501
create 500
institute 498
school 491
1634 486
food 485
isbn 484
establish 482
york 482
fc 480
affiliate 477
floors 477
jersey 476
di 473
spain 472
currency 467
'' 464
vp[aspect=progressive,tense=present,voice=active,person=null,number=null] 464
architect 463
area 462
originate 458
variation 455
acharya 455
staff 453
denmark 453
affiliated 451
book 449
issn 447
created 446
`` 444
austin 443
both 432
or 413
popular 410
design 410
they 410
designed 408
italy 407
league 395
california 395
vp[aspect=simple,tense=infinitive,voice=active,person=null,number=null] 391
john 389
graduate 388
know 387
' 385
now 383
technology 383
make 380
order 377
air 377
hall 376
william 376
infantry 372
season 369
us 367
aldrin 366
made 362
mendrisio 360
graduated 359
call 357
full 356
contain 356
originates 356
known 354
entity-8 351
called 350
12 350
akita 343
madrid 342
played 342
shepard 341
anders 341
champions 340
washington 340
died 339
see 338
retired 334
elliot 331
pages 330
die 329
north 329
oclc 329
comic 328
1 327
buzz 327
dessert 326
bean 325
complete 324
square 324
singapore 323
1963 322
plays 321
meters 318
use 315
test 315
completed 315
aircraft 314
regional 310
first 305
pennsylvania 304
operating 302
beef 302
public 300
sandwich 299
11 298
journal 298
lccn 293
athens 290
malaysia 290
great 286
sri 285
philippines 285
britain 285
their 284
al 283
adams 282
1st 281
traditional 280
business 279
south 277
afc 277
11th 275
organisation 274
pakistan 273
native 270
largest 269
historic 269
led 268
abbreviated 266
force 266
paisa 265
author 263
discipline 263
football 262
fighter 261
contains 258
calcio 256
accademia 251
ram 250
mississippi 250
association 248
sciences 248
baku 246
switzerland 246
july 245
tenant 244
bangalore 244
manage 243
ajax 243
own 240
asian 240
vp[aspect=simple,tense=present,voice=passive,person=non-3rd,number=plural] 239
appleton 239
bionico 238
identifier 237
white 237
ayam 237
available 236
2000 236
bakewell 236
architettura 235
de 234
greece 234
france 234
this 232
penyet 232
road 232
atlantic 231
dean 230
airbase 229
akron 229
turkey 229
explosion 228
wisconsin 228
ac 228
baked 228
but 227
addis 227
under 226
ababa 226
pudding 226
flint 225
code 224
company 223
a.s. 223
eric 223
space 222
adolfo 222
conference 222
acta 222
british 221
hampshire 221
obama 221
bandeja 221
township 220
; 220
barack 219
vp[aspect=perfect,tense=present,voice=active,person=3rd,number=null] 218
floor 218
includes 218
campus 217
lanka 217
binignit 217
places 216
hong 216
250 216
visvesvaraya 216
technological 216
bavarian 216
crisis 216
languages 215
street 215
u.s. 215
kong 215
ridge 214
register 213
mexico 213
social 212
family 211
asad 211
rebellion 211
authority 210
blackpool 209
romania 209
base 208
– 208
title 206
antwerp 206
alaska 206
grounds 205
maryland 205
ajoblanco 204
chicken 203
serie 203
st. 202
rome 202
fried 202
backup 200
were 200
asilomar 199
ice 198
within 197
java 197
kingdom 195
mary 195
karnataka 195
official 194
current 194
abilene 194
alpena 194
dallas 194
ohio 194
chinese 193
african 193
asam 193
batchoy 193
a.c. 190
compete 189
currently 189
spanish 189
louis 189
turkish 189
derbyshire 188
f.c. 188
poaceae 187
london 187
kway 187
teow 187
agra 186
big 186
england 186
college 186
azerbaijan 186
alcatraz 186
versus 186
surface 183
live 183
8 183
pedas 183
pietro 182
sportiva 182
style 181
retire 180
press 180
total 178
precede 178
parent 178
southeast 178
andrews 178
type 177
evil 176
3rd 175
2014 175
20 174
preceded 174
owned 173
science 173
elevation 172
librarians 171
way 170
many 169
alderney 169
european 169
hotel 168
1932 168
row 168
bella 168
vegetables 168
wheeler 167
birmingham 167
chicago 167
building 166
allama 165
iqbal 165
been 165
colmore 165
art 164
alternative 164
headquarters 163
department 163
used 163
loyal 163
memorial 162
ashgabat 162
follow 161
along 161
italian 160
negre 160
museum 159
become 159
print 158
wizard 158
two 157
pena 157
avenue 157
amatriciana 157
mars 157
award 156
b 156
adare 156
johnson 156
severed 156
wasp 156
zealand 155
medal 155
virginia 155
summit 155
dancer 155
d.c. 154
icao 153
select 153
selected 153
belong 152
publisher 151
his 151
delaware 151
abbreviation 150
province 149
cleveland 149
uk 149
bakso 149
property 149
ii 148
glen 148
contributing 148
dr. 148
fortress 148
service 147
angola 147
asser 147
levy 147
bananaman 147
aip 147
population 146
based 146
grey 146
st 145
copenhagen 144
roma 144
bhajji 142
- 141
well 141
1962 141
verona 141
followed 141
hardcover 141
west 139
amsterdam 139
japan 139
aids 139
technical 138
103 138
star 137
east 137
coden 137
suárez 137
municipality 136
egg 136
23 136
barajas 135
transport 135
council 135
ardmore 135
baths 135
gubbio 135
sky 134
arapiraquense 134
inhabitants 133
san 133
oil 133
sweet 133
600 133
indian 132
iraq 132
belongs 132
miller 132
alma 131
300 131
marriott 131
ampara 131
govern 129
mater 129
broadcast 129
greenville 129
frank 129
indiana 129
& 128
lake 128
ireland 128
decembrie 128
1918 128
romance 128
feet 126
michigan 126
manor 126
kerala 126
party 125
administrative 125
rice 125
body 124
anthem 124
sequel 124
community 124
founded 123
1910 123
same 122
house 122
illinois 122
awh 122
engineering 122
johann 122
glastonbury 122
cakes 121
lasalle 121
14th 121
efxeinoupolis 121
fylde 121
livorno 121
quarterly 121
creator 120
postgraduate 120
blt 120
1996 120
addiction 120
reference 119
director 119
200 119
dales 119
volunteer 119
dimitra 119
lumezzane 118
assault 118
advances 118
dc 117
battle 116
higher 116
high 116
prime 116
minister 116
government 116
key 116
before 116
ni 116
adisham 116
bbc 116
batagor 116
grasso 116
1957 115
division 114
barny 114
october 114
red 114
grantville 114
than 113
architectural 113
category 113
named 113
frederick 113
m 112
flemish 112
nwc 112
felipe 112
manages 112
demarce 112
student 111
3arena 111
cream 111
vi 111
schneider-ammann 111
hessarghatta 111
town 110
team 110
black 110
soldevanahalli 110
radhakrishnan 110
560090 110
novel 109
editor 109
amdavad 109
gufa 109
parker 109
banana 109
chievo 109
indonesian 108
martyrs 108
charlie 108
attend 107
variations 107
afonso 107
sarvapalli 107
t 106
mission 106
add 106
madin 106
a.e 106
mathematics 106
nickname 105
previously 105
1927 105
elevated 104
latin 104
uttar 104
pradesh 104
civil 104
andalusia 104
math 104
aviation 103
1955 103
alba 103
federal 103
tenants 102
locate 102
lahore 102
robert 102
vp[aspect=simple,tense=past,voice=active,person=null,number=plural] 101
punjab 101
belgium 101
added 101
milk 101
significant 100
cuisine 100
david 100
baymax 100
malaysian 100
dedicate 99
northeast 99
suarez 99
diagonal 99
pork 99
dedicated 99
stuart 99
previous 98
chancellor 98
e 98
turkmenistan 98
b. 98
gettysburg 98
cornell 98
6 97
january 97
system 97
ethiopia 97
ahmet 97
managed 97
azal 97
agremiação 97
vp[aspect=simple,tense=past,voice=passive,person=null,number=plural] 96
southwest 96
religion 96
harbor 96
minutes 96
malay 96
became 96
legislature 95
los 95
awarded 95
g 95
joe 95
biden 95
garlic 95
arros 95
owner 94
adirondack 94
starred 94
hero 94
veil 94
stars 93
among 93
cumberland 93
1928 93
buildings 92
abbreviate 92
usa 92
flowering 92
attended 92
dublin 92
prefecture 92
philippine 92
associazione 92
a.f.c. 92
organization 91
district 91
navy 91
uses 91
izmir 91
enaire 91
french 91
gujarat 91
potato 91
battlefield 91
acm 91
class 90
address 90
once 90
status 90
hospital 90
cesena 90
alcobendas 89
distinguished 89
fenchurch 89
eastern 89
olive 89
siomay 89
shumai 89
aenir 89
demonym 88
work 88
assembly 88
elizabeth 88
brazil 88
23rd 88
arrabbiata 88
all 87
later 87
speaking 87
situated 87
ut 87
antioquia 87
c 87
construction 86
northwest 86
catalonia 86
join 85
eat 85
borman 85
manhattan 85
lars 85
sausage 85
widodo 85
categorised 85
monocacy 85
ataturk 85
originally 84
stadium 84
tirstrup 84
africa 84
737 84
arem 84
joko 84
plants 83
categorise 83
rasmussen 83
peter 83
arem-arem 83
az 83
700 83
place 82
go 82
course 82
sumatra 82
magdeburg 82
aek 82
mario 82
williams 82
100 82
commander 81
amateurs 81
war 81
tart 81
botta 81
polonica 81
density 80
paracuellos 80
jarama 80
iii 80
coconut 80
jens 80
palaeontologica 80
mayor 79
construct 79
fullname 79
local 79
saranac 79
lockheed 79
dead 79
inaugurated 79
constructed 79
man 79
paul 79
spend 78
after 78
1923 78
1930 78
1969 78
morgan 78
avocado 78
lippincott 78
soho 78
jusuf 78
kalla 78
pinhais 77
airlines 77
march 77
1933 77
euro 77
mumbai 77
wilkins 77
inaugurate 76
afit 76
dos 76
van 76
julia 76
academy 76
mattarella 76
spaniards 76
plack 76
den 76
then 75
nationwide 75
14 75
madrid-barajas 75
reyes 75
scott 75
susana 75
meat 75
sour 75
sergio 75
isidro 75
campeonato 75
brasileiro 75
powys 75
situate 74
variant 74
republic 74
cake 74
port 74
operates 74
arabic 74
went 74
february 74
lemon 74
hilmi 74
ankara 74
battles 73
almond 73
genus 73
parliament 73
being 73
alkmaar 73
architecture 72
build 72
almonds 72
valls 72
davutoglu 72
kuttikkattoor 72
water 71
bengo 71
brussels 71
competed 71
count 70
film 70
sandesh 70
modi 70
15 70
spent 70
ranil 70
date 69
another 69
attach 69
narendra 69
wickremesinghe 69
larcher 69
michele 69
attack 68
chief 68
doctoral 68
vincent-st 68
thakur 68
peanut 68
atatürk 68
soldiers 68
stadio 68
marcolini 68
brom 68
bronze 68
while 67
schiphol 67
arròs 67
noodles 67
cowper 67
away 66
april 66
ryan 66
javanese 66
ottoman 66
army 66
metapan 66
tennis 66
hopkins 66
carrol 66
run 65
names 65
commonly 65
footballer 65
lie 65
s 65
november 65
pacific 65
grove 65
castle 65
choose 64
player 64
invasion 64
2009 64
tony 64
bread 64
2014-15 64
prabhukumar 64
garth 64
nix 64
burbank 64
win 63
chosen 63
ahmedabad 63
bolt 63
advisor 62
deploy 62
plant 62
commerce 62
gold 62
bill 62
beans 62
attached 62
leipzig 62
canonica 62
governing 61
peninsula 61
influenced 61
34 61
ac-130 61
originated 61
haputale 61
jam 61
gazette 61
1983 61
eaten 61
prokopis 60
september 60
mason 60
paris 60
china 60
pfk 60
juventus 60
klaus 60
belgaum 60
colombian 60
bucharest 60
information 59
alfred 59
joined 59
3 59
halimah 59
secret 59
viking 59
palaeontol 59
1966 59
astronaut 58
begin 58
creators 58
year 58
m.a. 58
won 58
g. 58
leads 58
cooked 58
granola 58
yacob 58
tan 58
solanales 58
killed 58
lies 58
silvano 58
aureoles 58
conejo 58
river 57
carriers 57
jose 57
alexis 57
harrietstown 57
globemaster 57
1862 57
asher 57
isabelle 57
georgia 57
butter 57
eggs 57
härtel 57
a.t. 57
granite 57
marble 57
will 56
up 56
origin 56
you 56
3500 56
sao 56
chute 56
tsipras 56
boeing 56
june 56
built 56
richardson 56
lira 56
mahajan 56
nikos 56
swiss 55
curitiba 55
c-17 55
27 55
duncan 55
taro 55
17000 55
2001 55
systems 55
scripture 55
universities 55
sumitra 55
reddy 55
nationality 54
cost 54
motto 54
18 54
15th 54
1959 54
governed 54
lokke 54
thomas 54
leaf 54
huseyin 54
butuner 54
guner 54
gazettes 54
transactions 54
voutsis 54
wrote 54
artur 54
rasizade 54
influence 53
other 53
210 53
m.s. 53
rupee 53
rouleau 53
blockbuster 53
brown 53
sago 53
condensed 53
a. 53
série 53
mit 53
operation 52
hub 52
awards 52
person 52
countries 52
asphalt 52
pavlopoulos 52
infraero 52
central 52
sponge 52
franklin 52
church 52
massimo 52
rolando 52
universitas 52
iohannis 52
head 51
fight 51
inhabit 51
give 51
vp[aspect=perfect,tense=present,voice=active,person=non-3rd,number=null] 51
former 51
typical 51
luanda 51
stern 51
jayawardenepura 51
cheese 51
raisins 51
drago 51
jorge 51
superleague 51
premier 51
italians 51
iata 50
involve 50
height 50
citizen 50
like 50
nation 50
der 50
jones 50
george 50
including 50
manuel 50
valencian 50
park 50
a.d. 50
maran 50
johns 50
birth 49
bundelkhand 49
ma 49
began 49
kotte 49
kilometres 49
madison 49
tomato 49
tomatoes 49
sambal 49
sarnie 49
1907 49
iulia 49
germans 49
pol 49
heinlein 49
vp[aspect=simple,tense=present,voice=active,person=null,number=null] 48
nearest 48
placid 48
17th 48
francisco 48
j. 48
u.s 48
butty 48
flour 48
1500 48
acf 48
2015 48
education 48
fallujah 48
fall 47
start 47
some 47
although 47
usaf 47
fought 47
awadh 47
1974 47
per 47
sanger 47
piece 47
barm 47
muffin 47
ketchup 47
organs 47
shrimp 47
weymouth 47
sands 47
28 46
smashed 46
rasher 46
given 46
istanbul 46
dan 46
greek 46
headquarter 45
chairman 45
michael 45
18l/36r 45
wilson 45
t. 45
poales 45
worked 45
45 45
1987 45
africans 45
aired 45
cob 45
celery 45
belly 45
chorizo 45
standard 45
gerard 45
fiorentina 45
fk 45
mathematica 45
office 44
about 44
more 44
involved 44
1976 44
320 44
center 44
cyril 44
squeezed 44
'n 44
sesame 44
hungarica 44
sometimes 43
` 43
program 43
İzmir 43
159 43
Ícolo 43
charles 43
monocotyledon 43
had 43
p. 43
1931 43
ramaphosa 43
auron 43
seagle 43
stoger 43
paperback 43
wolf 43
cameron 43
mcloughlin 43
visayas 43
land 42
ganges 42
610 42
b.s. 42
worden 42
entertainment 42
pain 42
mendoza 42
cullins 42
hot 42
cold 42
gram 42
jakarta 42
27th 42
1904 42
patrick 42
study 41
neighbouring 41
viag 41
grand 41
german 41
commelinids 41
hired 41
arena 41
tudor 41
cuyahoga 41
jacob 41
kansas 41
jalisco 41
zamboangans 41
metapán 41
dave 41
christian 41
panucci 41
kochi 41
sc.d 41
admin 40
birthplace 40
aboard 40
hire 40
architects 40
produce 40
series 40
alongside 40
a/s 40
taylor 40
labour 40
edwin 40
falls 40
asherton 40
albany 40
balder 40
1986 40
tim 40
warm 40
hogao 40
humberto 40
ticino 40
1913 40
sehitleri 40
aniti 40
codes 39
hail 39
here 39
cornish 39
fish 39
sandwiches 39
margrethe 39
korean 39
108 39
anderson 39
roger 39
guadalajara 39
am 39
10000 39
olympic 39
sportpark 39
toekomst 39
harvard 39
polish 39
16000 39
jurisdiction 38
helicopter 38
fat 38
rector 38
employees 38
dt[form=demonstrative] 38
these 38
546 38
anbar 38
essex 38
received 38
august 38
georges 38
terrace 38
irish 38
zuma 38
colombia 38
arepa 38
plantain 38
3180 38
sc 38
abhandlungen 38
aus 38
dem 38
mathematischen 38
seminar 38
hamburg 38
sci 38
seat 37
comics 37
sebastian 37
sebastián 37
naik 37
18th 37
buffalo 37
roberts 37
minced 37
meringue 37
enrique 37
nieto 37
arabs 37
arabian 37
solent 37
columbian 37
turk 37
over 36
! 36
founder 36
last 36
fruit 36
size 36
el 36
25 36
lufthavn 36
211 36
headquartered 36
grenada 36
december 36
wall 36
revival 36
boris 36
ernie 36
guanciale 36
lazio 36
hails 36
christmas 36
oyster 36
igorot 36
ealdorman 36
anglia 36
challinor 36
agremiacao 36
vila 36
clube 36
stanford 36
maiden 36
massachusetts 36
cape 36
containing 36
1-4165-2060-0 36
id 35
receive 35
form 35
mascot 35
km 35
postcode 35
tinkham 35
10l/28r 35
911 35
ellington 35
included 35
jr 35
2008 35
limerick 35
fernando 35
auburn 35
aurakles 35
steve 35
tapioca 35
potatoes 35
hollande 35
nova 35
futebol 35
trans 35
inf 35
60040714 35
serving 35
tourist 34
destination 34
time 34
represent 34
natives 34
political 34
ethic 34
sports 34
sport 34
aka 34
80002709 34
desalegn 34
steven 34
diaz 34
compressed 34
shredded 34
seminary 34
koln 34
70634 34
stöger 34
hiv/aids 34
ithaca 34
passed 34
teshome 34
pallesen 34
16,000 34
mahe 34
b.m. 34
perform 33
regions 33
edit 33
into 33
such 33
grant 33
james 33
hailemariam 33
atlanta 33
urich 33
oddie 33
metropolitan 33
chopped 33
salvador 33
s.p.a. 33
psalm 33
blanco 33
third 32
second 32
either 32
protein 32
confectionery 32
rock 32
10r/28l 32
al-taqaddum 32
maple 32
280 32
fighting 32
boston 32
arts 32
albuquerque 32
anaheim 32
patacones 32
sv 32
sk 32
978-1-4165-4253-7 32
hiv 32
edited 32
publishes 32
produced 32
banyumasan 32
ajo 32
real 31
offer 31
politician 31
fruits 31
60 31
general 31
dynamics 31
freedom 31
panama 31
100305 31
20th 31
amharic 31
walt 31
marv 31
dane 31
whitman 31
morcilla 31
mexican 31
syst 31
qiu 31
wiley-blackwell 31
management 31
shirley 31
via 30
similar 30
youth 30
almamater 30
pass 30
tv 30
-3.3528 30
texans 30
falcon 30
eagle 30
performed 30
beach 30
riverside 30
graeme 30
garden 30
chicharon 30
dark 30
chievoverona 30
antonio 30
luciano 30
coaracy 30
mata 30
c. 30
austria 30
wien 30
telangana 30
baltic 30
galileo 30
affair 30
physics 30
universität 30
wolters 30
kluwer 30
14l/32r 30
otherwise 29
often 29
types 29
short 29
specific 29
agr 29
88 29
parana 29
f-16 29
douglas 29
17 29
million 29
dollars 29
populous 29
løkke 29
kilometre 29
kesel 29
brooke-taylor 29
wolfman 29
fillings 29
chilli 29
lega 29
spalletti 29
da 29
fonseca 29
mols 29
93645978 29
vp[aspect=progressive,tense=present,voice=active,person=3rd,number=singular] 28
carbohydrates 28
should 28
categorize 28
below 28
since 28
dishes 28
strong 28
services 28
between 28
connections 28
airports 28
497.0 28
tejano 28
degree 28
d 28
l. 28
started 28
rahm 28
emanuel 28
karl 28
desmond 28
colon 28
cephalopod 28
ink 28
cubanelle 28
lauraceae 28
vermicelli 28
laura 28
boldrini 28
filipino 28
ilocano 28
moro 28
categorized 28
estadio 28
horrigan 28
federation 28
xiaolong 28
28th 28
different 27
writer 27
books 27
counties 27
back 27
crafts 27
aktieselskab 27
s. 27
mcdonnell 27
enduring 27
1981 27
competing 27
30843.8 27
richard 27
87000823 27
enda 27
kenny 27
jan 27
ben 27
la 27
using 27
stockport 27
kv 27
mechelen 27
apulensis 27
nurturing 27
excellence 27
448 27
1985 27
meride 27
bird 26
voice 26
authors 26
respectively 26
hungar 26
08/26 26
icolo 26
michel 26
f-15 26
represented 26
3xn 26
oregon 26
union 26
arion 26
bright 26
adsit 26
gene 26
gula 26
melaka 26
sliced 26
dried 26
soy 26
lengkuas 26
soya 26
39371 26
d. 26
paulo 26
sousa 26
gus 26
poyet 26
amsterdamsche 26
lokomotive 26
berliner 26
07 26
carrarese 26
vicenza 26
chesterfield 26
89646863 26
19238 26
faber 26
several 25
latter 25
too 25
compliment 25
publication 25
districts 25
random 25
2776.0 25
schipol 25
3800.0 25
u.s.a. 25
sharif 25
jr. 25
craftsman 25
jackson 25
chinatown 25
australia 25
lankan 25
colan 25
chili 25
cuttlefish 25
noodle 25
claude 25
putrajaya 25
davutoğlu 25
ak 25
babelsberg 25
03 25
torino 25
wiener 25
neustadt 25
aarhusiensis 25
authored 25
sage 25
973 25
carroll 25
u 25
2nd 24
senator 24
beds 24
notable 24
works 24
show 24
squid 24
playing 24
during 24
additionally 24
however 24
2777.0 24
11/29 24
gregory 24
perth 24
1980 24
512 24
asterix 24
broadcasting 24
fox 24
buscema 24
rosaceae 24
freshly 24
broth 24
kailan 24
salted 24
shallots 24
cookie 24
bartolone 24
kuala 24
lumpur 24
rovers 24
vincent 24
1174 24
57392246 24
publications 24
0-439-17684-0 24
0-439-92550-9 24
stv 24
bhaji 24
cottage 24
0-670-03380-4 24
57059226 24
queen 23
command 23
rank 23
parts 23
vp[aspect=perfect,tense=present,voice=passive,person=3rd,number=null] 23
championship 23
m. 23
hq 23
near 23
1820 23
taqaddum 23
03l/21r 23
menasha 23
mamnoon 23
hussain 23
1998 23
hok 23
owns 23
movement 23
brooklyn 23
alabama 23
tom 23
antioch 23
dick 23
lambien 23
gardner 23
knight 23
rutland 23
arms 23
preserves 23
palm 23
carles 23
gérard 23
manual 23
pro 23
rodriguez 23
2014-2015 23
69618 23
hartel 23
bari 23
1908 23
1909 23
olympiacos 23
magistrate 23
292 23
0-439-17685-9 23
wiley 23
0002-9327 23
columbia 23
sachsen 23
diane 23
dr 23
representative 22
erect 22
inauguration 22
hometown 22
justice 22
offset 22
postal 22
municipal 22
preparation 22
past 22
reside 22
impact 22
patient-1 22
lord 22
turn 22
q 22
following 22
i@@ 22
são 22
josé 22
167.94 22
bachelor 22
deceased 22
fenves 22
australian 22
50 22
erected 22
augustus 22
pugin 22
1911 22
conservative 22
tamil 22
condiments 22
sugar 22
tender 22
loin 22
rupiah 22
rutaceae 22
mondelez 22
23900 22
lancashire 22
berlin 22
carpi 22
abh 22
semin 22
univ 22
hambg 22
83646315 22
paleobiology 22
paleontology 22
0001-8392 22
bajji 22
76798317 22
duane 22
apgpac 22
cover 21
appear 21
factor 21
cities 21
addition 21
page 21
# 21
varied 21
18r/36l 21
dale 21
fuad 21
haider 21
e. 21
1988 21
101 21
ukrop 21
alpharetta 21
houston 21
airman 21
mckenzie 21
sheldon 21
moldoff 21
lyle 21
francois 21
matteo 21
renzi 21
ximo 21
puig 21
köln 21
s.r.l. 21
4150 21
admira 21
wacker 21
steyr 21
breaz 21
valer 21
daniel 21
adv. 21
penguin 21
5300 21
if 20
utc 20
alter 20
legislative 20
post 20
post-graduate 20
put 20
fans 20
original 20
llcn 20
prequel 20
lives 20
episode 20
faroese 20
al-abadi 20
nawaz 20
ranks 20
helmut 20
cook 20
vietnamese 20
lee 20
angeles 20
dillin 20
reith 20
larry 20
bolatinsky 20
gary 20
cohn 20
considered 20
jack 20
kirby 20
pastry 20
paz 20
vala 20
abu 20
zahar 20
ujang 20
hüseyin 20
bütüner 20
güner 20
inhabited 20
jong 20
vitesse 20
arnhem 20
46451790 20
13/31 20
cookies 20
0567-7920 20
ata 19
hosts 19
ego 19
provide 19
consider 19
matches 19
hold 19
patient-2 19
throughout 19
ia 19
and/or 19
cornwall 19
measures 19
danish 19
oraa 19
don 19
hal 19
masum 19
commanded 19
jahn 19
140000.0 19
coloured 19
alexandria 19
jill 19
shilling 19
mark 19
carmine 19
infantino 19
rosids 19
shortcrust 19
4.8 19
iloilo 19
vajubhai 19
abdul 19
halim 19
kedah 19
solanaceae 19
Æthelwald 19
olimpico 19
2011 19
qarabag 19
boer 19
stories 19
0-7156-3648-0 19
garrett 19
507 19
b@@ 19
malatu 19
desserts 19
baduy 19
having 19
operator 18
ribbon 18
genre 18
consist 18
carbs 18
designer 18
out 18
pick 18
rooms 18
famous 18
primary 18
flight 18
itself 18
still 18
aircrafts 18
abbrv 18
2215.0 18
3800 18
4000 18
greenlandic 18
light 18
combat 18
provincial 18
blvd. 18
filipinos 18
sq 18
q. 18
potter 18
duursema 18
baron 18
roy 18
inkpot 18
puerto 18
peppers 18
puigdemont 18
llocano 18
d.c 18
1907-07-11 18
a.s 18
alvinegro 18
s.s.d. 18
milan 18
s.s. 18
uab 18
kempe 18
gowda 18
0-374-26131-8 18
388 18
sanderson 18
sons 18
picked 18
him 18
sve 18
leinster 18
mishkin 18
f.c 18
3000 18
hook 18
malays 18
just 17
fictional 17
king 17
15/33 17
3992.88 17
09l/27r 17
3310.0 17
guardian 17
democratic 17
greeks 17
jinnah 17
francis 17
pickard 17
chilton 17
concerts 17
events 17
quay 17
1964 17
1980-04-23 17
andrew 17
indians 17
attica 17
bay 17
kupperberg 17
simonson 17
appeared 17
pirate 17
classed 17
pepper 17
condiment 17
pakora 17
efxeinoupoli 17
armando 17
picchi 17
denzil 17
bury 17
chelsea 17
associated 17
virtus 17
entella 17
inter 17
brandon 17
afonsa 17
libya 17
3360.12 17
examiner 17
netherland 17
pecorino 17
romano 17
frangipane 17
kolin 17
5000 17
competes 17
'em 17
1700 17
philippe 17
ft 16
i.d. 16
designers 16
associate 16
academically 16
foods 16
locally 16
saint 16
facts 16
affiliation 16
rivers 16
governs 16
mobility 16
brasilia 16
100305.0 16
feinstein 16
slay 16
111484 16
munster 16
williamsburg 16
giles 16
476 16
anandiben 16
patel 16
representatives 16
len 16
wein 16
stan 16
goscinny 16
genoa 16
drogheda 16
8805735 16
1732-2421 16
society 16
four 16
world 16
trade 16
herald 16
originating 16
1.8 16
78771100 16
most 15
so 15
undergraduate 15
congress 15
publishers 15
capacity 15
/ 15
novels 15
capitol 15
clubs 15
madrid-barejas 15
05l/23r 15
little 15
chris 15
l 15
52 15
dianne 15
p 15
romanesque 15
cyrus 15
vance 15
sterling 15
orange 15
t@@ 15
ing 15
astérix 15
odinson 15
ballistic 15
disney 15
studios 15
rosales 15
ad@@ 15
honey 15
chicharron 15
acehnese 15
dino 15
manuzzi 15
development 15
gordon 15
marsden 15
colwyn 15
offered 15
0269-9370 15
1473-5571 15
annie 15
dunne 15
amahe9 15
1588-2632 15
0965-2140 15
doctorate 15
mulatu 15
shown 15
broadcasted 15
atalanta 15
deșteaptă-te 15
române 15
printed 15
1-56947-301-3 15
graduating 15
tenanted 15
bungalows 15
deportiva 15
brazilians 15
4th 14
5th 14
operators 14
retirement 14
occupation 14
behind 14
appearance 14
arrow 14
may 14
vp[aspect=perfect,tense=present,voice=active,person=null,number=null] 14
i 14
focus 14
career 14
recipient 14
gemstone 14
actually 14
origins 14
important 14
when 14
recipes 14
managing 14
numbers 14
a.s.l. 14
plane 14
largely 14
ethnically 14
17l/35r 14
n@@ 14
kimberly 14
4/22 14
t.s. 14
patten 14
eugene 14
purple 14
finch 14
1969-09-01 14
22 14
america 14
hearst 14
pound 14
ann 14
arbor 14
ahri'ahn 14
geering 14
motion 14
starring 14
rican 14
soup 14
carrie 14
lam 14
javenese 14
karnatka 14
martyr 14
ad 14
50000 14
marc 14
rodríguez 14
47290 14
max 14
huiberts 14
tranmere 14
netherlands 14
zaragoza 14
robur 14
siena 14
offers 14
romane 14
ed 14
1558-2868 14
computing 14
978-0-15-204770-2 14
84 14
sardar 14
ayaz 14
88002539 14
pa 14
holds 14
17023 14
k-w 14
aethelwald 14
finish 13
measure 13
claim 13
related 13
version 13
we 13
alternatively 13
nice 13
formation 13
exact 13
a@@ 13
aktieselkab 13
3078.48 13
peoples 13
2900.0 13
o@@ 13
8.0 13
4000.0 13
c-130 13
hercules 13
nov 13
collin 13
ambassador 13
norway 13
1929 13
1961 13
42 13
finished 13
s@@ 13
a.m. 13
georgian 13
1995 13
blvd 13
gale 13
brewer 13
arlington 13
covers 13
moench 13
pictures 13
rochdale 13
laurales 13
lettuce 13
chicharrón 13
françois 13
provided 13
27250 13
bentegodi 13
n.v. 13
minicipal 13
rb 13
graafschap 13
anderlecht 13
castrovillari 13
1046-8188 13
j.v. 13
bombing 13
sadiq 13
518.0 13
nj 13
tofu 13
32024459 13
45644811 13
studied 13
scd 13
arrondissement 12
formerly 12
bed 12
invent 12
heads 12
colours 12
ranking 12
library 12
classification 12
eissn 12
position 12
n 12
firm 12
not 12
usually 12
patron 12
example 12
abbr 12
kabi 12
610.0 12
3,500 12
3500.0 12
4349 12
1800 12
3990.0 12
07/25 12
900.0 12
turkmenabat 12
21st 12
120 12
62145.3 12
110 12
lewis 12
cottingham 12
philip 12
hardwick 12
route 12
83 12
clancy 12
khalid 12
mahmood 12
gates 12
springfield 12
drake 12
kapitan 12
harry 12
sahle 12
doug 12
maya 12
rudolph 12
invented 12
sapindales 12
shiitake 12
cesana 12
warton 12
futbol 12
alkmaair 12
catania 12
atiset 12
computer 12
machinery 12
hardback 12
amhaaj 12
1360-0443 12
behalf 12
1080-6377 12
violet 12
keystone 12
spata 12
shephard 12
ms 12
1533.0 12
belonging 12
monarchy 12
she 12
b.s 12
living 11
ate 11
emperor 11
radio 11
ethnicity 11
concern 11
re@@ 11
studies 11
literature 11
superhero 11
specifically 11
citizens 11
link 11
whilst 11
various 11
o 11
e@@ 11
1121.0 11
aiport 11
4349.0 11
1800.0 11
2744.0 11
2744 11
am@@ 11
1411 11
597.0 11
03r/21l 11
94 11
n.j. 11
1873 11
mar 11
21 11
1933-10-17 11
redefine 11
properties 11
121.92 11
jacobean 11
ated 11
dimmit 11
liberal 11
democrats 11
abe 11
amarillo 11
ca 11
titled 11
stevens 11
albert 11
uderzo 11
bibbowski 11
tudyk 11
jamie 11
chung 11
jerry 11
ordway 11
oregano 11
southeastern 11
calero 11
srl 11
53502 11
eredivisie 11
estádio 11
ado 11
r.s.c. 11
alianza 11
maccabi 11
tel 11
aviv 11
modling 11
rapid 11
vorwärts 11
varese 11
irlam 11
runcorn 11
halton 11
ammann 11
ring 11
fire 11
th 11
et 11
0-7653-0633-6 11
bodley 11
49805501 11
wizards 11
harcourt 11
focused 11
samuel 11
curtis 11
scrivener 11
1878 11
lincoln 11
nebraska 11
bs 11
byron 11
lalbhai 11
cept 11
opp 11
l@@ 11
persea 11
an@@ 11
udinese 11
0025-5858 11
surfaced 11
dutch 11
m@@ 11
californian 11
fourth 10
term 10
completion 10
responsible 10
money 10
distributor 10
source 10
outlook 10
residence 10
prior 10
common 10
feature 10
enjoy 10
comprise 10
games 10
residents 10
host 10
coming 10
major 10
neighbours 10
prominent 10
planes 10
ac@@ 10
features 10
p@@ 10
1,121 10
600.0 10
2989.0 10
75 10
23.0 10
paraná 10
turkmenbashi 10
1930-01-20 10
1971 10
nockalls 10
3746.66 10
27nd 10
bloomsbury 10
.@@ 10
monroe 10
rona 10
manley 10
voiced 10
bibbo 10
roland 10
eisner 10
lemons 10
arifin 10
zakaria 10
stands 10
liga 10
a.e. 10
kellamergh 10
pallotta 10
nicknamed 10
topklasse 10
portugal 10
mödling 10
blackburn 10
desteapta-te 10
schneider 10
aaidbi 10
51969173 10
360 10
concerned 10
pure 10
bones 10
2702.0 10
headed 10
dupage 10
10/03/1983 10
consists 10
mechanics 10
vorwarts 10
pol. 10
v 10
aarus 10
anwar 10
zaheer 10
jamali 10
sbct 10
feb 10
vice 9
distribute 9
stand 9
orders 9
landmark 9
a.k.a. 9
u@@ 9
d@@ 9
said 9
r@@ 9
3,990 9
3,992.88 9
03/21 9
5 9
outagamie 9
12r/30l 9
3048.0 9
clayton 9
winnebago 9
leading 9
1998-07-21 9
appointed 9
sept 9
crewed 9
limited 9
44114 9
monastery 9
mitchell 9
ethiopian 9
akihito 9
bethesda 9
es 9
distributed 9
w@@ 9
brooke 9
onion 9
mindanao 9
citrus 9
najib 9
razak 9
spa 9
epsth 9
s.p.a 9
klubu 9
asa 9
gigante 9
c.f.c. 9
f@@ 9
arapiraca 9
haag 9
a.s.d. 9
vigor 9
500 9
10@@ 9
blue 9
90640840 9
318875313 9
0236-5294 9
233 9
1480153 9
glendower 9
obtained 9
/@@ 9
bridge 9
814 9
dalpatbhai 9
phillippines 9
ts 9
1936 9
salvadoran 9
primera 9
1,533 9
jon 9
.the 9
aircraft-capable 8
crewman 8
appoint 8
say 8
senate 8
recipe 8
require 8
participate 8
help 8
editors 8
pen 8
get 8
soccer 8
obviously 8
take 8
only 8
fly 8
came 8
whole 8
lo@@ 8
resident 8
ruler 8
through 8
onto 8
as@@ 8
17r/35l 8
habbaniyah 8
09r/27l 8
733.0 8
eberhard 8
laan 8
2014.0 8
2,@@ 8
1,982 8
1982 8
12/30 8
34.0 8
kurdish 8
transportation 8
stephen 8
dilts 8
ted 8
defense 8
legion 8
merit 8
brutalist 8
rafael 8
j 8
mcmanus 8
jacabian 8
musuem 8
kendall 8
palace 8
westminster 8
shinzo 8
ski 8
404 8
fountain 8
pierce 8
travis 8
amazing-man 8
fairhead 8
g@@ 8
damon 8
wayans 8
aberdeen 8
rene 8
rené 8
gustavson 8
lemper 8
grams 8
18.0 8
requires 8
batak 8
solanum 8
bundesliga 8
jepson 8
al-shamal 8
pavloopoulos 8
c.d. 8
aguila 8
empoli 8
potenza 8
lamezia 8
vienna 8
lask 8
linz 8
unione 8
triestina 8
2012 8
weber 8
media 8
resides 8
2158-3226 8
1.524 8
v. 8
tor 8
penned 8
universitat 8
1865-8784 8
abh.math.semin.univ.hambg 8
springer 8
248 8
australians 8
warsaw 8
poland 8
sara 8
mccune 8
,@@ 8
ny 8
1932-03-15 8
got 8
erie 8
u.k. 8
dumpling 8
türk 8
delfino 8
pescara 8
b.c. 8
bc 8
vica 8
mans 8
130 8
joining 8
working 8
bsc 8
g.p. 8
-@@ 7
hear 7
around 7
obtain 7
inside 7
monarch 7
houses 7
child 7
ri@@ 7
te 7
three 7
k@@ 7
25.0 7
4100.0 7
3@@ 7
3400.0 7
16/34 7
appletone 7
900 7
1873.0 7
shehbaz 7
lavern 7
1974-08-01 7
aug 7
13017 7
benedict 7
haputhale 7
nakadori 7
koreans 7
fulton 7
hays 7
kelvin 7
mao 7
colón 7
rick 7
basko 7
potatotes 7
heard 7
placed 7
1932-07-27 7
stone 7
pro/a 7
lane 7
a.s.roma 7
shuvalan 7
pdl 7
giorgos 7
kaminis 7
a.Ş 7
istanbulspor 7
ssd 7
archarya 7
63 7
672 7
cowpher 7
owen 7
macmillan 7
3990 7
973.0 7
j@@ 7
benitoite 7
y 7
benjamin 7
phillipines 7
apostle 7
adv 7
retiring 7
shepherd 7
germania 7
schoneiche 7
asociación 7
asociacion 7
r 7
m.s 7
aso 7
positioned 7
seal 6
organize 6
fossil 6
sytle 6
project 6
forms 6
simply 6
field 6
winner 6
think 6
valencia 6
branch 6
affilait 6
~ 6
colors 6
carry 6
locals 6
tall 6
boast 6
flavour 6
meal 6
mainly 6
large 6
subsidiary 6
almost 6
identify 6
fighters 6
agent-1 6
leadership 6
very 6
product 6
officially 6
champion 6
memberrs 6
abreviation 6
adviser 6
runaway 6
control 6
fun 6
homeground 6
ha@@ 6
co 6
though 6
kilometer 6
until 6
structure 6
bo@@ 6
18@@ 6
abi 6
2194.0 6
2,195 6
n.y. 6
1818 6
3,310 6
aplena 6
3453.0 6
18c/36c 6
3,800 6
1510.0 6
atw 6
1960 6
kacy 6
1,873 6
malik 6
muhammad 6
rafique 6
rajwana 6
1923-11-18 6
13017.0 6
9 6
organized 6
52.0 6
8820.0 6
1978 6
28.0 6
begun 6
tadao 6
ando 6
dáil 6
Éireann 6
birr 6
kilometers 6
6@@ 6
linn 6
berry 6
creek 6
williamson 6
pe@@ 6
aman 6
everett 6
laird 6
birkenhead 6
bozo 6
iron 6
brenner 6
thought 6
1999 6
corn 6
apium 6
peso 6
peña 6
dollar 6
minangkabau 6
regionalliga 6
a.c 6
ae 6
a.f.c 6
bryning 6
nv 6
peşəkar 6
zaanstreek 6
qarabağ 6
cfc 6
alagoas 6
İstanbulspor 6
fas 6
asd 6
licita 6
barrow 6
favoritner 6
cantania 6
sparta 6
affilaited 6
farrar 6
straus 6
giroux 6
560 6
blackwell 6
1461102 6
fantasy 6
1080 6
alexander 6
2900 6
centre 6
no@@ 6
1966-02-28 6
ds 6
salle 6
gar@@ 6
bo 6
er@@ 6
boasts 6
nola 6
1925 6
barcelona 6
amateur 6
johannis 6
2777 6
1533 6
becoming 6
criona 6
dhalaigh 6
kate 6
hardie 6
h 6
u.s.a 6
enjoyed 6
metro 6
1/19 6
m.a 6
st.louis 6
tarō 6
asō 6
germanic 6
oct 6
note 5
costs 5
do 5
vary 5
classify 5
life 5
prepare 5
ve 5
competition 5
neighbor 5
bomb 5
vp[aspect=simple,tense=present,voice=active,person=null,number=singular] 5
son 5
patient-3 5
se 5
event 5
format 5
airforce 5
in@@ 5
un@@ 5
commemorate 5
le 5
loca@@ 5
facility 5
website 5
-1@@ 5
se@@ 5
k 5
2@@ 5
slk 5
1219.0 5
4,100 5
911.0 5
618 5
apn 5
7/25 5
haarlemmermeer 5
zwanenburgbaan 5
e11 5
2/20 5
8002 5
3/21 5
1411.0 5
2953 5
asb 5
flanders 5
iraqi 5
dinar 5
ahora 5
texan 5
noted 5
days 5
00@@ 5
0@@ 5
07/23/1927 5
1973 5
120m 5
exchange 5
bank 5
venue 5
jp 5
admisham 5
asians 5
30@@ 5
benton 5
765 5
678 5
-8 5
tarrant 5
dekalb 5
ates 5
de@@ 5
seattle 5
randall 5
provides 5
ralph 5
payne 5
buxton 5
basil 5
padeh 5
kidney 5
classified 5
> 5
lucky 5
laughlin 5
fsv 5
zwickau 5
cd 5
si@@ 5
attending 5
ic@@ 5
e-book 5
h. 5
crespi 5
bernard 5
gerstman 5
masaaki 5
tanaka 5
enge 5
wang 5
simon 5
schuster 5
adice5 5
orthoretrovirinae 5
retrovirus 5
l'engle 5
macdonald 5
elkin 5
mathews 5
held 5
po@@ 5
bu@@ 5
2 5
be@@ 5
barney 5
dumplings 5
bananas 5
ar@@ 5
participated 5
amsterdam-centrum 5
marousi 5
lulia 5
ak@@ 5
abbreviating 5
7877110 5
identified 5
4 5
bombed 5
4@@ 5
c@@ 5
críona 5
ní 5
dhálaigh 5
marriot 5
22nd 5
valor 5
te@@ 5
brazilian 5
took 5
syst. 5
14r/32l 5
pen@@ 5
phillipe 5
vinoly 5
ded 5
lentivirus 5
granted 5
fifth 4
walk 4
senators 4
developers 4
occupy 4
biggest 4
products 4
need 4
ce 4
best 4
founding 4
responsibility 4
dictate 4
enrol 4
studiies 4
assign 4
discipine 4
populate 4
carrier 4
runways 4
outer 4
others 4
refer 4
surprisingly 4
them 4
better 4
'll 4
membership 4
teams 4
primarily 4
follow-up 4
unrelated 4
therefore 4
aircarft 4
co@@ 4
daughter 4
inclusdes 4
variety 4
ethinic 4
closest 4
active 4
today 4
governor 4
predominantly 4
operationg 4
metre 4
i.d 4
identifiers 4
aircaft 4
widely 4
sadly 4
affiliations 4
worth 4
le@@ 4
components 4
fact 4
present 4
winners 4
educational 4
virus 4
details 4
achievements 4
graduation 4
recently 4
competitor 4
vp[aspect=progressive,tense=present,voice=active,person=non-3rd,number=plural] 4
monuments 4
rule 4
projects 4
er 4
serverd 4
categorization 4
south-east 4
attendance 4
ag@@ 4
despite 4
amongst 4
sub-group 4
because 4
would 4
tr@@ 4
spending 4
death 4
years 4
3678 4
7202 4
2195.0 4
6573 4
2003.0 4
4,349 4
2988 4
4019.0 4
3090 4
anne 4
04/22 4
polderbaan 4
2939 4
1773.0 4
4000ft 4
bart 4
wever 4
1982.0 4
12l/30r 4
concrete 4
wellington 4
69 4
20,1930 4
7@@ 4
walked 4
smilodon 4
8820 4
aud 4
1200 4
142 4
millar 4
2009-10-02 4
hopsital 4
winkler 4
japanese 4
sqkm 4
7 4
ting 4
lafayette 4
washtenaw 4
214 4
marcos 4
produces 4
bi@@ 4
ore 4
rico 4
adding 4
cooking 4
fritters 4
wheat 4
cauliflower 4
paneer 4
saw 4
ed@@ 4
a.f.c.fylde 4
barbetti 4
hoofdklasse 4
bakou 4
afas 4
stadion 4
os 4
left 4
ecology 4
mendriso 4
enrolled 4
institue 4
assigned 4
bimonthly 4
bi-monthly 4
ages 4
madeleine 4
populated 4
2702 4
air@@ 4
3684 4
3684.0 4
210m 4
3.3528 4
12.0 4
h@@ 4
al@@ 4
ave. 4
140000 4
1988-11-22 4
ban@@ 4
comprised 4
penet 4
goes 4
referred 4
18g 4
ved 4
Şehitleri 4
anıtı 4
1fc 4
th@@ 4
on@@ 4
neighboring 4
parented 4
counts 4
librarian 4
math. 4
scriptures 4
ter 4
f16 4
island 4
497 4
runs 4
speaks 4
men@@ 4
3048 4
flew 4
20@@ 4
covering 4
av@@ 4
en@@ 4
f. 4
i. 4
gr@@ 4
admin.sci.q 4
a.the 4
us@@ 4
doshi 4
.its 4
tenderloin 4
romanian 4
ruled 4
balgalore 4
techology 4
dept 4
nasa-operated 4
utilize 3
develop 3
coll@@ 3
look 3
legislate 3
sh 3
ig@@ 3
component 3
pay 3
lab@@ 3
hon@@ 3
connect 3
flow 3
ase 3
ten 3
en 3
ref 3
vp[aspect=perfect,tense=past,voice=active,person=null,number=null] 3
ur 3
com@@ 3
neighbour 3
vp[aspect=simple,tense=past 3
perfect,voice=passive,person=null,number=null] 3
call@@ 3
du@@ 3
stre@@ 3
pl@@ 3
main@@ 3
ans 3
cr@@ 3
sauces 3
ain 3
site 3
1,219 3
1818.0 3
4,019 3
3090.0 3
ai 3
ay 3
877.0 3
9001 3
lpena 3
oostbaan 3
09/27 3
ser@@ 3
aalsmeerbaan 3
9@@ 3
39 3
1773 3
1,411 3
12467 3
gu@@ 3
harrietsown 3
battled 3
involving 3
performs 3
representing 3
beginning 3
ausitin 3
39599.0 3
viñoly 3
120770.0 3
developed 3
addid 3
halls 3
ham 3
1-4-2 3
30 3
shinzō 3
joh 3
14.2 3
286.5 3
429.9 3
161.54 3
.0 3
144.7 3
dougherty 3
54 3
1104.1 3
bernalillo 3
755.3 3
1.0 3
55.4 3
992.6 3
-7 3
25.2 3
131.6 3
48.0 3
tait 3
336265 3
107.43 3
268.0 3
523.9 3
steuben 3
524.5 3
74.33 3
75.324 3
102372 3
94509 3
94531 3
682 3
817 3
469 3
972 3
470 3
347.1 3
609 3
clerk 3
1421.2 3
4.14 3
logan 3
783.1 3
1.7 3
140.8 3
368.65 3
914.8 3
1296.65 3
corvallis 3
ul@@ 3
z 3
li@@ 3
navajo 3
san@@ 3
greater 3
em 3
richland 3
uni@@ 3
tes 3
olympia 3
o'neal 3
o'neil 3
st@@ 3
does 3
dillian 3
alley 3
apple 3
contained 3
casillas 3
romero 3
dictates 3
participating 3
antonis 3
milionis 3
a.s.livorno 3
pesokar 3
premierleague 3
eehoorn 3
noord 3
amsterdam-noord 3
cf 3
ly@@ 3
licata 3
rotterdam 3
ait 3
?? 3
kke 3
desteapta 3
vicent 3
glastonbuy 3
ascqag 3
bundsgaard 3
2776 3
airportis 3
4100 3
thea@@ 3
733 3
schuphol 3
159m 3
280m 3
auckland 3
utaa 3
211m 3
har@@ 3
ge@@ 3
ranked 3
prepared 3
occupied 3
postmodern 3
0 3
ch@@ 3
den@@ 3
eth@@ 3
kevin 3
eastman 3
winning 3
frenchman 3
di@@ 3
movie 3
northbrook 3
hugh 3
hazzard 3
ger 3
amatricana 3
fi@@ 3
catalonian 3
sumatran 3
fresh 3
vo@@ 3
ve@@ 3
at@@ 3
bhaj@@ 3
desert 3
connected 3
nar@@ 3
división 3
ss 3
flows 3
aaarhus 3
1635 3
cannon 3
law 3
ased 3
ma@@ 3
am.j.math 3
1.337 3
2,776 3
2,194 3
par@@ 3
2215m 3
4019 3
ons 3
33@@ 3
12@@ 3
1.@@ 3
518 3
chose 3
laselle 3
ab@@ 3
the@@ 3
ethopia 3
ea@@ 3
andalusian 3
is@@ 3
ay@@ 3
y@@ 3
bake@@ 3
antioquio 3
indonesi@@ 3
mushrooms 3
mexicans 3
philippin@@ 3
ment 3
aj@@ 3
n.@@ 3
chieti 3
med@@ 3
1600 3
arhus 3
universi@@ 3
predecessor 3
ti@@ 3
ville 3
hungar. 3
danes 3
2195 3
alcobenda 3
controlled 3
s.@@ 3
896 3
are@@ 3
wi 3
597 3
193@@ 3
1927-07-23 3
198@@ 3
-speaking 3
her 3
fransisco 3
ethiopa 3
showed 3
featured 3
ald@@ 3
ped@@ 3
it@@ 3
cuisine.the 3
puidgemont 3
car@@ 3
commemorated 3
v@@ 3
st.mary 3
architetturia 3
univerrsity 3
mahé 3
palaeontol.pol 3
jo@@ 3
u.s.a.f. 3
14/32 3
mr 3
pilo@@ 3
hosted 3
ras@@ 3
sandoval 3
turkeys 3
-born 3
idenitifier 2
loaction 2
average 2
amoun@@ 2
fossils 2
open 2
developer 2
augur@@ 2
zone 2
ares 2
chair 2
stare 2
creation 2
list 2
introdu@@ 2
snack 2
interested 2
non-abbreviated 2
locatedd 2
employ 2
approximately 2
undergraduates 2
roughly 2
adop@@ 2
proud 2
neighbors 2
borders 2
devote 2
publ@@ 2
literary 2
abbreivate 2
notablework 2
administr@@ 2
leve 2
interestingly 2
pursu@@ 2
recru@@ 2
astronauts 2
om 2
coincidentally 2
denonym 2
rents 2
oversee 2
inagurate 2
screens 2
varient 2
locale 2
fry 2
derive 2
might 2
nicknames 2
enhance 2
liking 2
surprising 2
love 2
tasty 2
con@@ 2
su@@ 2
me 2
classic 2
introduction 2
dis 2
counrty 2
achie@@ 2
want 2
accompaniment 2
kinds 2
originiates 2
crowd 2
menbers 2
hs 2
legue 2
managerof 2
unsurprisingly 2
border 2
percentage 2
number,@@ 2
ibn 2
alumnus 2
rele@@ 2
isnn 2
unrelatedly 2
shor@@ 2
subject 2
examples 2
totally 2
unreleated 2
make-up 2
servers 2
runwiay 2
fighter.the 2
veterans 2
invasions 2
1rst 2
indigenes 2
meteres 2
elevelation 2
sealevel 2
organise 2
set 2
addres 2
incorpor@@ 2
case 2
broadcasts 2
creater 2
currecncy 2
always 2
lot 2
alternatives 2
orgin@@ 2
typically 2
whic 2
further 2
correct 2
est@@ 2
contribute 2
visit 2
nad 2
professional 2
managers 2
loc 2
informally 2
recor 2
assi@@ 2
matter 2
numberr 2
ace 2
numbere 2
kccn 2
minorities 2
? 2
aboce 2
identfier 2
altitude 2
jet 2
operations 2
noteworthy 2
airbases 2
material 2
slang 2
oft 2
pf 2
opr@@ 2
whree 2
constit@@ 2
ute 2
earlier 2
side 2
fellow 2
stint 2
concei@@ 2
local-born 2
streets 2
formally 2
commence 2
end 2
speech 2
loc@@ 2
act 2
significance 2
architecturally 2
withreference 2
whom 2
patient-@@ 2
prevously 2
role 2
substantial 2
agent 2
cones 2
rules 2
separate 2
originaly 2
ingedients 2
few 2
carbohydrate 2
nutritional 2
value 2
fron 2
together 2
igredient 2
ci@@ 2
try 2
too.the 2
langauge 2
categorisation 2
close 2
turks 2
interest 2
highly 2
hone 2
mat@@ 2
inabit@@ 2
coccer 2
far 2
co-@@ 2
altogether 2
whos 2
nuber 2
copy 2
what 2
background 2
bbreviation 2
abreviated 2
abbreviatedform 2
things 2
even 2
latest 2
longest 2
l/situated 2
levle 2
locationa 2
airway 2
entity 2
missiles 2
aircfrafts 2
jets 2
likes 2
weapons 2
inv@@ 2
ade 2
capitalod 2
speaker 2
bridge-2 2
do@@ 2
ruway 2
metes 2
lenght 2
environs 2
controls 2
ecei@@ 2
ultimately 2
befor 2
retiral 2
shortly 2
graduates 2
employee 2
landmarks 2
homes 2
numerous 2
resume 2
contru@@ 2
roots 2
mix 2
predominant 2
patient-4 2
grop 2
worthy 2
politics 2
politicians 2
delicious 2
sizes 2
versions 2
varieties 2
origintes 2
varation 2
adn 2
familiar 2
leds 2
enthnicities 2
naturally 2
purch@@ 2
vl 2
variants 2
designation 2
nearby 2
except 2
lea@@ 2
old 2
indigenous 2
honour 2
upkeep 2
inaugr@@ 2
affliate 2
collection 2
subsequently 2
demographic 2
bri@@ 2
next 2
predominently 2
mostly 2
pun@@ 2
sppoken 2
aspects 2
culture 2
good 2
earn 2
precedence 2
adult 2
no 2
wonder 2
alumni 2
part@@ 2
latun 2
rectore 2
establishedin 2
ffili@@ 2
directore 2
strongly 2
board 2
2-@@ 2
lifetime 2
carrer 2
credit 2
dedication 2
| 2
sup@@ 2
posgraduayed 2
leaderr 2
relgiion 2
well-known 2
19@@ 2
entit@@ 2
7,202 2
6,573 2
kheria 2
station 2
2743.0 2
mat 2
877 2
ls 2
3300.0 2
3,453 2
derbaan 2
buitenveldertbaan 2
929.0 2
929 2
13,123 2
13123 2
15@@ 2
zeland 2
curitaba 2
13017,0 2
13@@ 2
01 2
7th 2
197@@ 2
/01 2
1971-07-01 2
ju@@ 2
willian 2
opened 2
ter@@ 2
johannesburg 2
str@@ 2
ret 2
re 2
benedicts 2
style`@@ 2
30th 2
2007 2
groun@@ 2
gujurat 2
julie 2
bethseda 2
sqk 2
albilene 2
524.0 2
.88 2
0.@@ 2
1239.3 2
62.0 2
535.0 2
541 2
458 2
0,@@ 2
008 2
4.@@ 2
505 2
575 2
486.2 2
n.m. 2
490.9 2
1142.3 2
6.81 2
26@@ 2
5@@ 2
770 2
346.0 2
806 2
109@@ 2
9.0 2
746 2
657 2
714 2
16.55 2
734 2
christopher 2
82.8 2
258.2 2
344.9 2
129@@ 2
334 2
686.0 2
703.95 2
contra 2
costa 2
sch@@ 2
covington 2
lansing 2
newark 2
tripp 2
chez 2
tacoma 2
canyon 2
fort 2
ying 2
ps 2
round 2
bcc 2
stared 2
anc@@ 2
af@@ 2
actor 2
bolf 2
ita 2
needed 2
strawberries 2
strawberry 2
whet 2
bing@@ 2
apiaceae 2
jesús 2
je@@ 2
pic@@ 2
ahmet_davutoğlu 2
fiorentia 2
shuvulan 2
eenhoorn 2
ens 2
akrons 2
one@@ 2
sc@@ 2
youth@@ 2
peterstöger 2
x 2
hun@@ 2
employs 2
techno@@ 2
institude 2
telagana 2
rebelllion 2
devoted 2
pr6031 2
.0867 2
pr6031o867 2
sh@@ 2
ps3523.e55 2
s4 2
+ 2
abbreivated 2
machine 2
unversity 2
retroviruses 2
vi@@ 2
europe 2
blaenau 2
ffesti@@ 2
oliver 2
porius 2
julius 2
olfo 2
airpor 2
00.00 2
carried 2
ft. 2
commelinid 2
29@@ 2
25@@ 2
2989m 2
2989 2
authorities 2
covered 2
100,305 2
eliot 2
28,1966 2
28@@ 2
02@@ 2
/1966 2
ign@@ 2
24@@ 2
du 2
mariott 2
overseen 2
man@@ 2
aba 2
styled 2
inagurated 2
easter 2
kar@@ 2
3/10/1983 2
tayler 2
u.k 2
go@@ 2
ge 2
ajo@@ 2
atar@@ 2
iciana 2
lled 2
derives 2
've 2
sandwhich 2
sum@@ 2
pasta 2
sio@@ 2
por@@ 2
makes 2
ys 2
solan@@ 2
binigit 2
bin@@ 2
ignit 2
bionic@@ 2
puig@@ 2
dem@@ 2
ent 2
ba@@ 2
jji 2
zamboangan 2
ine 2
or@@ 2
ab 2
acy 2
a.c.chievo 2
io 2
dimi@@ 2
fc. 2
19,238 2
fl@@ 2
ist@@ 2
spor@@ 2
17,000 2
et@@ 2
tur@@ 2
bordered 2
j.v 2
0-@@ 2
xialong 2
lin@@ 2
388-page 2
math.hungar 2
ica 2
conrnell 2
tion 2
320-page 2
denamrk 2
lufthaven 2
3500m 2
ut@@ 2
for@@ 2
ard 2
falcons 2
al-@@ 2
f15 2
ne@@ 2
97@@ 2
ney 2
allam 2
3,300 2
4,000 2
2439.0 2
0.9 2
istan 2
airpor@@ 2
ters 2
q@@ 2
allan 2
nws 2
ren 2
organised 2
late 2
pu@@ 2
ure 2
winckler 2
helped 2
ll 2
ba 2
pro@@ 2
jh@@ 2
bir@@ 2
ist 2
fair@@ 2
banaman 2
billie 2
ok@@ 2
appears 2
col@@ 2
ating 2
alu@@ 2
sia 2
jusef 2
des 2
apor@@ 2
jav@@ 2
sausages 2
claimed 2
pan@@ 2
preser@@ 2
pat@@ 2
colomb@@ 2
bartalone 2
bat@@ 2
filippino 2
e-@@ 2
um 2
sy@@ 2
ly 2
acha@@ 2
ethelwald 2
lost 2
ag 2
ex@@ 2
val@@ 2
che@@ 2
s.s.d 2
mar@@ 2
stu@@ 2
ary 2
rsc 2
-based 2
pi@@ 2
der@@ 2
accadmia 2
foundation 2
visvesaraya 2
follows 2
heinlen 2
al. 2
advance 2
char@@ 2
399@@ 2
english-@@ 2
focuses 2
hungar@@ 2
palaeontological 2
27367194 2
math@@ 2
me@@ 2
istr@@ 2
a.it 2
infrareo 2
ll@@ 2
identifi@@ 2
3.@@ 2
ce@@ 2
ada 2
3310 2
06/24 2
kaagbaan 2
ur@@ 2
austin.@@ 2
green@@ 2
kimb@@ 2
poacea 2
airlines.the 2
38@@ 2
spain.it 2
ake@@ 2
2215 2
mad@@ 2
coun@@ 2
loh@@ 2
2.@@ 2
11@@ 2
obtaining 2
7.@@ 2
dying 2
10/@@ 2
17/@@ 2
09/01/1969 2
1969.09.01 2
consisting 2
colman 2
39599 2
linked 2
205 2
dail 2
eireann 2
commenced 2
2013 2
a.@@ 2
guj@@ 2
manhat@@ 2
4/2@@ 2
tor@@ 2
spain@@ 2
leader@@ 2
ital@@ 2
y.@@ 2
sauce@@ 2
.it 2
malay@@ 2
ai@@ 2
singapore.it 2
ing@@ 2
mashed 2
mal@@ 2
asia 2
well.the 2
.blt 2
states.its 2
frangipane-based 2
bakwell 2
chocolate 2
flavoured 2
we@@ 2
shitake 2
indonesia.@@ 2
llo@@ 2
pines 2
confectionary 2
ord@@ 2
mexic@@ 2
o.it 2
ra 2
lar@@ 2
tarts 2
nati@@ 2
ind@@ 2
ric@@ 2
e.@@ 2
bac@@ 2
ho@@ 2
legislated 2
7and 2
pr@@ 2
souza 2
inter@@ 2
aklmaar 2
es@@ 2
ding 2
karanataka 2
alp 2
a.t 2
ish 2
caucasian 2
brit@@ 2
ro@@ 2
el@@ 2
measuring 2
610m 2
brasil 2
911m 2
2,215 2
wars 2
11/39 2
8m 2
helipad 2
wiconsin 2
bas@@ 2
going 2
beintoite 2
ell@@ 2
wiliam 2
3/@@ 2
barak 2
airing 2
kaila 2
ya 2
ked 2
aristoteles 2
deryshire 2
missi@@ 2
get@@ 2
sburg 2
ks 2
iz@@ 2
kuttittattoor 2
sen 2
eric@@ 2
earned 2
ered 2
azer@@ 2
accadem@@ 2
dr.sarvapalli 2
alcharya 2
aarh@@ 2
passing 2
commemorates 2
ect 1
resu@@ 1
lt 1
vp[aspect=simple,tense=present,voice=active,person=@@ 1
non-@@ 1
3rd,number=singular] 1
vp[aspect=progressive,@@ 1
tense=pas@@ 1
t,voice=active,person=null,number@@ 1
=singular] 1
occ@@ 1
vp[aspect=simple,tense=present,voice=passive,person=@@ 1
3rd,number=null] 1
mber 1
dge-2 1
gre@@ 1
ents 1
pp@@ 1
ch 1
tch 1
ance 1
tain 1
wn 1
ct 1
led@@ 1
und 1
vp[aspect=perfect,tense=present,voice=passive,person=@@ 1
non-3rd,number=null] 1
ent@@ 1
vp[aspect=simple,tense=past,voice=passive,person=null,number@@ 1
=null] 1
dge@@ 1
que@@ 1
lish 1
ner 1
ill 1
jo 1
sit 1
-01 1
alder@@ 1
schi@@ 1
pho@@ 1
oo@@ 1
stbaan 1
buitenvel@@ 1
dam 1
sci@@ 1
phol 1
10 1
75@@ 1
bel@@ 1
im 1
town@@ 1
shi@@ 1
utili@@ 1
zes 1
separ@@ 1
def@@ 1
ence 1
1/@@ 1
ran@@ 1
delaw@@ 1
j.@@ 1
aid@@ 1
524@@ 1
53@@ 1
4,@@ 1
114@@ 1
6,@@ 1
81 1
occupi@@ 1
5.0 1
46.0 1
minu@@ 1
inhabi@@ 1
258.@@ 1
214@@ 1
68@@ 1
bbi@@ 1
was@@ 1
ka 1
á@@ 1
sal@@ 1
occup@@ 1
georg@@ 1
amaz@@ 1
her@@ 1
é 1
cast@@ 1
bowski 1
ected 1
wolf@@ 1
arrabbi@@ 1
ang 1
res@@ 1
ced 1
sus 1
oks 1
mag@@ 1
burg 1
arapiraqu@@ 1
pallo@@ 1
ta 1
magde@@ 1
bur@@ 1
gs 1
rod@@ 1
guez 1
rodri@@ 1
qu@@ 1
ez 1
magistr@@ 1
gi@@ 1
,000 1
associ@@ 1
ati@@ 1
roman@@ 1
hel@@ 1
form@@ 1
legisl@@ 1
technolog@@ 1
cal 1
john@@ 1
onis 1
ice@@ 1
journ@@ 1
eal 1
alcatr@@ 1
ni@@ 1
lufth@@ 1
ave 1
46@@ 1
pot 1
sti@@ 1
00m 1
ip@@ 1
34@@ 1
00 1
californ@@ 1
ians 1
retire@@ 1
1969@@ 1
09@@ 1
85@@ 1
3.8 1
ago 1
lic 1
1400@@ 1
,0 1
47@@ 1
hailemar@@ 1
ian 1
steph@@ 1
wor@@ 1
od@@ 1
brooke-@@ 1
cy 1
night 1
amer@@ 1
cian 1
ars 1
ves 1
fill@@ 1
gras@@ 1
arrab@@ 1
slic@@ 1
cado 1
eda 1
pou@@ 1
sin@@ 1
singapor@@ 1
ables 1
enjo@@ 1
sn@@ 1
ack@@ 1
deser@@ 1
les 1
phillipp@@ 1
negr@@ 1
ant@@ 1
mon@@ 1
cali@@ 1
own@@ 1
mor@@ 1
atten@@ 1
tia 1
spallet@@ 1
pau@@ 1
oren@@ 1
tina 1
pay@@ 1
2014@@ 1
anu@@ 1
lspor 1
tive 1
tto 1
arch@@ 1
demar@@ 1
stud@@ 1
hard@@ 1
mac@@ 1
mi@@ 1
llian 1
number@@ 1
36@@ 1
ten@@ 1
mati@@ 1
abbrevi@@ 1
elizab@@ 1
ae@@ 1
ir 1
austr@@ 1
produc@@ 1
tirstru@@ 1
lufthav@@ 1
219@@ 1
of@@ 1
airpo@@ 1
ty 1
ane 1
ces 1
anb@@ 1
deplo@@ 1
mcdon@@ 1
22@@ 1
877@@ 1
l/36r 1
10.0 1
97 1
ang@@ 1
olo 1
600@@ 1
982 1
349 1
out@@ 1
gam@@ 1
ie 1
98@@ 1
ash@@ 1
helicop@@ 1
lah@@ 1
sadi@@ 1
sub@@ 1
stan@@ 1
harri@@ 1
ondack 1
war@@ 1
tw@@ 1
enti@@ 1
eth 1
1966-0@@ 1
-0@@ 1
ences 1
fr@@ 1
desig@@ 1
ning 1
politi@@ 1
ramapho@@ 1
ic 1
enter@@ 1
inment 1
lim@@ 1
erick 1
ale 1
wickre@@ 1
singhe 1
alp@@ 1
ath@@ 1
bhai 1
distr@@ 1
juli@@ 1
asi@@ 1
mingham 1
guar@@ 1
sho@@ 1
ws 1
anne@@ 1
rou@@ 1
jamin 1
ture 1
ton 1
cre@@ 1
kal@@ 1
jap@@ 1
sau@@ 1
span@@ 1
ards 1
putraj@@ 1
ng@@ 1
ca@@ 1
mes 1
bak@@ 1
fran@@ 1
gin@@ 1
ry 1
per@@ 1
ature 1
pa@@ 1
sham@@ 1
vari@@ 1
vaju@@ 1
itra 1
binig@@ 1
jal@@ 1
oa 1
getty@@ 1
sbury 1
est 1
penn@@ 1
lan@@ 1
ble 1
canon@@ 1
histor@@ 1
ical 1
mono@@ 1
battle@@ 1
fiel@@ 1
mo@@ 1
mu@@ 1
a.c.@@ 1
dr@@ 1
lam@@ 1
cio 1
ben@@ 1
godi 1
voverona 1
cl@@ 1
ax 1
uti@@ 1
sis 1
sp@@ 1
sr@@ 1
tiva 1
arn@@ 1
remi@@ 1
acao 1
brazili@@ 1
ero 1
risio 1
fer@@ 1
academ@@ 1
gl@@ 1
sar@@ 1
cap@@ 1
alli 1
foun@@ 1
oc@@ 1
cur@@ 1
gran@@ 1
sactions 1
wal@@ 1
sted 1
il@@ 1
hard 1
57@@ 1
46 1
z@@ 1
aolong 1
establish@@ 1
chool 1
publish@@ 1
tic@@ 1
br@@ 1
librari@@ 1
ver@@ 1
17r/@@ 1
19 1
baraj@@ 1
paran@@ 1
state@@ 1
alf@@ 1
hal@@ 1
ku@@ 1
az@@ 1
addum 1
84.0 1
ck 1
heed 1
gen@@ 1
qbal 1
shari@@ 1
f.@@ 1
zw@@ 1
mb@@ 1
gbaan 1
tex@@ 1
77@@ 1
andre@@ 1
servic@@ 1
engl@@ 1
states.@@ 1
ole 1
colo 1
applet@@ 1
ery 1
ley 1
3r/21l 1
13 1
31 1
belgi@@ 1
un 1
helic@@ 1
oper@@ 1
fallu@@ 1
ja 1
abadi 1
ira@@ 1
f 1
d-@@ 1
pol@@ 1
ales 1
ea 1
w 1
harrietst@@ 1
ow 1
03.@@ 1
11-1@@ 1
8-@@ 1
192@@ 1
1966@@ 1
.0@@ 1
33 1
1114@@ 1
1,4@@ 1
200@@ 1
construc@@ 1
tion@@ 1
parli@@ 1
843.8 1
12077@@ 1
amhar@@ 1
196@@ 1
1-@@ 1
14@@ 1
jacab@@ 1
haputal@@ 1
ko@@ 1
tta 1
27@@ 1
46.66 1
aki@@ 1
prefect@@ 1
mil@@ 1
medabad 1
ura 1
ah@@ 1
para 1
ech 1
fransi@@ 1
/0@@ 1
'@@ 1
let@@ 1
y-@@ 1
corpor@@ 1
ation 1
roulea@@ 1
tu@@ 1
yk 1
sian 1
lic@@ 1
predomin@@ 1
ately 1
cuisine@@ 1
compris@@ 1
squ@@ 1
cat@@ 1
talon@@ 1
rom@@ 1
squeez@@ 1
mash@@ 1
too@@ 1
uk@@ 1
condi@@ 1
clai@@ 1
to@@ 1
oqu@@ 1
.00 1
berries 1
may@@ 1
del@@ 1
ilo 1
philipp@@ 1
sou@@ 1
ef@@ 1
ji 1
indi@@ 1
conf@@ 1
ection 1
es.@@ 1
guadalaj@@ 1
guad@@ 1
sand@@ 1
favo@@ 1
ite 1
iana 1
peopl@@ 1
fall@@ 1
ol 1
rol 1
baj@@ 1
190@@ 1
tro 1
lumezz@@ 1
ini 1
salv@@ 1
all@@ 1
anza 1
tis 1
bry@@ 1
ng 1
portu@@ 1
ese 1
erbaijan 1
ron 1
fute@@ 1
adi@@ 1
mit@@ 1
assau@@ 1
lts 1
c.@@ 1
amsterdam-@@ 1
so@@ 1
kuttik@@ 1
attoor 1
provi@@ 1
archite@@ 1
ttur@@ 1
joh@@ 1
vis@@ 1
svaraya 1
annis 1
rest 1
ity 1
978-1-4165-4253@@ 1
sto@@ 1
res 1
hein@@ 1
lin 1
tran@@ 1
inf@@ 1
advanc@@ 1
es.the 1
eng@@ 1
7156-3648-0 1
foc@@ 1
sed 1
add@@ 1
ici@@ 1
1-8392 1
ative 1
ants 1
45@@ 1
44811 1
r/@@ 1
ram@@ 1
ussen 1
akti@@ 1
skab 1
bb@@ 1
112@@ 1
1@@ 1
3,@@ 1
434@@ 1
9m 1
l/@@ 1
1,@@ 1
800 1
desh 1
274@@ 1
ass@@ 1
bal 1
10m 1
533 1
1533@@ 1
8.@@ 1
ta@@ 1
ins 1
tej@@ 1
lun@@ 1
ned 1
2439@@ 1
gree@@ 1
ili@@ 1
poace@@ 1
900@@ 1
airlin@@ 1
turk@@ 1
turkmen@@ 1
tsi@@ 1
23@@ 1
aid 1
bundel@@ 1
commelin@@ 1
anac 1
llo 1
nasa-@@ 1
195@@ 1
whe@@ 1
eer 1
shepar@@ 1
represen@@ 1
educa@@ 1
accompan@@ 1
concer@@ 1
wash@@ 1
ton@@ 1
muse@@ 1
tin 1
na 1
jay@@ 1
aw@@ 1
rd@@ 1
epura 1
hito 1
dalpat@@ 1
musu@@ 1
regis@@ 1
tered 1
min@@ 1
andalu@@ 1
cia 1
on-@@ 1
wide 1
catalon@@ 1
yet 1
tit@@ 1
ar 1
ich 1
ong 1
ven 1
ty@@ 1
short@@ 1
ru@@ 1
aceae 1
rut@@ 1
eae 1
pal@@ 1
sa 1
clu@@ 1
wido@@ 1
ator 1
spo@@ 1
ke 1
karnat@@ 1
ake 1
fea@@ 1
turing 1
ó@@ 1
teles 1
hail@@ 1
anco 1
mont 1
crust 1
ey 1
chin@@ 1
ocano 1
phili@@ 1
igor@@ 1
fil@@ 1
ino 1
and@@ 1
luci@@ 1
ssippi 1
sylvania 1
memor@@ 1
mend@@ 1
risi@@ 1
nei@@ 1
neighbo@@ 1
ured 1
ach@@ 1
logy 1
dr.@@ 1
g.@@ 1
instit@@ 1
age 1
ulia 1
pall@@ 1
preced@@ 1
klu@@ 1
wh@@ 1
ite@@ 1
prece@@ 1
sity 1
sequ@@ 1
briti@@ 1
ished 1
.c. 1
apo@@ 1
ong@@ 1
fen@@ 1
dall@@ 1
l.@@ 1
/2@@ 1
8@@ 1
figh@@ 1
ined 1
monu@@ 1
ssi@@ 1
pi 1
fred@@ 1
mary@@ 1
rs 1
aijan 1
dict@@ 1
wald 1
volun@@ 1
ahmet_@@ 1
mi 1
davuto@@ 1
kuttikk@@ 1
att@@ 1
mendris@@ 1
b.@@ 1
m.@@ 1
mumb@@ 1
leng@@ 1
ana 1
telan@@ 1
ga 1
ioh@@ 1
ensis 1
ining 1
recei@@ 1
ving 1
memb@@ 1
met@@ 1
jerse@@ 1
/01/@@ 1
americ@@ 1
199@@ 1
hea@@ 1
day 1
fe@@ 1
hitl@@ 1
schneider-@@ 1
gal@@ 1
ph@@ 1
radhak@@ 1
ishnan 1
ataka 1
achar@@ 1
aya 1
ek 1
ke@@ 1
ala 1
esen 1
5600@@ 1
