в 30784
и 18717
- 17401
из 5579
является 5163
был 5121
имеет 4775
на 4272
находится 4265
где 4023
который 3812
с 3644
а 3190
родился 2931
штат 2705
это 2663
Он 2471
за 2414
играет 2008
бекон, 1801
США, 1800
"@@ 1798
как 1729
США 1658
была 1652
года. 1547
США. 1481
которая 1451
также 1442
его 1384
родом 1341
составляет 1209
В 1192
году 1150
лидер 1144
Соединенных 1143
играл 1113
умер 1080
он 1074
для 1061
года 1052
членом 1036
/ 1031
городе 978
году. 968
" 955
город 949
столица 935
(@@ 926
расположен 922
говорят 911
, 910
". 899
этническая 889
. 859
к 856
частью 847
которого 820
аэропорт 811
этнических 783
входит 777
лидером 763
the 757
компанией 747
ФК 747
американцы 738
есть 732
номер 723
", 721
часть 704
Аарон 696
взлетно-посадочной 686
расположена 675
возглавляет 673
качестве 669
группа 663
период 656
по 654
полосы 643
над 628
штате 626
соевый 623
уровнем 620
состав 619
Алан 618
соус, 617
под 615
Его 610
являются 601
время 593
aston 589
клуб 588
одна 577
martin 569
язык 553
округа 550
у 547
di 547
м 539
которой 528
жанр 518
обслуживает 512
округ 507
ассоциируется 506
орбитальный 502
графстве 501
во 500
кв. 496
Аэропорт 489
от 488
of 487
блюдо 487
1 485
групп 484
) 481
Она 476
апофеоз 473
akeem 455
Международный 454
котором 454
county 453
английском 446
название 442
года, 439
км 438
a 437
экипажа 436
один 435
Лидером 434
Александр 433
county, 429
можно 428
штата 427
страны 424
марта 422
У 418
июля 410
партии 407
alan 407
создан 407
Вашингтон, 406
Андерс 404
сменил 402
airport 401
Альфред 397
ингредиент 397
ее 395
длину 394
местом 390
international 389
стал 389
площадь 385
насчитывает 382
принадлежит 377
Соединенные 376
которые 374
свою 371
работал 370
Уильям 370
полоса 369
опубликован 364
аэропорта 360
ингредиенты 357
декабря 355
скорость 351
двигатель 349
году, 349
свое 348
2006 347
происхождение 345
1963 345
Столица 342
группы 340
е 335
периапсис 335
31 331
моря. 328
окончил 328
начал 327
НАСА 325
км. 322
найти 319
карьеру 318
Абдул 316
группой 315
коренные 315
рождения 314
Адам 312
служил 309
стране 302
воевал 301
или 300
2009 300
27 297
американской 297
музыкальный 296
), 295
расположения 294
-@@ 294
Штатов 293
взлетно-посадочная 285
о 285
Техас, 283
11 280
которую 280
Это 280
2000 278
Штатов, 276
эксплуатируется 275
buzz 274
азиатские 274
Авраам 274
исполняет 272
f.c. 271
но 270
Университет 270
Техас 269
района 269
o 267
университете 266
4 265
находился 265
то 265
103 265
А. 264
километров. 264
al 263
высоте 262
ii 261
родившийся 260
). 259
названием 257
Барак 256
сольный 254
1634 253
afc 250
я 249
Клуб 249
она 249
языке 248
ранее 247
20 245
себя 245
этнической 245
Вашингтон 245
ВВС 244
крупнейший 244
Штатов. 244
пилотом 244
населения 244
ac 242
Шепард 242
компания 241
Абель 241
Школа 241
isbn 241
Испании. 240
создана 240
long 239
группа. 238
групп. 238
in 237
язык, 237
запущена 237
acharya 236
афроамериканцы 236
s 235
у@@ 234
аэропорту 234
содержит 234
наук 234
Джон 234
менеджером 233
руководит 231
records. 231
вышел 231
romeo 231
него 231
На 230
английский 230
23 228
управляется 228
Техаса 228
метров 227
моря 227
известен 227
полет 227
accademia 227
Б. 226
эвакуации 226
должности, 226
s. 225
Джонс 225
public 223
3 221
5 221
Родился 221
2014 220
плотность 220
настоящее 219
Великобритании. 218
включает 217
atlantic 216
Тернер 216
которое 216
& 216
aldrin 215
км, 215
называют 214
issn 214
ноября 213
они 213
возник 211
социальных 211
региона 210
представителей 210
ритм 209
1955 209
выбран 209
были 209
250 209
связан 208
эпоху 208
битве 208
Агнес 208
Калифорнии. 206
1000 206
американцы. 205
Ахмет 204
a.c. 204
свой 204
которым 203
Техас. 202
языке, 202
О 201
расположенный 201
января 200
Альберт 200
amc 200
города 199
этой 199
1634: 199
Италии, 199
родилась 198
ка 198
Орхусском 198
Компания 197
Ее 197
длиной 196
ного 196
взлетно-посадочную 195
т 195
член 195
«@@ 194
площадка 194
языке. 192
командиром 192
abarth 192
метра. 191
их 191
Обама 191
ной 190
mendrisio 190
называется 189
чья 188
входят 187
столицей 187
Испании, 186
ский 185
Эллиот 185
с. 184
о@@ 184
место 184
Хуан 184
А 184
a.s. 184
projecttura 184
л 183
июня 183
Страна 183
university 183
написан 183
de 182
2005 182
ла 182
Висконсин. 179
было 179
ро@@ 179
sv 179
asilomar 179
Гражданской 178
ab 178
ным 177
управляет 176
Фелипе 176
versus 176
полосу 175
язык. 175
Штаты. 175
17 175
октября 175
блюдо, 175
Ассоциацией 175
найден 174
city 174
acura 174
alfa 174
technology 174
18 173
Ракета 173
e 172
fc 172
Адамс, 172
Соединенного 171
подписан 170
launch 170
Серии 169
построен 169
эпоха 169
квадратный 169
Огайо, 169
я, 169
связана 169
acta 169
Лидер 168
президент 168
ram 167
Музыкальный 167
музыки. 167
1932 167
квадратных 167
лидеры 167
Рибикофф 167
моря, 167
метра 166
н 166
представлял 166
персонаж 166
"Айам 166
чей 166
использует 165
and 165
м. 165
может 165
гражданин 165
бизнеса 165
infantry 165
oclc 165
построена 164
членов. 164
сезоне 163
Основные 163
так 163
ajax 163
10 162
"А@@ 162
bella 162
000 162
ariane 162
,0 161
д@@ 161
сборную 161
colmore 161
стране, 161
alison 160
отставку 160
найденная 160
Индонезии. 160
; 160
ный 159
мая 159
Беан 159
1996 159
Италии 159
gt 159
institute 159
Суарес 158
Испании 158
loyal 158
2015 157
м, 157
Индонезии, 157
bakewell 157
2 156
музыки 156
i 156
ы 156
основана 156
sportiva 156
t 155
Александра 155
расположение 155
alv 155
mississippi 155
е, 154
А@@ 154
районе 154
а@@ 154
клуба 154
компании 154
Акита, 154
обнаружил 154
Елизавета 153
сентября 153
hall 153
asam 153
charter 153
университет 152
bandeja 152
b@@ 151
ном 151
Гарт 151
валюта 151
.@@ 151
базируется 151
к@@ 150
музыку 150
е@@ 150
том 150
с, 149
Техасе, 149
united 149
a. 148
s@@ 148
ского 148
группу 148
университета 148
bacon 148
т@@ 147
new 147
p@@ 147
Тайб 147
alcatraz 147
ли@@ 146
лидер. 146
Великобритании, 146
aip 146
ная 145
еда, 145
alberto 145
С@@ 144
с@@ 144
члена 144
до@@ 144
elliot 144
adams 144
архитектором 144
spaceport 144
и, 143
m@@ 143
dodge 143
v8 143
monument 143
университетом 143
6 142
е. 142
Нью-Джерси, 142
де 142
что 142
говорит 142
до 142
Прудников 142
asser 142
levy 142
evil 142
гражданской 141
р 141
Франции, 141
Город 140
Альфредо 140
Калифорнии, 140
которых 140
15 139
ное 139
n@@ 139
то@@ 139
ко@@ 139
спроектирован 139
ингредиентов 139
лидера 138
в@@ 138
клубе 138
pietro 138
предшествовал 138
calcio 138
lccn 138
Индии. 137
скончался 137
Великобритании 137
101 137
членов 137
Альберта 137
Книга 137
длина 136
: 136
k@@ 136
records 136
тестовым 136
1962 136
Калифорния, 136
caterpillar 136
главе 136
ii. 135
сплав 135
11-й 135
Джеймс 135
pedas 135
Штаты 135
Штатах, 135
9 134
aaron 134
Осборн 134
сборной 134
north 134
Индиана, 134
Индиана 134
код 134
d@@ 133
appleton 133
1986 133
британском 133
внутри 133
берет 133
обнаружен 132
площадью 132
600 132
Европейского 132
Баварский 132
международный 131
a, 131
ную 131
Марк 131
получил 131
играют 131
ли 131
Они 131
b 131
Нью-Мексико, 131
audi 131
Пенсильвания, 131
16 130
музыкальным 130
нем 130
300 130
д-р 130
1. 129
f@@ 129
художником 129
ка@@ 129
Индия. 129
музыку. 128
быть 128
ayers 128
массу 128
Ачарья 128
группой. 128
e. 127
певец 127
Эндрю 127
delaware 127
эпохальную 127
Вашингтон. 127
поступает 127
Греции, 127
написана 127
22 126
си@@ 126
Алисон 126
д 126
исторических 126
дату 126
1036 126
107 126
Пенсильвания. 126
преемником 126
войне, 126
» 125
й. 125
ль@@ 125
да@@ 125
hotel 125
miller 125
жителя 125
aida 125
Адонис 125
ван 124
0. 124
12 124
'donnell 124
известный 124
Афроамериканцы 124
да 124
не@@ 124
живут 124
sky 124
н@@ 123
26 123
з@@ 123
ные 123
стилистическое 123
со 123
see 123
Площадка 123
одним 123
x-1 123
мировой 123
Мур 123
Взлетно-посадочная 122
Региональный 122
"Адольфо 122
d 122
1998 122
языком 121
conference 121
когда-то 121
1927 121
200 121
проживает 121
"СПИД" 121
того, 121
певец, 121
Нью-Джерси 120
Джоном 120
искусств 120
Мэдисон, 120
Индонезии 120
двигателем 120
начало 120
запущен 120
Абдулсалами 120
Бангалор 120
и. 118
"Нью-Джерси" 118
Альбенни 118
Андрей 118
награжден 118
"Атланта" 118
бекон 118
же 118
honda 118
альма-матер 118
,0. 117
Индии 117
сделана 117
ло@@ 117
управлением 117
войне. 117
апреля 117
музыка 117
Уилл, 117
1957 117
народ 117
относится 117
klink 117
С 117
Эрик 117
r 116
andrews 116
Нью-Джерси. 116
та 116
ва@@ 116
музыкант 116
человек 116
s, 116
dancer 116
регионального 115
с" 115
t@@ 115
ш@@ 115
Длина 114
c 114
я. 114
ра@@ 114
werder 114
страны. 114
grantville 114
на@@ 113
Новой 113
Дании. 113
сейчас 113
ской 113
общей 113
августа 113
округе 113
fc. 113
marriott 113
вариатор 113
Кабальеро 113
"Северед 113
ен@@ 112
жанра 112
c@@ 112
й, 112
завершен 112
1928 112
имеют 112
1910 112
включают 112
i@@ 111
но@@ 111
страна 111
ским 111
Андерсон 111
Уайт 111
известное 111
matador 111
изготовлен 111
х 110
Зитарроса 110
й@@ 110
возникла 110
футболу. 110
тело, 110
общую 110
Второй 110
teisaire 110
2@@ 109
Авиабаза 109
lockheed 109
ы. 109
своей 109
завершена 109
Махмуд 109
Нью-Йорке, 109
та@@ 108
u@@ 108
гимн 108
Глен-Ридж, 108
футбольной 108
on 108
одной 108
costa 108
собран 108
chievo 108
там 108
вместе 108
са 107
Дании 107
'Доннелл 107
вы@@ 107
Италии. 107
Небесное 107
гражданином 107
daggett 107
25 106
го@@ 106
Нью-Йорке. 106
1989 106
ба@@ 106
ском 106
впервые 106
земля 106
я@@ 105
's 105
й 105
rock 105
Лондоне. 105
свои 105
составе 105
километр. 105
"Анахайм", 105
крупный 105
pad 105
Технологическим 105
американцев. 105
столицу 105
g@@ 104
ace 104
1923 104
со@@ 104
Национальный 104
28 104
"Акрон", 104
Остине, 104
ингредиентом 104
войне 104
международного 103
та, 103
Дейр 103
ан@@ 103
Аллен 103
ри@@ 103
Огайо. 103
лидером. 103
там, 103
области 103
пеньет" 103
работает 103
Кант 103
dimitra 103
Индии, 103
Сент-Луисе. 103
там. 103
abilene 102
авиации 102
ле@@ 102
13 102
0 102
л@@ 102
ст@@ 102
ре@@ 102
дом 102
ni 102
афроамериканцы. 102
высшем 102
этническую 102
О@@ 101
президентом 101
А.С. 101
Огайо 101
ы, 101
adisham 101
февраля 101
азиатских 101
american 101
14-й 101
женат 101
Т@@ 100
j@@ 100
1930 100
Райель 100
самый 100
Крейг 100
alco 100
базе 100
Белый 100
Нью-Йорк. 99
Место 99
английский. 99
b. 99
ных 99
Джо 99
руководством 99
Нью-Мексико. 99
Холлоуэй 99
Йоханн 99
-- 99
находятся 98
языков, 98
1950 98
по@@ 98
Калифорнии 98
Музей 98
Георгиадис 98
livorno 98
научных 98
Васп" 98
Нью-Гэмпшире 98
обслуживается 97
размере 97
м@@ 97
Английский 97
alex 97
ut 97
kharaitiyat 97
amdavad 97
Мэриленд. 97
Малайзии 97
студентов. 97
лидеров 96
an 96
х@@ 96
ю 96
фон 96
певец. 96
Агустин 96
Барбоса 96
Алаа 96
avenue 96
"Акита" 96
Эпоха 96
1089 96
Штатах 96
paisa 96
Скалес 96
серого 96
Малайзии, 96
человек. 95
са. 95
100 95
Отель 95
уровня 95
city, 95
исполнитель 95
Колумбия, 95
ки 95
дата 95
Престол 95
sc 95
a.f.c. 95
Грузии, 95
Американский 95
"Анахайм" 95
своих 95
соус 95
группа, 95
delta 95
должности 95
w@@ 94
30 94
дебютировал 94
Азиатские 94
110 94
lasalle 94
т, 94
расположены 94
Мэдисоне, 94
e, 94
полное 94
партия 93
ч@@ 93
Остин 93
выступать 93
за@@ 93
менеджер 93
мест 93
2004 93
1099 93
164 93
Комический 93
Блюдо 93
glastonbury 93
этом 93
Этот 93
8 92
имя 92
группе 92
занимал 92
Университета 92
острове 92
"Терек 92
Восточной 92
обнаружена 92
Нью-Йорк, 92
o@@ 91
a@@ 91
Жанр 91
л, 91
домашняя 91
1969 91
11264 91
17068,8 91
среди 91
Рибикофф, 91
Сарвапалли 91
Радхакришнан 91
Дорога, 91
Протяженность 90
h@@ 90
ет 90
к. 90
чем 90
nasa 90
gufa 90
baths 90
последний 90
alvis 90
antares 90
Миссисипи 90
airey 90
decembrie 90
science 90
теперь 90
домом 90
Б@@ 89
r@@ 89
Мичиган, 89
Техасе. 89
г 89
сом 89
ни@@ 89
играть 89
Одна 89
Коренные 89
основан 89
atlas 89
Западная 89
Швейцарии 89
restruction 89
(родился 89
Солдеванахалли, 89
"Орхус" 88
18@@ 88
п@@ 88
ме@@ 88
и@@ 88
Д. 88
Андерсон, 88
austin 88
Эрнандес 88
К@@ 88
as 88
Алекс 88
стиль 88
Штатах. 88
Аляска 88
tlx 88
Авраама 88
Перон 88
деловых 88
acm 88
ii, 88
национальный 88
возглавляется 87
ра. 87
автор 87
Алессио 87
учился 87
графство 87
Лондон. 87
колледж 87
коренных 87
v8, 87
8@@ 86
длину. 86
Д@@ 86
т. 86
21 86
ти@@ 86
я" 86
ц@@ 86
пилотом. 86
ку@@ 86
белые 86
общая 86
Памятник 86
700 86
Мастер 86
страны, 86
организация 85
dent 85
adirondack 85
9@@ 85
Местом 85
ка. 85
Форрест 85
ская 85
АЗ 85
"Акрон" 85
Колумбия. 85
миллиметра. 85
2013 85
стране. 85
аэропортом 84
провинции 84
Н. 84
входил 84
hip 84
1966 84
deram 84
Один 84
Калифорния. 84
ве@@ 84
», 84
Ларс 84
fulton 84
Энн 84
auburn 84
Соус 84
Малайзии. 84
этнические 84
Далласе 84
истребителя 84
7@@ 83
т" 83
метров. 83
e@@ 83
идет 83
футбол 83
ена 83
abner 83
музыку, 83
Чикаго, 83
er 82
ма 82
m 82
1995 82
ка, 82
y 82
Хант 82
занимает 82
williams 82
пользуется 82
всей 82
inc. 82
президентом. 82
войны. 82
Индия, 82
американцев 82
собой 81
3@@ 81
выше 81
г@@ 81
ма@@ 81
Афины 81
лос 81
мо@@ 81
Большой 81
блюз 81
roma 81
футболу 81
те@@ 81
дня. 81
Демократической 81
про@@ 81
Турции 81
живет 81
blackpool 81
льда" 81
метрах 80
township, 80
разговорный 80
н, 80
н. 80
испанском 80
ми 80
ем 80
Соединенном 80
р@@ 80
Кадхим 80
2011 80
Мартин 80
Гурули 80
комиксов 80
"Говядина" 80
чемпионы 80
Румынии 80
года: 80
Журнал 80
публикует 80
десерт, 80
написанный 80
б@@ 79
"С@@ 79
Аль 79
при@@ 79
Лондон 79
bean 79
Коннектикут 79
mary 79
Персонаж 79
vi 79
среднеатлантического 79
way 79
1918 79
records, 79
Название 78
in@@ 78
«Аллама 78
en@@ 78
хо@@ 78
ра 78
известны 78
художник 78
когда 78
frew 78
испанский. 78
1974 78
футбольный 78
Абдула 78
американского 78
square 78
основные 78
Серхио 78
gruppo 78
speed 78
Кейси 78
charlie 78
"Крепость 78
soho 78
(часть 78
"Аль-Асад" 77
своего 77
john 77
1994 77
ad@@ 77
ви@@ 77
Попов, 77
Полное 77
Фрэнк 77
присутствовал 77
команду 77
109 77
родиной 77
Ангола, 77
масло 77
binignit 77
автомобиль 77
"Баварский 77
palaenologica 77
организацией 76
7 76
По@@ 76
тип 76
сыграл 76
Эртегун 76
nrbq 76
1983 76
новой 76
используется 76
1933 76
priestley 76
Кливленде, 76
человека 76
ajoblanco 76
популярностью 76
ра, 76
посвящен 76
ом 76
Рибикофф. 76
сотрудников. 76
Карнатака, 76
та. 75
3-й 75
В@@ 75
к, 75
ки. 75
блюзовой 75
материнская 75
родина 75
люди 75
1993 75
Калифорния 75
городом 75
Колумбия 75
amatriciana 75
традиционное 75
армии 75
опубликована 75
Также 75
представляет 74
"Агра" 74
ар@@ 74
Анголы 74
alligator 74
во@@ 74
Адамс 74
клубу 74
спроектировал 74
1999 74
Грузия 74
Индиана. 74
auburn, 74
Нью-Йорке 74
ден 74
университета. 74
расположенная 74
построенная 74
позже 74
Хессаргетта 74
дорога, 74
эксплуатирует 73
t. 73
местоположения 73
а. 73
l@@ 73
an@@ 73
на. 73
1981 73
ж@@ 73
Уильяма 73
tennessee 73
Чумаков 73
Александре 73
Больница 73
ские 73
pudding 73
parti 73
fc, 73
Иллинойс, 73
членов, 73
34 72
жители 72
де@@ 72
Ковач 72
команды 72
ана 72
row 72
д" 72
Северной 72
Роберт 72
Альбина, 72
создал 72
рис, 72
Запеченная 72
"alco 72
tennant 72
pesaka 72
bumiputera 72
Карнатака 72
Эриком 72
l 71
Пена 71
вой 71
wilder 71
О.К. 71
Ко@@ 71
джазовую 71
Диско 71
космосе 71
привык 71
da 71
"Ареша 71
Акрон, 71
5,3 71
исходит 71
миллиметра 71
isidro 71
студентов 71
журнал 71
президент. 71
Дания, 71
са, 70
d. 70
5@@ 70
z@@ 70
Одним 70
Чарли 70
andrew 70
ушел 70
Ди@@ 70
Королевстве 70
national 70
Иллинойс. 70
Сусана 70
Дании, 70
километров 70
Уорд 70
derbyshire 70
столица. 70
доступен 70
Джефферсон 70
этого 70
jones 69
4@@ 69
Нью-Йорка 69
Висконсин, 69
штаб-квартира 69
wildweeds. 69
re@@ 69
Борис 69
НАСА. 69
1987 69
house 69
Дж. 69
"Амарльо" 69
Филиппинах, 69
участвовал 69
neave 69
Дженнингс 69
Нидерландах, 69
"Аль@@ 68
17@@ 68
Техасе 68
music. 68
ла@@ 68
ки, 68
rayel 68
bhangra 68
Дэвид 68
Байден 68
12-й 68
16@@ 68
уровне 68
открыт 68
1097 68
1101 68
Грузия, 68
Нью-Мексико 68
белый 68
Бионико 68
meyer 68
Фонд 68
dbs 68
a1 68
армии, 68
verona 68
Хорхе 68
Американец 68
java, 68
737 68
И@@ 67
country 67
той 67
ром 67
Новая 67
Остин. 67
по-английски. 67
боях 67
выступал 67
ть 67
подписывается 67
главный 67
командой 67
"Алаа 67
Альбина 67
alpharetta, 67
131,6 67
washington 67
contra 67
ключевой 67
Ли 67
Гонконге 67
имел 67
engineering 67
Баку. 67
Мири, 67
губернатором 67
Антонис 67
Губбио 67
libraries 67
них 67
f.c., 67
войны, 67
Мадрид-Барайас" 66
ar@@ 66
Ма@@ 66
at@@ 66
языков 66
на, 66
ей 66
general 66
те 66
suburban 66
выступает 66
блюз. 66
Коннектикут. 66
испан@@ 66
должность 66
команда 66
известна 66
ле 66
Англии 66
Вашингтоне, 66
2016 66
К 66
запуска 66
fiat 66
премьер-министром. 66
Самарас 66
написал 66
». 65
30@@ 65
лен@@ 65
ди@@ 65
Аарона 65
человек" 65
anderson 65
ритма 65
блюза. 65
альтернативный 65
ется 65
сти@@ 65
Остине 65
Королевства 65
adam 65
v@@ 65
hall, 65
14 65
а, 65
alabama 65
э@@ 65
блюде 65
humphrys, 65
Фредерик, 65
групп, 65
Абубакар 65
жи@@ 65
coden 65
Флинт 65
"Спартак", 65
посещал 65
декан 65
международном 64
языком, 64
'@@ 64
Испания. 64
"Алекс 64
Альфреда 64
c. 64
сто@@ 64
резервным 64
ferencvarosi 64
лиге 64
началось 64
улица" 64
Джеймсом 64
2001 64
му@@ 64
coupe 64
Баку 64
Персидском 64
сената 64
пока 64
Австрии, 64
calcio. 64
press 64
"Сумерки" 64
sc, 64
командиром. 64
Встреча 64
560090. 64
19@@ 63
популярное 63
w. 63
Нарендра 63
ют 63
р. 63
альтернативное 63
co@@ 63
завершил 63
д. 63
Ба@@ 63
провел 63
Франции. 63
serie 63
bremen 63
скую 63
Общая 63
hero 63
arem 63
Мануэль 63
Американская 63
двигателя 63
«Атлас 63
Дорис 63
входящем 63
dc 63
дня, 63
Сейчас 63
am@@ 62
al@@ 62
o, 62
Центральной 62
да. 62
ру@@ 62
Румынии. 62
Г@@ 62
Западной 62
Германии. 62
футбольную 62
Ромагноли 62
секунду. 62
1001 62
километра. 62
indiana 62
Альбукерке, 62
Сингапуре. 62
откуда 62
saab 62
палаты 62
Коц 62
"Альберт 62
Брюсселе. 62
кризис" 62
Мадриде, 62
Штаты, 62
"Аллама 61
Альпена, 61
Англии. 61
Андра 61
владеет 61
los 61
Менеджером 61
es@@ 61
Сити 61
grounds 61
температуру 61
ке 61
big 61
миндаль, 61
Рим 61
Алексея 61
Турции, 61
Малайзия, 61
партии. 61
advances 61
,0, 61
Орхусе, 61
английский, 61
regional 60
Икбал» 60
Л@@ 60
вер@@ 60
Греции. 60
"Г@@ 60
dynamics 60
douglas 60
выполняет 60
хип-хоп 60
о. 60
бо@@ 60
более 60
номером 60
ь@@ 60
Менеджер 60
периапз 60
kw4 60
х. 60
дня 60
madison 60
Американцы 60
майский 60
пучок 60
rs-3 60
диаметр 60
"alfa 60
здравоохранения, 60
Сабин 60
gubbio 60
сотрудников 60
Марса 60
Королевства, 60
Марио 60
университета, 60
r. 59
том, 59
район 59
es 59
indie 59
че@@ 59
ам@@ 59
ке. 59
Остине. 59
е" 59
американский 59
"Э@@ 59
"Монреаль 59
p 59
Шри-Ланка. 59
президента 59
среднюю 59
claudiomaccone 59
Палата 59
"Обь" 59
Фонтан" 59
ке, 59
6, 59
категории 59
"Антарес" 59
Англии, 59
associatione 59
книга 59
international, 59
Нидерландов, 59
Их 59
"Абилен" 58
ab@@ 58
(в 58
имени 58
"Ардмор" 58
as@@ 58
Греции 58
тель 58
телем 58
при 58
ro@@ 58
nrbq, 58
се@@ 58
ю, 58
парламент 58
Родригес 58
aldrin, 58
присоединился 58
Рамс". 58
Ви@@ 58
чи@@ 58
Джона 58
fd 58
grasso 58
253260,0 58
"Мертвый 58
участие 58
Виргиния. 58
Клаус 58
Хуана 58
Родные 58
входящий 58
Кроме 58
road, 58
mendrisio, 58
имеется 57
Пенджабе, 57
Прокопис 57
ин@@ 57
ф@@ 57
лу@@ 57
"Абрадаб" 57
рок-@@ 57
nrbq. 57
певица 57
связанный 57
рок 57
волновой 57
Лира 57
Джонсон 57
"Аполло-12". 57
ми@@ 57
0@@ 57
1862 57
лидирует 57
(66063) 57
"Альбукерке", 57
"Альбукерке" 57
тоже 57
транспорта. 57
mtu 57
rs-3" 57
rham 57
Паркерсбурге, 57
Дженнингса 57
"Альфонс 57
garth 57
медалью 57
создали 57
кризис, 57
Бангалоре, 57
с". 56
Афонсу 56
n 56
Ф@@ 56
rock. 56
са@@ 56
Коннектикут, 56
ор@@ 56
сольным 56
christian 56
funk 56
Уругвая 56
Абнер 56
футбольного 56
is 56
Артур 56
ch@@ 56
j. 56
Тони 56
имела 56
Англия, 56
погибшим 56
работала 56
sibal 56
"a.e 56
Технологического 56
romance 56
Расположенный 56
метра, 56
которому 56
5, 56
крупнейшим 56
carroll 56
печати 56
Институт 56
36@@ 55
k. 55
ющая 55
6@@ 55
schiphol 55
2. 55
город, 55
У@@ 55
boeing 55
globemaster 55
Бертрамвай 55
ь 55
Вашингтона, 55
музыки, 55
пост 55
Ахмад 55
Э@@ 55
Хьюстон 55
евро. 55
Южной 55
Крейгом 55
figneria 55
Антиохия 55
не 55
Джоко 55
производится 55
Ататюрку 55
Османской 55
посту 55
Альве 55
страниц. 55
gazette 55
cornell 55
Индия 55
эпохальная 55
Г-н 55
Мендрисио, 55
выполнена 54
03 54
Управление 54
10@@ 54
210 54
Гринвилле, 54
c-17 54
заказа 54
synthpop 54
Фернандо 54
1959 54
Техаса, 54
домашние 54
petrotrin 54
Грузии 54
стадион 54
вы 54
«Ампара» 54
канцлер 54
(15788) 54
ganymed 54
х, 54
вший 54
оливковое 54
изготовлена 54
"Атлас 54
Саравак. 54
Майк 54
вице-президентом. 54
alfons 54
Вермонт 54
Технологический 54
блюз, 54
Лондоне, 54
Монтевидео, 54
Нью-Гэмпшире, 54
Керала, 54
Окончил 54
25@@ 53
ция 53
те. 53
дж@@ 53
Висконсин 53
airport, 53
imagine 53
блюзовую 53
1956 53
речь, 53
органом 53
ы" 53
миссии 53
ло 53
Асад 53
этажей 53
сек. 53
(штат 53
alpharetta 53
"Андерсон" 53
Ангола 53
созданный 53
blt 53
Баксо 53
Маттарелла 53
Пол 53
число 53
alma 53
председателем 53
Уотсон, 53
Уайт, 53
операционная 52
1-я 52
k 52
«Адольфо 52
"Афонсу 52
авиабазы 52
"Алдерни" 52
Лахор 52
я". 52
бе@@ 52
Нью-Йорк 52
цветущих 52
жителей 52
Музыка 52
пе@@ 52
де. 52
black 52
народной 52
"Т@@ 52
испанский 52
происходит 52
Э. 52
лся 52
конференции. 52
клубом 52
"Лос-Анджелес 52
Захра 52
"Карпаты 52
ка" 52
"Ба@@ 52
звание 52
Плотность 52
(410777) 52
Президент 52
"Баймакс" 52
Франции 52
v8. 52
ку 52
spaceport. 52
Преемником 52
"Мемориал" 52
Мэриленд 52
Рахман 52
институт 52
Макис 52
Дэвис 52
michele 52
Бром 52
série 52
awh 52
"Батчой" 52
mit 52
Джонс, 51
3. 51
д, 51
27@@ 51
ер@@ 51
er@@ 51
ю@@ 51
14@@ 51
ское 51
Алексис 51
вого 51
делает 51
загородной 51
disco. 51
з 51
Королевства. 51
пенсию 51
ско@@ 51
1976 51
Амар 51
row, 51
school 51
добавлен 51
"Чикаго" 51
премьер-министр 51
(19255) 51
(66391) 51
Томас 51
под@@ 51
Негре" 51
сливочное 51
Сингапуре 51
евро 51
"a-rosa 51
корабля 51
Мэриленд, 51
26-го 51
образования 51
"ram 51
блюза 51
художниками 51
jwaydan 51
технологический 51
управлял 51
Никос 51
т". 50
л. 50
Пакистана 50
су@@ 50
база 50
лом 50
ты 50
отправился 50
отставке. 50
медаль 50
nation 50
ganymed. 50
Уотсон 50
a" 50
Арбор 50
Арлингтон 50
зо@@ 50
черный 50
курица, 50
explorision 50
варенье, 50
у, 50
batchoy 50
пи@@ 50
август 50
литра. 50
Алексей 50
ii» 50
включая 50
афроамериканцев. 50
памятник 50
солдатам 50
социального 50
се 50
правления 50
Вермонт. 50
Карлоса 50
a.d. 50
efxeinoupolis 50
ajax. 50
федеральный 50
СПИД 50
lippincott 50
Асунсьоне, 50
скончавшийся 50
родившимся 50
ela-3, 50
Махмуд, 50
1-й 49
Сан-Хосе 49
идентификатор 49
П@@ 49
ет@@ 49
Антверпена 49
обслуживающий 49
198@@ 49
lotus 49
1913 49
национальную 49
производный 49
музыке. 49
Этническая 49
bhangra. 49
mater 49
Ре@@ 49
сте@@ 49
Сергей 49
академический 49
diagonal 49
ен 49
Ареша 49
ь, 49
"1 49
го 49
Обама. 49
Елены 49
насчитывается 49
., 49
ющий 49
комический 49
семьи 49
negre 49
Бекон-бутерброд 49
все 49
средства 49
центре 49
муниципалитете 49
1907 49
обеспечения 49
М 49
Карлос 49
a.e 49
fylde 49
Инженерный 49
"awh" 49
ДеМарсе 49
executive 49
в, 49
четырехтактный 49
Саранак, 48
га@@ 48
1@@ 48
ение 48
Бразилии. 48
самолет 48
or@@ 48
с", 48
от@@ 48
es. 48
начала 48
ча@@ 48
производная 48
тель@@ 48
1971 48
Остин, 48
sc. 48
"Хьюстон 48
СССР 48
у. 48
"Б@@ 48
2008 48
"Аддис-Абеба 48
Холл" 48
asher 48
isabelle 48
ведет 48
найденный 48
felicitas 48
части 48
ингредиентов. 48
овощи, 48
связанные 48
luna" 48
собирается 48
d, 48
сделан 48
польско-советской 48
войны 48
efxeinoupolis" 48
stuart 48
acf 48
ты@@ 48
Стюарт 48
техническому 48
страна, 48
подразделение 48
Сингапура, 48
matador, 48
164, 48
28@@ 47
региональном 47
6. 47
y. 47
88 47
дос 47
Управлением 47
18l 47
Рейес 47
ва 47
вая 47
Социалистической 47
ени@@ 47
tab 47
Университетом 47
Гонконге. 47
вый 47
стадионе 47
orange 47
лиги 47
архитектор 47
арендатором 47
richardson 47
Юлия 47
ro1 47
километра 47
(километров). 47
"Александрия" 47
итальянский 47
главные 47
ингредиентами 47
Страна, 47
одного 47
вариатором 47
arctech 47
arianespace 47
space 47
croma 47
cumberland 47
Хилми 47
Давутоглу 47
Тайба 47
М.О. 47
военного 47
Альберто 47
Альфонс 47
17000 47
college 47
grey 47
polonica 47
военно-воздушными 47
Тернер, 47
Канаде, 47
играли 47
город. 47
Индианаполис. 47
соуса, 47
spangled 47
3-я 46
l. 46
3500 46
Амстердама 46
Зеландии 46
ведении 46
в. 46
цент@@ 46
вым 46
то, 46
ле. 46
музыкантом 46
За@@ 46
"Новая 46
зи@@ 46
черного 46
отставку. 46
ши@@ 46
енный 46
весит 46
st 46
clyde 46
alessio 46
"Алессио 46
пу@@ 46
стиле 46
р, 46
a.@@ 46
ranil 46
is@@ 46
ре, 46
") 46
king 46
Сената 46
Аджобланко 46
"Арраббиата" 46
блюда 46
"Бионико" 46
Вальс 46
"Локомотив" 46
окончательный 46
Геттисбург, 46
Давутоглу. 46
министра 46
1905 46
allan 46
Нидерландов 46
1500 46
campeonato 46
brasileiro 46
кризис 46
расположенной 46
управля@@ 46
базируются 46
Кливленде 46
Мексике, 46
американцы, 46
"Аполло-11". 46
Основная 46
Дания. 45
12@@ 45
o. 45
ский. 45
iii. 45
льный 45
ком 45
"Аль-Андерсон" 45
static 45
ним 45
Кристиан 45
музыкальными 45
Джонатаном 45
on@@ 45
Рауль 45
сложности 45
годах. 45
"Аполлон-8". 45
ских 45
Техасской 45
Футболист 45
Маккей 45
Та@@ 45
"Сент-Луис 45
au@@ 45
сом. 45
совет 45
цы 45
vicia 45
Поттер, 45
персонажа 45
java. 45
Филиппин. 45
Мексике. 45
Чирикова 45
63800,0 45
ii" 45
после 45
нее 45
памятника 45
"Битве 45
1979 45
Филлипс 45
Алва 45
умерла 45
Константинос 45
Йенс 45
agrimiação 45
академической 45
math. 45
силами 45
er, 45
Филиппин, 45
десерт 45
klink, 45
Рютте. 45
пилотом, 45
"Абилен", 44
e" 44
Пена" 44
ac@@ 44
официальным 44
ран@@ 44
caravan 44
жанром 44
производит 44
Сендич 44
193@@ 44
Синиша 44
wichita 44
йский 44
primera 44
320 44
американском 44
м" 44
Индиане, 44
жанре 44
найденное 44
подается 44
Жерар 44
Рим. 44
Королевстве, 44
средства. 44
относятся 44
1850 44
собрана 44
ком@@ 44
оба 44
Дона 44
АЕК 44
peter 44
Г.П. 44
demarce 44
производ@@ 44
Сиднее, 44
Сент-Луисе 44
camilla, 44
по-английски, 44
не, 44
колумбийской 44
едят 44
Лондон, 44
озеро 43
ti@@ 43
200@@ 43
34@@ 43
Икбал" 43
5. 43
159 43
международным 43
не. 43
музыкального 43
Вашингтона 43
"П@@ 43
Я@@ 43
dothan, 43
карьера 43
Армин 43
Буурен, 43
Джонатан 43
Марком 43
"Смертник" 43
НЖД 43
лась 43
пилота 43
лиги. 43
Богаард 43
w 43
стороны 43
street 43
"Фенцерковная 43
live 43
Акита 43
А, 43
ю. 43
Орбитальный 43
8,3 43
camilla 43
on. 43
персонаж, 43
четыре 43
9000 43
ракеты 43
средство 43
ic@@ 43
национального 43
к" 43
Пенсильвания 43
Измире, 43
университет. 43
Бако, 43
ribicoff 43
Суперлиге 43
(журнал) 43
дисциплину 43
ВИЧ 43
fortress 43
библиотекари 43
Роберта 43
используют 43
Андерс, 43
Теннесси 43
way, 43
блюдом 43
Вермонт, 43
опытным 43
29@@ 42
Е@@ 42
ag@@ 42
harrietstown, 42
york 42
Моди 42
транспортный 42
заказу 42
ме. 42
сольного 42
day 42
раз@@ 42
диско. 42
moyine 42
ль 42
b.s. 42
"Аполлон-8" 42
afit 42
Милан@@ 42
футболист 42
stanley 42
Ку@@ 42
Патрик 42
palo 42
row. 42
найдена 42
рай@@ 42
кг 42
десерт. 42
kway 42
Чикаго. 42
Халима 42
plymouth 42
(v-2) 42
y, 42
newport 42
турецкая 42
am. 42
Акхигбе 42
Ана, 42
vi. 42
земле 42
marcolini 42
Швейцарии. 42
аспирантов. 42
известная 42
johnson 42
Над 42
имеющий 42
те, 42
Кристианом 42
американцем, 42
ном, 42
1904 42
массой 42
Уотсоном, 42
Америки, 42
Джорджия, 42
е", 42
Сильвано 42
Ауреолес 42
Эта 42
Афинах, 42
teisaire, 42
беконом, 42
agra 41
00@@ 41
Уилсон, 41
it@@ 41
(Новая 41
Афин 41
партию 41
металла. 41
считается 41
началась 41
ра" 41
Европейский 41
домашней 41
и" 41
Германии 41
молодежном 41
молодежную 41
accrington 41
"АЗАЛ 41
Ромагноли" 41
ис@@ 41
Дэн 41
на", 41
высоту 41
Манор" 41
Расмуссен. 41
инди@@ 41
грамма 41
440756000,0 41
Аль@@ 41
0, 41
Билл 41
эфир 41
снялся 41
й" 41
Райан 41
классифицируется 41
овощами 41
чтобы 41
фасоль, 41
ки@@ 41
"Батагор" 41
служит 41
Филиппинах. 41
custom 41
Нептун 41
максимальная 41
"ara 41
bertone 41
Ледокол 41
колесная 41
ela-3. 41
Гвианского 41
космического 41
да, 41
Республиканской 41
конгресс 41
Рут 41
вой@@ 41
института 41
статус 41
влиянием 41
я), 41
музыка, 41
числе 41
Далласе, 41
Грозный", 41
Михайлович. 41
grounds, 41
Юсуф 41
столице 41
соевого 41
546 40
Мичиган. 40
са" 40
st@@ 40
11. 40
ль. 40
город@@ 40
"Сумерки". 40
изначально 40
музыкальную 40
Си@@ 40
y@@ 40
ей. 40
Ван 40
Бадои. 40
кан@@ 40
рок-музыки. 40
Ритм 40
рок-музыки 40
william 40
angeles 40
Хьюстон. 40
сть 40
городской 40
37@@ 40
hera 40
utc 40
Стеубен, 40
охватывает 40
"Аттика" 40
би@@ 40
x@@ 40
Ва@@ 40
explosion 40
Ларше 40
построила 40
региональный 40
Джалан 40
"Магдебург" 40
1918" 40
Мумбаи. 40
году: 40
издатель 40
aus 40
"Мастер 40
hamburg 40
рок-музыкант 40
которого, 40
Англия 40
рок, 40
Белый, 40
Гонконге, 40
(который 40
sumitra 40
спроектировала 40
441092000,0 40
Германии, 40
проживают 40
регионе 40
Калла 40
литра 40
Баку, 40
премьер-министром, 40
610 39
ма. 39
4. 39
а" 39
thakur 39
"Старый 39
музыка. 39
раз 39
группы, 39
эт@@ 39
музыкант, 39
рока. 39
Армином 39
Член 39
выводится 39
Нью-Гэмпшире. 39
Ме@@ 39
студентом 39
purple 39
игры 39
Адама 39
blue 39
кон@@ 39
"Олимпик 39
"Спартак" 39
улиц@@ 39
1931 39
ска@@ 39
тор@@ 39
vk8 39
ротации 39
5" 39
Астероид 39
1513,722 39
рей@@ 39
Италия 39
соус. 39
Азии. 39
жареное 39
teow 39
филиппин@@ 39
mo@@ 39
1958 39
объемом 39
космодрома 39
мысе 39
орган 39
bersatu. 39
Н 39
Мендосе, 39
Горбаш" 39
Линкольн 39
cesena 39
lumeszane 39
si@@ 39
cowper 39
Сольный 39
Канады, 39
Манчестере, 39
очередь, 39
Шепард, 39
c, 39
titans, 39
име@@ 39
основным 39
antares, 39
Георгиадис, 39
Лейбористской 39
press, 39
abilene, 38
ения 38
08 38
"Алпена" 38
-й 38
Зеландия. 38
"atlantic 38
international. 38
ром, 38
штаб-квартиру 38
ре. 38
рок-музыку. 38
пере@@ 38
chameleon 38
поджанр 38
он@@ 38
Мендельсон, 38
других 38
stars 38
частично 38
ник 38
Табаре 38
shepard 38
Далласе. 38
Г. 38
Май@@ 38
columbus 38
"akeem 38
romagnoli 38
ны 38
место, 38
"Мемориал 38
собрание 38
"Ро@@ 38
этажа. 38
108 38
этажей. 38
Джордж 38
Национальном 38
регистр 38
mar@@ 38
sb 38
(км). 38
479343000,0 38
га 38
М@@ 38
1,@@ 38
pierce 38
"Олимпи@@ 38
фильме 38
чеснок, 38
пер@@ 38
arros 38
"Бекон" 38
et@@ 38
baked 38
десерта. 38
ец 38
филиппинский 38
рейс 38
coupé 38
производитель 38
systems 38
вых 38
сопоставима 38
martin. 38
Саравак 38
1856 38
временным 38
es, 38
parker 38
sportpark 38
Паркер 38
Флинт, 38
академическую 38
above 38
Тирструп, 38
Рамс", 38
принадлежащая 38
американцем 38
родившаяся 38
Аргентины, 38
virage, 38
базы 38
inc., 38
Вирджинией 38
Висвесварайя. 38
Уттар-Прадеш. 37
ство 37
201@@ 37
23@@ 37
south 37
Ве@@ 37
poaceae 37
Зеландия) 37
Валюта 37
ст. 37
hop 37
рекорд-лейбл 37
ду@@ 37
м". 37
ми. 37
выше, 37
департамента 37
città 37
разработан 37
Ан@@ 37
9. 37
"Торпедо 37
лл, 37
завершено 37
этажа 37
street. 37
мест@@ 37
прежнее 37
Альбани, 37
fall 37
ключевым 37
bananaman 37
емый 37
соусе 37
Колумбии. 37
подавать 37
Энрике 37
Сингапуре, 37
транспортом 37
erasmus 37
Нидерландах. 37
нигерийских 37
Джон@@ 37
гражданского 37
metapan 37
3180 37
"agrimiação 37
ассоциацию 37
журнала 37
viking 37
gangsta 37
сделанная 37
dodge, 37
изготовленный 37
cruises, 37
tlx, 37
(сокращенно 37
лидерами 37
hessarghatta 37
de@@ 36
«Аль-Асад» 36
8. 36
Пакистана. 36
alpena 36
4-@@ 36
Бельгии. 36
don 36
округа, 36
Пакистан, 36
ac-130 36
Корейской 36
ы". 36
том. 36
се. 36
гу@@ 36
Ахмета 36
"Ф@@ 36
ал@@ 36
ци@@ 36
mellow 36
recordings. 36
Билли 36
"Андра" 36
ются 36
Даниил 36
s" 36
ца 36
соревнуется 36
зна@@ 36
Техасского 36
"Алкмар". 36
hamburger 36
abel 36
ay@@ 36
и". 36
li@@ 36
лем 36
арендатор 36
Локке 36
373513000,0 36
Вальтер 36
саммита 36
уровне, 36
бин@@ 36
Монро, 36
я", 36
Таррант, 36
ан, 36
пол@@ 36
ва, 36
il@@ 36
ении 36
Антиокия 36
бекона 36
креветки 36
ана@@ 36
Сингапура 36
"А-Роза 36
mayo" 36
"Альгамбра" 36
dykes 36
co. 36
состоялся 36
передвижения 36
3,04 36
lancia 36
"Ататюрк" 36
ью 36
палате 36
Доусон. 36
ком, 36
Горбахов 36
Нидерландах 36
Умберто 36
совета 36
trans. 36
последовал 36
"Велом" 36
автором 36
жан@@ 36
Аддис-Абебе, 36
university, 36
Мичиганском 36
секунду, 36
афроамериканцев 36
американцев, 36
"Аррос 36
Статен, 36
Ранее 36
000,0 36
лидер, 36
Пьетро 36
appleton, 35
авиакомпании 35
обладает 35
on, 35
Ирака 35
Сан-Себастьян 35
Жители 35
Де@@ 35
Алана 35
лю@@ 35
этикетке 35
world 35
таких 35
металл" 35
punk 35
ма, 35
Университете 35
Ри@@ 35
ch 35
play 35
us 35
1988 35
йском 35
ем@@ 35
45 35
спроектирована 35
декабре 35
Акита. 35
реестр 35
Японии 35
Главная 35
Апофеоз 35
475426000,0 35
докторской 35
Орегон 35
коды 35
ля@@ 35
"Ко@@ 35
Ли, 35
большой 35
Конгресса 35
комического 35
Дункан 35
"Большой 35
Е 35
v 35
ве 35
Франци@@ 35
пудинг 35
Барные 35
двига@@ 35
верхнюю 35
"ariane 35
Система 35
джа@@ 35
ela-3 35
итальян@@ 35
"Инфанте" 35
ром. 35
представителей. 35
американских 35
gorbach 35
Массимо 35
землю 35
roma. 35
jens 35
secret 35
abhandlungen 35
dem 35
"Математика" 35
Паракуеллос-де-Джарама, 35
Афины, 35
ны, 35
американец 35
shanachie 35
который, 35
Беан, 35
руководителем 35
ха@@ 35
префектура 35
ayam 35
blt, 35
canonica 35
Холлоуэй, 35
Ботта. 35
Флинтом, 35
main 35
Тосун, 35
10l 34
35@@ 34
alderney 34
Н@@ 34
владельцем 34
рон@@ 34
"Ашхабад" 34
языком. 34
Нью-Йорка. 34
гла@@ 34
ы@@ 34
kids 34
на" 34
стала 34
рекорд 34
"Ал@@ 34
allen 34
бобслеист, 34
музыканта 34
французский 34
Рок-музыка 34
austin, 34
нанят 34
па@@ 34
Командиром 34
citta 34
килограмма. 34
view 34
blues 34
Осим. 34
Абдул-Захра" 34
Планте 34
Стив 34
Финляндии. 34
ей@@ 34
ф 34
бан@@ 34
Хапутале, 34
провинции, 34
построены 34
Джейкоб 34
первооткрывателем 34
келвинов. 34
(29075) 34
температура 34
измерение 34
я) 34
oregon 34
Самый 34
Поттер 34
того 34
говядина. 34
Франсуа 34
китайцы 34
cruises. 34
систему 34
среднеатлантическом 34
Турции. 34
Джая, 34
Гонсалес 34
социалистической 34
Коннектикута 34
1901 34
70634 34
vila 34
futebol 34
sk 34
много 34
Иоханнис. 34
information 34
advances, 34
johnson, 34
страниц 34
hopkins 34
местоположение 34
ВВС, 34
disco 34
роди@@ 34
Марри 34
Уругвае, 34
"Палермо", 34
ayers, 34
Дублине, 34
ajoblanco, 34
масло. 34
малайзийские 34
t, 34
мм 34
monument, 34
Туанку 34
университете, 34
r, 34
"Аполлон-11". 34
«А@@ 33
повышен 33
Адольфо 33
911 33
19 33
ме 33
amsterdam 33
Крупнейший 33
Ар@@ 33
15@@ 33
280 33
211 33
Бельгии 33
Язык 33
Ципрас 33
ВВС. 33
ре 33
разделению 33
растений. 33
Иколо 33
Музыкант 33
смерти 33
год 33
гитаре 33
ari@@ 33
Ал@@ 33
ом. 33
"Андерс 33
rabadash 33
ia 33
Джано, 33
минуты. 33
М.А. 33
"Аполлон-12" 33
командовал 33
Военно-морского 33
М.С. 33
высо@@ 33
Джорджия. 33
harbour 33
"Амкар 33
лиге. 33
директором 33
йского 33
Архитектор 33
арендаторы 33
архитектур@@ 33
Расмуссен 33
Одной 33
Морган 33
state 33
44@@ 33
437170000,0 33
7,5 33
перитонита. 33
Н.Р. 33
Дугерти, 33
benton 33
Индианы 33
fountain 33
арабском 33
Па@@ 33
Рей@@ 33
Автор 33
Основными 33
курицу, 33
бекон. 33
Еще 33
(или 33
наземные 33
яйца. 33
странах 33
ста@@ 33
департаменте 33
Как 33
Тан 33
cruises 33
1,524 33
двигателя. 33
164" 33
Гвиана. 33
Азербайджана 33
Гу@@ 33
принял 33
ak 33
shivers 33
Митсотакис 33
университете. 33
ajo 33
красного 33
stadio 33
blackpool. 33
araprivinesse 33
nova 33
технологического 33
немцы 33
Гарвардский 33
palaetonil. 33
енная 33
johns 33
после@@ 33
авиабазу 33
чьи 33
falcons, 33
говорят. 33
1202,846 33
паиса, 33
"СПИД", 33
белого 33
Испания, 33
Бангалор, 33
затем 33
столица, 33
президент, 33
"visvesvaraya" 33
560090, 33
10r 32
20@@ 32
футов 32
"Аль-Асад". 32
вал 32
типа 32
,@@ 32
grand 32
Королев@@ 32
metal. 32
Александры 32
"Альфредо 32
Ирландии 32
т", 32
возникли 32
се, 32
ба 32
le@@ 32
ed@@ 32
бы@@ 32
man 32
Джузеппе 32
vfl 32
st. 32
Тихом 32
океане, 32
Лёкке 32
Шри 32
рупия. 32
sb, 32
2,0 32
средней 32
"Альбани" 32
Грузии. 32
"Альбина" 32
Мэдисон 32
ными 32
Индианы, 32
Декалб 32
"О@@ 32
население 32
Белые 32
Вашингтона. 32
"Д@@ 32
ном. 32
звезды 32
er. 32
Соединенное 32
банановой 32
ано 32
жареная 32
"bacon 32
сэндвич, 32
ь. 32
мясо, 32
Антиокия. 32
еда 32
Карнатака. 32
президента. 32
Верфт, 32
построил 32
helsing 32
ва. 32
дальний 32
центра, 32
Канаверал 32
Бер@@ 32
американцами. 32
Королевство 32
Кабальеро, 32
"Магдебург". 32
лиге, 32
прозвище 32
"universitas 32
der 32
аббревиатуру 32
ice 32
печати. 32
сиквел 32
Марса" 32
"alcatraz 32
Кэмерон 32
rca 32
диско 32
milan, 32
ми, 32
60 32
Шри-Ланка, 32
найдете 32
Индианаполис 32
ингредиента. 32
sehitleri 32
парти@@ 32
завершилась 32
предшественником 32
классифицирован 32
«Орхус» 31
Техаса. 31
"К@@ 31
ИКАО 31
i. 31
"Аль-Такаддум" 31
asad 31
an. 31
ст 31
ением 31
фламандским 31
el@@ 31
Штаб-квартира 31
"Техас" 31
используемый 31
"За 31
Индийский 31
music 31
жанр, 31
Альтернативный 31
кой 31
Канаде 31
Лондоне 31
100305 31
время, 31
ден@@ 31
sp@@ 31
борту 31
истребителя. 31
флота 31
граждан@@ 31
мэром 31
молодежной 31
Мадрида 31
Захра" 31
национальном 31
boston 31
Финляндии 31
Оливер 31
Ро@@ 31
ri@@ 31
попадает 31
(кв. 31
здание 31
Р. 31
6603633000,0 31
claudiomaccone, 31
Готтингена. 31
Сенат 31
107,43 31
Арбор, 31
Антиохи@@ 31
ский, 31
indiana, 31
области, 31
ров, 31
union 31
"Л@@ 31
тельный 31
Тим 31
премию 31
ajoblanco. 31
arem-arem 31
рамках 31
ку, 31
Юго-Восточной 31
об@@ 31
werft 31
252000,0 31
«СПИД» 31
похожа 31
Последний 31
совершен 31
космическом 31
религия 31
Олусегун 31
star 31
Бурес. 31
Альфонсо 31
Франклин 31
члена. 31
(любители) 31
azal 31
"Ювентус" 31
Роландо 31
Декан 31
"Керала" 31
цы. 31
латинское 31
virginia 31
последовала 31
А.Т. 31
translations 31
издателем 31
qiu 31
роман 31
два 31
Сан-Себастьяне 31
Бенго, 31
част@@ 31
группами 31
Гран 31
блюза, 31
Массачусетский 31
клубы 31
сом, 31
(также 31
bananaman, 31
блюдо. 31
ани@@ 31
Турция, 31
heart. 31
позднее 31
Буэнос-Айресе, 31
Шнайдер-Амманн. 31
многие 31
лидером, 31
Фрэнком 31
Позже 31
заключительный 31
швейцарский 31
Бухарест, 31
Лахор. 30
Пакистан. 30
Мичиган 30
ardmore 30
and@@ 30
Эгг 30
Народ 30
назван 30
б 30
Ра@@ 30
транспорта 30
музыкальной 30
by 30
запис@@ 30
художниками: 30
2003 30
руководящим 30
Монтевидео 30
ке@@ 30
ля 30
legends 30
ь". 30
Борман 30
См. 30
клуб, 30
club 30
й". 30
"Динамо" 30
Сою@@ 30
Грозный" 30
Рашид 30
уральской 30
50 30
Архитектором 30
vi@@ 30
пре@@ 30
ak@@ 30
тор 30
Кирилл 30
hera, 30
скоростью 30
clematis 30
6,7 30
"Аллан 30
523,9 30
Анголы, 30
"Остин" 30
окружным 30
graeme 30
do@@ 30
Эрни 30
кур@@ 30
tart 30
Дербышир. 30
овощи 30
Земля 30
лимон. 30
живота, 30
авокадо 30
свиные 30
органы, 30
Баджжи 30
кокосовое 30
сгущенное 30
кокосовые 30
lo@@ 30
Мо@@ 30
щ@@ 30
ч. 30
252 30
Мар@@ 30
orbital 30
Аргентины 30
1,2 30
Церковь 30
at 30
рабочей 30
Австрии 30
принадлежал 30
аббревиатура 30
присоединен 30
игроком 30
аффилирован 30
перед 30
high 30
Всеиндийского 30
Эррате, 30
ле, 30
nasa, 30
bremen, 30
Синиса 30
Мадином, 30
Шри-Ланке, 30
километров, 30
5,57 30
Колумби@@ 30
испанский, 30
До@@ 30
миллиметра, 30
martin, 30
Роттердаме, 30
Кант, 30
лиги, 30
коллектив 30
1-4165-2060-0. 30
000, 30
Рим, 30
Орхус, 29
Тейлор, 29
футов. 29
33@@ 29
ность 29
Здание 29
maple 29
мер@@ 29
4,0 29
196@@ 29
Дания 29
Атлантического 29
Ю@@ 29
Ираке 29
силы 29
ами@@ 29
metal 29
albennie 29
Ковач. 29
Республике 29
Зитарроса" 29
floating 29
Форт-Кэмпбелл, 29
лл 29
"Ритм" 29
Осборн" 29
блюзовый 29
Шестан, 29
Андрея 29
музыка" 29
музыкальная 29
происхождения 29
На@@ 29
эксплуатировался 29
"buzz 29
государственная 29
ться 29
lin@@ 29
h 29
бывшая 29
игрок 29
jacksonville 29
Итали@@ 29
итальянской 29
Саули 29
ки" 29
Иахини. 29
ра". 29
ше@@ 29
"3arena" 29
entertainment. 29
Японии. 29
регистре 29
pacific 29
"Кливленд" 29
Рамафоса 29
Шри-Ланки 29
Робертс 29
мет@@ 29
gaussia 29
5,75 29
Елена 29
520906000,0 29
lydia 29
2,@@ 29
Саммит, 29
Индиане. 29
йской 29
347,1 29
lee 29
Питер 29
blockbuster 29
из@@ 29
Р@@ 29
найдены 29
"bakewell 29
свинина 29
beef 29
bionico 29
китайский 29
Маттео 29
валю@@ 29
корабль 29
Аргентины. 29
2160 29
21,2 29
аналогичные 29
rom@@ 29
car 29
металлическими 29
вшая 29
maiden 29
dbs. 29
Ванденберг. 29
un@@ 29
11-го 29
категоричен 29
гра@@ 29
Су@@ 29
grenadier 29
Исаак 29
Рохас. 29
Ассоциация 29
fiorentina 29
люди, 29
Ка@@ 29
Олимпи@@ 29
Шнайдер-Амман. 29
написано 29
Солен@@ 29
press. 29
hungar@@ 29
powys 29
эксплуатируемый 29
"Аль-Асад", 29
ей, 29
называются 29
прежде 29
8, 29
кг, 29
000000,0 29
Аллан 29
азиатскими 29
километр, 29
испанцы 29
java 29
Из 29
Каталонской 29
найдено 29
этническими 29
Пеории, 29
turk 29
добился 29
Коннектикуте 29
Швейцария. 29
Швейцарии, 29
eric 29
14l 29
вол@@ 29
стать 29
югу 29
Куттиккаттооре, 29
21@@ 28
эксплуатируют 28
говорящим 28
5-@@ 28
Ашхабада 28
на". 28
лан@@ 28
шта@@ 28
mcdonnell 28
З@@ 28
for 28
Ковак 28
Кова@@ 28
funk. 28
музыке 28
нача@@ 28
народную 28
Сиднее. 28
народ@@ 28
рок. 28
Ле@@ 28
"Аллен 28
"Бар@@ 28
альтернативного 28
Дом 28
главных 28
официальный 28
поп-@@ 28
ку. 28
йское 28
специальности 28
минут. 28
Скотт 28
торговли. 28
соревновался 28
За 28
azin 28
Бу@@ 28
ски@@ 28
u.c. 28
тренер 28
Стадион 28
2014-го 28
ol@@ 28
тенни@@ 28
Бирмингеме, 28
Строительство 28
строительство 28
Манор 28
Ричард 28
Ашертоне, 28
grove, 28
Со@@ 28
использу@@ 28
йским 28
родной 28
могут 28
Джаяварденепура 28
Вирджиния 28
410777 28
Скорость 28
ы", 28
18,29 28
Сан-Франциско 28
иногда 28
играла 28
ингредиент, 28
ган@@ 28
hails 28
Самбалом. 28
жареную 28
колбаса. 28
сладкая 28
гранолы, 28
молоко, 28
выходцы 28
индонези@@ 28
ru@@ 28
виды 28
"Нептун 28
125800,0 28
по-@@ 28
aidastella 28
shipyard 28
ны. 28
ам 28
virage. 28
ником 28
Французская 28
Анкара. 28
сражался 28
Демак 28
Испанской 28
колледже 28
заливе. 28
Битва 28
Эмиль 28
"Ассоциация 28
северо-востоку 28
Ачарского 28
restruction. 28
систем@@ 28
lippincott, 28
сокращенно 28
скими 28
Польской 28
aenir 28
journal 28
g 28
воевавший 28
Пакистана, 28
рок-музыкант, 28
металлическую 28
Миссисипи, 28
ВМС 28
чье 28
"Диагональная 28
Япония. 28
Гуджарате, 28
259776702.47055 28
"Черный 28
изготавливается 28
кухни 28
paisa, 28
Кушик, 28
Аденан 28
президентом, 28
Доусон, 28
bloomington, 28
Габриэла 28
(США), 28
нынешний 28
Кампеонато 28
Брасилейро 28
Румынии, 28
wilkins, 28
Т 28
установлен 28
Расизаде. 28
востоку 28
Б.М. 28
род@@ 27
Ираке. 27
протяженностью 27
ridge 27
n. 27
ан 27
ма" 27
der@@ 27
аэропортом. 27
длин@@ 27
07 27
Средняя 27
Харбор, 27
портовым 27
Официальным 27
iii 27
класса 27
участвовали 27
her@@ 27
"Аарон 27
к". 27
Массачусет@@ 27
Абрадаб 27
1990 27
Кристиной 27
qu@@ 27
Мак@@ 27
зе@@ 27
Певица 27
Про@@ 27
певца 27
ком. 27
polydor 27
Родригес. 27
летчика-испытателя. 27
"Аполлон-12". 27
Ли@@ 27
сборная 27
steel 27
Номер 27
Абдул-Захра 27
кгс. 27
uc 27
tyus 27
Евро@@ 27
Кана@@ 27
председатель 27
tc 27
своем 27
Вайсс. 27
Большого 27
Бирмингем, 27
Да@@ 27
30843,8 27
Манор", 27
мен@@ 27
Гуджара@@ 27
справочный 27
Рахм 27
Сан-Франциско. 27
астероид 27
419113394.55312 27
обнаружила 27
пределах 27
палата 27
Том 27
являющийся 27
ман 27
лин@@ 27
Ури@@ 27
воевала 27
Миндаль 27
од@@ 27
традиционный 27
ц, 27
вариации 27
заводе 27
чихарон, 27
яйцо, 27
"Барные 27
Гра@@ 27
"Сандеш" 27
Видодо 27
Халиско 27
ры@@ 27
Корабль 27
32,2 27
airastella 27
Об@@ 27
Темзе, 27
airbus 27
"В@@ 27
сцепления, 27
motors 27
ь" 27
3,8 27
совершила 27
Космическом 27
Гвианском 27
северу 27
ту@@ 27
hilmi 27
к", 27
Партии 27
Австрии. 27
Каролины 27
Пе@@ 27
Армия 27
Драго 27
Стадио 27
athens 27
kv 27
технологическом 27
образованию 27
написали 27
Балтийская 27
restruction" 27
a.t. 27
adv@@ 27
matherschen 27
en 27
роман@@ 27
ни 27
земельных 27
wolters 27
афроамериканка. 27
"Орхус", 27
Уттар-Прадеш, 27
полоса, 27
Эгг-Харбор, 27
hop, 27
music, 27
барабан 27
"Аполло-12", 27
"Медаль" 27
наградной 27
истребителя, 27
ски 27
1985 27
кгс, 27
(во 27
rs-3, 27
v6 27
собранный 27
dbs, 27
категорию 27
мучени@@ 27
Махмуда, 27
являлся 27
Сабин, 27
школа 27
Бурбанке, 27
исходным 27
oberhelman 27
enaire. 26
11@@ 26
Народная 26
Имя 26
оперативной 26
Ч@@ 26
ции 26
выполнен 26
ut@@ 26
операционной 26
york, 26
лет@@ 26
Мадрид 26
общины 26
f-15 26
истреби@@ 26
Военно-воздушные 26
les 26
bi@@ 26
приехал 26
Альтернативное 26
(из 26
1914 26
Англия. 26
стра@@ 26
фор@@ 26
активным 26
ч, 26
Форрест" 26
forrest 26
wetlands 26
певицы 26
поп-музы@@ 26
певцом 26
стали 26
енной 26
гран@@ 26
звуки 26
парламент. 26
ны@@ 26
ту 26
aldrin" 26
з" 26
завоевал 26
anders 26
1.@@ 26
команды. 26
футболе 26
Мах@@ 26
ер 26
Грузия. 26
Первой 26
Барков-младший 26
"Кубань 26
se@@ 26
королева 26
го. 26
тов 26
Ге@@ 26
0,0 26
tudor 26
"Ампара" 26
вьетнам@@ 26
де, 26
periapsis 26
fd, 26
162164091,8388 26
6,0 26
tama 26
523329000,0 26
0,21 26
Ченнаи. 26
albany, 26
М. 26
Код 26
Джорджия 26
"Амарльо", 26
бер@@ 26
all@@ 26
Декалб, 26
создатель 26
"Болт" 26
Вариатор 26
приготовленный 26
explorision" 26
sanger, 26
грунтовое 26
лапши, 26
Сингапура. 26
обычно 26
говяжьей 26
фрукты, 26
dales 26
o" 26
сразу 26
demos 26
plaza 26
a-rosa 26
произведен 26
virage 26
deСото 26
Куру, 26
исторический 26
"infantry 26
Национальное 26
источником 26
Галисии, 26
округа. 26
Колледж 26
"Новой 26
Грац. 26
Мура 26
МБАД. 26
mba. 26
xiii 26
клуба" 26
ПФК" 26
fk 26
азербайджанской 26
araprivin@@ 26
berliner 26
vicenza 26
Прабхукумар. 26
Роман 26
448 26
твердой 26
государственных 26
wilkins 26
м", 26
"Алдерни", 26
973 26
Антверпен, 26
растений 26
'donnell, 26
американец, 26
apollo 26
сыгравший 26
es" 26
еще 26
Лайоннаис", 26
Ромагноли, 26
бе, 26
(где 26
о, 26
средством 26
broth@@ 26
audi, 26
подпадает 26
юго-востоке 26
гранита 26
командиров 26
Христианско-демократической 26
сменивший 26
Абубакар, 26
Государство 26
редактором 26
l, 26
Мадрид» 26
Страну 26
Бывший 26
являющегося 26
Палатой 26
премьер-министром 26
аэропор@@ 25
Антверпен 25
мэр 25
пен@@ 25
та" 25
chute, 25
city" 25
Шарль 25
ую 25
Дей@@ 25
центра. 25
Дата 25
пан@@ 25
deer 25
сыграла 25
ры 25
Республика 25
record@@ 25
al. 25
дру@@ 25
Белых 25
музыкан@@ 25
kaiser 25
бас" 25
элементы 25
Орегон. 25
пришедшего 25
йцы 25
степень 25
jr 25
ги@@ 25
"Сент-Луис@@ 25
конференции 25
"Рома" 25
лет. 25
05 25
команду. 25
Нынешний 25
Аль-Хоре. 25
кг. 25
Ман@@ 25
Бундеслиге. 25
кор@@ 25
Лос-Анджелесе 25
"оранжевой 25
ко 25
льной 25
11-я 25
3arena 25
"3Арена" 25
архитектурный 25
Восточная 25
80002709. 25
1980 25
совет@@ 25
Америки. 25
101. 25
511592000,0 25
523951582,3968 25
475426000 25
Готтингена 25
"Александрия", 25
67@@ 25
компенсирует 25
"Арлингтон" 25
Уильямсон, 25
лли@@ 25
Фонтан, 25
рок" 25
ал 25
dane 25
Рой 25
американским 25
клубного 25
бутерброд, 25
кетчуп 25
Кита@@ 25
ски. 25
торт 25
ж 25
говядина, 25
paisa. 25
"По@@ 25
пирожки 25
barny 25
содержат 25
Бхаджи 25
молоко. 25
Мин@@ 25
Мексике 25
shumai 25
Луна" 25
американская 25
годов 25
автозаводе 25
99,83 25
служ@@ 25
трансмисси@@ 25
коробка 25
открытый 25
electric 25
3,9 25
имущества. 25
цами. 25
"Ванденберг 25
Италия. 25
Юха 25
minotaur 25
huseyin 25
butuner 25
Бутунером 25
британские 25
Махмуда 25
вали 25
4-го 25
Бурес 25
Иосиф 25
Роймер. 25
burlington. 25
verona. 25
39371 25
Риме, 25
aek 25
mata 25
wiener 25
Маран 25
академия 25
"a 25
"acta 25
Корнельский 25
Ширли, 25
Пакистане 25
бас 25
"Ритм 25
rhythm 25
see, 25
Сент-Луисе, 25
И 25
"Алкмар", 25
Дж@@ 25
Атланте, 25
заверши@@ 25
Ирландия, 25
арендато@@ 25
эпохой 25
Индонези@@ 25
Лидерами 25
своим 25
картофе@@ 25
werft, 25
1, 25
юго-востоку 25
Саравак, 25
женился 25
Ольдендорфе 25
Аргентина, 25
австрийский 25
19238 25
16000 25
Корнелием 25
ом, 25
страну 25
Японии, 25
сам 25
aidastella, 25
Джованни 25
Мемориал 25
Великобритании). 25
Швейцария 25
Кампус 25
Абилен@@ 24
airbase 24
сообще@@ 24
Ла@@ 24
ai@@ 24
52@@ 24
45@@ 24
04 24
Бар@@ 24
"Ардмор", 24
Афины. 24
"Нью-Джерси", 24
Павлопулос. 24
Павлопулос 24
лет 24
ский" 24
f-16 24
car@@ 24
Рам 24
Бен@@ 24
"М@@ 24
gloom. 24
спи@@ 24
электро@@ 24
Шве@@ 24
3-@@ 24
Королевстве. 24
дом. 24
Джонса 24
народный 24
voice 24
Бэ@@ 24
v. 24
Белого 24
van 24
jazz. 24
ита@@ 24
льная 24
металлический 24
рока 24
тра@@ 24
американцем. 24
начальника 24
н" 24
чен 24
Михайлович 24
league. 24
thunder. 24
возрасте 24
g. 24
f 24
tc. 24
hok 24
42 24
см 24
Прудникова 24
"Александре 24
Гурули" 24
канад@@ 24
Дэвис. 24
Гаджи 24
"Открыти@@ 24
га. 24
120 24
Копенгагене, 24
ем. 24
Шри-Ланка 24
Эфиопии 24
piazzia 24
а", 24
вращения 24
"гигиены" 24
0,0455 24
296521000,0 24
Уолтера 24
Халтон 24
490,9 24
1142,3 24
человек, 24
Таррант 24
344,9 24
Вашингтоне. 24
512 24
Салем 24
ing 24
"Би-би-си" 24
Би-би-си 24
steven 24
Томаты 24
"Арем-арем" 24
пирожки" 24
cakes 24
содержится 24
молоко 24
саго. 24
картош@@ 24
измельченные 24
Ларше. 24
cit@@ 24
мексикан@@ 24
Ньето 24
растени@@ 24
двигатель. 24
luna 24
судна 24
"Локомотив". 24
Локомотив" 24
автомоби@@ 24
рычаг 24
5,4 24
космическим 24
законодательный 24
собрание. 24
Гусейном 24
battlefield 24
Роттерда@@ 24
жена 24
Магдаленский 24
Консервативной 24
орденом 24
"Алва 24
конфликта, 24
Б 24
Воридис. 24
Лучано 24
us@@ 24
премьер-@@ 24
чемпионами 24
й", 24
babelberg 24
Ачарском 24
inf. 24
wilkins. 24
страницы. 24
нау@@ 24
Ирак, 24
poaceae, 24
ющей 24
eaters 24
"черного 24
рок-музыка, 24
Осборн, 24
бобсле@@ 24
работа@@ 24
бразиль@@ 24
килограмма, 24
игра@@ 24
валютой 24
an, 24
построенный 24
Под 24
Сан-Франциско, 24
javanese 24
состоит 24
некоторые 24
dales, 24
v12 24
дизель-электрическая 24
трансмиссия. 24
honda, 24
Азербайджане, 24
Бумипутера 24
вшего 24
Коннектикуте, 24
Коц, 24
Рютте 24
Тироль 24
ана, 24
Маттарелла. 24
площадкой 24
Румыния. 24
visvesvaraya. 24
написан@@ 24
опубликованный 24
romance, 24
nix 24
и) 24
куриное 24
(столица 24
texas 23
identifier 23
airport. 23
Х@@ 23
india 23
77@@ 23
13@@ 23
em@@ 23
реги@@ 23
le 23
Апплетон, 23
Управления 23
Маргрета 23
цию 23
n, 23
Фуад 23
Эссекс, 23
Индианы. 23
экранизация 23
q@@ 23
ным. 23
1972 23
Макдоннелем. 23
Уругвай. 23
odeon 23
записи 23
mer 23
ed 23
as. 23
политик 23
пенсию. 23
-1@@ 23
отдела 23
удостоен 23
Уорден 23
"Аполло-12" 23
системы. 23
ри 23
af@@ 23
afit, 23
"Реал" 23
"Бостон 23
ahvaz 23
te@@ 23
"Атлантой" 23
клуб@@ 23
га, 23
Тампере, 23
провинция 23
Лу@@ 23
,7@@ 23
Ларри 23
Бо@@ 23
university. 23
Лиге 23
Есть 23
Площадь 23
ation 23
Хар@@ 23
di@@ 23
Робертом 23
здания 23
mason 23
1911 23
Мендоса 23
Аб@@ 23
Энда 23
Ц@@ 23
wickremesinghe 23
15788 23
39447@@ 23
144,7 23
л" 23
лин. 23
ай@@ 23
sauce 23
ано@@ 23
минно-мясными 23
наполнителями. 23
кухни. 23
arrtus 23
семье 23
"Ай@@ 23
ью@@ 23
blt. 23
теплым 23
вые 23
сельдерей, 23
паиса. 23
ber@@ 23
муки 23
Во 23
кре@@ 23
принадлежат 23
совершил 23
клас@@ 23
лла@@ 23
coupe. 23
роскошный 23
defense 23
выпускается 23
смени@@ 23
американц@@ 23
подводная 23
ракету 23
Европейским 23
системы 23
ракетой 23
"monocacy 23
Памятка 23
Воридис 23
Адониса 23
О. 23
av@@ 23
Сабина 23
Сабин" 23
Евангелос 23
Ассоциацию 23
скому 23
война 23
Доусон 23
2014-2015 23
s.p.a. 23
69618 23
"Блэкпу@@ 23
stockport 23
carrarese 23
archittura 23
работают 23
Ассоциации 23
премьер-министра 23
кризис. 23
твердости. 23
дисциплина 23
Из@@ 23
1174 23
292 23
мастер 23
математика" 23
sage 23
math@@ 23
предшествовала 23
ers 23
weymouth 23
расположенном 23
длину, 23
Пакистане, 23
тов, 23
Там 23
мета@@ 23
guar@@ 23
блюз" 23
k, 23
телем, 23
bean, 23
roma, 23
играющий 23
футболу, 23
проект 23
Финляндия, 23
Львов" 23
Теннесси. 23
Ареше, 23
Ирландии, 23
префектуру 23
Марии 23
baths, 23
основанная 23
000000,0, 23
Гражданин 23
"Ст@@ 23
говорят, 23
Баксо, 23
binignit, 23
управляемого 23
ности 23
Эрасуса 23
должности. 23
жил 23
sachsen 23
toekomst, 23
Швейцария, 23
gazettes. 23
базирующейся 23
93645978. 23
trance, 23
Дуглас 23
Именно 23
Перон, 23
Жано, 23
hal@@ 22
enaire 22
Пакистане. 22
ap@@ 22
Ха@@ 22
3800,0. 22
"Ан@@ 22
way. 22
ад@@ 22
общественных 22
Атлантическом 22
Греция 22
Моди. 22
стру@@ 22
ассамбле@@ 22
Стивен 22
региона, 22
о" 22
енных 22
bo@@ 22
Эртегуна 22
поп-музыки. 22
лись 22
рекордным 22
ing. 22
fruits 22
названи@@ 22
"Океан 22
теле@@ 22
char@@ 22
"бас" 22
фугасный 22
орган@@ 22
-музы@@ 22
йская 22
la@@ 22
be@@ 22
начальником 22
выиграл 22
Департамента 22
фин@@ 22
будет 22
"Палермо". 22
24@@ 22
Акеем 22
"Спартак". 22
anyang 22
в" 22
Тель-Авива 22
"Атлан@@ 22
cd 22
man@@ 22
á@@ 22
владелец 22
дивизи@@ 22
Дитер 22
Бирмингеме. 22
январе 22
м). 22
j 22
p. 22
нынешние 22
Уильям@@ 22
мест. 22
значимых 22
Эфиопии, 22
Инди@@ 22
йц@@ 22
эпоху, 22
"Тама" 22
Тама 22
0,0473 22
felicitas, 22
"Андерсон", 22
anderson, 22
74,33 22
титул 22
Алабама. 22
штаба 22
человеком 22
seagle 22
появился 22
м) 22
челове@@ 22
Го@@ 22
Ти@@ 22
соуса 22
служить 22
использо@@ 22
соусе. 22
from 22
курица 22
коричневый 22
холодным. 22
черная 22
бинта 22
mondelez 22
solanales. 22
купе 22
honda. 22
фло@@ 22
dykes. 22
смены 22
трубчатый 22
127 22
бюро 22
аргентин@@ 22
Ванденберг 22
friedrichshafen 22
региональным 22
monocacy 22
190@@ 22
парка. 22
Азербайджане 22
Среди 22
Дагга@@ 22
Нидерланд@@ 22
Сараваке. 22
Марджори 22
faverham 22
группы. 22
социалистов 22
цвет 22
многих 22
операции 22
restruction". 22
23900 22
clube 22
rovers 22
jong 22
chesterfield 22
mario 22
аспирантов 22
институте 22
нем@@ 22
Школы 22
наук. 22
СПИД@@ 22
advances. 22
"Акта 22
сокращенный 22
выпускался 22
Алькобендасе, 22
расположенного 22
ят 22
Аллама 22
возглавля@@ 22
принадлежащий 22
25, 22
бывший 22
енным 22
Банилоу. 22
летчи@@ 22
"Аполлон-12", 22
этажа, 22
Ранил 22
дома 22
д-@@ 22
spacewatch 22
обнаруживший 22
Готтингена, 22
Андалусии 22
Андалусии, 22
помидоры, 22
основного 22
ингредиен@@ 22
Паиса. 22
(столица: 22
группой, 22
арабский 22
bertone, 22
Хельсинки, 22
Часть 22
1936 22
Бурбанке 22
«Барайас» 22
Ашхабаде, 22
резервного 22
Прудников, 22
Мадина, 22
вариант 22
Воперез 22
pen@@ 21
placid, 21
18r 21
viag. 21
Анбар, 21
кий 21
Парана. 21
демоном 21
гре@@ 21
ли, 21
индийскими 21
арабский. 21
Язык, 21
воевали 21
бит@@ 21
"Ин@@ 21
hop. 21
Канады. 21
джазовый 21
"Александра 21
рекордсменом 21
певцом. 21
alabama. 21
"Ну 21
all-stars. 21
Йин 21
ярлы@@ 21
Канады 21
национальной 21
"Барабан" 21
июне 21
Т. 21
197@@ 21
тором 21
ла, 21
states. 21
пилот 21
Проект 21
тер 21
bremen. 21
th@@ 21
"Центральный 21
моло@@ 21
ня@@ 21
mcqu@@ 21
priestley" 21
Коннектику@@ 21
"Флорида 21
par@@ 21
Грозный". 21
ров@@ 21
sampdoria. 21
maccabi 21
cant@@ 21
ами 21
Кан@@ 21
br@@ 21
seco. 21
Делав@@ 21
мэ@@ 21
art 21
музей 21
префектуре 21
Пре@@ 21
ukrop 21
Г 21
Иллинойс 21
Мадин 21
Морган, 21
через 21
california 21
тов. 21
датированную 21
ro1, 21
gaussia, 21
средняя 21
Гера 21
560937000,0 21
he@@ 21
figneria, 21
837080,744 21
clematis, 21
5,7 21
кая 21
студенткой 21
"Нью-Мексико" 21
Альбукерке 21
creek 21
рован 21
"Атланты" 21
4,14 21
attica, 21
logan 21
законодательного 21
собрания 21
сиденьем 21
"Си@@ 21
randall 21
Вай@@ 21
auron 21
Ли. 21
ев@@ 21
Кар@@ 21
аль@@ 21
Андалусийской 21
сжатый 21
горячем 21
Суматра 21
взры@@ 21
1820 21
выпеч@@ 21
изготовл@@ 21
встречается 21
"Баджи" 21
Филиппинах 21
одну 21
ximo 21
"dodge" 21
кузов 21
ан" 21
24 21
"Аида 21
класс 21
Хельсинки 21
Финляндия 21
среднеразмерным 21
роскошным 21
31,48 21
передач, 21
ну@@ 21
дочерняя 21
boat 21
лодка 21
соответствующее 21
Фредериксбур@@ 21
daggett, 21
Абубакар. 21
Майка 21
4150 21
Дэйв 21
соревновались 21
gus 21
"Акрон". 21
Гре@@ 21
предыдущие 21
wacker 21
раньше 21
carpi 21
breaz 21
valer 21
1-го 21
architura 21
персона@@ 21
technologies 21
Мумбаи 21
Кочи. 21
"Школа 21
Федеральное 21
galileo 21
книги 21
ман@@ 21
опубликовала 21
страницы 21
addiction 21
sci. 21
penguin 21
random 21
извест@@ 21
Поацея. 21
лидера. 21
гитарист 21
Индианаполи@@ 21
металла" 21
rap. 21
певца, 21
ль, 21
Онтарио, 21
лем, 21
музыкантами 21
государ@@ 21
й) 21
jackets, 21
з", 21
titans 21
olympique 21
Грозном. 21
Нэшвилле, 21
этаж@@ 21
этажей, 21
ЮАР, 21
copen, 21
ем, 21
келвинов, 21
Антиохия, 21
Атлантический 21
ве, 21
обслужива@@ 21
основной 21
Великобритания 21
Дербышского 21
Филиппины 21
изготовленная 21
Росток, 21
Азербайджана, 21
вице-президентом, 21
Оладипо 21
партии, 21
монарха 21
ав@@ 21
Дженнингса, 21
Вермонта, 21
1857 21
столицы 21
кризис", 21
scripture. 21
diane 21
партией 21
(Соединенные 21
Господин 21
масса 21
лидеры. 21
десерта 21
cruise 21
имущества, 21
arianespace, 21
Энтони 21
Ачарский 21
Сильвио 21
расстоянии 20
идентификатором 20
Паракуеллос-де-Джара@@ 20
Высота 20
дер 20
3800 20
bu@@ 20
фламандскому 20
03l 20
Атлан@@ 20
управление 20
Демократическую 20
ат@@ 20
Хайдер 20
д". 20
классе 20
истребитель 20
кант, 20
"Греймашина". 20
post 20
поет 20
"Ка@@ 20
1982 20
ному 20
-0@@ 20
"Ньюмаркет", 20
лондон@@ 20
ураль@@ 20
"Объединенные 20
библейские 20
стер, 20
синтез 20
benoit. 20
ла. 20
танцева@@ 20
музы@@ 20
et 20
жанров, 20
Руководящим 20
Афара. 20
philips 20
Рок-@@ 20
сон. 20
При@@ 20
Васкес. 20
Бан@@ 20
Эдвин 20
jr. 20
торговли 20
пти@@ 20
Л. 20
Гос@@ 20
молодежного 20
ен. 20
высоту. 20
"Ахмад 20
Асад" 20
С. 20
кра@@ 20
bar@@ 20
ве. 20
Тыус 20
32@@ 20
division. 20
российской 20
Рамс" 20
bre@@ 20
Французской 20
f.c." 20
улице 20
ли. 20
кто@@ 20
Эфиопии. 20
добавлены 20
Фернандо. 20
Хайлемариам 20
riverside 20
castle. 20
Манхэтт@@ 20
ирланд@@ 20
Афри@@ 20
Зума 20
жная 20
ды 20
199 20
ia. 20
hera. 20
нер 20
camilla. 20
"1928 20
605718000,0 20
«Акрон» 20
Берналльо, 20
Индиане 20
населяют 20
ме, 20
сон 20
16,55 20
75.324 20
783,1 20
Алабаме, 20
Капитолии. 20
Округ 20
Сам@@ 20
государство 20
air@@ 20
Карлом 20
Ж@@ 20
cullins 20
блюда. 20
Диас 20
е". 20
explosion. 20
сэндвича 20
часто 20
губчатый 20
Баксо. 20
плантан 20
мя@@ 20
Банде@@ 20
сметана, 20
Клод 20
Видодо. 20
итальянский. 20
Ренци 20
Абу 20
испанцы. 20
Филиппин 20
заказ@@ 20
Локомотив". 20
coupé. 20
полноприводный 20
veinticalio 20
mayo 20
свет 20
руковод@@ 20
ый 20
двигатель, 20
конструкторское 20
стартовой 20
arianespace. 20
"Дельта-ii" 20
лина 20
royce 20
районов 20
юго-западу 20
западу 20
(Измир) 20
Азербайджане. 20
щи@@ 20
Анкара 20
den 20
stellendam 20
конгресса 20
преуспел 20
Кембридж. 20
секретарем 20
В. 20
фон@@ 20
ar 20
le. 20
Палаты 20
госсекретарем 20
известного 20
холод@@ 20
dave 20
земли 20
"Алкмар" 20
coaracy 20
ing@@ 20
stöger 20
vorwarts 20
тем, 20
"Технический 20
советом 20
напис@@ 20
информационным 20
Джонсон, 20
книгой 20
lon@@ 20
mars 20
quarting 20
Элизабет 20
полосу, 20
Фаллуджа, 20
ения, 20
но-@@ 20
рок-музыки, 20
США) 20
synthpop, 20
эксплуатировавшего 20
пор 20
высокое 20
Канада, 20
fc" 20
Тито@@ 20
встретить 20
курирует 20
руководитель 20
parc 20
Африке, 20
"3arena", 20
"Аддис-Абеба" 20
mahajan 20
Кон@@ 20
Манхэттене, 20
кгс 20
000,0, 20
келвинов 20
апогей 20
секунду 20
2,7 20
a", 20
233,9 20
aka 20
трансли@@ 20
блюда, 20
енного 20
Запеченный 20
пудинг@@ 20
pudding, 20
либо 20
Мексики, 20
Конехо. 20
запущ@@ 20
автомобилем 20
син@@ 20
ара@@ 20
"Юстиция", 20
5300 20
"Акрон 20
Высшая 20
(под 20
Альба, 20
Керала 20
школе 20
год: 20
restruction, 20
Фаллуджа 20
енную 20
главная 20
Кембридж@@ 20
хотя 20
Стэнфордский 20
enaire, 20
Сильвия 20
Кишиневе, 20
возвышается 19
Идентификатор 19
первой 19
167,94 19
аэропортов 19
al-@@ 19
зовут 19
poaceae. 19
00. 19
pol@@ 19
39 19
аци@@ 19
фи@@ 19
york. 19
Пар@@ 19
участвовала 19
американец. 19
це@@ 19
Парагвай. 19
re. 19
"Ахмет 19
Эртегун" 19
ной. 19
музыкально 19
артист@@ 19
кти@@ 19
Гарта 19
"Манчестер@@ 19
ка". 19
знаком 19
авто@@ 19
рекордный 19
знак 19
stanyan 19
ан". 19
бобслеем. 19
исполнил 19
шел 19
ds. 19
подписанный 19
домашнюю 19
французском 19
Канаде. 19
инди-@@ 19
jazz 19
"Аполло-8". 19
Прей 19
бра@@ 19
Фрэнсис 19
94,8024 19
гражданина 19
Северная 19
ц. 19
вет@@ 19
вар@@ 19
Мартин, 19
ла". 19
Краснодар". 19
подготовлен 19
Консервативная 19
division 19
Аднан 19
ho@@ 19
"Открытая 19
Рахимов. 19
академического 19
парке 19
Те@@ 19
Джефф 19
Национальной 19
lega 19
ери@@ 19
seco 19
f.c 19
архитектурном 19
долларов. 19
Кливленде. 19
Иллинойсе. 19
Филипп 19
Аддис-Абебская 19
cleveland 19
колледжа 19
Ирландия. 19
та". 19
Штат 19
ена. 19
Австрали@@ 19
килограмма 19
000. 19
сси@@ 19
Бэй@@ 19
уровне", 19
мэр. 19
участок 19
Александрии, 19
километр 19
р" 19
Фонтан 19
Обь, 19
ра", 19
"Остин", 19
залива 19
кресло 19
н", 19
персонажа, 19
мом 19
Герой 19
телей 19
кни@@ 19
малайзийского 19
лас@@ 19
pudding" 19
тар@@ 19
сделано 19
говяжий 19
ники 19
"Баджжи" 19
Карлес 19
Олланд 19
китайцы. 19
Джакар@@ 19
Лаура 19
Халим 19
125,8 19
перемещение 19
crociere 19
чный 19
matador. 19
vam 19
v6. 19
Чириков 19
6-@@ 19
alhambra 19
power 19
alli@@ 19
отдельная 19
4-ступенчатая 19
nr-1 19
Среднеатлантический 19
первый 19
cour@@ 19
Измире 19
Гю@@ 19
лира. 19
турецкого 19
воева@@ 19
матер" 19
kent, 19
ам, 19
Крестом 19
президен@@ 19
демократи@@ 19
1941 19
она@@ 19
chievoverona 19
находи@@ 19
ad 19
fylde. 19
a.s.@@ 19
Кристиана 19
Пауло 19
amsterdamsche 19
прикреплен 19
стади@@ 19
ктор 19
Орхус 19
Мендрисио. 19
институтом 19
wiley 19
мор@@ 19
507 19
"Агра", 19
Ираке, 19
лет, 19
графства 19
Саранак 19
индийский 19
исполни@@ 19
Эртегун, 19
"Барсы", 19
рок-музыку 19
Канада. 19
Уроженец 19
рас@@ 19
п, 19
рекор@@ 19
аны 19
Райхель 19
вышедший 19
"Аполлон-8", 19
"Амкар@@ 19
га" 19
Гурули, 19
street, 19
лидеров. 19
площад@@ 19
дом, 19
завершившийся 19
mahajan. 19
рой 19
Нью-Йорка, 19
360.29 19
руется 19
Мичигана, 19
остров 19
1516,6700000000003 19
0,0068 19
duncan 19
Италия, 19
Негре 19
блю@@ 19
Дербышир 19
mcloughlin 19
же, 19
chrysler 19
motors, 19
лондонской 19
Верфт", 19
Инфанте, 19
Франсиско 19
sibal, 19
Афинах 19
Уайт. 19
е) 19
calcio, 19
verona, 19
члена, 19
4, 19
Сент-Мэри, 19
Мендрисио 19
Флинтом 19
dancer, 19
nix, 19
американцами 19
usaf 19
Бельгии, 19
mamiffer. 19
benoit 19
Бернсом, 19
Оросман 19
283326@@ 19
себе 19
красном 19
Техасском 19
отеле 18
iata 18
ata 18
Ирак. 18
ля. 18
90@@ 18
2.@@ 18
Поверхность 18
«Алпена» 18
Владельцем 18
ан. 18
00,0 18
36r 18
Андре@@ 18
39. 18
ла" 18
Ру@@ 18
Антверпенский 18
jersey 18
ig@@ 18
Портовое 18
Французский 18
я). 18
регион 18
Мамедов 18
Наваз 18
Шариф. 18
ки". 18
os@@ 18
авиа@@ 18
Тур@@ 18
сраж@@ 18
cu@@ 18
Уттар-Прадеш 18
"kids 18
nation@@ 18
legends. 18
низкой 18
eaters. 18
певца. 18
К" 18
47@@ 18
Ковак" 18
День" 18
са". 18
Монтевидео. 18
лл. 18
spell 18
pe@@ 18
анский 18
Джвайдан, 18
такими 18
п 18
джазовой 18
garage 18
digweed. 18
Лондона 18
стили@@ 18
цев 18
телем. 18
Дэвидом 18
британского 18
edwin 18
наград. 18
01 18
"Золотая 18
Хант" 18
"Вфл 18
футболист, 18
(футболист) 18
"Аль-@@ 18
shorta 18
7. 18
инг@@ 18
футбольному 18
"Аль-Хор" 18
Катаре 18
спортивном 18
5,@@ 18
Пантерз". 18
"А.С. 18
лу 18
Манито@@ 18
эр 18
да". 18
ur@@ 18
Ярмо 18
alexandra 18
Евро 18
Виктор 18
Сент-Луис@@ 18
mi@@ 18
ще@@ 18
com@@ 18
кт 18
заверш@@ 18
Лью@@ 18
140000,0 18
Ми@@ 18
зданий, 18
полити@@ 18
канцлера 18
немецкий 18
Языком, 18
д", 18
ш 18
здани@@ 18
Ирландия 18
народ. 18
spacewatch. 18
88234300000,0. 18
ур@@ 18
3,@@ 18
2015-06-27. 18
a911 18
288749000000,0. 18
0,0112 18
Эпох 18
мас@@ 18
"Вальтер 18
воды 18
Коды 18
"Встреча 18
Орегоне, 18
ется, 18
746 18
Амарльо, 18
"Вашингтона" 18
и", 18
округе, 18
Алабама, 18
зем@@ 18
измеряет 18
вис@@ 18
ственная 18
государственном 18
sh@@ 18
blockbuster, 18
gardner 18
созда@@ 18
Гэри 18
aw@@ 18
ко, 18
соусом 18
Авокадо 18
ней 18
сжима@@ 18
бутерброд. 18
Бакед 18
Кайлан, 18
соленые 18
рис-вермичелли, 18
Бандею 18
Жареное 18
(патаконы), 18
картошка 18
Таро 18
Бартолоне 18
жареной 18
ро. 18
Захар 18
йские 18
государства 18
Круз" 18
"caterpillar 18
Аргентине 18
marysville, 18
среднеразмерный 18
Чириков, 18
168@@ 18
исполнительным 18
передач 18
финальный 18
площадке 18
производителем 18
ДеСото 18
opel 18
центр 18
thema 18
жа@@ 18
Адамс. 18
Азербайджана. 18
Баку-@@ 18
Хюсейн 18
помощью 18
арабы. 18
битва 18
Вилдер@@ 18
holloway 18
заместителем 18
Доусона. 18
конфликта. 18
"Бит@@ 18
короле@@ 18
Нидерландо@@ 18
Сталин 18
Генри 18
Чез@@ 18
cesena. 18
соревновалась 18
футбо@@ 18
lan@@ 18
винег@@ 18
"qabarag 18
bury 18
härtel 18
vitesse 18
rolando 18
vincent-st 18
Керала. 18
"Висвесварайя". 18
река 18
своему 18
ала 18
Кре@@ 18
Американским 18
"А 18
romance. 18
388 18
математи@@ 18
"Административ@@ 18
admin. 18
0-439-92550-9. 18
Рейес, 18
Поакэ, 18
commelinids. 18
00 18
Ашхабаде 18
панк-@@ 18
гри@@ 18
за. 18
синтеза 18
Ковач, 18
candle 18
Иусо 18
moyine, 18
ассоциировался 18
НАСА, 18
пошел 18
институт, 18
sc.d. 18
sc.d 18
2-@@ 18
Мемориала 18
базирующаяся 18
зе 18
Олимпик 18
ь", 18
lasalle, 18
людей 18
адрес 18
Ахмадабаде, 18
Ахмедабад, 18
множество 18
американцами, 18
fort 18
Анахайм, 18
Созданный 18
транслирует 18
3, 18
Мишки@@ 18
та", 18
говяди@@ 18
4,@@ 18
siomay 18
мой 18
кокосо@@ 18
десер@@ 18
inc, 18
мм. 18
"Локомотив", 18
"Альгамбра", 18
али@@ 18
августом 18
Миссисипи. 18
battlefield" 18
Баку", 18
Линкольна. 18
годах 18
Понтезонах, 18
ribicoff, 18
заливе, 18
Хессише 18
1953 18
Айри 18
женой 18
Филлипс, 18
мера 18
blackpool, 18
Панучи, 18
3000 18
"1634: 18
Флинтом. 18
книгу 18
palaeonil. 18
университет, 18
aenir, 18
evil" 18
Т.С. 18
рока, 18
синтеза, 18
trance 18
"Аполлон-11", 18
"Аполло-11", 18
"Аполло-11" 18
коман@@ 18
Ноттингеме 18
445895@@ 18
creek, 18
Плехановском 18
1580,7 18
именно 18
клубный 18
aniti. 18
Риджвуд, 18
аргентинского 18
Маэ, 18
Псалм. 18
"visvesvaraya", 18
запа@@ 18
Местонахождение 17
aktieselskab 17
асфальта. 17
17l 17
n.@@ 17
Алькобендас. 17
Мадриде 17
00,0. 17
тан@@ 17
26@@ 17
09l 17
Мадрида. 17
Основным 17
36r. 17
поверхность 17
л". 17
38@@ 17
09 17
34. 17
Антверпенским 17
он. 17
второй 17
48@@ 17
Куритиба 17
дат@@ 17
рен@@ 17
Эллингто@@ 17
Валютой 17
monocotyledon. 17
Му@@ 17
saranac 17
Южного 17
Пинхаис 17
Бе@@ 17
"Калибер 17
стартовал 17
Асунсьон. 17
Стамбул 17
"Барсы". 17
b, 17
ритме 17
bebi 17
день" 17
ill@@ 17
fre@@ 17
соном 17
лы@@ 17
s". 17
лена 17
певица, 17
связанная 17
ят@@ 17
художниками, 17
"Бан@@ 17
сы@@ 17
Стилистическое 17
гаражной 17
jawadan 17
Лондона. 17
Мартинес. 17
Афара 17
"фьюжн", 17
национальным 17
"Аполлон-14". 17
"Аполло@@ 17
британский 17
Роди@@ 17
бу@@ 17
вице-президента 17
ФАС 17
goslarer 17
accrington. 17
ш" 17
проекте 17
e". 17
ков 17
центра 17
Москве, 17
бом 17
России 17
Тайус" 17
Канада 17
crewe 17
Арена". 17
Алессандро 17
матчи 17
чемпи@@ 17
эй@@ 17
республи@@ 17
football 17
"Серии 17
"Палермо" 17
миллионов 17
воз@@ 17
"Кливлен@@ 17
avenue. 17
Буффало, 17
дека@@ 17
Аддис-Абебе 17
Аддис-Абебе. 17
Аддис-Абебской 17
1964 17
ств@@ 17
Стер@@ 17
man. 17
east 17
ным, 17
ц 17
Чикаго 17
китайц@@ 17
roque 17
кельвинов. 17
66391 17
000000,0. 17
vicia, 17
179942000,0. 17
139705000,0. 17
0,02 17
bor@@ 17
ell@@ 17
Преубиске 17
ок@@ 17
Тейлор 17
Мэр 17
Дугерти 17
Таит 17
ett@@ 17
Антиохии, 17
Арлингто@@ 17
60@@ 17
Технический 17
washington, 17
роль 17
Испанский 17
al, 17
Рулеу 17
max 17
филь@@ 17
Бен 17
gene 17
Бол@@ 17
Коло@@ 17
Дан@@ 17
Уай@@ 17
Тома@@ 17
"asam 17
малай@@ 17
ня 17
"Жареная 17
курица" 17
"Вы@@ 17
беко@@ 17
хлеб 17
счита@@ 17
рождественский 17
дни@@ 17
яйц@@ 17
овощей. 17
Са@@ 17
картофель 17
рубленые 17
рода 17
Джерард 17
Джакарта 17
ста 17
Испанцы 17
смежные 17
Германия. 17
австрали@@ 17
чная 17
среднего 17
прямо@@ 17
щена 17
двухдвер@@ 17
нов@@ 17
lu@@ 17
"alhambra" 17
полностью 17
транспортное 17
Канаверал. 17
космодроме 17
Брюсселе, 17
up@@ 17
corporation 17
изготовил 17
автомобили. 17
штаб 17
по-английски 17
Инфанте 17
monument@@ 17
monument" 17
14-го 17
Мэрилен@@ 17
ван@@ 17
Мемориальный 17
м-@@ 17
турецких 17
министерстве 17
Рай@@ 17
ridgewood, 17
Демпси. 17
Фаверх@@ 17
Афинах. 17
вице-@@ 17
арти@@ 17
jennings 17
фонда 17
Мендосе 17
Буэнос-Айре@@ 17
Филлип@@ 17
Луфкин, 17
Вермон@@ 17
"Геттисбург" 17
Диего 17
Орасио 17
Родольфо 17
ний 17
"Уайт" 17
азиат@@ 17
massimo 17
АК 17
metapán 17
основания 17
"afc 17
challinor 17
сокращенное 17
aja@@ 17
"azal 17
"agrimiacao 17
panucci 17
академии 17
ческий 17
grasso. 17
virtus 17
Мишель 17
бывшие 17
s.s. 17
universitas 17
daniel. 17
доктор 17
тенниса. 17
978-1-4165-4253-7. 17
печатной 17
gazettes 17
предшествует 17
советником 17
СПИД. 17
сп@@ 17
редактор 17
veil. 17
тели 17
pol. 17
quarter. 17
q 17
Сандер@@ 17
Хайнлейна. 17
"Викинг 17
Во@@ 17
Икбал», 17
e", 17
"Сумерки", 17
ция, 17
Рок-музыкант 17
"Барсы" 17
французы. 17
тех 17
"Аполло-8" 17
Хант, 17
tc, 17
"Аль-Хор", 17
Гаджиев. 17
lyonnais. 17
c.@@ 17
язык@@ 17
"Открипье 17
спроектированный 17
южноафриканцы 17
Куяхога, 17
пол 17
канадцем 17
ganymed, 17
Ольдендорфе, 17
скончавшегося 17
0,0155 17
носо@@ 17
Фонтан@@ 17
ря@@ 17
белых 17
представителей, 17
Созда@@ 17
"Би-би-си", 17
Бананамане, 17
транслировался 17
вшийся 17
"Баймакс", 17
основными 17
Аррос 17
малайзи@@ 17
Яве, 17
Аляска, 17
Паиса 17
лапки, 17
сладкую 17
Бионико, 17
Замбоанганов 17
ммс 17
так@@ 17
диаметре 17
производство 17
соответствующим 17
ese 17
площадку 17
северо-западу 17
Карролл, 17
Ататюр@@ 17
возглавляют 17
"Юстиция" 17
gorbach, 17
"Колин@@ 17
5000 17
Ганг. 17
Ботта 17
твердости 17
Обам@@ 17
polonica, 17
57059226. 17
Локк 17
вторжении 17
вшим 17
Валерий 17
1700 17
Виргинии, 17
Вирджиния, 17
Ампара, 17
постро@@ 17
0000,0 17
г, 17
v12, 17
принадлежащ@@ 17
Расизаде 17
ealdorman 17
Виргиния, 17
Шнайдер-Амман 17
sarvapalli 17
Бельгаме. 17
Висвесварайя 17
Филиппины. 17
тонн, 17
Тичино, 17
Редди. 17
(язык 17
2777,0 16
28r. 16
Первая 16
icao 16
lake 16
3500. 16
air 16
ban@@ 16
авиабазе 16
90 16
09@@ 16
Сообщества 16
поло@@ 16
Амстерда@@ 16
цией 16
29 16
ir@@ 16
4000 16
рабо@@ 16
работ 16
appleton. 16
«Атлантик 16
Фарерских 16
ства. 16
Ципрас. 16
Висконсин@@ 16
если 16
Озеро 16
лес@@ 16
пор@@ 16
ана. 16
б. 16
Тексты". 16
tex@@ 16
texans. 16
компани@@ 16
bighting 16
nation. 16
4-0@@ 16
Ин@@ 16
pro@@ 16
ner 16
Агустина 16
Фрей@@ 16
блюзовом 16
цей 16
or. 16
ка", 16
уругва@@ 16
candle. 16
kissing 16
ровый 16
Фи@@ 16
соном. 16
рекорд". 16
ты, 16
джазо@@ 16
afrobeat 16
Большая 16
Партия 16
синтеза. 16
Роберт@@ 16
ско-@@ 16
лл@@ 16
wheeler, 16
100305,0 16
НВК 16
школу 16
Се@@ 16
199@@ 16
астронавтов 16
"Аполло-14". 16
"Ле@@ 16
сти 16
ров 16
Байден. 16
milan. 16
лья@@ 16
ПСВ 16
оне 16
Спор@@ 16
qatar 16
санти@@ 16
Финляндия. 16
"Александр 16
185@@ 16
США@@ 16
итальянца 16
в". 16
Ду@@ 16
канадцы 16
разговорных 16
eri@@ 16
лад@@ 16
ов 16
Даль 16
dolphins 16
чер@@ 16
Рам@@ 16
ис 16
ланд@@ 16
wolfsburg 16
датой 16
str@@ 16
111484 16
спроектировали 16
a". 16
стене, 16
Пэйн 16
окончания 16
работы 16
Адрес 16
Вирджиния. 16
business 16
(Великобритания). 16
"Чикаго". 16
Мендоса. 16
Иллиной@@ 16
народа. 16
цев. 16
Ш@@ 16
Джонсон. 16
vance 16
000,0. 16
Прежнее 16
кубический 16
331683000,0 16
ров. 16
st; 16
1952 16
a919 16
ha; 16
"гигиена" 16
416136000000,0. 16
lydia, 16
142603@@ 16
richard 16
Анахайм 16
оранжевой 16
97@@ 16
arlington 16
"). 16
alabama, 16
ро" 16
округ@@ 16
округ, 16
land 16
Куппербер@@ 16
Дилли@@ 16
Би-би-си, 16
Майкл 16
создателем 16
Джилл 16
комиксов, 16
Роджером 16
Марв 16
Молдоф@@ 16
нер@@ 16
Рене 16
анг@@ 16
разби@@ 16
ти. 16
sarnie, 16
Китае. 16
alaska 16
масло, 16
dales. 16
(свежевыпеченным) 16
жареные 16
тапиока, 16
соседних 16
территории 16
Лимон 16
"Па@@ 16
Главный 16
сгущ@@ 16
Филиппинский 16
Испания 16
универсал. 16
прямолинейный 16
дюймов. 16
Верфт 16
friedrichshafen. 16
"АИ@@ 16
ност@@ 16
ara 16
Два 16
coupé, 16
передний 16
tlx. 16
ступенчатый 16
"alvis 16
8,34 16
3-0@@ 16
ЕКА 16
pagnell, 16
транспортные 16
36. 16
quattro 16
этническим 16
севере 16
frederick 16
турецкий 16
Баку" 16
"Фредери@@ 16
Роттердаме. 16
Нидерландов. 16
спорта 16
Кент, 16
поль@@ 16
Сатем. 16
греческой 16
государство, 16
Филип@@ 16
Шиверс" 16
Линкольн. 16
самолет, 16
самолета 16
ства 16
drago 16
2014-м. 16
ane. 16
el 16
АФК 16
age 16
ful@@ 16
Соуза 16
bay 16
греческий. 16
футбольным 16
"Интер@@ 16
stoger 16
drogheda 16
Прабхукумар 16
"Налаживание 16
монар@@ 16
Аравийское 16
Международной 16
Флинт. 16
продолжение 16
операций 16
дисциплины 16
тельная 16
ВИЧ. 16
физики. 16
рами 16
вари@@ 16
печатном 16
universität 16
abh. 16
академией 16
"Н@@ 16
economic 16
"Аенир" 16
Гар@@ 16
Роман@@ 16
Хопкинса 16
kluwer. 16
Абилен, 16
Аг@@ 16
тель, 16
Ай@@ 16
ями 16
черную 16
хип-хоп-музыка, 16
рок-музыку, 16
содержатся 16
анный 16
"Друм 16
Андра, 16
связан@@ 16
материнской 16
ктором 16
ныне 16
3-м 16
бывших 16
клубов 16
"Пенарол", 16
команду, 16
Клубы 16
Лос-Анджелеса 16
dent, 16
Хьюсто@@ 16
priestley, 16
Александром 16
Пермь", 16
Арен@@ 16
Мадин, 16
Яном 16
насчитыва@@ 16
британ@@ 16
Шри-Ланки, 16
Премьер-министр 16
julia 16
29919600000,0. 16
орби@@ 16
клемати@@ 16
"), 16
"Хьюстон" 16
столицы. 16
гом 16
доме 16
хлеб, 16
amat@@ 16
специфи@@ 16
ингредиент. 16
explosion, 16
столичного 16
Бекон-бутерброд, 16
Дербышир, 16
колумбийская 16
y", 16
batchoy, 16
подают 16
вз@@ 16
картошка, 16
Конехо 16
banner. 16
x-1. 16
company, 16
coupe, 16
сделанный 16
Финляндии, 16
аном 16
основ@@ 16
системой 16
Инфанте. 16
премьер-минист@@ 16
"; 16
Стеллендаме 16
б, 16
Сулейман 16
ец, 16
вавший 16
наградил 16
Самара@@ 16
Антоном 16
Ниймег@@ 16
neave, 16
Австри@@ 16
Скалес, 16
Шивер@@ 16
Хяртель, 16
анная 16
конкурирует 16
Куттиккаттоор 16
повлиял 16
0-670-03380-4. 16
apgpac. 16
"Математика", 16
голланд@@ 16
ена@@ 16
Маги@@ 16
диско-музы@@ 16
ски, 16
фоном 16
Беби 16
музыке, 16
Джонни 16
пилота. 16
Уильямом 16
m.s. 16
Захра, 16
Аль-Хор 16
(ранее 16
Альма-матер 16
городка, 16
Плеханского 16
столицей, 16
Обама, 16
Грассо 16
Валенское 16
батюшка 16
Кумберленд, 16
гранитном 16
белом 16
Мариетта, 16
адмира@@ 16
Юдин, 16
связи 16
(морковь), 16
Орху@@ 15
lufthavn 15
identification 15
Суаре@@ 15
21. 15
25. 15
асфаль@@ 15
-3.3528 15
53@@ 15
pl@@ 15
"Эндрюс" 15
05l 15
ent@@ 15
1873 15
Брюссе@@ 15
французский. 15
пункт 15
hal 15
light 15
helicop@@ 15
"И@@ 15
аль-Абади 15
ah@@ 15
Техасский 15
тер@@ 15
атакующий 15
son 15
"Ска 15
певиц@@ 15
Парагвае. 15
get@@ 15
ers@@ 15
Фрей 15
ч" 15
u 15
Уругвае. 15
"З@@ 15
пис@@ 15
выполненный 15
Ирландии. 15
мар@@ 15
Мат@@ 15
ья@@ 15
bl@@ 15
Мари@@ 15
следующими 15
Менделем. 15
universal 15
armin 15
Лейбористская 15
политический 15
Рок 15
rock@@ 15
ст, 15
Уругвая. 15
Васкес 15
уч@@ 15
минут 15
окончила 15
американскую 15
nasa. 15
52 15
са", 15
Андерс. 15
Богаар@@ 15
ко. 15
ос@@ 15
сбор@@ 15
СК 15
Центральный 15
эспаньол@@ 15
Футболист, 15
"Адам 15
ер, 15
"Т 15
sports 15
ers" 15
Атланте. 15
шейха 15
Русселя 15
"Шабаб 15
Пер@@ 15
шего 15
"Алания 15
178,0 15
,0@@ 15
atlanta 15
c.d. 15
um. 15
Москва" 15
сез@@ 15
ros@@ 15
тон, 15
Дугла@@ 15
иг@@ 15
Жан-Мишель 15
раль@@ 15
Хеккинг. 15
george 15
1978 15
архитекторами 15
mer@@ 15
Баффало, 15
building 15
Дублине. 15
Копенгагене 15
copen 15
Аддис-Абеба 15
вания 15
Ги@@ 15
кой@@ 15
476 15
Альфредом 15
"Движение 15
стер. 15
Бирмингема 15
cuyahoga 15
используемых 15
Республики 15
beach. 15
cyrus 15
"Нью-Йорк" 15
Котте. 15
wickremesinghe. 15
Аланом 15
обнаружено 15
обнаружи@@ 15
7729430000@@ 15
Эпохальная 15
8,0 15
1,0 15
m. 15
Пьяцц@@ 15
вский 15
8,@@ 15
0,0348 15
2368,05 15
rq@@ 15
гигиен@@ 15
"Лидия" 15
se 15
Джеймса 15
pre@@ 15
(жителей 15
Линн, 15
486,2 15
"Индиана" 15
55,4 15
вод@@ 15
ветке, 15
ветке", 15
ян@@ 15
524,5 15
31. 15
1299 15
1421,2 15
140,8 15
368,65 15
Некоторые 15
Государ@@ 15
сер@@ 15
Атланта. 15
Ни@@ 15
"Ари@@ 15
astéri@@ 15
aurakl@@ 15
Карл 15
Кезе@@ 15
л", 15
Светлый 15
Стивом 15
star@@ 15
"Баймакс". 15
Вольфман@@ 15
disney 15
studios 15
звезд 15
Шелдон 15
whitman 15
knight, 15
американ@@ 15
награду 15
Паркер, 15
Ингредиент 15
Оливковое 15
"Аматриче" 15
чеснок 15
приготовл@@ 15
"Аррту 15
кальмары, 15
перцы. 15
полуостро@@ 15
бе 15
Пеньет" 15
бутерброда. 15
губчатым 15
Сельдерей 15
говядина 15
"Та@@ 15
индонезийском 15
красная 15
Батагор 15
batchoy. 15
батюш@@ 15
teow, 15
гула 15
Мелака, 15
енные 15
Каталонии 15
дей@@ 15
Уджанг 15
бе. 15
Якуб 15
d.c 15
dodge. 15
базу 15
Луна". 15
a-@@ 15
24,0. 15
Тип 15
rs-3@@ 15
полноразмерный 15
"Абар@@ 15
две 15
Хельсинки. 15
ство@@ 15
трансмиссию 15
сустава@@ 15
ин 15
Майский 15
конструкторским 15
космическое 15
ный, 15
a1. 15
station 15
"Кейп 15
кух@@ 15
учреждена 15
Франклин, 15
г. 15
guner 15
церковь 15
"Ли@@ 15
университетом. 15
депута@@ 15
"Барисан 15
нигери@@ 15
Аль-Амин 15
Обасанджо. 15
колледж, 15
Гренаде 15
парламента 15
agnes 15
вши@@ 15
це, 15
Тейше@@ 15
Геттисбур@@ 15
homer 15
elihu 15
руководящий 15
собранием 15
Роттердаме 15
Х. 15
Риме. 15
Хортенсио 15
Хохне. 15
cam@@ 15
Шарлотт, 15
0000 15
тель. 15
"associatione 15
"calcio 15
Димитра 15
руководи@@ 15
менеджера 15
Спаллет@@ 15
ву@@ 15
fk" 15
премьер-лиге 15
arapriven@@ 15
fonseca 15
Гордон 15
colwyn 15
спортивный 15
"Реал 15
итальянцы. 15
"Локомат 15
03. 15
Миша 15
steyr 15
1909 15
Молодежная 15
футболистом 15
ющи@@ 15
учащихся. 15
студен@@ 15
предлагает 15
ая 15
visvesvaraya 15
виде 15
бума@@ 15
on" 15
1473-557@@ 15
0-439-17685-9. 15
палеонтологи@@ 15
опубликовано 15
0002-9327. 15
re 15
публика@@ 15
людей, 15
Абилен 15
озера 15
84 15
зу@@ 15
497,0 15
Поацея, 15
окружное 15
Антверпена, 15
рет@@ 15
ridge, 15
получ@@ 15
исполнителем 15
rock, 15
вую 15
лло@@ 15
грибной 15
wilder, 15
исход@@ 15
ящ@@ 15
певцом, 15
flibbertigibbet 15
художника 15
ный. 15
Менделем, 15
которая, 15
содержащий 15
му 15
отстав@@ 15
заслуги" 15
экипажа. 15
ти, 15
Далла@@ 15
слу@@ 15
менеджером. 15
sv, 15
Эрнандес, 15
турецкой 15
Перте, 15
square, 15
ено 15
вш@@ 15
Эфиопия. 15
Мулату 15
тело 15
небесное 15
Елены, 15
va; 15
a904 15
Мала@@ 15
каждый 15
государства. 15
Бананаман 15
телесери@@ 15
ровала 15
транслировал 15
итальянцы, 15
традиционным 15
Суматры, 15
Канзас 15
дов 15
МакЛоулин 15
ами, 15
лом. 15
Якоба 15
байджи@@ 15
ен, 15
um 15
Юсеф 15
вое 15
выпуска@@ 15
тонн 15
"star 15
banner 15
пусковой 15
выпу@@ 15
колесной 15
за, 15
croma, 15
samuda 15
friedrichshafen, 15
Монокарском 15
бы 15
разработанный 15
Абубакара, 15
ш, 15
монархом. 15
Колин 15
Тироль, 15
площадки 15
но, 15
Ак@@ 15
живут, 15
сан@@ 15
инженерный 15
девиз 15
ром@@ 15
.) 15
страни@@ 15
librari@@ 15
Бараком 15
32r 15
самолеты 15
исполнитель@@ 15
Родом 15
d.c. 15
музыкантом. 15
Коваком 15
Зитарроса, 15
candombe 15
Борманом. 15
Германи@@ 15
горо@@ 15
хи@@ 15
"Чикаго", 15
Лимерик, 15
Эфиопия, 15
Кен@@ 15
канадцем, 15
докторская 15
139705@@ 15
Капитолии 15
йскую 15
county. 15
Калла. 15
вырез@@ 15
малайцы 15
Последнее 15
филиппинском 15
юмасский 15
трансмиссия 15
hor@@ 15
atk 15
удален 15
предоста@@ 15
bersatu, 15
Магдалины 15
Кембридже. 15
Сент-Винсент 15
школы 15
dr. 15
образованию, 15
0567-7920@@ 15
английского 15
цы, 15
Апплетон 15
Певец 15
конкурировать 15
Затем 15
Анкара, 15
Иоханнис 15
Прабхукумар, 15
Тирструп@@ 14
l". 14
54@@ 14
195@@ 14
Региональным 14
paracuellos 14
отель 14
26. 14
осуществляется 14
2744@@ 14
Амстердама, 14
bur@@ 14
мобильности 14
Фламандский 14
"Гринвилле", 14
Операционная 14
y" 14
Сити" 14
"Яйцо 14
населенный 14
граф@@ 14
"Гринвилл", 14
"Гринвилл" 14
ави@@ 14
Бразилии 14
Хуссейн 14
poales 14
"Юж@@ 14
Теджано. 14
"Туркменистан" 14
сражений 14
wil@@ 14
инструментали@@ 14
"ska 14
гитаре. 14
du@@ 14
isis. 14
ции. 14
поп-музыку. 14
pop. 14
зиция 14
Стамбу@@ 14
актив@@ 14
работать 14
художник. 14
уча@@ 14
музыкой 14
подписал 14
Форре@@ 14
Андер@@ 14
blu@@ 14
поп. 14
музыкальных 14
сорат@@ 14
burns 14
рок-музы@@ 14
известно 14
"Диско-музыка" 14
па 14
sk@@ 14
космо@@ 14
пар@@ 14
Национальность 14
умер. 14
Гонконга. 14
награ@@ 14
"Бу@@ 14
именем 14
ющим 14
Калифорни@@ 14
дж 14
родная 14
кси@@ 14
лар@@ 14
sv. 14
"Коритиба". 14
год. 14
tec 14
titans. 14
бывшей 14
День 14
Дейтонские 14
голландские 14
-Хо@@ 14
tor 14
motherwell 14
ков. 14
1948 14
Клу@@ 14
передает 14
"Рубин 14
Казан@@ 14
га". 14
той. 14
ly@@ 14
Батуми. 14
лон@@ 14
in. 14
итальянскую 14
Брандоне, 14
Алекса 14
pallacanestro 14
клу@@ 14
99@@ 14
central 14
Барри 14
ham@@ 14
2014-м 14
ках 14
оном 14
России, 14
француз@@ 14
Хо@@ 14
апреле 14
12. 14
pickard 14
эй. 14
arena 14
center 14
Мун@@ 14
val@@ 14
em 14
way@@ 14
А.М. 14
blvd., 14
Пуги@@ 14
Городской 14
Эмануэле 14
council. 14
Дублине 14
Анандибен 14
Бирмингем 14
hearst 14
castle 14
"Мейсон" 14
Кол@@ 14
ВК8 14
5,6 14
3,5 14
well@@ 14
вает 14
162447@@ 14
48816@@ 14
352497000000,0. 14
кубических 14
Вальтера 14
кто 14
a900 14
39@@ 14
Николай 14
township 14
Орегон, 14
Орегоне. 14
1104,1 14
"Альбукерки", 14
992,6 14
ровал 14
657 14
высота 14
"Андер@@ 14
Техас@@ 14
Нью-Джерси@@ 14
hays 14
1296,65 14
seat 14
round 14
"Арион" 14
ahri 14
Полом 14
auron, 14
Хол@@ 14
Стэн 14
Брук-Тейлор 14
вл@@ 14
ге 14
walt 14
motion 14
picture@@ 14
Десмон@@ 14
desmon@@ 14
Пари@@ 14
Бру@@ 14
amatriciana. 14
главным 14
банановый 14
добавить 14
negre. 14
ped@@ 14
pedas" 14
ПЕДАС@@ 14
сметане 14
Яве. 14
Жареная 14
бутербро@@ 14
колбаса 14
Основной 14
бездорожье 14
Китая. 14
Руландском 14
основных 14
"Баксо" 14
шало@@ 14
ены 14
ше 14
Главные 14
свинины, 14
пищ@@ 14
связаны 14
рит@@ 14
изготовленные 14
чной 14
po@@ 14
ро". 14
раковины. 14
Каталонии. 14
(кондитерская) 14
Вальс. 14
индонезийская 14
Итальянский 14
Хе@@ 14
тру@@ 14
Мекси@@ 14
андартные 14
Тан. 14
народа 14
solanales 14
этическая 14
"Валенси@@ 14
колесную 14
Верф@@ 14
Ростоке. 14
"Май@@ 14
"АИДАлуна" 14
службу 14
начался 14
89@@ 14
модельных 14
lair@@ 14
veintigation 14
предостави@@ 14
"Ледокол" 14
дальнего 14
сопутствующие 14
1855 14
коробку 14
Д 14
подлод@@ 14
nr-1@@ 14
сравни@@ 14
та) 14
конструкторском 14
2002 14
Европейское 14
агентство 14
afb" 14
caterpillar, 14
"Ванденберг@@ 14
"Гвиана@@ 14
ене. 14
з. 14
север@@ 14
лось 14
ку" 14
найденных 14
Стамбул. 14
титу@@ 14
против 14
Таид 14
Махму@@ 14
ing, 14
министром 14
casey 14
Полония 14
Венгрия. 14
Георгиадис. 14
парламентской 14
чар@@ 14
1857-03-0@@ 14
Ларрета. 14
Рой@@ 14
ению 14
Атику 14
Польская 14
гарнизон 14
цве@@ 14
Бенито 14
chi@@ 14
Лумеззан@@ 14
lumenz@@ 14
metapán, 14
поли@@ 14
англий@@ 14
Армандо 14
рома 14
47290 14
se. 14
Саммит 14
"Ре@@ 14
berlin. 14
torino 14
гер@@ 14
rs@@ 14
Лин@@ 14
mechel@@ 14
фа@@ 14
"visvesvaraya". 14
передового 14
тся 14
технического 14
Ганг 14
грани@@ 14
гимн. 14
стран@@ 14
федерацией 14
следует 14
Майкла 14
or 14
ам. 14
syst@@ 14
тран@@ 14
(journal) 14
изучению 14
i, 14
0-7156-3648-0. 14
"glastonbury 14
Коупер 14
xiaolong 14
р", 14
wi@@ 14
занима@@ 14
matheric@@ 14
wiley-blackwell 14
замок@@ 14
sands 14
Мадрид-Барайас", 14
самоле@@ 14
душ@@ 14
таки@@ 14
3,0 14
разговорным 14
"Туркменистан", 14
бор@@ 14
ющие 14
Дейр, 14
isis 14
twilight 14
сплав. 14
электрогитару 14
rap 14
бараб@@ 14
художник, 14
Менделем 14
рок-группы 14
Зитарроса. 14
окончи@@ 14
наук, 14
ii", 14
Хамад. 14
Габор 14
Тексты", 14
Рахимо@@ 14
Зорат. 14
баскетбольной 14
Чи@@ 14
sve 14
разработана 14
Котте 14
8800@@ 14
herald 14
examin@@ 14
california, 14
стилем 14
году) 14
ена, 14
периодом 14
254989570.60815 14
Баэйд, 14
обнаруженный 14
км), 14
говорящи@@ 14
входящей 14
"Детройт" 14
вым. 14
вышла 14
fox 14
ce, 14
оливкового 14
кухни, 14
чесно@@ 14
найденной 14
Малайзия 14
популяр@@ 14
кухн@@ 14
Лаурау@@ 14
Валь@@ 14
дает 14
сладкий 14
диаметре, 14
thema. 14
собранная 14
сред@@ 14
dykes, 14
Среднеатлантическом 14
расположенным 14
объем 14
france 14
ракета 14
команди@@ 14
Буджанг 14
Отман 14
альма-матер@@ 14
Радбудский 14
Нидерланды 14
Белых, 14
да", 14
Статен 14
австри@@ 14
рожд@@ 14
лли 14
Дании@@ 14
Сыкашире, 14
cesena, 14
валюты. 14
Риме 14
чемпионы. 14
17023 14
уровне" 14
студентов, 14
technology, 14
89646863. 14
выпускалась 14
обложке 14
wiley-blackwell, 14
faber 14
речь 14
sand@@ 14
Мадрид, 14
разворачивают 14
самолет@@ 14
Моно@@ 14
Штаты), 14
Луанда, 14
dal@@ 14
дискотеку 14
сплавный 14
ет. 14
nu 14
Бернсом 14
b-unique 14
отставку, 14
От@@ 14
Глен-Ридже, 14
hook 14
Силва. 14
Елизаветой 14
ла", 14
архитекто@@ 14
Кейптау@@ 14
уда@@ 14
288749000000,0 14
blanco) 14
рупия 14
евро, 14
"cooki@@ 14
tart, 14
Фран@@ 14
белка, 14
standard 14
индийская 14
Игорот 14
юго-востоке. 14
Кумберленд 14
Ройс. 14
создан@@ 14
soldevanahalli, 14
аспирантов, 14
поряд@@ 14
60040714 14
соответственно. 14
немец. 14
крас@@ 14
aethelwald, 14
элементом 14
операционную 13
организацию 13
"Орхус@@ 13
28l. 13
asp@@ 13
adirondack. 13
Пласту@@ 13
Суарес" 13
метра@@ 13
mat@@ 13
3078,@@ 13
48 13
Поакэ. 13
port 13
тая 13
3.3528 13
Эндрюс 13
council 13
департамент 13
тон@@ 13
поверхностный 13
03r 13
Ашхабаде. 13
94 13
Сити» 13
gu@@ 13
Немецкий 13
Бразили@@ 13
Демоном 13
Ирак 13
Ира@@ 13
Бразилия. 13
мин@@ 13
"Туркменаба@@ 13
eagle 13
зия 13
боролись 13
свободу@@ 13
льным 13
инструмен@@ 13
1-0@@ 13
психоделическую 13
клавиат@@ 13
ent 13
post-@@ 13
ce 13
Асунсьоне. 13
альтернатив@@ 13
вани@@ 13
неработающий 13
th 13
gun@@ 13
н-@@ 13
год@@ 13
Вин@@ 13
загородная 13
активно 13
ча 13
поп-музыка. 13
country. 13
194@@ 13
rosa 13
ell. 13
подписался 13
кс 13
аку@@ 13
поджан@@ 13
Марией 13
Анд@@ 13
Бёрнс, 13
зер@@ 13
"Барабан 13
хип-хоп-музы@@ 13
Джа@@ 13
Большим 13
Парагвае 13
метис@@ 13
Брайан 13
legen@@ 13
Дома 13
новая 13
гим@@ 13
йцами. 13
бакалавра 13
ver@@ 13
Вы@@ 13
рем@@ 13
минуты 13
обороны 13
Борман@@ 13
представитель 13
aldrin. 13
он" 13
Фью@@ 13
ou@@ 13
hull 13
"Пеньа@@ 13
Эйндхов@@ 13
7-@@ 13
"Аль-Заура@@ 13
point 13
fortin, 13
Тринидад 13
"Акеем 13
ФК. 13
Тринидада 13
rams. 13
"Атланта", 13
Игрок 13
молодежный 13
"Аль-Хор". 13
"Аль-Вакра 13
tr@@ 13
town 13
Футбольный 13
Пра@@ 13
Львов". 13
halla. 13
Тай@@ 13
anadolu 13
efes 13
ash@@ 13
н.э. 13
ч 13
Босто@@ 13
"О 13
Гимн 13
Ген@@ 13
Кекалайнен. 13
онов 13
финны. 13
"Гамильтон 13
Ча@@ 13
"Пенарол" 13
Луис 13
Мигель 13
Законодательное 13
Скрип@@ 13
Нури. 13
анской 13
"Сент-Луиса 13
"Ста@@ 13
"Сампдория" 13
Общественной 13
1929 13
назывался 13
мероприяти@@ 13
center. 13
1961 13
Свя@@ 13
художественный 13
Расположение 13
Ис@@ 13
romane@@ 13
23-й 13
Эмануэле. 13
Парламент 13
Америки 13
sim@@ 13
aigh@@ 13
3997100000000,0. 13
69862200@@ 13
124950000000,0. 13
76@@ 13
ast@@ 13
sn@@ 13
Периапсис 13
1967 13
значение 13
Первооткрывателем 13
135589000,0. 13
"10 13
Измерение 13
ers. 13
Черны@@ 13
перитонита 13
сона 13
Германской 13
Арп. 13
161,54 13
квадратного 13
км). 13
Мэдисон. 13
обла@@ 13
Таи@@ 13
Калифорния) 13
indiana. 13
окру@@ 13
1299,0 13
муниципа@@ 13
"Аттика", 13
Аттика, 13
города, 13
Кор@@ 13
(США) 13
count@@ 13
Лос-Анджелеса, 13
potter 13
dr@@ 13
(персонаж 13
комиксов) 13
Создатель 13
Лэнь 13
bbc 13
рон 13
"Ве@@ 13
"Бананаман" 13
garden. 13
Бананамане. 13
colan 13
Роджер 13
ry@@ 13
fo@@ 13
Колон 13
теля 13
парижским 13
eg@@ 13
иначе 13
миндаль 13
заво@@ 13
подраздел@@ 13
Роса@@ 13
вариаци@@ 13
ce. 13
Ингредиенты 13
чернила 13
ари@@ 13
Индонезия 13
полуострова. 13
Лаурауи. 13
вают 13
бутерброд 13
ge 13
мороженое, 13
лапш@@ 13
грун@@ 13
мы@@ 13
сдела@@ 13
рецеп@@ 13
должен 13
"Го@@ 13
доступна 13
похо@@ 13
десертного 13
binignit. 13
"Саго" 13
Пуигдемонт 13
Каталония 13
cookie 13
кури@@ 13
Карри 13
Ден@@ 13
Болдрини. 13
Джаванский 13
can@@ 13
min@@ 13
Солана@@ 13
кузова 13
телями 13
тонн. 13
Роза 13
влен 13
тельни@@ 13
v12. 13
ракет@@ 13
эта@@ 13
cammell 13
gr@@ 13
двер@@ 13
bertone. 13
оформил 13
216@@ 13
shipyard. 13
har@@ 13
впечатляющей 13
трансмиссией, 13
"одиночная 13
пластина 13
суставами 13
задней 13
wheel 13
компания, 13
gmbh 13
Коста 13
carnival 13
"ДеСото 13
"Де@@ 13
Канаверал" 13
Гвиане. 13
модель 13
9000. 13
Фридрихсхаф@@ 13
rolls 13
бюро" 13
Семеновском 13
Пенсильвани@@ 13
предоставлен 13
ствен@@ 13
Азербайджан@@ 13
собрани@@ 13
мемориал 13
глав@@ 13
Зелен@@ 13
Лейденский 13
ы). 13
"Христианско-демократический 13
Якуб. 13
Рахмана 13
ба. 13
Джати 13
"Альма 13
caballero 13
находясь 13
ди 13
парламента. 13
Вир@@ 13
Сатем 13
Адольф 13
парламент@@ 13
189@@ 13
Тироль. 13
Австрийской 13
Порт-Артур@@ 13
Бена 13
Сычешире, 13
Алве 13
alv@@ 13
association 13
гвардейц@@ 13
майор 13
Хадиджа 13
Кихано 13
конфлик@@ 13
воевавшей 13
27250 13
"Ма@@ 13
s.r.@@ 13
лиг@@ 13
"Блэкпул" 13
сезоне-2014. 13
f.c.@@ 13
a.s 13
сери@@ 13
"АЕК 13
las@@ 13
araprivinesse" 13
Хорриган 13
ado 13
entella. 13
s.s.d. 13
castrovillari 13
austria 13
рез@@ 13
robur 13
mechelen. 13
universit@@ 13
Латинское 13
apulensis@@ 13
mols 13
"accademia 13
ся 13
море 13
изда@@ 13
for@@ 13
Аббревиатура 13
сокращена 13
code 13
j.v. 13
Пой@@ 13
"Секретным 13
print 13
dancer. 13
Васп". 13
дисциплиной 13
"into 13
hungarica 13
сокращ@@ 13
клю@@ 13
addicti@@ 13
0-439-17684-0. 13
nix. 13
ца. 13
сона@@ 13
университетов. 13
грантов. 13
люди. 13
Коэном 13
270@@ 13
эксплуатиру@@ 13
Алькобендас, 13
Куритиба, 13
эксплуатируемая 13
"alderney" 13
расположенное 13
городе, 13
Индианаполиса, 13
old 13
металл", 13
"ace 13
бас. 13
блюз@@ 13
Манчестере 13
др@@ 13
рок-музыка 13
подпис@@ 13
дов, 13
burns. 13
Берн@@ 13
Уругвай 13
Парагвае, 13
После 13
Шепар@@ 13
Министерства 13
Колизея. 13
rams, 13
ов, 13
че 13
Аль-Хор. 13
"Торпедо", 13
Парке 13
Лайоннаис. 13
fc", 13
"3@@ 13
собствен@@ 13
амхар@@ 13
Хапута@@ 13
Тесдом. 13
2015-06-@@ 13
ds, 13
s", 13
Англи@@ 13
Погсон, 13
Тама, 13
"гиги@@ 13
чис@@ 13
насел@@ 13
Алабама 13
Лансинг. 13
вещательном 13
человек", 13
parker, 13
ингредиента 13
специфичен 13
листочке 13
arem-arem, 13
малайского 13
ба, 13
малази@@ 13
пеньет", 13
колба@@ 13
концер@@ 13
alaska, 13
типи@@ 13
Рута@@ 13
8г 13
я: 13
"Бхаджи" 13
десерта, 13
дюймов 13
рует 13
владе@@ 13
werft. 13
путешествие 13
x-1, 13
рия 13
("@@ 13
базой 13
ет, 13
hel@@ 13
дочерней 13
дняя 13
"Антарес", 13
днее 13
агентством 13
Иллинойсе 13
им@@ 13
battlefield, 13
бронзового 13
бронзы. 13
canonica. 13
"purple 13
Парти 13
Сатем, 13
Британии, 13
faverham, 13
Польши, 13
Воридис, 13
Ниймеген. 13
Михетти. 13
националь@@ 13
(аббревиатура 13
or, 13
команде 13
основанием 13
саммит 13
k-w 13
Паллесен. 13
дисциплине 13
um@@ 13
вслед 13
капитал 13
admin, 13
ithaca, 13
456448@@ 13
последовали 13
Гренады 13
Икбал", 13
'Доннелл, 13
рекордные 13
транс-музы@@ 13
"Тран@@ 13
экипаж@@ 13
летчиком-испытателем, 13
"Аполло-14" 13
послом 13
thunder, 13
Рашидом 13
архитектора 13
per@@ 13
завершилось 13
коллеге 13
Гуджарат, 13
Мичиганским 13
Погсон 13
Калифорнийское 13
государственное 13
собрание, 13
городке, 13
родные 13
Антиокия, 13
миндаля, 13
halimah 13
Халиско, 13
(мм) 13
co., 13
18,52 13
(основана 13
автомобиль, 13
e-tron 13
мраморе 13
bersatu 13
Песака 13
ii@@ 13
гвардейской 13
Тейш@@ 13
Элиху 13
Грассо. 13
северо-западе. 13
burbank 13
ville 13
Гринви@@ 13
начавший 13
Бадо@@ 13
Дэвида 13
флот 13
Борманом 13
лежит 13
Илойло-Сити, 13
Висайского 13
цилиндров, 13
Мумбаи, 13
Президентом 13
летчика-испытателя 13
Скотт. 13
ения. 12
Орхусского 12
republic 12
7,@@ 12
1121@@ 12
гах 12
610,0 12
4100@@ 12
Суарес» 12
29. 12
40@@ 12
ora@@ 12
Аль-Анбар, 12
3310,0. 12
gro@@ 12
baan. 12
me@@ 12
col@@ 12
Южный 12
Мэ@@ 12
Антверпен. 12
ют, 12
applet@@ 12
(new 12
21r 12
"Ашхабад 12
guardian. 12
"Атлантик 12
региона. 12
заказ 12
ani@@ 12
Пенджа@@ 12
юж@@ 12
демо@@ 12
falcon 12
eagle. 12
c-130 12
"Уттар-Прадеш" 12
Найк. 12
ера 12
"Дом 12
turner 12
Польши. 12
Польш@@ 12
соль@@ 12
персонал. 12
Виндзоре, 12
Коннектикуте. 12
Онтари@@ 12
k2 12
Александров 12
day@@ 12
лондонском 12
1872 12
Пере@@ 12
eat@@ 12
исследования". 12
бод@@ 12
Рекорд 12
Пла@@ 12
osmosys 12
зву@@ 12
Матчсти@@ 12
стиче@@ 12
cr@@ 12
Пу@@ 12
turz@@ 12
включа@@ 12
рядом 12
Бернс, 12
Бурером. 12
Лондон@@ 12
"Монтевидео" 12
Парагвая 12
металлическая 12
панк" 12
волновая 12
house. 12
Великобритани@@ 12
еная 12
экипаже 12
ОЭ@@ 12
8-0@@ 12
-2@@ 12
"Аполлон-11" 12
эксплуатирова@@ 12
Гонконга 12
Евгений 12
выхода 12
представля@@ 12
"Даллас" 12
служеб@@ 12
медаль". 12
"Сент-Луис" 12
Теха@@ 12
Ау@@ 12
88@@ 12
boogaard 12
08. 12
Абеля 12
-ю 12
20-ю 12
mcquade 12
1.9@@ 12
esteghlal 12
Ахва@@ 12
Тобаго. 12
действует 12
ун@@ 12
rams 12
Ямай@@ 12
КЦ. 12
сыграют 12
Осим 12
Александер 12
Советском 12
ников 12
plan@@ 12
Га@@ 12
03@@ 12
оне. 12
"Бродвуд". 12
ера@@ 12
"От@@ 12
премьер-лиге. 12
ами. 12
academ@@ 12
Собянин. 12
все@@ 12
"Фейсбуке@@ 12
"Серия 12
velodrome. 12
Архитектурный 12
"Сент-Жорж 12
обо@@ 12
австралийских 12
мут 12
145,3 12
lasalle. 12
Копенгагене. 12
стер@@ 12
Августа 12
мэрии 12
abrad@@ 12
мэрия 12
Центр 12
sty@@ 12
Дже@@ 12
hall. 12
stern. 12
пред@@ 12
9-@@ 12
сбург@@ 12
Ам@@ 12
ус 12
california. 12
blvd, 12
проспекте 12
спроектирован@@ 12
"Кливленда" 12
Джексон 12
Марии. 12
Дубли@@ 12
Десалег. 12
morgan 12
gale 12
лен 12
публико@@ 12
Кенни. 12
лек@@ 12
судьей 12
7715100000,0 12
donal 12
обсерватории 12
3997100000000. 12
6155910000@@ 12
Период 12
максимальную 12
360,29 12
размером 12
kw4, 12
ob@@ 12
"1000 12
piazzia, 12
тный 12
Сер@@ 12
ге@@ 12
показа@@ 12
Уотсоном. 12
Елены. 12
611961000,0 12
1622.213 12
Камилла 12
349206000000,0. 12
aris 12
"1101 12
Не@@ 12
142603000,0. 12
Санда@@ 12
0,@@ 12
Акрон 12
1239,3 12
62@@ 12
linn 12
Орего@@ 12
"Альбукерки" 12
336265 12
"Сою@@ 12
"Антиохи@@ 12
Атланты 12
технический 12
914,8 12
737. 12
703,95 12
Крупнейшим 12
зону 12
ым 12
Гарри 12
Сах@@ 12
Альбертом 12
Дик 12
Ключе@@ 12
голо@@ 12
"Балдер@@ 12
Рулеу. 12
ben 12
Би@@ 12
6", 12
6". 12
"Бо@@ 12
премии 12
"Инстаграм". 12
цем. 12
Кирби 12
Хлеб 12
"Миндаль" 12
бри@@ 12
Помидоры, 12
Лацио. 12
Индонезия. 12
ингредиентов, 12
созд@@ 12
рыбы, 12
приготовленной 12
Пеньет@@ 12
"разбили" 12
служившую 12
Самбалом, 12
Сити. 12
хле@@ 12
морожен@@ 12
яйца 12
хлебобуло@@ 12
сти. 12
4,8 12
связано 12
другие 12
Сладкий 12
банан. 12
bionico. 12
Бионико. 12
образ@@ 12
раковины 12
chicharr@@ 12
Сандеш 12
имя, 12
заказе 12
Малайзийские 12
Ньето. 12
"Шума@@ 12
получившая 12
порядка 12
семейства 12
Райан. 12
сообщества 12
custom. 12
транспортных 12
(миллиметров@@ 12
inc". 12
порту 12
автомобилем. 12
Ричардом 12
оснащен 12
motors. 12
миллиметров. 12
производители 12
Производство 12
привод 12
ледокол, 12
"Милан@@ 12
zf 12
Тран@@ 12
стартовала 12
-8@@ 12
25" 12
отдельную 12
4-ступенчатую 12
sch@@ 12
ect@@ 12
roy 12
chapin 12
2014-@@ 12
antares. 12
пусковая 12
прошла 12
Ньюпорте 12
Пагне@@ 12
мыса 12
afb 12
audi. 12
lamborghini 12
17. 12
"До@@ 12
Турине. 12
Верфт" 12
Геттисбург 12
r) 12
1932-0@@ 12
Националь@@ 12
солдатам, 12
дизай@@ 12
"Антиэ@@ 12
гаван@@ 12
yong 12
kuet 12
Яку@@ 12
6-0@@ 12
"Мири", 12
Нигери@@ 12
Обасанджо 12
У. 12
гвардейцами 12
ша@@ 12
Конгрес@@ 12
православного 12
gen@@ 12
"Айри 12
56@@ 12
Агин@@ 12
"Юстиция". 12
Горбаха" 12
scales 12
"Би@@ 12
ха. 12
Уил@@ 12
Самарас@@ 12
война. 12
"Битвы 12
Буэнос-Айреса. 12
pr@@ 12
мер 12
польской 12
burlington, 12
she@@ 12
Хяртель 12
Веро@@ 12
сен 12
metapan, 12
park. 12
А.@@ 12
ci@@ 12
Олимпийский 12
(Афины) 12
n.v. 12
прозвищу 12
Дензил 12
genoa 12
frank 12
академи@@ 12
Греци@@ 12
"Челси" 12
Лейпциг". 12
bari 12
Стогер 12
"Адмира 12
"Ювентус 12
ММ@@ 12
apulensis". 12
kutti@@ 12
тами. 12
botta. 12
Тичино. 12
ся, 12
сам@@ 12
ta 12
Немцы 12
hu@@ 12
Швейцарский 12
канцлером 12
Белгаум. 12
форме. 12
печат@@ 12
приходит 12
бумаж@@ 12
affair. 12
Академическая 12
ard 12
первоначально 12
57392246. 12
Писанием". 12
предваряет 12
8805735@@ 12
Разорванный 12
wasp 12
hambur@@ 12
46451790. 12
battle@@ 12
Институтом 12
1360-044@@ 12
Общества 12
наркомани@@ 12
"Административно-науч@@ 12
Линколь@@ 12
семей@@ 12
violet 12
Коу@@ 12
sar@@ 12
Писани@@ 12
наро@@ 12
«Орхус», 12
2776,0 12
Мадрид" 12
Пинхаис, 12
ac-130. 12
Поакэ 12
участником 12
англоязы@@ 12
полосы, 12
Пенджабе 12
покры@@ 12
Амстердам, 12
оператором 12
mor@@ 12
поп-музыки 12
"Инди 12
"lotus 12
пост@@ 12
смер@@ 12
см@@ 12
стиль, 12
хип-хоп, 12
Катовице, 12
получа@@ 12
записывает 12
рок-ролльную 12
лла, 12
стиля 12
et, 12
производная. 12
Макдонне@@ 12
Европарламент. 12
entertainment 12
пла@@ 12
jazz, 12
осно@@ 12
Бернсом. 12
Райель, 12
член@@ 12
Уилл-@@ 12
испыта@@ 12
дней. 12
космической 12
пенсию, 12
общ@@ 12
См., 12
и). 12
членами 12
городе. 12
Маккей, 12
"united 12
"Новые 12
Английские 12
Атланта, 12
Чумаков, 12
"Торпедо" 12
Пермь" 12
Львов", 12
Даниеле 12
Канто. 12
рова@@ 12
бывшим 12
fencountry 12
Иллинойсе, 12
Марии, 12
местонахождение 12
апофеоз, 12
352497@@ 12
Баада, 12
(километров@@ 12
26, 12
179942000,0, 12
представители 12
смещение 12
языков. 12
государственную 12
основном 12
Пирс, 12
городом. 12
столиц@@ 12
Одди, 12
rouleau 12
традицион@@ 12
чили, 12
сделанное 12
negre, 12
Валенского 12
полуострова 12
explorisi@@ 12
колбас@@ 12
"Смер@@ 12
ингредиенты. 12
Аляске, 12
Запеченные 12
типичная 12
род 12
жира 12
свини@@ 12
Бат@@ 12
съе@@ 12
популярным 12
Бхаджи, 12
жен@@ 12
Кру@@ 12
Росто@@ 12
aidaluna, 12
кру@@ 12
мотором 12
основанный 12
j, 12
судовой 12
168, 12
аналогич@@ 12
компании. 12
запу@@ 12
последним 12
старто@@ 12
Хорчем. 12
мощность 12
залог 12
мрамор@@ 12
группу. 12
heart". 12
"Геттисбург", 12
stellendam, 12
Сарава@@ 12
Тайб. 12
Франко. 12
сис. 12
арми@@ 12
командир 12
Радбу@@ 12
Найтсбридж, 12
супругой 12
Имст 12
цвет@@ 12
"Колн" 12
lumeszane, 12
suarez 12
менедже@@ 12
fylde, 12
этот 12
"Барсе@@ 12
clube. 12
чемпионами. 12
Бухарест. 12
немец@@ 12
магистрат@@ 12
аффилирован@@ 12
flint 12
опубликованная 12
powys, 12
"Во@@ 12
1-56947-301-3. 12
ход@@ 12
duane 12
жест@@ 12
страниц, 12
университетов 12
"Аенир", 12
aust@@ 12
7877@@ 12
этниче@@ 12
Сан-Хосе-дос-Пинхаисе 12
Тхакур 12
Оно 12
texans 12
здесь 12
Бельгия, 12
вопросам 12
Ашхабада, 12
Масум 12
Лахор, 12
принадлежность 12
"Хип-хоп" 12
начина@@ 12
wildweeds, 12
поп-музыки, 12
Райхе@@ 12
Джаз-музыкант 12
метки 12
тива@@ 12
"Транс-музыкант" 12
парламентом 12
b.@@ 12
Богаард, 12
Брюинз", 12
После@@ 12
Петрако@@ 12
Арены". 12
Япония, 12
ремесел 12
Вашингтоне 12
Элена 12
студентка 12
179942000,0 12
Альбукерки 12
«Амарльо» 12
государственный 12
l.@@ 12
44,25 12
сыр 12
сообщество, 12
возникло 12
Двое 12
торт. 12
yacob 12
вано 12
(как 12
Замбоанган@@ 12
Бертоне. 12
юго-восто@@ 12
"ab 12
Куши@@ 12
эм@@ 12
Самарас, 12
валюта, 12
leipzig 12
deportiv@@ 12
Альбе-Юлия, 12
"Мериде@@ 12
Альба-Юлия, 12
полосы. 12
scd 12
Умер 12
Военно-морской 12
пирожки, 12
(Измир), 12
группе, 12
десертное 12
мемориала, 12
человека. 11
fi@@ 11
Мадриде. 11
Мадрид-Барайас 11
Суареса 11
4349 11
4349,0. 11
2215,0. 11
33. 11
СМ@@ 11
airpor@@ 11
Эксплуатиру@@ 11
названа 11
регулирует 11
alp@@ 11
Владелец 11
way" 11
пена. 11
1,9@@ 11
Зеландии. 11
Международного 11
75 11
язык" 11
"Нью-Джерси". 11
harrietstown 11
ter, 11
используемая 11
да" 11
Анголе. 11
Мадри@@ 11
Коммелини@@ 11
lake, 11
"Тирструп" 11
Авиакомпания 11
Гренады. 11
одно 11
Панам@@ 11
naik 11
живо@@ 11
выходил 11
genre 11
"rhythm" 11
nrbq@@ 11
connecti@@ 11
рок-музыка. 11
ственный 11
о", 11
джаз@@ 11
жанре. 11
Коваком. 11
стическая 11
aci@@ 11
'Донне@@ 11
п. 11
несколько 11
ey@@ 11
ky 11
волна". 11
шем 11
Мога. 11
певицей 11
судья 11
ся: 11
Юдин 11
Шеста@@ 11
"Кай@@ 11
этикет@@ 11
дра 11
гитар@@ 11
стве 11
Поли@@ 11
Мартинес 11
Парагвай 11
следовательно, 11
блюзо@@ 11
"Барсе". 11
"СКА 11
тромбони@@ 11
поп-музыке. 11
ства" 11
йцы. 11
степен@@ 11
! 11
Шепарда 11
космосе. 11
он". 11
выбра@@ 11
Уор@@ 11
"Аполлона" 11
вошли 11
Крис 11
Алдрин 11
даль@@ 11
Франция. 11
Слай. 11
прош@@ 11
Регина, 11
ер" 11
бразильца 11
jackets 11
1,9558 11
годы. 11
club". 11
Тобаго 11
Бывшая 11
ayers. 11
falcons. 11
ент@@ 11
гуа 11
"Джексон 11
Дельфин@@ 11
май@@ 11
connecticut 11
"Аль-Харатьят@@ 11
"qatar 11
младше 11
командой. 11
aldershot 11
Шотландии 11
ков" 11
Томск". 11
"Том 11
Советской 11
club. 11
9-0@@ 11
te 11
Сан@@ 11
s.@@ 11
эр. 11
ками 11
Лос-Анджелесе. 11
Фишер. 11
Москве 11
Бундеслиге 11
архите@@ 11
Терраса" 11
ance 11
стоил 11
фир@@ 11
62 11
121,92 11
populous. 11
концерты 11
проведения 11
арен@@ 11
3xn. 11
лла. 11
Арендатор 11
Аре@@ 11
Лимерик. 11
revival. 11
Шри-Ланке. 11
adm@@ 11
1-@@ 11
кита@@ 11
музея 11
Стерн 11
грузин@@ 11
Ахмадаба@@ 11
маршруте 11
"Ашер@@ 11
Диммит, 11
87000823 11
нд@@ 11
place 11
дво@@ 11
hailemariam 11
прингфил@@ 11
китайского 11
Юли@@ 11
значительные 11
насе@@ 11
Африке 11
фунт 11
Звание 11
7715100000 11
0,0925 11
19255 11
ch. 11
астероида 11
500 11
-7@@ 11
66063 11
41498400000,0 11
nz1951 11
1,1 11
1868 11
497@@ 11
0,0482 11
k.@@ 11
2005-11-26. 11
"1930 11
9,0 11
9,8 11
279142000 11
54 11
"Халтон 11
Арп" 11
Техас) 11
Огай@@ 11
о) 11
площади 11
называ@@ 11
80@@ 11
численность 11
Эн@@ 11
Население 11
94509 11
945@@ 11
jersey, 11
ник@@ 11
attica 11
"Кор@@ 11
Южная 11
Хайс, 11
opelika 11
кораб@@ 11
Неймара. 11
Лос-Анджеле@@ 11
Окружное 11
персонаж@@ 11
Биллом 11
ne@@ 11
x". 11
x. 11
Удер@@ 11
основателем 11
adi@@ 11
"Пулково@@ 11
Ке@@ 11
garden 11
обеспечивает 11
Гер@@ 11
anc@@ 11
Вольфман 11
с-@@ 11
снимал 11
Майя 11
Поттер. 11
Кармином 11
"Бол@@ 11
"Болт", 11
Джек 11
Джерри 11
коми@@ 11
art@@ 11
чин@@ 11
Королевство. 11
цветущий 11
sau@@ 11
блюдо-@@ 11
Джаванской 11
вариато@@ 11
использовать 11
Рима. 11
приготовленная 11
курица. 11
разные 11
Бекон, 11
используются 11
оружии, 11
китайской 11
тапио@@ 11
рис 11
бульон, 11
bakso 11
лапша, 11
бандеже 11
Красная 11
батаго@@ 11
всего 11
па. 11
кве@@ 11
измельч@@ 11
косе, 11
бхаджи 11
"binignit" 11
Сладкая 11
тах 11
Каталони@@ 11
derbyshi@@ 11
кондитерский 11
Болдрини 11
javenese 11
Рутай. 11
Путраджайя. 11
Путраджайя 11
Игорот. 11
Шумай 11
Суматре. 11
"Сума@@ 11
solan@@ 11
"dodge 11
сед@@ 11
автомобиля 11
3-ступенчатую 11
трансмиссию. 11
Строитель 11
АИ@@ 11
установки 11
sphin@@ 11
службе 11
ступ@@ 11
Кеноше, 11
Мельбурн, 11
лей 11
ano 11
(v-2@@ 11
Карло 11
ручную 11
company 11
Коврове. 11
гово@@ 11
лошадиных 11
мощностью 11
единую 11
пластинку 11
плавающей 11
45000,0 11
миллиметров 11
"Южноуральское 11
Первый 11
изготовило 11
vantage. 11
макет 11
днего 11
коле@@ 11
передним 11
inc 11
coronet 11
Фиредо@@ 11
Ниинистё 11
ас 11
accord. 11
Росток 11
разме@@ 11
battlefield. 11
ал, 11
юго-западе 11
Ататюрка 11
Эалдорману 11
арабы 11
религи@@ 11
которы@@ 11
no@@ 11
Махмуда. 11
ra 11
ass@@ 11
Кадуна. 11
Галисии 11
Магдали@@ 11
армии. 11
пресс-@@ 11
демократия" 11
больни@@ 11
Вирджини@@ 11
staten 11
Венгри@@ 11
Реидсвилле, 11
Антониса 11
шла 11
Законодательным 11
Софи@@ 11
Перон. 11
синий. 11
aermacchi 11
советской 11
ву 11
свобод@@ 11
Муссолини 11
Рузвельт 11
Ази@@ 11
2014-го. 11
marc 11
lumeszane. 11
estadio 11
lancashi@@ 11
sr@@ 11
1910@@ 11
олимпийский 11
(Афины). 11
et. 11
53502 11
aren@@ 11
az 11
araprivinesse@@ 11
os 11
istanbulspor 11
Ху@@ 11
Португалии 11
neustadt. 11
rapid 11
wien. 11
runcorn 11
мо 11
ab. 11
оранже@@ 11
вид 11
кампус" 11
Гой@@ 11
Теланг@@ 11
Кочи 11
наук" 11
siensis". 11
Белгаме. 11
Тинхэма. 11
atis@@ 11
системам 11
89646863 11
вычислительной 11
journal" 11
ент 11
0-7653-0633-6. 11
bodley 11
tur@@ 11
служба 11
gi@@ 11
amhaaj. 11
84@@ 11
veil 11
"above 11
veil@@ 11
83646315 11
60040714. 11
учени@@ 11
publication@@ 11
0-439-1768@@ 11
math 11
"Математика". 11
1878 11
публику@@ 11
Небрас@@ 11
Итука, 11
страной 11
предшество@@ 11
живущи@@ 11
Бун@@ 11
2, 11
"Барайас@@ 11
Бразилии, 11
3992,88. 11
Икбал. 11
первая 11
in, 11
правительством. 11
518@@ 11
ляр@@ 11
ан", 11
штаб-квартирой 11
-музыкант 11
программу 11
черной 11
металлической 11
Аа@@ 11
death 11
Польше, 11
wilder" 11
Стран@@ 11
з, 11
at. 11
day, 11
Народный 11
рекорд@@ 11
грибо@@ 11
Форрест, 11
кает 11
galactic 11
"Ам@@ 11
Парагвай, 11
Уругвай, 11
года) 11
Нью-Гэмпшире) 11
калифорни@@ 11
астронав@@ 11
ене 11
скончался. 11
Гонконге) 11
Саскачеване 11
команды, 11
патриоты". 11
базирующийся 11
Александ@@ 11
Москва", 11
итальянского 11
us, 11
Нэшвилл, 11
этажами, 11
Кейптаун 11
Бирон 11
разработанная 11
leinst@@ 11
(расположена 11
ключевых 11
исом 11
opp. 11
бли@@ 11
muse@@ 11
сделаны 11
ена", 11
Десале@@ 11
Малату 11
Тесдом 11
Штато@@ 11
ВК@@ 11
орбитальным 11
0,0, 11
км@@ 11
дец 11
Баэйдом, 11
1622,13 11
pogson, 11
апо@@ 11
9, 11
45,97 11
крупней@@ 11
километра, 11
Калифорнийскую 11
worth 11
77,41 11
states, 11
столицей. 11
пока@@ 11
ф, 11
происхождением 11
Амат@@ 11
Видодо, 11
Рима 11
соу@@ 11
as, 11
мороженое 11
Дербышском 11
тепло@@ 11
наземная 11
колумбийское 11
тофу 11
арахисском 11
batagor, 11
"batcho@@ 11
Илоцано 11
пальмовый 11
региональ@@ 11
банан 11
слад@@ 11
bionico, 11
бионико, 11
сметан@@ 11
десертов. 11
англич@@ 11
ющего 11
смеж@@ 11
ba@@ 11
aidaluna 11
rs-3", 11
меры 11
менный 11
миллимет@@ 11
"samuda 11
потерпе@@ 11
"Южно@@ 11
запущенный 11
pagnell 11
афро@@ 11
транспорта, 11
crociere, 11
"Присвоение 11
имуще@@ 11
собственност@@ 11
возведен 11
men@@ 11
турец@@ 11
Церковь", 11
га", 11
Саравак". 11
"Парти 11
короля 11
Понтезонах 11
ему 11
командира. 11
Дональда 11
Фармера. 11
hollo@@ 11
Антони@@ 11
очередь 11
валюта. 11
Белы@@ 11
imst, 11
Венгрии 11
Скалес. 11
Дариен, 11
работавший 11
"Вермон@@ 11
канцлера, 11
демократия", 11
Лейпциг" 11
maran, 11
sal@@ 11
"Блэкпул", 11
фили@@ 11
Сент-Винсент-@@ 11
Бангалоре 11
го, 11
Мериде. 11
Паллесен 11
декан@@ 11
Эрика 11
Флин@@ 11
restruction", 11
афроамерикан@@ 11
дом@@ 11
посвященный 11
"Фортриса 11
hardcover, 11
страницы, 11
Васп@@ 11
ack@@ 11
написанная 11
veil, 11
ica 11
рована 11
"long 11
ama, 11
этим 11
Лиди@@ 11
Икба@@ 11
12, 11
31, 11
Хип-хоп 11
получает 11
pri@@ 11
Борисом 11
умер@@ 11
andra 11
Мога 11
Мойи@@ 11
Шестам@@ 11
Бурером, 11
ящего 11
тали@@ 11
(Родился 11
Сил@@ 11
adams, 11
Милан", 11
Грозном 11
Рамафо@@ 11
ona 11
re, 11
bungalow@@ 11
882343@@ 11
докторан@@ 11
училась 11
эпохальной 11
0,0@@ 11
e; 11
афроамериканцами. 11
государствен@@ 11
lafayette, 11
лидер@@ 11
Таррант. 11
"Бананам@@ 11
Скоттом 11
говорящий 11
ше, 11
жарен@@ 11
арахисовый 11
арахис@@ 11
автоматическая 11
сделал 11
крещ@@ 11
цилиндров 11
amc. 11
относи@@ 11
Чирикова, 11
выходила 11
языка, 11
"Мерт@@ 11
Стамбул, 11
Миттераки@@ 11
Аргентине, 11
Блэкпул 11
кампус 11
redd@@ 11
reddy 11
gazettes, 11
ac-130, 11
канадец, 11
Транс-музыкант 11
тами, 11
Берлускони. 11
Кейптаун. 11
прави@@ 11
Берналльо 11
(крупнейший 11
англоязычной 11
вода 11
итальянцы 11
Висайас, 11
Однако 11
Кумберленд. 11
Гунером 11
федераль@@ 11
Институ@@ 11
Аравийского 11
"Аполлона-12@@ 11
НЖД. 11
Аделаиды. 11
Палле@@ 11
Смотрите, 11
2776,0. 10
ретья 10
место@@ 10
657@@ 10
3500,0. 10
36l 10
1800 10
viag@@ 10
ts 10
airbas@@ 10
возвыш@@ 10
Алдерни@@ 10
alderney, 10
733@@ 10
2900,0. 10
Альпена 10
опера@@ 10
названия 10
ев. 10
iss@@ 10
one 10
id 10
Опера@@ 10
2,0. 10
Зеландия 10
«Ардмор» 10
46@@ 10
2989@@ 10
900 10
egg 10
чанин 10
Языком 10
остро@@ 10
дри@@ 10
ow@@ 10
thakur. 10
верто@@ 10
веду@@ 10
ана" 10
управления 10
Дил@@ 10
нический 10
Испан@@ 10
Туркменистане. 10
авианосцах 10
Инва@@ 10
корейской 10
«За 10
h. 10
Луанда. 10
невокза@@ 10
boo@@ 10
indiana@@ 10
а". 10
культур@@ 10
metal". 10
Тер@@ 10
жанро@@ 10
Рекорд@@ 10
ahmet 10
erte@@ 10
rol@@ 10
входящая 10
"Аль 10
рок". 10
музыкант. 10
ov@@ 10
ственни@@ 10
заба@@ 10
"Фун@@ 10
годы 10
bored 10
професси@@ 10
"Кандомбе@@ 10
Ор@@ 10
лем. 10
автохар@@ 10
инструмент 10
али 10
лейб@@ 10
Алан@@ 10
акустическую 10
христианский 10
панк-рок. 10
гитари@@ 10
пение 10
Андрее@@ 10
сольная 10
относ@@ 10
Джано-Тосун, 10
нный 10
ог@@ 10
buuren 10
бандж@@ 10
pop 10
"Хип-хоп 10
Гита@@ 10
управлением. 10
существует 10
"Кашубийц@@ 10
Польше. 10
поп-музыка 10
песо. 10
ским. 10
1955. 10
Уи@@ 10
прове@@ 10
nwc, 10
Число 10
1930-01-@@ 10
1". 10
ter@@ 10
Гражданство 10
ство, 10
ца, 10
Григорий 10
Матер, 10
it. 10
1969-09-01 10
"Аз 10
Саскачеван. 10
Молодежный 10
до, 10
al-quwa 10
al-jawi@@ 10
рин@@ 10
Дебютной 10
игро@@ 10
линей@@ 10
подключается 10
«Аль@@ 10
az@@ 10
Чумакова 10
России. 10
Москва". 10
Росси@@ 10
"Томь 10
Республи@@ 10
16-й 10
колледж@@ 10
Бостоне. 10
"Чер@@ 10
Сегунде 10
Диви@@ 10
stadi@@ 10
Домашняя 10
Председателем 10
om@@ 10
язы@@ 10
.К@@ 10
тона 10
hamilton 10
Бобу 10
"Джон 10
Команда 10
университет@@ 10
"Реала" 10
kk@@ 10
Нарышки@@ 10
Скрипник. 10
1-м 10
ьер@@ 10
"Об@@ 10
ul@@ 10
су 10
кту@@ 10
properties 10
Кливлен@@ 10
fen@@ 10
120@@ 10
проводит 10
"Север@@ 10
hotel, 10
Пэйн. 10
Аддис-Абе@@ 10
нынешним 10
Стиль 10
Шри-Ланки. 10
префектуры 10
3746,66 10
года@@ 10
сбург", 10
Аму@@ 10
спроектированы 10
Техас" 10
87000823. 10
ремес@@ 10
1980-04-23 10
romanesque 10
архитектурной 10
Бирмингема. 10
"Бирминге@@ 10
Халид 10
"Кливленде@@ 10
вов 10
Восточный 10
пера@@ 10
Чинаторе, 10
da, 10
Манхэттен 10
ирландский 10
южноафриканцы. 10
ЮАР 10
"s@@ 10
mon@@ 10
'ceallaigh 10
Иван 10
П 10
0,0999 10
265,0 10
4149840000@@ 10
Темный 10
абсолютное 10
Св. 10
эпох@@ 10
ды. 10
0000@@ 10
6,@@ 10
gaff@@ 10
;@@ 10
"Ви@@ 10
605718000 10
16,@@ 10
523329000 10
annibale 10
155 10
копей@@ 10
Кро@@ 10
Кри@@ 10
pogson 10
Пог@@ 10
Уолтер 10
"Альбина", 10
64,008 10
«Александрия» 10
-8. 10
714@@ 10
Калифорния), 10
268,0 10
зный 10
Арбор@@ 10
"Вашингто@@ 10
Калифорнийский 10
палатой 10
258,2 10
чинов@@ 10
"Мэ@@ 10
68@@ 10
travis 10
Трэ@@ 10
cor@@ 10
калифорнийском 10
Калифорнийском 10
Сан-Маркос. 10
ро 10
Неймар 10
он, 10
taylor 10
оккупиру@@ 10
Сиэтл 10
Джорджтаун 10
ake 10
эр@@ 10
"Ауракле@@ 10
мышленный 10
Уолтом 10
Би-би-си. 10
son. 10
ge@@ 10
озву@@ 10
Биббоев@@ 10
Фильм 10
Одди 10
mol@@ 10
roland 10
Инфантино. 10
ight 10
whitman, 10
Бушке@@ 10
Пуэрто-Ри@@ 10
йс@@ 10
Дуурсема 10
Орд@@ 10
граждани@@ 10
ck 10
Андалусии. 10
вариация 10
тома@@ 10
"Андалуси@@ 10
Департамент 10
ингредиент@@ 10
листовке 10
"Арраббиа@@ 10
резьбины 10
ые 10
рыба, 10
кислом 10
служивую 10
"Кол@@ 10
Канзас-@@ 10
числе: 10
бекона-бутерброда 10
утвержда@@ 10
енны@@ 10
пуд@@ 10
"Мороженое" 10
Бакинском 10
мерингом, 10
популярна 10
лл". 10
Вариант 10
пудры 10
хлебный 10
консервы 10
Говядина 10
включ@@ 10
(morcilla), 10
ны" 10
"Барни 10
Кэпитал@@ 10
сиомайского 10
"Сиомай" 10
Ла-Пас, 10
популярная 10
сухая 10
Сингапурского 10
Баджжи@@ 10
овощей 10
Сметана 10
Гвадалаха@@ 10
китай@@ 10
рупи@@ 10
вожд@@ 10
vajubhai 10
малайзийская 10
Мексики 10
слыш@@ 10
филиппинец 10
Илока@@ 10
щего 10
дор 10
comm@@ 10
твердост@@ 10
Производи@@ 10
Варнемюн@@ 10
cruis@@ 10
Судно 10
строителем 10
2009-04-0@@ 10
airaluna 10
«СПИД@@ 10
СПИДа. 10
силовой 10
нему 10
цилинд@@ 10
насчитывающий 10
произошел 10
classic. 10
Мехико. 10
лини@@ 10
автомобиль. 10
модели 10
veintistico 10
192000,0 10
24,4. 10
дизайнером 10
55 10
"acura 10
приво@@ 10
ледокола 10
"Со@@ 10
168. 10
"Се@@ 10
ство. 10
ag. 10
ty@@ 10
бен@@ 10
придуманной 10
осью. 10
приоб@@ 10
nr-1, 10
диамет@@ 10
расходуемого 10
"antares" 10
-5@@ 10
годов. 10
Пол@@ 10
агент@@ 10
ством. 10
сия 10
передвижения. 10
"spaceport". 10
Марчион@@ 10
Сипила 10
ku@@ 10
Мерке@@ 10
Пли@@ 10
группам 10
ине. 10
Инфан@@ 10
Мон@@ 10
Геттисбург@@ 10
"Инфанте@@ 10
Монок@@ 10
«Инфанте@@ 10
же@@ 10
состо@@ 10
османским 10
солда@@ 10
Турция 10
Бьюнер 10
мучеников 10
guner. 10
"Мемориала 10
Даггет@@ 10
Западе 10
Эрас@@ 10
-11-0@@ 10
благосостояния 10
Таиба 10
bak@@ 10
Абубакара 10
queen@@ 10
don@@ 10
сти". 10
Австро-Венгрии. 10
adonis 10
georgiadis 10
Афин. 10
Брит@@ 10
1896-02-0@@ 10
Фили@@ 10
председателя 10
Горба@@ 10
х" 10
Кла@@ 10
fred 10
-Хилл. 10
Каролины. 10
вице-губернатором 10
Рамси. 10
Венизе@@ 10
Сантилли. 10
Лар@@ 10
ственником 10
guards 10
войну 10
офисе 10
Военно-морском 10
Ахигбе 10
Леон 10
Троцкий 10
"Гражданской 10
сской 10
Против 10
Чианг 10
dino 10
manuzz@@ 10
antonio 10
аббревиатурой 10
metapan. 10
Паллот@@ 10
lo 10
amaters@@ 10
topk@@ 10
муниципальная 10
кс. 10
грече@@ 10
Итальянцы 10
итальянском 10
hartel 10
leipzig. 10
"Р@@ 10
r.s.c. 10
Сальвадора. 10
Марколини 10
ду 10
однажды 10
А" 10
black@@ 10
y". 10
ati@@ 10
восточный 10
ству@@ 10
составляют 10
тур@@ 10
институте, 10
видов 10
спорта, 10
Всеиндийским 10
основал 10
Телангана 10
arah@@ 10
Шнайдер-Амманн 10
Федеральным 10
принима@@ 10
ical 10
следовал 10
исто@@ 10
рий 10
следуют 10
"1634@@ 10
обложке. 10
Тинхэм. 10
"СПИД". 10
mas@@ 10
воздействия 10
"Гластонбери 10
romance" 10
Волк 10
Анни 10
49805501. 10
зан 10
360 10
0-374-26131-8. 10
hardb@@ 10
was@@ 10
мастер@@ 10
Ши@@ 10
0236-529@@ 10
83646315. 10
Палеобиологи@@ 10
110@@ 10
publications 10
r" 10
Брэндон 10
anders@@ 10
ant@@ 10
меся@@ 10
est@@ 10
уэ@@ 10
работа 10
Пресс" 10
Пойсом. 10
sons 10
"Тирструп", 10
277@@ 10
Сарана@@ 10
Мадрид-Барайас, 10
Пена, 10
3360.12. 10
правительством 10
greenville, 10
Висконсине, 10
Спате 10
monocotyle@@ 10
исполнитель, 10
авангар@@ 10
gloom". 10
выступа@@ 10
культуры. 10
пост-@@ 10
ру, 10
гитарист, 10
хип-хоп-музыки, 10
фа. 10
шая 10
хип-хоп. 10
хип-хопа, 10
Асунсьоне 10
исполн@@ 10
Эррате 10
Сольная 10
ой 10
которой, 10
соном, 10
сме@@ 10
бхангра 10
"блюз" 10
подписана 10
вока@@ 10
Банилоу 10
music", 10
-испыта@@ 10
wheeler 10
програм@@ 10
ющ@@ 10
уюся 10
влен@@ 10
аффилированный 10
выбран@@ 10
"Сент-Луисе". 10
генеральным 10
Хамбургер 10
нер, 10
ritiba 10
мадридского 10
Шарлоттегороде 10
представлявший 10
"Атланту@@ 10
Хьюстон, 10
"Звезд@@ 10
бы, 10
milan 10
romagno@@ 10
сборной, 10
клуба, 10
Манитоба, 10
Тыу@@ 10
языка 10
Арене". 10
ed, 10
начата 10
34, 10
Лондона, 10
фун@@ 10
Кук, 10
кар@@ 10
номе@@ 10
ключевого 10
ейся 10
м), 10
шри-ланкийская 10
фа 10
Сумитра 10
лес, 10
asi@@ 10
beach 10
baths. 10
Нью-Йор@@ 10
плотностью 10
254989570,60815 10
29919600000,0 10
Готтингене. 10
период, 10
перипетом 10
При 10
377016000000,0. 10
texas, 10
oregon, 10
"Анахайм". 10
сенат 10
"Данвуд" 10
Джорджем 10
x, 10
сняла 10
"stv@@ 10
Брук-@@ 10
льф 10
парижскими 10
ck@@ 10
похвастаться 10
мон@@ 10
индонезийское 10
чили 10
joko 10
пищей, 10
пит@@ 10
дела@@ 10
Взрыв 10
столичном 10
Канзас. 10
курс, 10
бекон-бутерброд, 10
следующи@@ 10
франши@@ 10
двора. 10
найден@@ 10
начало. 10
СК@@ 10
содержащая 10
Мануэ@@ 10
рога, 10
1,8 10
прожива@@ 10
ания 10
представляют 10
овощи. 10
джи 10
похож 10
таро. 10
cookies 10
видами 10
Бадуй 10
dodge@@ 10
седан 10
Нептун-@@ 10
пери@@ 10
"Росток" 10
мм, 10
среднеатлантический 10
abarth, 10
"p 10
крушени@@ 10
18,52. 10
запущены 10
управляемом 10
space, 10
Гетеборге, 10
Ататюрка, 10
мрамора. 10
Фредери@@ 10
ходе 10
Стеллендаме, 10
Якуб, 10
Сараваке, 10
Сараваке 10
родившегося 10
Обасанджо, 10
зан@@ 10
монархом, 10
Лья@@ 10
война, 10
1) 10
бое@@ 10
заливе 10
Пауэлл 10
Фа@@ 10
возглавлял 10
родился, 10
Доусона, 10
Исаака 10
Дэниел 10
губернатора 10
кин@@ 10
whig@@ 10
Вермонта 10
ма", 10
burlington 10
игравший 10
ania 10
atalanta 10
тысяч 10
Родригес, 10
прикреп@@ 10
.С. 10
вид@@ 10
явля@@ 10
cent@@ 10
болельщи@@ 10
em, 10
agrimiacao 10
Сент-Мэри 10
karnat@@ 10
Альба. 10
продолжением 10
Напис@@ 10
предваря@@ 10
76798317. 10
Кни@@ 10
Марса, 10
произнесенном 10
mars, 10
hum@@ 10
3202@@ 10
pol., 10
on) 10
опублико@@ 10
llcn 10
опубликован@@ 10
я; 10
Алькобендас 10
barajas 10
Най@@ 10
bundelkard. 10
ag 10
awadh 10
Гренаду 10
Ангола. 10
лес 10
metal, 10
сен, 10
дерива@@ 10
sammy 10
дискотеку. 10
рованный 10
Джвайданом 10
спла@@ 10
-Ридж 10
талисман 10
fighter 10
"Пеньарол", 10
u.s. 10
менеджера. 10
Титова 10
дебютной 10
дебютировавший 10
Артур@@ 10
Петраков. 10
см, 10
ту, 10
группу, 10
фигу@@ 10
отеля 10
Нынешние 10
значи@@ 10
в) 10
16244700,0 10
скорост@@ 10
Бэйд", 10
Изначально 10
pres@@ 10
перипета 10
richland, 10
k", 10
Стеубен 10
Фул@@ 10
городом, 10
ри. 10
Шиллинг. 10
звездный 10
и), 10
помидо@@ 10
Лацио, 10
pu@@ 10
chin@@ 10
анд@@ 10
Десерт 10
варень@@ 10
фруктовые 10
Вариации 10
говяжьего 10
Мексика. 10
творог. 10
ниче@@ 10
3-ступенчатая 10
arn@@ 10
"aida 10
крещен 10
Крокере, 10
1418 10
только 10
Штаты@@ 10
Локомотив", 10
живут. 10
рами, 10
atk, 10
"ela-3@@ 10
учрежден 10
имущество, 10
Фредерик 10
мемори@@ 10
мрамора, 10
мемориала 10
Измире. 10
Турци@@ 10
хом 10
им 10
гвардей@@ 10
преемником. 10
Имст, 10
Демократ 10
Австрия, 10
awh, 10
муниципалит@@ 10
Белга@@ 10
Технического 10
Бухарест 10
Румыния 10
запад. 10
Хайнлей@@ 10
Стэнфор@@ 10
Великобритании) 10
Эти 10
0965-2140 10
admin@@ 10
гвардии 10
Ну@@ 10
Другие 10
НЖД, 10
Берлускони 10
городским 10
посткодо@@ 10
курс 10
line 10
итоге 10
"Асайай@@ 10
Сты@@ 10
Каролина, 10
Столицей 10
Созданная 10
Иоханни@@ 10
тек@@ 10
эпизод 10
28l 9
областном 9
билен@@ 9
abilen@@ 9
17r 9
i.@@ 9
alcobendas 9
"enaire@@ 9
х) 9
Пинхаисе. 9
«Афонсу 9
Пена» 9
СМА 9
Родное 9
«Агра» 9
taqaddum 9
базирования 9
18. 9
3990,0. 9
992,@@ 9
Р 9
(Испания). 9
асфальтовую 9
поверхность. 9
497,0. 9
"Альпена@@ 9
michig@@ 9
"Алпена", 9
"Схипхол" 9
"schiphol" 9
group. 9
baan 9
чет@@ 9
адре@@ 9
run@@ 9
ы» 9
министратив@@ 9
туристическое 9
направление 9
региону. 9
Кимберли, 9
гам@@ 9
торы 9
"Аппле@@ 9
2-я 9
zeal@@ 9
("Новая 9
Зеландия") 9
аэропорт" 9
"Туркменистан". 9
900,0. 9
интернэшнл" 9
12r 9
harbor 9
1873@@ 9
Сити". 9
лингто@@ 9
вов. 9
стве, 9
правительства 9
правительство 9
греки. 9
t.s. 9
book 9
НФРАЕРО@@ 9
Бразилиа. 9
языки 9
Луанда 9
ation. 9
ордена 9
Шей@@ 9
провинциаль@@ 9
"Сан-@@ 9
"Туркменбаши". 9
usaf. 9
кции 9
Панаму 9
ze. 9
рок-музыкан@@ 9
Музы@@ 9
Индианаполиса. 9
"Греймаш@@ 9
фер@@ 9
экспона@@ 9
металла@@ 9
Происхождение 9
44". 9
wilder. 9
имен@@ 9
неработающего 9
Эртегу@@ 9
Эрегу@@ 9
Андерсон" 9
ствует 9
Белгра@@ 9
заниматься 9
"Алек@@ 9
электрон@@ 9
ust@@ 9
ta@@ 9
"Ор@@ 9
о". 9
bajik. 9
flibbertigibbet. 9
plastik 9
owl 9
фо@@ 9
сыгра@@ 9
Форту@@ 9
названия, 9
такие 9
Иусо. 9
Кир@@ 9
ланом. 9
Пуйя. 9
dance-@@ 9
судь@@ 9
нос@@ 9
fiction. 9
кой, 9
"Инди@@ 9
(Великобритания) 9
участ@@ 9
"Транс-музыка" 9
Уругва@@ 9
летной 9
р". 9
летчиком-испыта@@ 9
ут@@ 9
астронавтов. 9
"Аполлона-1@@ 9
ты. 9
оборо@@ 9
ны". 9
Резервным 9
мат@@ 9
Гонконг@@ 9
Алдри@@ 9
Глен 9
Сена@@ 9
товая 9
представи@@ 9
соревнова@@ 9
gregory 9
fenves 9
назнач@@ 9
альмы 9
М.С., 9
посол 9
Норвегии. 9
Титул 9
"Милан" 9
"Мин@@ 9
Вольфсбург". 9
Эрнандеса 9
Эрнандес" 9
"Пенарол". 9
Центральная 9
"Абнер" 9
om 9
Принца 9
проекта 9
"Аль-Наф@@ 9
Будапеш@@ 9
Кароли@@ 9
dent. 9
львы@@ 9
вы. 9
dolphins. 9
"Звезда". 9
32 9
Моск@@ 9
Владикавказ". 9
сантимет@@ 9
"Зестафони@@ 9
"Сампдория". 9
защит@@ 9
План@@ 9
5-0@@ 9
ональ@@ 9
ши 9
кови@@ 9
трен@@ 9
Бланк. 9
salassan 9
canada. 9
ó@@ 9
woo@@ 9
Фергюсон 9
Дэвис@@ 9
Леван 9
gal@@ 9
Арена" 9
Бундеслиги. 9
Гамильтоне, 9
Макнаиру. 9
Флори@@ 9
побе@@ 9
чемпиона@@ 9
wer@@ 9
Аль-Ордон" 9
большего 9
Спа@@ 9
Вфл 9
ру. 9
откры@@ 9
terr@@ 9
Сто@@ 9
limit@@ 9
площади, 9
fencentury 9
проспе@@ 9
chilton 9
Ком@@ 9
ктор@@ 9
Уолл-Ку@@ 9
3xn 9
Копенгаг@@ 9
Раз@@ 9
Арендатором 9
hotel. 9
ственным 9
mc@@ 9
само@@ 9
управления. 9
действующим 9
Сент-@@ 9
Бенедик@@ 9
то-@@ 9
archit@@ 9
зея 9
2007 9
Виргинии. 9
Уильямсбурге, 9
ко-@@ 9
она. 9
сай@@ 9
Изабель 9
тон 9
тон" 9
рее@@ 9
crafts@@ 9
Манхэттен@@ 9
Манхэттене. 9
bloomsbur@@ 9
Митче@@ 9
ма". 9
к) 9
Бирминге@@ 9
Амхарский 9
desalegn 9
"Гуджарата" 9
Акихи@@ 9
ун 9
э. 9
Синдзо 9
wer. 9
hes@@ 9
Бруклин 9
Зума. 9
muchacho@@ 9
69862200,0. 9
vin@@ 9
мини@@ 9
льную 9
lincoln 9
earth 9
(келвинов@@ 9
265 9
ель@@ 9
162164091.8388 9
"1923 9
173,0 9
измер@@ 9
Баада. 9
"Уолтер 9
371240000,0 9
Зе@@ 9
wb@@ 9
279142000000@@ 9
3492060000@@ 9
«гигиена» 9
соверш@@ 9
ета 9
183309@@ 9
Черныш 9
ма-матер" 9
Баа@@ 9
Баэйд 9
oldendor@@ 9
Гёттинг@@ 9
,2 9
воды. 9
километр). 9
sq 9
Встречи 9
"Алаб@@ 9
Альбани 9
Грузи@@ 9
отметке 9
oreg@@ 9
(Нью-Мексико@@ 9
Альбукерки. 9
Александрия 9
404 9
74@@ 9
"Анахайма", 9
Тейлор. 9
менеджер@@ 9
c" 9
почтовые 9
Арлингтон, 9
Муниципа@@ 9
washington. 9
Остина, 9
Сити@@ 9
мэром. 9
Китайский 9
китайском 9
Вьетнамцы 9
"Фонтан", 9
усадьба 9
Арабский 9
Мичигане, 9
сенате 9
any@@ 9
airman 9
airman, 9
комикс-@@ 9
'ahn. 9
вел 9
комикса 9
Диком 9
роном 9
tony 9
balder 9
Бал@@ 9
супер@@ 9
геро@@ 9
Мэн@@ 9
ering 9
gh@@ 9
Адсит. 9
сня@@ 9
Туды@@ 9
Джейми 9
Рудольф. 9
Рочдей@@ 9
roger 9
Томом 9
Болатин@@ 9
писа@@ 9
Коэ@@ 9
жных 9
"Арро@@ 9
чеснок. 9
ду. 9
кэ. 9
разнообрази@@ 9
Аматриче. 9
arrabbiata. 9
arrtes 9
цефалоголовые 9
стручковые 9
поставляется 9
асам 9
Малай@@ 9
Малайском 9
Суматры. 9
"выжимали" 9
служившая 9
бутерброда 9
Кетчуп 9
бекон-бутерброд. 9
Аляска@@ 9
Аля@@ 9
meringue, 9
рождественской 9
pudding. 9
наземный 9
tart" 9
чные 9
"Лимон" 9
земля@@ 9
Бандежаа 9
углеводов. 9
горячи@@ 9
ап@@ 9
Ла-Пасе, 9
teow. 9
стер 9
ay, 9
"Бионико@@ 9
Олланд. 9
Лам 9
"Карната@@ 9
Важухай 9
Вала. 9
нов 9
пин@@ 9
Наджиб 9
Раза@@ 9
ать 9
ано" 9
"Моро" 9
"Замбоанганы" 9
цветущим 9
роду 9
puig. 9
puig 9
седан. 9
custom" 9
средств. 9
автоматическую 9
"Роза 9
круизный 9
16v 9
СПИДа 9
ЖАлу@@ 9
первую 9
32.2. 9
32,@@ 9
на» 9
crociere. 9
1418. 9
запуск. 9
ью. 9
industri@@ 9
Виктория. 9
полноприводным 9
ague 9
дизайнер 9
veinti@@ 9
Аргентина 9
запасные 9
tlx" 9
"marysville". 9
транспортного 9
Сборная 9
Двигатель 9
5-ступенчатую 9
рован@@ 9
systems. 9
xm@@ 9
компанию 9
все-синкромешка, 9
ми". 9
спиральный 9
chrysler. 9
horse 9
сле@@ 9
субмар@@ 9
диаметре. 9
«Антарес» 9
дена 9
Южно@@ 9
Буэнос-Айрес. 9
Буэнос-Айрес 9
Аргентине. 9
arinanesp@@ 9
buckinghamshire, 9
florida 9
хэтчбе@@ 9
desoto 9
coronet. 9
Сото@@ 9
Кос@@ 9
vectra 9
Ангела 9
Гви@@ 9
deptford. 9
et" 9
пут@@ 9
th. 9
Рабо@@ 9
Жи@@ 9
Служба 9
Службой 9
юго-западе. 9
Турция. 9
вла@@ 9
Гунером. 9
Британские 9
Город, 9
ближайший 9
green@@ 9
ma@@ 9
призыв". 9
Малайзия. 9
Ра" 9
"Аб@@ 9
Кушике. 9
институ@@ 9
Нигерии. 9
Даггаш. 9
Дональд 9
ra@@ 9
гой 9
Холлоуэй. 9
ПФР. 9
Адена 9
"Народного 9
ралли". 9
греческом 9
проживал 9
Вестминстерской 9
"albert 9
ds@@ 9
ville, 9
daniel 9
fowle 9
Порт-Арту@@ 9
royce. 9
Венизелос 9
замести@@ 9
Венизелос. 9
"Анти@@ 9
Салем. 9
Церковь" 9
ктов 9
ис. 9
АРИБ. 9
губернатором. 9
Макиса 9
отдел@@ 9
mb-339 9
Поль@@ 9
Троц@@ 9
цвета. 9
sy@@ 9
приняла 9
Кай-Ше@@ 9
Юго-@@ 9
восточ@@ 9
cesana 9
ital@@ 9
jorge 9
metapá@@ 9
epst@@ 9
blackpool" 9
Северо-@@ 9
Филлид 9
flyde 9
warton, 9
Ливорно, 9
Ливор@@ 9
Пикчи. 9
fiorentina. 9
so@@ 9
Афины" 9
мский 9
toekomst. 9
asse 9
ЗА@@ 9
futbol 9
АЗАЛ 9
оказался 9
almak@@ 9
Дол@@ 9
estádio 9
sportiva" 9
fonse@@ 9
se" 9
Хорриган. 9
Антонио 9
ministry 9
Боер 9
poyet 9
обитают 9
"Локомотив 9
ha@@ 9
Спаллетти 9
a.s.d. 9
дер@@ 9
"Ювентус". 9
Стё@@ 9
admira 9
modling@@ 9
"Ав@@ 9
стри@@ 9
enn@@ 9
"Ирла@@ 9
магистра@@ 9
северо-@@ 9
mendrisio" 9
tic@@ 9
mendrisio. 9
посещ@@ 9
Бангало@@ 9
опыта". 9
спор@@ 9
гало@@ 9
Кемпе 9
ane 9
desteapta-@@ 9
Псал@@ 9
johann 9
Международная 9
федерация 9
тенниса 9
"978-1-4165-4253-7@@ 9
"galileo 9
:@@ 9
ДеМарсе, 9
хардкор. 9
1558-2868@@ 9
компьютерных 9
0269-9370. 9
9064084@@ 9
Реда@@ 9
е: 9
физики 9
51969173. 9
крепость 9
powys. 9
paperback. 9
nie 9
hardcover. 9
книге 9
978-0-15-204770-2. 9
3188753@@ 9
олшеб@@ 9
"АМАХЕ9@@ 9
matherica 9
1588-2632. 9
1732-2421. 9
polonica" 9
0001-8392. 9
samuel 9
curtis 9
management, 9
233 9
зам@@ 9
стический 9
рат@@ 9
1080-6377. 9
148015@@ 9
сокращенным 9
"american 9
ол@@ 9
виру@@ 9
into 9
примеча@@ 9
Чарльзом 9
"Секрет@@ 9
Лондо@@ 9
sands. 9
тели@@ 9
орхусского 9
"Орху@@ 9
(на 9
с) 9
"infraero", 9
infraero. 9
2215@@ 9
iii, 9
Фаллуджа. 9
«Аль-Такаддум» 9
Ливии 9
usaf, 9
заказом 9
составля@@ 9
n) 9
Амстердам 9
Анголе 9
правительством, 9
Зеландии, 9
l", 9
третий 9
Зеландия, 9
international" 9
legends, 9
Бертрамвай, 9
соли@@ 9
eaters, 9
прогре@@ 9
гитару. 9
происхожд@@ 9
запись 9
Асунсьон, 9
Асунсь@@ 9
невыполненный 9
кад@@ 9
ший 9
афи@@ 9
afrobe@@ 9
форму 9
ach@@ 9
Даниила 9
ings 9
flibbertigbet. 9
выполня@@ 9
ковым 9
сть, 9
benoit, 9
"bhangr@@ 9
эк@@ 9
стар@@ 9
Бурером 9
mark 9
"У@@ 9
мана 9
производи@@ 9
bertram 9
металл. 9
До 9
shepard, 9
получателем 9
выда@@ 9
еся 9
почет@@ 9
работу 9
уроженец 9
Нью-Гэмпшир, 9
МС 9
служивший 9
-го 9
"Аполлона-8@@ 9
wolfsburg, 9
"Коритиба" 9
ба", 9
вен 9
кэ@@ 9
Бывшие 9
командой, 9
Титан@@ 9
ясь 9
базирующ@@ 9
"Ш@@ 9
"Гамильтона 9
Южном 9
зе, 9
вым, 9
Томск" 9
однако 9
шей 9
вен@@ 9
Елизавету 9
"Самтредия", 9
"Открытие". 9
Бирмингема, 9
Австралия. 9
ев, 9
Адрес, 9
этажами 9
fencury 9
мы 9
avenue, 9
Браун. 9
связ@@ 9
814 9
ин, 9
пом 9
рия. 9
Шри-Ланке 9
Шри-Джаяварденепура 9
stern 9
йсон" 9
Амдава@@ 9
скончавшимся 9
grounds. 9
площадок 9
chinat@@ 9
em. 9
эти@@ 9
"marriott 9
эр, 9
oaa907 9
кана@@ 9
ети@@ 9
Прей@@ 9
По 9
stor@@ 9
2006.12.@@ 9
получивший 9
Альбукер@@ 9
Андерсон. 9
африкан@@ 9
657. 9
больш@@ 9
a; 9
Индиан@@ 9
wor@@ 9
th, 9
американцы". 9
Обь 9
тели, 9
x" 9
Симон@@ 9
Одди. 9
ролях 9
Адси@@ 9
парижский 9
states 9
завод 9
Аджоблан@@ 9
Андалу@@ 9
пекорино 9
вля@@ 9
solanales@@ 9
района@@ 9
Лацио 9
риса, 9
вом 9
индонезийский. 9
Рима, 9
ства, 9
пеньет". 9
penyet 9
емой 9
ют@@ 9
колбасу 9
добавл@@ 9
слави@@ 9
дву@@ 9
блюдом, 9
Запеченную 9
frangip@@ 9
bake@@ 9
содержащее 9
жда@@ 9
Филли@@ 9
овощей, 9
курицы, 9
ез@@ 9
проду@@ 9
Якоба. 9
инде@@ 9
мовая 9
Филиппин@@ 9
Блюдо, 9
таро 9
Двумя 9
картошку 9
ким 9
ля, 9
жат 9
"Батаго@@ 9
олет 9
230 9
newpor@@ 9
custom, 9
средства@@ 9
располож@@ 9
длинная 9
Папенбург. 9
airastella, 9
США; 9
ммс. 9
света 9
ледокол 9
164", 9
питается 9
martin@@ 9
мощ@@ 9
Коста-@@ 9
построили 9
Геттисбурге, 9
Ататюрку, 9
canonica, 9
мраморный 9
преемник 9
успеха 9
оккупа@@ 9
Техническом 9
Ахиг@@ 9
"Оладипо 9
Аки@@ 9
queens 9
Сиба@@ 9
супруга 9
ях 9
командиров. 9
сте. 9
Самарасом, 9
Неаве", 9
риаль@@ 9
получила 9
Рохас 9
роле@@ 9
Имст@@ 9
палату 9
годах, 9
красный 9
"Колн". 9
Стогер, 9
1908 9
Сальвадо@@ 9
греческий 9
(футболист), 9
Поскольку 9
держивает 9
(любители). 9
(любители), 9
це 9
ПФК", 9
премьер-лиге, 9
Бром, 9
apor@@ 9
ена". 9
"Филли@@ 9
Марраке@@ 9
ger, 9
române! 9
Орхусе 9
уру 9
печати, 9
flin@@ 9
афроамериканцев, 9
inf.@@ 9
Джонсоном, 9
76798317 9
57392246 9
пресс-службой 9
ack 9
xiaolong, 9
Барака 9
g, 9
anit@@ 9
59@@ 9
addiction, 9
quarting, 9
университетом, 9
университетов, 9
hardcover 9
Здесь 9
«Орхус 9
Барайа@@ 9
ard, 9
авиабаза 9
вторжения 9
Мадрида, 9
1533 9
1533,0. 9
Луанд@@ 9
языка. 9
популярный 9
Туркменистан. 9
стическим 9
essex 9
рок-музыкант. 9
"Греймашино@@ 9
лла 9
Стокгольме 9
производны@@ 9
Стамбуле, 9
glass 9
а-@@ 9
дискоте@@ 9
conference, 9
music" 9
wav@@ 9
лидера@@ 9
Милон@@ 9
стила 9
Исполни@@ 9
получают 9
христи@@ 9
группами, 9
Теперь 9
Летчик-испытатель 9
родивш@@ 9
Уордом 9
"Аполлона-11", 9
молодеж@@ 9
последней 9
Аль-Хор, 9
академическим 9
ФК, 9
"То@@ 9
Батуми 9
олимпи@@ 9
sla@@ 9
гимн, 9
цев, 9
Позднее 9
Рахимовым. 9
Котте, 9
тамиль@@ 9
джа 9
(расположен 9
провинция, 9
Ампара 9
Люди, 9
3997100000000@@ 9
апофе@@ 9
Обнаруженный 9
первооткрыватель 9
Мичиганский 9
дней, 9
неме@@ 9
Учился 9
наступила 9
135589@@ 9
000000@@ 9
штата. 9
324 9
Остина. 9
Болатинский, 9
масла. 9
Диас. 9
рупия, 9
иметь 9
съедается 9
Куала-Лумпу@@ 9
бекон-бутерброд 9
содержат@@ 9
Аляски 9
pudding) 9
Дербышир@@ 9
колумби@@ 9
Паиса, 9
tar@@ 9
javanes@@ 9
цами 9
pla@@ 9
"АИДАлуна", 9
длины. 9
Турине, 9
Бертоне 9
ев". 9
успе@@ 9
полно@@ 9
Михетти 9
дочернее 9
Оберхольман. 9
предоставляющих 9
ближайшим 9
Корниш 9
устоявшаяся 9
рок-форма@@ 9
лира 9
Мэн, 9
mba 9
Эразмус 9
сената, 9
Дема@@ 9
Каду@@ 9
монархи@@ 9
Квинс 9
Квинс, 9
лос, 9
террито@@ 9
закончил 9
Штирии. 9
флоте 9
канцлера. 9
neustadt 9
07@@ 9
graafschap. 9
Сент-Винсен@@ 9
управл@@ 9
Румыния, 9
ректором 9
Инженерно-@@ 9
штатом 9
Висвесварай@@ 9
центра" 9
студенческое 9
Мол@@ 9
siensis@@ 9
Печатная 9
heinlein, 9
истории 9
jones, 9
Англоязы@@ 9
60040714, 9
Иту@@ 9
льда". 9
лле 9
ды@@ 9
Пенджабе. 9
грибке 9
Свою 9
Испытатель 9
Михайлови@@ 9
почтовый 9
посткод 9
английским 9
772943@@ 9
Николаем 9
капитал, 9
amarillo, 9
Малайцы 9
нарез@@ 9
ение, 9
Оберхель@@ 9
хребте, 9
Расизаде, 9
Махмуд; 9
1965 9
предыдущим 9
Предыдущи@@ 9
Швейцари@@ 9
Ачарья, 9
теннис, 9
(abbrv. 9
ИКАО. 9
Молдавии 9
"Медаль", 9
Альдрин 9
1937 9
отне@@ 9
aktieselkab@@ 8
2777@@ 8
28r 8
2194@@ 8
88. 8
33 8
Пена. 8
location 8
"Агра". 8
base 8
ya. 8
аэродро@@ 8
990 8
"Алдерни". 8
2744 8
Эберхард 8
"Амстерда@@ 8
ser@@ 8
Эндрюс, 8
4-й 8
8,0. 8
20. 8
4000,0. 8
полос@@ 8
мин 8
"Ар@@ 8
Антверпенского 8
аэропорта. 8
600,0. 8
1-8@@ 8
597,0. 8
"Туркмени@@ 8
к-@@ 8
немецкий. 8
расположено 8
"Куритиба" 8
острова@@ 8
гренландском 8
грен@@ 8
Мадрид. 8
Харбор", 8
Харбор@@ 8
фламандского 8
юрисдик@@ 8
правитель@@ 8
Правительство 8
Фламанд@@ 8
winnebago 8
Менаша, 8
Менаша 8
располага@@ 8
известным 8
ter. 8
ter 8
дские 8
Масум. 8
ди. 8
madri@@ 8
щая 8
"Джин@@ 8
лик 8
хам@@ 8
Пенджаб, 8
Джер@@ 8
си. 8
pinh@@ 8
ais 8
"Теджан@@ 8
демона 8
военно-воздушных 8
Гренад@@ 8
Инвасии 8
Операция 8
участи@@ 8
"usaf@@ 8
bundelk@@ 8
wee 8
мент 8
фортепиано. 8
Деер 8
окружающую 8
music". 8
doom 8
нера. 8
электроакустическую 8
Барбо@@ 8
nu@@ 8
"НРБ@@ 8
"Аль-Андерсон", 8
rid@@ 8
жизнь 8
активной 8
dol. 8
Хорнцер@@ 8
havering. 8
Аку@@ 8
pal@@ 8
сольное 8
художе@@ 8
ственной 8
ak. 8
service. 8
'donn@@ 8
различные 8
лан, 8
рос 8
Кентук@@ 8
Осбор@@ 8
galacti@@ 8
"Галакти@@ 8
художницей 8
es". 8
друго@@ 8
Кампи@@ 8
жанр. 8
ников, 8
Джвай@@ 8
Шестайн, 8
подписавшийся 8
ation, 8
мент@@ 8
городная 8
инструмент, 8
ша" 8
Портленде, 8
партия" 8
большин@@ 8
считаться 8
бор 8
"Барса" 8
КА 8
сон, 8
pop-музыке. 8
"Соединенного 8
Вер@@ 8
составило 8
nwc 8
1998-@@ 8
13017,0 8
службой 8
организо@@ 8
Скоттом. 8
представителя 8
Ридж@@ 8
тил 8
легионером 8
заслуги". 8
ока@@ 8
сенато@@ 8
dianne 8
feinstein 8
золотой 8
медалью. 8
ото@@ 8
Эссекс 8
willi@@ 8
fighter. 8
тесто@@ 8
пило@@ 8
Стади@@ 8
Алкмаар" 8
1,905 8
Хан@@ 8
национальная 8
немецкой 8
"Абель 8
hernandez 8
юноше@@ 8
Кастили@@ 8
стро@@ 8
Эдуарда 8
Брюинз" 8
Маккей. 8
aish 8
Ахме@@ 8
igh@@ 8
Бывшей 8
england 8
patriot@@ 8
"Оранж@@ 8
Ст@@ 8
huski@@ 8
тив@@ 8
Эль@@ 8
зд@@ 8
ayr 8
Москва 8
"Анжи 8
Махачка@@ 8
"Динамо". 8
Прядников 8
"Спарта 8
lion-duch@@ 8
"ДАМП 8
Гори@@ 8
защитни@@ 8
ус. 8
"Маккаши" 8
бу, 8
в). 8
Фаль@@ 8
Блан@@ 8
Лига 8
ноко@@ 8
divisi@@ 8
генеральный 8
онов. 8
сыграет 8
Тукман@@ 8
Аборигены 8
Ниинисто. 8
Ланаркшир. 8
академическая 8
"Новый 8
Тексты" 8
Джексонви@@ 8
Фишер 8
ang@@ 8
ще 8
Аулас 8
bask@@ 8
peñar@@ 8
сли@@ 8
"Еди@@ 8
Нури 8
тренером 8
steve 8
А". 8
Хек@@ 8
строительства 8
млн 8
"Сент-Жорж@@ 8
нижний 8
предел 8
сбурге. 8
reselec@@ 8
44114. 8
лле@@ 8
build@@ 8
ex@@ 8
wall 8
copenson 8
coper@@ 8
hardw@@ 8
ick 8
бы. 8
строи@@ 8
Адисхам, 8
ака@@ 8
musu@@ 8
архитектор, 8
искус@@ 8
robert 8
2". 8
инаугурации 8
Кенда@@ 8
больнице 8
tt@@ 8
Ричардсон 8
ремесе@@ 8
8000270@@ 8
Манхэттен. 8
Вестмин@@ 8
"Бирмингема" 8
вет 8
либерал-@@ 8
cook 8
il 8
eire@@ 8
ann 8
провинциальный 8
пский 8
емые 8
амхарский 8
ура@@ 8
Мади@@ 8
Юлией 8
bet@@ 8
Ир@@ 8
Ирландский 8
абориген@@ 8
южноафриканцев. 8
тамильский 8
"Соединенных 8
Штатов" 8
4,56 8
Температура 8
29075 8
кубо@@ 8
Максимальная 8
39447000,0. 8
research 8
называлось 8
граду@@ 8
измерительное 8
сантиметр. 8
2004-0@@ 8
называлась 8
Масса 8
488160,0. 8
Беляв@@ 8
Уотсон. 8
ena 8
Баэйд", 8
ey 8
19,94 8
vic@@ 8
kms. 8
путешествует 8
ga. 8
kilomet@@ 8
hon@@ 8
ш. 8
3,9. 8
11473.@@ 8
ß@@ 8
286,5 8
429,9 8
km. 8
535 8
кодов 8
Н.@@ 8
"Мэдисон", 8
346,0 8
109@@ 8
ca 8
компенси@@ 8
Анахай@@ 8
"Энн 8
Мичигане. 8
политик, 8
Город@@ 8
выми 8
682, 8
817, 8
214, 8
404. 8
404, 8
сотрудник 8
Логан, 8
"Обь", 8
Вашингто@@ 8
би 8
Вас@@ 8
Демократическая 8
Капитоли@@ 8
Лансинг@@ 8
Санчес 8
"Оранжевый 8
округ", 8
"Вашингтон" 8
Форт-Уорд. 8
Сиэтл. 8
"Круглый 8
Капитан@@ 8
Капи@@ 8
тан 8
amazing-@@ 8
комиксов. 8
Пет@@ 8
Ян 8
Дуурсе@@ 8
Симонсоном. 8
рон, 8
rona 8
head. 8
продуктов 8
дио 8
Один@@ 8
"Балдер" 8
doug 8
moen@@ 8
Свет@@ 8
снялась 8
seagle. 8
Адсит 8
colan@@ 8
Маккен@@ 8
писателем 8
зи. 8
распростран@@ 8
pot@@ 8
"Черная 8
мотивам 8
cullins. 8
с). 8
рикан@@ 8
Буш@@ 8
Академии 8
Американ@@ 8
реа@@ 8
жа 8
Маккензи 8
кадеми@@ 8
Густав@@ 8
Тейло@@ 8
Чеснок 8
rosi@@ 8
guanciale 8
гвоздика, 8
сыр, 8
курсом. 8
включен 8
arrabbi@@ 8
чернила, 8
кубан@@ 8
"Асам 8
ПЕДАС 8
Малая. 8
mal@@ 8
cap@@ 8
Клуба 8
Бекон 8
бесит 8
ричневый 8
соус" 8
Конюшни 8
приправы. 8
изоб@@ 8
alaska. 8
Губчатый 8
тортом 8
пудро@@ 8
оруж@@ 8
Бакуэ@@ 8
короткометраж@@ 8
Назем@@ 8
ходи@@ 8
товое 8
por@@ 8
граммов 8
18,0 8
обслуживаться 8
креветки, 8
евый 8
"Сезар" 8
бхаджи. 8
похожая 8
жи 8
кет@@ 8
муки. 8
шени@@ 8
Бинигнев 8
Бинтовое 8
курса. 8
подаваемое 8
Сгущенное 8
бионико 8
"Гранола" 8
Гвадалахар@@ 8
Андалуси@@ 8
sandesh 8
Мексики. 8
ям 8
Ренци. 8
Куала-Лумпур. 8
Кеды. 8
Кеды 8
Арифин 8
Закария 8
"Игоро@@ 8
siomay. 8
shiit@@ 8
Сингапур. 8
Суматре 8
solanacea@@ 8
Варнемун@@ 8
"А-Роза" 8
Кресто@@ 8
поездку 8
эксплуатации. 8
-12@@ 8
строитель 8
дизель-электропередач@@ 8
производства 8
собра@@ 8
австралийский 8
Сборка 8
боро@@ 8
автомобиля. 8
мера. 8
"" 8
nael 8
minas 8
geraisand, 8
оста@@ 8
Абартом. 8
купе. 8
"Маршви@@ 8
inline-@@ 8
днюю 8
ледокол@@ 8
21,2. 8
164. 8
sed@@ 8
вать 8
прямолиней@@ 8
4hp18q@@ 8
ступенчатой 8
ant 8
нало@@ 8
производить 8
сил. 8
438@@ 8
,00 8
колодец 8
свет@@ 8
Фина@@ 8
Фу@@ 8
Маурисио 8
Куркуронне@@ 8
pagnell. 8
ъем 8
соответствующие 8
сайт 8
collection 8
Крокер@@ 8
Материнская 8
ас@@ 8
сделала 8
Йоахим 8
Гау@@ 8
Гвианский 8
космический 8
rolls-royce 8
бро@@ 8
plaza. 8
Ломпо@@ 8
«Имущество». 8
хреб@@ 8
ит 8
волонтер 8
1907-07-@@ 8
Службе 8
юго-@@ 8
запад@@ 8
(i@@ 8
законодательной 8
власт@@ 8
"Мемориала" 8
Гюнер. 8
Бютюнер 8
ade 8
кам@@ 8
Ближайший 8
Турец@@ 8
"холодную 8
roxbury. 8
сената. 8
tze 8
мести@@ 8
isan 8
saraw@@ 8
Абубакар@@ 8
-Амин 8
1921 8
Фармер. 8
Британи@@ 8
рии 8
ф. 8
Магда@@ 8
guards. 8
9312 8
голосо@@ 8
депутатом 8
Коц@@ 8
туо@@ 8
Суваль@@ 8
Япо@@ 8
Борнео 8
секретарь 8
вице-президентом 8
развити@@ 8
rad@@ 8
Кант. 8
Дое@@ 8
Подраздел@@ 8
fountain" 8
Дженнингса. 8
Эдмун@@ 8
Тейшер@@ 8
Адольфа 8
Шярфа. 8
политиком 8
Йо@@ 8
eed 8
scal@@ 8
-младший. 8
1793 8
теля. 8
лод@@ 8
ger@@ 8
fr@@ 8
произо@@ 8
Буэнос-Айресе 8
"Буэ@@ 8
inc@@ 8
заливе@@ 8
конфликта 8
войны". 8
волюционной 8
"whiskey 8
vermon@@ 8
Даниэль 8
Веб@@ 8
"Кёльн" 8
Бундес@@ 8
s.r.l. 8
Верона, 8
"Лумеззане" 8
"Лега 8
"Лумеззане". 8
salvad@@ 8
calero 8
10000 8
Председа@@ 8
они@@ 8
"a@@ 8
a.e. 8
jepson 8
kellamergh 8
de. 8
Про" 8
"Леге 8
вор@@ 8
pau@@ 8
вается 8
araprivines@@ 8
argimiação 8
"Сам@@ 8
Но@@ 8
Ками@@ 8
Чемпионы 8
лейборист@@ 8
"Аль-Шамаль@@ 8
логи@@ 8
клубо@@ 8
"Бост@@ 8
Хартель 8
07. 8
arnhem. 8
bro@@ 8
alianza 8
aguil@@ 8
ти" 8
catania. 8
potenza 8
ss@@ 8
vigor 8
"Торино". 8
гер 8
mög@@ 8
ania. 8
unione 8
triestina 8
2012 8
резе 8
собственный 8
vincent 8
Альба@@ 8
ректор 8
директор 8
Директор 8
Девиз 8
учащих@@ 8
whit@@ 8
предлагаемых 8
образовани@@ 8
сь 8
сосе@@ 8
северо-востоку. 8
roman@@ 8
te, 8
alm@@ 8
schnei@@ 8
ammann 8
хардкор@@ 8
affair" 8
резиденция 8
1046-8188. 8
70@@ 8
"aids 8
aid@@ 8
2158-32@@ 8
сен@@ 8
man, 8
Редактором 8
отредактирована 8
коэффици@@ 8
jones. 8
t" 8
book@@ 8
"Вей@@ 8
Вольфа 8
"А" 8
abh.math.semin.univ.@@ 8
248 8
polonica. 8
академически 8
Палеобиологии 8
"addiction" 8
"addiction@@ 8
0001-8392@@ 8
Издание 8
квартал" 8
quartier. 8
Корнельским 8
scrivener 8
0002-93@@ 8
Гарретт. 8
Гарретт 8
Глен@@ 8
ark 8
Л 8
наль@@ 8
Варша@@ 8
mccun@@ 8
publis@@ 8
Кэмерон. 8
son@@ 8
не" 8
aktieselsk@@ 8
1-ю 8
Паракуэльлос-де-Джара@@ 8
Мадрида-Барайаса 8
00, 8
Операционной 8
3990@@ 8
бои 8
«Аль-Асад», 8
Алдерни 8
3310@@ 8
Сар@@ 8
Сади@@ 8
); 8
aar@@ 8
правительство. 8
региону 8
11, 8
Афин, 8
мся 8
управляемая 8
типом 8
nation" 8
ст-@@ 8
гита@@ 8
клавиш@@ 8
музыкальном 8
жанра, 8
"Греймашина" 8
gloom" 8
экспонатом 8
metal@@ 8
pop, 8
Барбоса, 8
"Блюз" 8
wildweeds 8
Когда-то 8
рок", 8
new@@ 8
Джонс. 8
ча. 8
формой 8
стве. 8
candombe. 8
исследования" 8
бодро@@ 8
использованием 8
него. 8
получена 8
дискотека. 8
blues, 8
со, 8
orn@@ 8
группа@@ 8
twil@@ 8
ма-Матер 8
3-м) 8
ma 8
гражданство 8
начальник 8
4", 8
Гонконга, 8
Байден@@ 8
Альдрин-младший, 8
Буз 8
"Аполло-8", 8
Несмотря 8
летчик-испытатель 8
служи@@ 8
"Милан", 8
Кастиль@@ 8
ала@@ 8
Басим 8
esteghall 8
еран 8
команд@@ 8
Кубатов. 8
председательством 8
Ката@@ 8
Спорт", 8
f.@@ 8
"Флориду 8
"Кубан@@ 8
Краснодар@@ 8
футбольными 8
Планте, 8
halla@@ 8
Евролиге 8
Будапеште, 8
Боогаарда. 8
месте 8
нский 8
Олех 8
своя 8
Рамис. 8
Мадином. 8
родным 8
85@@ 8
3arena, 8
созданная 8
marriott@@ 8
pain 8
Манор, 8
Пэй@@ 8
revival, 8
virgin@@ 8
lalbhai 8
campus, 8
gujarat 8
больница 8
Викремесингхе. 8
"Ампа@@ 8
house, 8
Построенный 8
эпох 8
muchachos 8
пра@@ 8
31.12.200@@ 8
8788850000,0, 8
spacewatch, 8
температу@@ 8
перипети@@ 8
тем@@ 8
официально 8
Элен 8
2006-12-31. 8
доктор@@ 8
Сандаш. 8
Вальтером 8
7,9 8
Ченнаи, 8
гражданин, 8
"a894 8
vd@@ 8
95@@ 8
183309000,0, 8
Алабам@@ 8
Сенатом 8
«Амарльо», 8
прожи@@ 8
"оранж@@ 8
147@@ 8
многочислен@@ 8
Атти@@ 8
Уильямсон 8
самым 8
Оллан@@ 8
ph@@ 8
он", 8
би. 8
создатели 8
вести@@ 8
baymax, 8
(полное 8
tom 8
Коэн 8
воду 8
pecorino 8
амат@@ 8
solanales, 8
соуса. 8
arem, 8
сжатого 8
томаты. 8
arrus 8
Каталонии, 8
Аса@@ 8
Суматры 8
ines@@ 8
penyet, 8
"разби@@ 8
Сингапурской 8
сингапур@@ 8
други@@ 8
ни, 8
бекона-бутерброда, 8
коричневым 8
поступают 8
кетчу@@ 8
ну 8
можете 8
беби-@@ 8
Китае 8
жий 8
китайское 8
колумбийском 8
Колумбии, 8
"chorizo" 8
лимо@@ 8
рыб@@ 8
batagor 8
люби@@ 8
ума@@ 8
говядину. 8
едят. 8
саго 8
возглави@@ 8
включать 8
ане, 8
емым 8
дюймо@@ 8
изготови@@ 8
сопутствующим 8
судо@@ 8
luna", 8
судно 8
запуск 8
линии 8
произве@@ 8
"ледокол" 8
Арезе, 8
"Альхам@@ 8
уда 8
верхней 8
полноприводная 8
tran@@ 8
Гротоне, 8
дальность 8
"Южноуральским 8
бюро", 8
лит@@ 8
ствующими 8
Королевство, 8
brussel@@ 8
a1, 8
vectra. 8
немецком 8
v, 8
имущества 8
вкла@@ 8
историче@@ 8
бронзы, 8
бронзо@@ 8
открыта 8
Бакин@@ 8
турок 8
Сехитлери 8
Ани@@ 8
klink" 8
"Эразму@@ 8
пос@@ 8
японской 8
Акхигбе. 8
Акхигбе, 8
авший 8
военно-морском 8
Дия 8
Аль-А@@ 8
ял 8
(Испани@@ 8
сис 8
Граче@@ 8
вовле@@ 8
Кок 8
Белых. 8
daw@@ 8
ington 8
dav@@ 8
языках. 8
языка@@ 8
island, 8
Тейшер. 8
Буэнос-Айрес, 8
Теис@@ 8
я-@@ 8
Скалеса, 8
"сироте 8
Филлипса, 8
Филлип 8
shivers, 8
Прай@@ 8
"Прай@@ 8
лана 8
hi@@ 8
Клых. 8
государственным 8
Австрия 8
Садик 8
ху@@ 8
Эми@@ 8
lin 8
delfino 8
pescara 8
chievoverona" 8
.С@@ 8
8" 8
ленный 8
Эфксеноуполи@@ 8
Воперез. 8
Воверсис. 8
Павлопу@@ 8
"Ме@@ 8
Чаллинор, 8
c., 8
poyet, 8
ajax, 8
хе 8
нападения 8
school, 8
чемпионом. 8
deporateapté-te, 8
численностью 8
"Ачарья" 8
чь 8
ква@@ 8
покрови@@ 8
северо-восто@@ 8
flint) 8
(которая 8
mil@@ 8
0-670-03380-@@ 8
dancer@@ 8
Северед 8
ный" 8
коренными 8
duane, 8
0-439-17685-@@ 8
ica, 8
hun@@ 8
pol) 8
q, 8
управлени@@ 8
будучи 8
con@@ 8
78771100. 8
internationari@@ 8
Хопкинса, 8
wolf 8
sol@@ 8
Луфтхавн» 8
32r. 8
mad@@ 8
Парана 8
"Инфрае@@ 8
"Уттар-Прадеш", 8
ветер@@ 8
ника 8
ходит 8
Афинским 8
вляет 8
языки. 8
Шари@@ 8
post-metal, 8
ком" 8
насильником 8
disco, 8
п-@@ 8
Парагвая, 8
Асунсьон 8
Эртегуна, 8
1947 8
wildwee@@ 8
сама 8
соратником 8
Поп-музыкант 8
Корнелией 8
эстра@@ 8
Дол 8
Жан@@ 8
сон" 8
Барабан 8
производное. 8
Сансоне. 8
человеком, 8
Андреем 8
moyine. 8
ray@@ 8
el, 8
влияние 8
a), 8
Васке@@ 8
Уругвая, 8
магистра 8
выпускник 8
покой@@ 8
"Аполло-14", 8
Фрэн@@ 8
став@@ 8
мисси@@ 8
Пилот 8
(аффилирован 8
12". 8
8", 8
летчиком-истреби@@ 8
Колумбус, 8
Централь@@ 8
"Сент-Лу@@ 8
К. 8
То@@ 8
178 8
футбольная 8
Итальянец 8
где, 8
чернокожие 8
раст@@ 8
"Хьюсто@@ 8
(с 8
Террас@@ 8
Куяхога 8
Име@@ 8
aigh 8
лор@@ 8
рист 8
Милле@@ 8
business. 8
страну, 8
Азиломар@@ 8
тельное 8
"Бруклин@@ 8
демокра@@ 8
Тес@@ 8
П. 8
3997100000000,0 8
878885@@ 8
империи 8
Арп 8
империи, 8
Канад@@ 8
Ноттингеме, 8
894 8
135589000,0, 8
183309000,0 8
142603000,0, 8
городов 8
Орегоне 8
многими 8
зональный 8
сена@@ 8
возглавляемая 8
лке 8
района, 8
county), 8
Трентон. 8
"Трен@@ 8
государства, 8
альтернативы 8
Кей@@ 8
Сеагле. 8
альтернативным 8
"Пари@@ 8
ем". 8
масла 8
Роси@@ 8
цефало@@ 8
бутерброда, 8
афроамериканцы, 8
Аляску 8
назем@@ 8
Дербыш@@ 8
Далес. 8
Кло@@ 8
ненавидит 8
вариациями 8
(лидер 8
дово@@ 8
Гвадалахары 8
co, 8
гранолы 8
народ" 8
филиппинец. 8
дизель-электриче@@ 8
звезда 8
banner". 8
тельные 8
Спроектированный 8
ье 8
acura. 8
18,52, 8
удалила 8
Кэрро@@ 8
юго-запа@@ 8
гранитный 8
алдор@@ 8
бронзы 8
проживающий 8
тал 8
замужем 8
командиром, 8
развития, 8
Рютте, 8
Чарлстоне, 8
(дом 8
Санти@@ 8
г-н 8
"Реар 8
1939-01-03 8
1909. 8
ется" 8
halton 8
"и 8
школа, 8
законодательным 8
Карнатаке, 8
alba 8
Бухаре@@ 8
института, 8
Куттиккаттоор, 8
Расмуссен, 8
короткие 8
ственно 8
(журнал@@ 8
дском 8
докторским 8
афроамериканка 8
Веймут 8
авианосцах. 8
Висконсине 8
Апплетон. 8
chute 8
3-ю 8
Стивеном 8
гаражного 8
придает 8
d.@@ 8
бхангра@@ 8
187@@ 8
источ@@ 8
bs 8
Скотта. 8
карьеры 8
Долль 8
Оси@@ 8
Батуми, 8
Хомери@@ 8
правит 8
ящий 8
мероприятия 8
"b 8
первоначальный 8
выпуск@@ 8
ingt@@ 8
некоторых 8
говорящего 8
avoc@@ 8
по-француз@@ 8
фрукто@@ 8
Гвадалахары, 8
рт. 8
удалена 8
Норберт 8
Ламмер@@ 8
Гвиана, 8
западе, 8
погибших 8
aniti@@ 8
"Ататюрк", 8
программе 8
alum 8
северо-западе 8
рек 8
"Бобовы@@ 8
166 8
классифицирована 8
Мэриленде 8
Аделаиды 8
Бот@@ 8
Редди 8
attoor, 8
прочные 8
"В 8
Орхус. 7
kab@@ 7
57@@ 7
Мадрид-Барайас@@ 7
Айпор@@ 7
jarama 7
с», 7
Пинхаис. 7
Сан-Хосе-дос-Пинхаис@@ 7
ВВС@@ 7
стан@@ 7
Хаббани@@ 7
руб@@ 7
рублей. 7
Лидер@@ 7
Икбал@@ 7
up 7
организа@@ 7
oo@@ 7
am 7
Анголы. 7
Иколо-э-Бенго. 7
000@@ 7
окруж@@ 7
Ад@@ 7
Организация 7
твер@@ 7
протяженность 7
лень@@ 7
itt@@ 7
полосе 7
мор 7
АС@@ 7
Ашхабада. 7
Ашхабад 7
n.j. 7
Мишель. 7
ландский 7
Маргре@@ 7
ками. 7
clayton 7
онный 7
индийских 7
Транспортный 7
дина@@ 7
Мичуринск 7
Хуссей@@ 7
«Джин@@ 7
штаб-кварти@@ 7
Поака@@ 7
порто@@ 7
мад 7
Пакистан 7
движения 7
тс. 7
dos 7
ном" 7
Тирструп 7
«Туркменистан» 7
falcon. 7
сил 7
захва@@ 7
hercul@@ 7
awad@@ 7
Бертрамвай" 7
giant. 7
психоделия. 7
бас-гитаре. 7
sumac. 7
Тернера 7
лот@@ 7
тесно 7
металл@@ 7
Стокголь@@ 7
занятие 7
за" 7
пении. 7
персонала. 7
windsor, 7
мост@@ 7
Шотланди@@ 7
тернатив@@ 7
Музыкальная 7
Сербии. 7
Социали@@ 7
Серби@@ 7
folk 7
Киро 7
произошло 7
записной 7
фе@@ 7
head 7
стик 7
psychedelic 7
психоделический 7
бодро. 7
стин@@ 7
записыва@@ 7
альтернативные 7
Фо@@ 7
поднят 7
Аллена 7
Терезой 7
Андерс@@ 7
"Оке@@ 7
а) 7
ассоции@@ 7
Турзи@@ 7
реалити-судь@@ 7
бобслеист@@ 7
художником, 7
trance. 7
пиани@@ 7
кой. 7
музыкой. 7
clarin@@ 7
лондонским 7
администра@@ 7
Мартине@@ 7
Этниче@@ 7
Польши 7
виолончель. 7
Робертсон 7
Люди 7
Уругвае 7
отличи@@ 7
дней 7
8-@@ 7
Нью-Гэмпши@@ 7
м-21-м. 7
мерт@@ 7
130@@ 7
Программа 7
Паттен 7
Пред@@ 7
Паттен@@ 7
Альдрин-младший. 7
Глен-Ридж-@@ 7
емое 7
Фейнштей@@ 7
сенатор 7
Коллин, 7
вне@@ 7
27. 7
королевства 7
кончи@@ 7
посла 7
крестил 7
roma" 7
905 7
weder 7
испански@@ 7
эспаньо@@ 7
Автором 7
Маккеля 7
55@@ 7
рии. 7
ба". 7
Адамс" 7
Род@@ 7
няя 7
составил 7
Теканс". 7
Текст@@ 7
Ямайки 7
wakrah 7
club" 7
Аль-Харатьят 7
Зах@@ 7
Мер@@ 7
Аль-Ор@@ 7
у" 7
футболиста 7
Барков, 7
Баркова-млад@@ 7
шего. 7
хокк@@ 7
Пермь". 7
Прудников" 7
Грузинской 7
è@@ 7
ere. 7
ПФК". 7
Лайоннаис". 7
Манитоба. 7
уса 7
dod 7
bc. 7
торы@@ 7
Тайус 7
Дан 7
bruin@@ 7
ol 7
manag@@ 7
Гаджие@@ 7
"Самтреди@@ 7
роси 7
тава 7
Рахимов 7
Тукманов. 7
Ниинисто 7
Гамильтон 7
Гамиль@@ 7
.К. 7
park 7
Текан@@ 7
лле, 7
сбо@@ 7
Сессии". 7
Колизей". 7
Тренер 7
большинство 7
división 7
Саскаче@@ 7
зы@@ 7
рус@@ 7
Владимир 7
Путин. 7
cky 7
лей@@ 7
серии 7
petrotin 7
Вольфсбург" 7
брутали@@ 7
Джай@@ 7
диагностическая 7
диагностической 7
tion 7
ed. 7
площади. 7
Рафаэ@@ 7
долла@@ 7
chil@@ 7
populous 7
программы 7
copen. 7
фирмы 7
sky, 7
copenal 7
Пуг@@ 7
ин. 7
Манор@@ 7
Нокка@@ 7
Коттингем 7
Манор. 7
Архите@@ 7
ше. 7
«Аддис-Абеба 7
Холл» 7
Аддис-Абебы 7
Хапутхале, 7
тский 7
монасты@@ 7
юдор 7
Ахмедабад 7
спроектировавший 7
Гилес 7
Ахмедаба@@ 7
83@@ 7
тон", 7
Справочный 7
исходный 7
кус@@ 7
Августом 7
рудовой 7
Кланси 7
демократ@@ 7
Джексон. 7
Гейтс 7
Дублин 7
fer@@ 7
эфио@@ 7
Бир@@ 7
Пател 7
филиппинцы. 7
то. 7
официальных 7
Кирилла 7
стерлинго@@ 7
стерлингов. 7
Фицсиммон@@ 7
нима@@ 7
sn5. 7
стерои@@ 7
414984@@ 7
00000,0. 7
абсолю@@ 7
секун@@ 7
ПК@@ 7
52395158@@ 7
3968 7
гиги@@ 7
clematis" 7
план@@ 7
sj@@ 7
«Лидия» 7
1147@@ 7
Бааде 7
импери@@ 7
Баэй@@ 7
Ольдендорфе. 7
535@@ 7
аквато@@ 7
berry 7
мэра 7
Амарльо 7
"Анахай@@ 7
Лафайет, 7
Анголе, 7
Мичиган@@ 7
Кристофер 7
Мичигане 7
ровали 7
guardian 7
ником. 7
Аттика 7
214@@ 7
н) 7
земельный 7
сон". 7
сон", 7
по-китайски. 7
Капитолия. 7
ингто@@ 7
Кинг, 7
Лансинг 7
"Мон@@ 7
Навахо@@ 7
лиде@@ 7
country, 7
rich@@ 7
крупным 7
Астерикс 7
зо 7
aurak@@ 7
Кесель 7
lambi@@ 7
характер@@ 7
lambien. 7
fairhead 7
Холл 7
Местоположение 7
радио 7
odin@@ 7
вин 7
Майклом 7
bananaman. 7
герой 7
первым 7
зи, 7
Биббо 7
дистрибью@@ 7
льш@@ 7
pirat@@ 7
Лайле. 7
kn@@ 7
ман. 7
Бушкемом. 7
поэтому 7
пуэр@@ 7
американское. 7
Абер@@ 7
Яна 7
Паркер@@ 7
области. 7
перец 7
рем-аре@@ 7
правило, 7
лист 7
мидор@@ 7
Цефалопод 7
черни@@ 7
cubanelle 7
анию 7
состоят 7
laur@@ 7
пенса" 7
ама 7
жженная" 7
разбитая" 7
баса 7
бекона-бутерброда. 7
конц@@ 7
сэндвич 7
ждествен@@ 7
запеченной 7
й). 7
регионы, 7
Париже, 7
сты@@ 7
хлебобулочной 7
запо@@ 7
tart@@ 7
чного 7
cru@@ 7
рен 7
оне, 7
are@@ 7
bell@@ 7
моркови. 7
пирож@@ 7
жира. 7
выполн@@ 7
горячим. 7
Илойло-@@ 7
вяжий 7
льмовый 7
сахар" 7
вырезка, 7
рам@@ 7
пакора 7
похож@@ 7
зной 7
рито@@ 7
тах. 7
Кокосовое 7
бинар@@ 7
сладкие 7
поттери@@ 7
бионико. 7
требует 7
аны, 7
дели@@ 7
Рубленые 7
chicharrón 7
Стандартный 7
говор@@ 7
Каси@@ 7
vala 7
апинда@@ 7
Куала-Лумпур 7
Малайзи@@ 7
китаянка 7
ья 7
используя 7
Моро 7
используемым 7
Сингапур@@ 7
дол@@ 7
Яко@@ 7
ба" 7
так" 7
valencian 7
m60@@ 7
«АИ@@ 7
ДАлу@@ 7
x-@@ 7
us. 7
Диаметр 7
неуда@@ 7
Модель 7
дана 7
Болонье. 7
собралась 7
Чириков. 7
Чириков@@ 7
света. 7
автомат 7
механи@@ 7
ero 7
tech@@ 7
способный 7
налого@@ 7
л.с. 7
company. 7
бесшумная 7
co 7
Чапин@@ 7
удался 7
-1 7
рейсом 7
чных 7
vantage 7
Букингемшир, 7
Великобритания. 7
системе 7
Стартовый 7
ducati 7
днепривод@@ 7
volkswagen 7
polo 7
дром 7
ключе@@ 7
Сипиля 7
Сипила. 7
holdings. 7
еди@@ 7
iv 7
среднеатлантическим 7
"Росто@@ 7
перевоз@@ 7
ibiza 7
Муниципалитет 7
gettyburg, 7
волон@@ 7
тер" 7
парка 7
zmi@@ 7
(Измир@@ 7
посвящ@@ 7
"Мемори@@ 7
альный 7
алдорману" 7
pan@@ 7
английская 7
Корниш. 7
Корнстенском 7
Устоявшаяся 7
боях, 7
"Геттисбург@@ 7
расму@@ 7
klink. 7
заместитель 7
дул 7
dul 7
Асайайя. 7
Кушинг, 7
обороны. 7
arm@@ 7
Рибикова 7
Рибикофф@@ 7
Рибкоф@@ 7
Демпси 7
Кембриджском 7
ам" 7
независимости. 7
независимо@@ 7
"Зве@@ 7
зда" 7
звездой 7
милитари@@ 7
Капо@@ 7
секретаря 7
греческого 7
тури@@ 7
kant 7
bou@@ 7
nij@@ 7
Германия 7
Дойсбур@@ 7
стической 7
Статен@@ 7
faller 7
Дженнинг@@ 7
Нью-Мекси@@ 7
albert 7
канской 7
Аргентина. 7
teisaire@@ 7
Чапель@@ 7
яни@@ 7
goull 7
Леах. 7
Мэдисо@@ 7
Леа@@ 7
пов 7
фред 7
Кугре@@ 7
Алвы 7
Сабин. 7
ah 7
sab@@ 7
цер@@ 7
нос-Айре@@ 7
Гонсале@@ 7
су. 7
Предше@@ 7
Еве 7
нигерийском 7
военно-мор@@ 7
emi 7
Олусегуна 7
Виргиния 7
Польше 7
Сталин. 7
сражалась 7
Вебстер 7
Хяр@@ 7
burg 7
сезоне-2014-15. 7
bentegodi@@ 7
pro 7
Сальвадор. 7
efxeinoupolis". 7
чемпионате 7
flyde, 7
Ланкасси@@ 7
Чаллинор 7
sportiv@@ 7
langu@@ 7
реди@@ 7
Шувалан@@ 7
kar 7
klubu@@ 7
league, 7
huiberts 7
Президен@@ 7
Эстадио 7
ick@@ 7
nam@@ 7
"Ак@@ 7
pdl 7
qarabag 7
fk". 7
Марсден. 7
Марсден 7
tranless 7
Арапираце. 7
Губби@@ 7
Зараго@@ 7
Зарагоза". 7
тель" 7
лех@@ 7
Родриге@@ 7
ФАС. 7
u.s 7
lamez@@ 7
wien". 7
Кальсио 7
siena. 7
toekom@@ 7
halton. 7
С" 7
Суперлиги 7
Супер@@ 7
Альба-Юлия 7
инженер@@ 7
около 7
Бангалоре. 7
института. 7
цвета 7
коль@@ 7
миро@@ 7
енни@@ 7
Всеинди@@ 7
kempe 7
gow@@ 7
Основа@@ 7
gang@@ 7
Карнатак@@ 7
премьер-министр. 7
Шнайдер 7
Амман@@ 7
Иоганн 7
коротких 7
john@@ 7
to 7
техни@@ 7
дисциплине, 7
ice. 7
Романс" 7
фикаци@@ 7
scrip@@ 7
ne 7
свои@@ 7
виде. 7
mars. 7
springer 7
medi@@ 7
battle" 7
4" 7
n" 7
1732-24@@ 7
ориентирована 7
Независимо@@ 7
Зависимость" 7
полнени@@ 7
наркомании. 7
well 7
quarting" 7
книга, 7
bon@@ 7
matherics 7
Хопкинса. 7
изданием 7
романом 7
Линкольн, 7
сотрудничает 7
Корнельского 7
ii". 7
keystone. 7
лом" 7
Дуб@@ 7
glendower 7
kluwer 7
Джорджа 7
macmillan 7
британским 7
Луфтхавн 7
"Абилен@@ 7
Мадрид-Барайас» 7
Найденный 7
Сан-@@ 7
входящую 7
развернули 7
бомбардиров@@ 7
Ливи@@ 7
Обслуживающий 7
поверхности 7
commelini@@ 7
poales. 7
свя@@ 7
schiphol, 7
аэропорт, 7
Амстердам. 7
Теджан@@ 7
Луанду, 7
отнош@@ 7
аэропорта, 7
ящийся 7
"Туркмен@@ 7
авиалини@@ 7
Греция. 7
эксплуатируемой 7
базиру@@ 7
thorit@@ 7
Плак@@ 7
тем 7
monocotyledon@@ 7
сквер@@ 7
панк@@ 7
ds". 7
панк", 7
ник, 7
ку". 7
бас-гитаре 7
уре 7
фортепи@@ 7
sum@@ 7
ческая 7
металл 7
ерт@@ 7
рический 7
Польша, 7
"Дру@@ 7
Стокгольме, 7
ение. 7
художни@@ 7
Приезжая 7
корни 7
Ковак, 7
возглавил 7
bet 7
servic@@ 7
ется. 7
forrest@@ 7
лага@@ 7
стом 7
бобслей@@ 7
дель@@ 7
гриб@@ 7
фугас@@ 7
punk", 7
мую 7
нан@@ 7
включал 7
меда@@ 7
(США@@ 7
фак@@ 7
"Аполлон-1@@ 7
рош@@ 7
драгоц@@ 7
женная 7
медаль" 7
Си, 7
цу@@ 7
укти@@ 7
тут@@ 7
Предыдущие 7
карьер@@ 7
columbus, 7
Касим. 7
Асад, 7
аль-@@ 7
Тобаго, 7
подбо@@ 7
angel@@ 7
зиру@@ 7
Дент 7
Абдул-@@ 7
ФК@@ 7
ФК", 7
рожденный 7
сборны@@ 7
Ромагно@@ 7
Суперлиге. 7
ванный 7
герском 7
Лужный. 7
Аула@@ 7
gem@@ 7
Бирмингеме 7
стои@@ 7
долларов 7
Хельмутом 7
Африки, 7
южноафриканц@@ 7
завершившаяся 7
post@@ 7
проспекто@@ 7
ДуПей@@ 7
Пи@@ 7
населен@@ 7
мосту 7
Леин@@ 7
лидера, 7
рии, 7
haputale 7
haputale, 7
Адиш@@ 7
адресу 7
dalpatbhai 7
cept, 7
ста, 7
253@@ 7
83 7
garden@@ 7
конференции, 7
Манхэттене 7
проживающих 7
нынеш@@ 7
в", 7
124950000@@ 7
апофеозом 7
перипетии 7
Елена, 7
1" 7
Баэйда, 7
ене, 7
докторантом 7
k.p.@@ 7
he4", 7
2005-11-@@ 7
лом, 7
377016@@ 7
находиться 7
Албанию, 7
территорию 7
Альбукерки, 7
ведущую 7
alpharett@@ 7
Амери@@ 7
Оранж@@ 7
йских 7
Форт-Уорт. 7
Фултон 7
dekalb 7
alban@@ 7
лу, 7
ste@@ 7
Астерикс, 7
францу@@ 7
Уолт 7
lambien, 7
e), 7
Джеком 7
Билла 7
ах 7
"Би-би-си@@ 7
ане. 7
roule@@ 7
Бендж@@ 7
ха 7
Инфантино 7
ine 7
knight@@ 7
кэ 7
ко" 7
скаче@@ 7
ства". 7
blanco 7
Аматрицианского 7
amatrician@@ 7
йцы, 7
лист, 7
индонезийский 7
e) 7
Арраббиа@@ 7
Испани@@ 7
Негре. 7
полуострове 7
местная 7
авокадо, 7
курицу. 7
би-@@ 7
eng@@ 7
бекона, 7
би-бутерб@@ 7
Вы 7
нашли 7
Мороженое 7
Аляска" 7
найденным 7
десерты. 7
паиса 7
бандежа 7
чное 7
ентом 7
чную 7
вед@@ 7
ингредиенты: 7
мени@@ 7
арахиса. 7
сла@@ 7
Курица 7
кунжутное 7
Хали@@ 7
Яакоб. 7
баджи@@ 7
хаджи, 7
разнообраз@@ 7
сладкого 7
радар@@ 7
творога. 7
Халиско. 7
отту@@ 7
фом 7
jusuf 7
Джав@@ 7
созданы 7
нем. 7
афроамериканц@@ 7
универсал 7
кузовом 7
твердо@@ 7
универсал, 7
сту@@ 7
транспорт@@ 7
видом 7
А-@@ 7
мм@@ 7
кораблем 7
ДА 7
banner" 7
systems, 7
моде@@ 7
Мехи@@ 7
сборо@@ 7
денная 7
24,@@ 7
мя 7
пря@@ 7
Турине 7
пучок@@ 7
прямой-четыре. 7
ском. 7
транспортным 7
ii», 7
ii». 7
Канавера@@ 7
расположен@@ 7
соответ@@ 7
центре. 7
ства", 7
Турецкого 7
мученика 7
türk 7
местном 7
ти 7
battlefield", 7
s' 7
апелляционной 7
Кушиче@@ 7
оккупации 7
Нигер, 7
ш", 7
caballero, 7
Альбе@@ 7
ia, 7
Испанец 7
Франк@@ 7
Пауэ@@ 7
Фаверхэм, 7
Польша). 7
Радбуд 7
sb@@ 7
don, 7
Королевском 7
Артилл@@ 7
д) 7
jefferson 7
тог@@ 7
Австрия. 7
imst 7
Австро-@@ 7
ро, 7
Горбахов, 7
Петербурга", 7
Петербурга, 7
Дариен 7
восстани@@ 7
Даниила. 7
США), 7
Сабин@@ 7
госсе@@ 7
ью, 7
Неаве. 7
dagget@@ 7
сила@@ 7
köln 7
wien@@ 7
"Магдебург@@ 7
ola 7
Драго, 7
вшей 7
Марколини, 7
marcolini, 7
талан@@ 7
Эфксеноуполи. 7
хани@@ 7
Блэкпу@@ 7
чи 7
fiorentina, 7
соревнуются 7
акос" 7
чемпионов. 7
разы@@ 7
стадио 7
se, 7
сент@@ 7
«Акрон», 7
рон. 7
Сент-Винсента-Сент-Мэри 7
Сент-Винсента-@@ 7
stö@@ 7
официаль@@ 7
Школе 7
соседнем 7
авторы 7
доступный 7
affair@@ 7
Хайнлейн. 7
изуча@@ 7
страной, 7
редакти@@ 7
опубликовал 7
way", 7
Прес@@ 7
факты 7
ориги@@ 7
группами. 7
Марса", 7
лом", 7
pol.) 7
journ@@ 7
sci@@ 7
math, 7
scripture@@ 7
faber. 7
jar@@ 7
fo 7
Пена", 7
нескольких 7
истребители 7
способ@@ 7
бом@@ 7
Панаму. 7
дальнюю 7
49@@ 7
commelinids 7
Андреевского 7
округа@@ 7
метров, 7
ellington, 7
597@@ 7
дского 7
обслуживаются 7
дский 7
политиче@@ 7
harrietstow@@ 7
band. 7
бас-@@ 7
инди-рок, 7
е). 7
испол@@ 7
Инди-@@ 7
гараж@@ 7
рым 7
металла, 7
создать 7
Хип-хоп-музыка 7
Афара, 7
dc@@ 7
помогли 7
тоже. 7
помог 7
рож@@ 7
с; 7
synthpo@@ 7
дера@@ 7
Джаз-@@ 7
Джазовая 7
хип-хопа. 7
производные 7
Бену@@ 7
"Анд@@ 7
Бур@@ 7
Райхель, 7
транс-музыка, 7
се" 7
burns, 7
fiction 7
ы) 7
!@@ 7
ись 7
летчика-испытателя, 7
Андерсом 7
сс 7
вшие 7
з". 7
лодро@@ 7
ers", 7
mes 7
kerman 7
Хор@@ 7
san@@ 7
спортивного 7
fir 7
Валерием 7
Петра@@ 7
мс@@ 7
Арена", 7
Владикавка@@ 7
Льво@@ 7
Лайоннаис" 7
Итальян@@ 7
"Сампдори@@ 7
дним 7
Вольфсбург, 7
зывает 7
Кириллом 7
стическую 7
Обще@@ 7
с), 7
í@@ 7
гостиницы 7
wickremesinghe, 7
Расположенная 7
разработанного 7
guf@@ 7
Махаджан. 7
Восточ@@ 7
Калифорнийская 7
morgan, 7
основе 7
craftsman 7
Пател@@ 7
возглавляются 7
периапсис, 7
Обнару@@ 7
00000,0 7
форма@@ 7
времен@@ 7
Мичигана. 7
присут@@ 7
Ноттинг@@ 7
цем 7
орг@@ 7
периаписа 7
416136@@ 7
вает. 7
Санчес. 7
Рандалл 7
органа. 7
ой, 7
администрато@@ 7
ства@@ 7
ё@@ 7
Стейн, 7
полный 7
пози@@ 7
Росавиации 7
джан@@ 7
местное 7
h, 7
курицу 7
Сингапур, 7
сэндви@@ 7
сыпчатый 7
короткометражной 7
фрук@@ 7
tart) 7
Маклар@@ 7
МакЛоулин. 7
печен@@ 7
Китае, 7
найденные 7
французы 7
двое 7
Сиома@@ 7
сиома@@ 7
shumai. 7
десертом. 7
Мексика, 7
ллокано 7
тическая 7
транспортировки 7
lun@@ 7
цилиндр 7
17068@@ 7
Среднеатлантического 7
Автомобиль 7
classic, 7
отношение 7
двигателя, 7
сих 7
Брат@@ 7
Коврове 7
ver 7
ством, 7
сделав 7
Оба 7
ручной 7
gust 7
предприятие. 7
имущества". 7
году@@ 7
1907-0@@ 7
Монумент 7
погиб@@ 7
Англии". 7
районе, 7
Давутоглу, 7
Зеленом, 7
Джайе, 7
Кушике, 7
Берсату. 7
нигерийской 7
zz@@ 7
гварди@@ 7
Кенте 7
принимал 7
neav@@ 7
Граце. 7
эмфор@@ 7
Дариене, 7
Гомер 7
Сабина, 7
Буре@@ 7
т) 7
Лейпциг@@ 7
leipzig@@ 7
germania 7
schoneich@@ 7
членами, 7
силь@@ 7
Вну@@ 7
blackburg 7
s.p.a., 7
Андерлех@@ 7
«Акрон». 7
комплимент 7
канцлер@@ 7
дний 7
технологии 7
iulia, 7
telangana 7
Аравийскому 7
морю 7
Арусе, 7
печа@@ 7
предшественник 7
кризис@@ 7
отредактирован 7
редактирует 7
Тинх@@ 7
страниц@@ 7
следующем 7
палеонтологии 7
#@@ 7
bundelkard 7
конт@@ 7
испанцы, 7
ellington 7
сиходели@@ 7
Электрический 7
гриба 7
хип-хопа 7
дискотеке. 7
блюде. 7
Корнелия 7
синто@@ 7
диско, 7
Бори@@ 7
реалити-ТВ. 7
спустя 7
Тосуном, 7
бобслеистом, 7
миссию 7
се) 7
ol, 7
Оросм@@ 7
de" 7
ков, 7
Обамой 7
обнаруженное 7
Сандаш 7
докторантов 7
километр@@ 7
Фултон. 7
opelik@@ 7
король 7
blan@@ 7
widodo 7
Явы. 7
sam@@ 7
Жера@@ 7
содержит: 7
леных 7
Висай@@ 7
мана. 7
ширина 7
Среднеразмерный 7
Роскош@@ 7
колесом 7
построивший 7
Семенари-Ридж, 7
имущество. 7
franklin 7
бронзе 7
посвященная 7
памятник, 7
Анкар@@ 7
лира, 7
Грац, 7
Джорджии, 7
Маэ 7
Шнай@@ 7
Шнайдер-Амман, 7
visvesvaraya, 7
Редди, 7
«Висвесварайя». 7
северо-востоке 7
режиссе@@ 7
филиалом 7
зыва@@ 7
тический 7
sbc@@ 7
ciro 7
Молдави@@ 7
диссертацией 7
Ковингто@@ 7
Сиэт@@ 7
герм@@ 7
5600@@ 7
фу@@ 6
43@@ 6
399@@ 6
«Ал@@ 6
кобенда@@ 6
обслужи@@ 6
schipho@@ 6
Эндрю@@ 6
ben@@ 6
Антвер@@ 6
ст" 6
вер 6
департа@@ 6
ментом 6
ami@@ 6
des@@ 6
Сити, 6
ктур@@ 6
нико@@ 6
Рейе@@ 6
боя@@ 6
лейбл 6
Ньюмар@@ 6
Манчестер@@ 6
пени@@ 6
Форт-Кэмпбе@@ 6
â@@ 6
худож@@ 6
инструмент@@ 6
руп@@ 6
млад@@ 6
figh@@ 6
Сла@@ 6
ФАС@@ 6
кий. 6
Эдуар@@ 6
jacket@@ 6
adam@@ 6
Нынеш@@ 6
"Аль-Ва@@ 6
Футбо@@ 6
Марти@@ 6
Чума@@ 6
on-duch@@ 6
баскетбо@@ 6
"Флори@@ 6
коны@@ 6
falcon@@ 6
"Бродву@@ 6
Хам@@ 6
ад 6
osi 6
ferenc@@ 6
Фин@@ 6
Язы@@ 6
ic 6
академиче@@ 6
phil@@ 6
ло. 6
Иа@@ 6
кинг 6
де-@@ 6
)@@ 6
бр@@ 6
Цент@@ 6
j.@@ 6
Аддис-Абеб@@ 6
рию 6
Мэри 6
Ашер@@ 6
87000823@@ 6
1980-04-@@ 6
ace, 6
Копенгаген@@ 6
кле@@ 6
"Гу@@ 6
япон@@ 6
Им@@ 6
Чинато@@ 6
проек@@ 6
wer 6
тес@@ 6
b" 6
Перво@@ 6
resear@@ 6
Беля@@ 6
gaussi@@ 6
44 6
ены" 6
claudiomacc@@ 6
ама" 6
"Альбукер@@ 6
75@@ 6
ющих 6
lafay@@ 6
Соединенны@@ 6
Сте@@ 6
лиди@@ 6
is. 6
Шу@@ 6
bay@@ 6
cast@@ 6
ого 6
пира@@ 6
сто 6
ема 6
ссе@@ 6
len 6
arem@@ 6
arrabbiat@@ 6
гото@@ 6
вке 6
мии 6
авока@@ 6
пло@@ 6
пена@@ 6
ье. 6
Бак@@ 6
Гонкон@@ 6
рукто@@ 6
ort@@ 6
пио@@ 6
Гру@@ 6
говядин@@ 6
род, 6
вание 6
ry. 6
приду@@ 6
ша 6
teow@@ 6
жд@@ 6
анан 6
tor@@ 6
гранол@@ 6
ло-@@ 6
Пен@@ 6
ть@@ 6
ту. 6
цвету@@ 6
ты" 6
roy@@ 6
dodge" 6
× 6
aidast@@ 6
ella. 6
лож@@ 6
преж@@ 6
agu@@ 6
-6. 6
Болон@@ 6
сей 6
докол@@ 6
wart@@ 6
яр@@ 6
смисси@@ 6
ступенчатую 6
140@@ 6
-младший 6
фина@@ 6
Аргентин@@ 6
кри@@ 6
onn@@ 6
еха@@ 6
ee@@ 6
конодательный 6
лиги@@ 6
cal@@ 6
баль@@ 6
емен@@ 6
здравоохран@@ 6
пел@@ 6
полу@@ 6
Петербур@@ 6
Скале@@ 6
хов@@ 6
Саби@@ 6
приня@@ 6
АРИ@@ 6
йскому 6
королев@@ 6
Крас@@ 6
ни. 6
Рузвель@@ 6
lumeszan@@ 6
Запа@@ 6
федера@@ 6
s.p.a.@@ 6
но. 6
s.p.@@ 6
зай@@ 6
зви@@ 6
stre@@ 6
Джор@@ 6
Молодеж@@ 6
orit@@ 6
pet@@ 6
stey@@ 6
Ше@@ 6
technologi@@ 6
аспиран@@ 6
ni@@ 6
Шнайдер-Амман@@ 6
Феде@@ 6
ральный 6
помо@@ 6
поста@@ 6
тельство 6
ven@@ 6
stan@@ 6
cre@@ 6
блиоте@@ 6
0-374-2613@@ 6
ds 6
186@@ 6
hamb@@ 6
fort@@ 6
"Аени@@ 6
1588-2632@@ 6
Зависимо@@ 6
aeni@@ 6
108@@ 6
тех@@ 6
gazette@@ 6
дов. 6
повли@@ 6
Эл@@ 6
long, 6
tis 6
област@@ 6
ssi@@ 6
Курити@@ 6
"Аль-Такадду@@ 6
лиц@@ 6
дес@@ 6
поверхност@@ 6
наход@@ 6
Международ@@ 6
Эгг-Хар@@ 6
urn@@ 6
жиз@@ 6
произ@@ 6
conferenc@@ 6
групп@@ 6
w, 6
суб@@ 6
Джаз@@ 6
flibbertig@@ 6
le, 6
Джазо@@ 6
all-@@ 6
Рок@@ 6
en. 6
ight, 6
дви@@ 6
действи@@ 6
готови@@ 6
sto@@ 6
Вольфсбург@@ 6
Шарлотте@@ 6
Колумбу@@ 6
"Аль-За@@ 6
ya 6
fc@@ 6
ек 6
вшаяся 6
КЦ@@ 6
Пантер@@ 6
Раши@@ 6
sampd@@ 6
li, 6
дор@@ 6
оккупи@@ 6
ством 6
reviv@@ 6
ец. 6
сде@@ 6
дин@@ 6
vk@@ 6
Уол@@ 6
тером 6
состояни@@ 6
обнаружен@@ 6
преде@@ 6
"Альбукерке@@ 6
Руковод@@ 6
Анго@@ 6
Стив@@ 6
лер@@ 6
-млад@@ 6
Лай@@ 6
щий 6
миндаль@@ 6
доба@@ 6
Аматриче@@ 6
рицианского 6
банано@@ 6
Негре@@ 6
Валенси@@ 6
бекон@@ 6
гда 6
ербы@@ 6
shumai@@ 6
чо@@ 6
сахар@@ 6
"Говяди@@ 6
bh@@ 6
aj@@ 6
па, 6
jav@@ 6
Баду@@ 6
наз@@ 6
coron@@ 6
"АИДАлу@@ 6
вала 6
зы. 6
отде@@ 6
spacepor@@ 6
are 6
акти@@ 6
t) 6
отправи@@ 6
мак@@ 6
ции, 6
принадлеж@@ 6
Понтез@@ 6
офис@@ 6
Исп@@ 6
анско-@@ 6
ма-матер@@ 6
парламен@@ 6
гражд@@ 6
Пала@@ 6
Неа@@ 6
bloom@@ 6
Австро-Венгри@@ 6
Вен@@ 6
сироте 6
Гэ@@ 6
фред@@ 6
губерна@@ 6
ющее 6
arnh@@ 6
Сент-Вин@@ 6
sis 6
тного 6
"awh@@ 6
сотруднико@@ 6
Румыни@@ 6
737@@ 6
demar@@ 6
ющийся 6
1-4165-2060@@ 6
heinle@@ 6
Гарвар@@ 6
докто@@ 6
тной 6
464517@@ 6
облож@@ 6
apgp@@ 6
сокращен@@ 6
quarti@@ 6
аффили@@ 6
библиотекар@@ 6
ался 6
shi@@ 6
evil@@ 6
wey@@ 6
gre@@ 6
емая 6
"infraero@@ 6
22@@ 6
1533@@ 6
ген@@ 6
Бельги@@ 6
439@@ 6
Вопере@@ 6
сей@@ 6
Лей@@ 6
ska 6
насиль@@ 6
рэ@@ 6
рани@@ 6
Зитарро@@ 6
flibbertigibb@@ 6
ell 6
"Ди@@ 6
cham@@ 6
п" 6
минут@@ 6
boogaar@@ 6
рол" 6
en, 6
club@@ 6
"Атланто@@ 6
егося 6
ру 6
вше@@ 6
коллек@@ 6
льяне@@ 6
спо@@ 6
ot@@ 6
Коли@@ 6
ветке@@ 6
Жор@@ 6
спроектиров@@ 6
Кенни@@ 6
дава@@ 6
кремесинг@@ 6
Брук@@ 6
Ноттинге@@ 6
Остин@@ 6
Ранда@@ 6
посе@@ 6
Плех@@ 6
"Детрой@@ 6
sing 6
вклю@@ 6
ry 6
наци@@ 6
рич@@ 6
форми@@ 6
пуляр@@ 6
Канза@@ 6
сливоч@@ 6
(свеже@@ 6
сельдер@@ 6
дицион@@ 6
siom@@ 6
Конехо@@ 6
Ило@@ 6
дли@@ 6
x-1@@ 6
ступен@@ 6
тоне, 6
638@@ 6
размер@@ 6
ana 6
klin@@ 6
Борне@@ 6
присоедини@@ 6
Мит@@ 6
Тиро@@ 6
Шти@@ 6
канцле@@ 6
Нью-@@ 6
cl@@ 6
oci@@ 6
ассоциаци@@ 6
9364597@@ 6
570592@@ 6
0-439-92550-@@ 6
to@@ 6
vie@@ 6
баз@@ 6
Румы@@ 6
э, 6
бакалав@@ 6
Куба@@ 6
милли@@ 6
Джейко@@ 6
Зу@@ 6
Ту@@ 6
лату 6
сидень@@ 6
Джорджтау@@ 6
Англий@@ 6
bb@@ 6
лив@@ 6
мала@@ 6
зы, 6
Висайа@@ 6
ace@@ 6
принадлежа@@ 6
marys@@ 6
marysvil@@ 6
shipy@@ 6
Куркурон@@ 6
собран@@ 6
несен@@ 6
ü@@ 6
Берса@@ 6
-Ам@@ 6
kil@@ 6
Й@@ 6
М.@@ 6
лотая 6
Скот@@ 6
дире@@ 6
560090@@ 6
плот@@ 5
КА@@ 5
хожд@@ 5
sl@@ 5
Мадрида-Барайа@@ 5
ерия 5
с» 5
sa@@ 5
ay 5
73@@ 5
кого 5
рак@@ 5
Хай@@ 5
townshi@@ 5
Поа@@ 5
лес. 5
кмени@@ 5
mich@@ 5
ain 5
ard@@ 5
polis@@ 5
экспо@@ 5
сен. 5
seri@@ 5
сотруднича@@ 5
Али@@ 5
рекорд-@@ 5
сменом 5
но-по@@ 5
Попо@@ 5
транс-@@ 5
hil@@ 5
"Монтевиде@@ 5
ниверса@@ 5
4". 5
луж@@ 5
состави@@ 5
начи@@ 5
Эссек@@ 5
фио@@ 5
тин@@ 5
рол". 5
al-j@@ 5
dent@@ 5
орпе@@ 5
т-@@ 5
"Макка@@ 5
ñ@@ 5
road@@ 5
гу 5
Макнаи@@ 5
Брю@@ 5
Перм@@ 5
agn@@ 5
Вольф@@ 5
"Диагона@@ 5
ton. 5
ange 5
Чарль@@ 5
-А@@ 5
revi@@ 5
isham 5
б-@@ 5
стре 5
сиро@@ 5
Гейт@@ 5
э 5
Морган@@ 5
значимы@@ 5
Ирланди@@ 5
ЮА@@ 5
оно@@ 5
тное 5
Ки@@ 5
3.@@ 5
figneri@@ 5
"Лиди@@ 5
Неме@@ 5
ana@@ 5
im@@ 5
"Индиана@@ 5
Штата@@ 5
Мичу@@ 5
arl@@ 5
ington, 5
Индиана@@ 5
Декал@@ 5
Санче@@ 5
Стивен@@ 5
stev@@ 5
x 5
стерик@@ 5
ллино@@ 5
веща@@ 5
Дэ@@ 5
ймо@@ 5
ун. 5
удосто@@ 5
Руле@@ 5
ческих 5
лли". 5
транс@@ 5
Рос@@ 5
пер 5
Оре@@ 5
up. 5
Запеч@@ 5
Аляс@@ 5
Хле@@ 5
вермичелли, 5
нар@@ 5
pais@@ 5
мон 5
бар@@ 5
хис@@ 5
сделан@@ 5
wee@@ 5
Пуигдемон@@ 5
"Сиома@@ 5
unit@@ 5
кузо@@ 5
"СПИД@@ 5
ид@@ 5
Ав@@ 5
ram@@ 5
matad@@ 5
мыш@@ 5
спу@@ 5
сь@@ 5
Чирико@@ 5
маши@@ 5
передач@@ 5
ориенти@@ 5
бесшум@@ 5
построи@@ 5
бю@@ 5
части@@ 5
получи@@ 5
laun@@ 5
vo@@ 5
мический 5
36 5
Прави@@ 5
Семен@@ 5
battlefield@@ 5
Баку@@ 5
gar@@ 5
stellend@@ 5
' 5
Абубака@@ 5
го-@@ 5
ori@@ 5
енне@@ 5
пру@@ 5
"Гра@@ 5
"Кре@@ 5
менно 5
ath@@ 5
коно@@ 5
груп@@ 5
ria 5
остров@@ 5
Каро@@ 5
Граждан@@ 5
batt@@ 5
конфли@@ 5
предше@@ 5
Трен@@ 5
Парти@@ 5
ang 5
regi@@ 5
allig@@ 5
уполи@@ 5
fly@@ 5
livorn@@ 5
calci@@ 5
Пик@@ 5
сезоне-2014-1@@ 5
mpi@@ 5
я» 5
Ала@@ 5
cat@@ 5
wick@@ 5
neustad@@ 5
vincent-@@ 5
"Спар@@ 5
Куттиккаттоор@@ 5
ino 5
науч@@ 5
технологи@@ 5
Федераль@@ 5
ДеМар@@ 5
31.@@ 5
xiao@@ 5
Ло@@ 5
ar, 5
rou@@ 5
978-0-15-204770-@@ 5
pur@@ 5
lcc@@ 5
olog@@ 5
комани@@ 5
0965-214@@ 5
чени@@ 5
arter 5
Брэн@@ 5
ligh@@ 5
keyston@@ 5
дле@@ 5
основа@@ 5
Дани@@ 5
идентифика@@ 5
Барайас@@ 5
3360.@@ 5
Пакистан@@ 5
Иколо-э-Бен@@ 5
взлетно-посадоч@@ 5
лич@@ 5
Зеланди@@ 5
кмен@@ 5
баши@@ 5
четыре@@ 5
торго@@ 5
ра» 5
Бертрамва@@ 5
психодели@@ 5
gloom@@ 5
музыка@@ 5
элект@@ 5
stock@@ 5
дин, 5
пришед@@ 5
jon@@ 5
acy 5
ывается 5
Иу@@ 5
музыкаль@@ 5
fun@@ 5
теля, 5
ангра@@ 5
uni@@ 5
простран@@ 5
Бени@@ 5
Боогаар@@ 5
Касти@@ 5
Шарлот@@ 5
Аль-@@ 5
ahr@@ 5
жит 5
mu@@ 5
Руссе@@ 5
футболи@@ 5
родил@@ 5
"Торпедо@@ 5
вском 5
Совет@@ 5
lyonnais@@ 5
Рома@@ 5
Даниэ@@ 5
вя@@ 5
Гроз@@ 5
Лайоннаис@@ 5
ппе 5
sv@@ 5
populou@@ 5
ja@@ 5
cep@@ 5
Маха@@ 5
сха@@ 5
69862@@ 5
астерои@@ 5
ней@@ 5
288749@@ 5
бес@@ 5
хар@@ 5
'ah@@ 5
aur@@ 5
эфи@@ 5
звезд@@ 5
харак@@ 5
си 5
cullin@@ 5
ИКА@@ 5
джоблан@@ 5
ger 5
рици@@ 5
терна@@ 5
ческое 5
мяс@@ 5
пон@@ 5
куриц@@ 5
эн@@ 5
диви@@ 5
тельно, 5
губча@@ 5
морожено@@ 5
Десер@@ 5
гвозди@@ 5
печ@@ 5
"На@@ 5
Ингреди@@ 5
choriz@@ 5
оны 5
углево@@ 5
пель@@ 5
блюдо@@ 5
bee@@ 5
"Бат@@ 5
вин@@ 5
овощ@@ 5
Сингапу@@ 5
хар 5
ялся 5
нигне@@ 5
cooki@@ 5
мекси@@ 5
помощ@@ 5
Юсу@@ 5
юмас@@ 5
амбо@@ 5
"Батчо@@ 5
соб@@ 5
aluna 5
25326@@ 5
Строи@@ 5
Викто@@ 5
v-2@@ 5
четы@@ 5
vil@@ 5
един@@ 5
63@@ 5
ers, 5
syn@@ 5
специ@@ 5
пластин@@ 5
Под@@ 5
готовл@@ 5
ловой 5
aidalun@@ 5
теля@@ 5
енными 5
возве@@ 5
брон@@ 5
ков@@ 5
кие 5
скон@@ 5
араб@@ 5
амятник 5
Христианско-демократиче@@ 5
бай@@ 5
sib@@ 5
Абра@@ 5
польско-@@ 5
участво@@ 5
гнес 5
говори@@ 5
part@@ 5
шед@@ 5
Сыка@@ 5
ation@@ 5
тическую 5
tel@@ 5
1925@@ 5
Эф@@ 5
Аф@@ 5
Соу@@ 5
arena, 5
зербайджанской 5
Азербайдж@@ 5
прем@@ 5
oh@@ 5
Дензи@@ 5
Каль@@ 5
köl@@ 5
"Ювенту@@ 5
bott@@ 5
выш@@ 5
sien@@ 5
хард@@ 5
1046-818@@ 5
1558-28@@ 5
68 5
ham 5
0-7156-3648@@ 5
romanc@@ 5
олк 5
paperb@@ 5
сво@@ 5
palae@@ 5
доступ@@ 5
fab@@ 5
alcobend@@ 5
уров@@ 5
«Аль-Такаддум@@ 5
лай@@ 5
вторж@@ 5
texan@@ 5
Антверпен@@ 5
эле@@ 5
направл@@ 5
glo@@ 5
зом 5
Поаце@@ 5
гитару 5
ую@@ 5
металличе@@ 5
помог@@ 5
Абрада@@ 5
тами 5
Ньюмаркет@@ 5
зация 5
подписав@@ 5
выхо@@ 5
со. 5
Поп-музы@@ 5
дебю@@ 5
предыдущи@@ 5
аб@@ 5
ot 5
резерв@@ 5
de, 5
Оли@@ 5
well, 5
-младши@@ 5
ск 5
Клан@@ 5
боригены 5
дь@@ 5
í 5
international@@ 5
son, 5
manu@@ 5
Ричар@@ 5
Джая@@ 5
денепура 5
кремесингх@@ 5
Виргини@@ 5
Колле@@ 5
Нарен@@ 5
досто@@ 5
д» 5
2006-12-3@@ 5
Преу@@ 5
aubur@@ 5
"Нью-Мексико@@ 5
вход@@ 5
группо@@ 5
уровне@@ 5
Располож@@ 5
мущество@@ 5
чно 5
каль@@ 5
белы@@ 5
таном 5
же. 5
минда@@ 5
деш@@ 5
Ауре@@ 5
ано. 5
выход@@ 5
енное 5
аяся 5
осна@@ 5
Мих@@ 5
Ванденбер@@ 5
пита@@ 5
oberhel@@ 5
сопостави@@ 5
Арту@@ 5
Гуне@@ 5
Эразму@@ 5
Стелленда@@ 5
призы@@ 5
цем, 5
f, 5
социали@@ 5
успел 5
Джорджи@@ 5
кретар@@ 5
ходил 5
Анто@@ 5
Алек@@ 5
fyl@@ 5
кос@@ 5
льянец 5
Солдеванаха@@ 5
klu@@ 5
445@@ 5
pala@@ 5
onil. 5
istry 5
арт 5
vers@@ 5
ent, 5
d., 5
л» 5
chute@@ 5
дорож@@ 5
Шест@@ 5
del@@ 5
олонче@@ 5
ние 5
институт@@ 5
liv@@ 5
председа@@ 5
Фише@@ 5
Фергю@@ 5
Валери@@ 5
Хал@@ 5
строитель@@ 5
сове@@ 5
Япони@@ 5
шри-ланки@@ 5
Франси@@ 5
Брази@@ 5
349206@@ 5
(столица@@ 5
Сеаг@@ 5
жем 5
ы: 5
она, 5
Соб@@ 5
"Дельта-@@ 5
"Ледокол@@ 5
Фар@@ 5
Чикаго@@ 5
Ста@@ 5
burl@@ 5
реч@@ 5
ствующие 5
Хорриган@@ 5
Иоган@@ 5
Прабхукумар@@ 5
ститут@@ 5
campu@@ 5
Бельга@@ 5
ум. 5
0567-7@@ 5
дел@@ 5
рае@@ 5
Молдо@@ 5
Джано-@@ 5
амятни@@ 5
онико@@ 5
опыта@@ 5
«Орхус@@ 4
618 4
ai 4
alder@@ 4
дерни@@ 4
Мичурин@@ 4
№ 4
"Схипхо@@ 4
vel@@ 4
Ардмор@@ 4
Кур@@ 4
аль-Аба@@ 4
Сообще@@ 4
Себастья@@ 4
"Ашхаба@@ 4
"Туркменбаши@@ 4
key@@ 4
Тернер@@ 4
Катови@@ 4
elect@@ 4
выходи@@ 4
ролльную 4
Фре@@ 4
-музыкан@@ 4
оте@@ 4
rat@@ 4
лка, 4
Фор@@ 4
Джо@@ 4
corpor@@ 4
Парагва@@ 4
рожен@@ 4
01. 4
7-0@@ 4
дон 4
дон" 4
Норвеги@@ 4
кмар@@ 4
Саскачеван@@ 4
94,80@@ 4
lou@@ 4
-Хор@@ 4
leagu@@ 4
дон@@ 4
Тампер@@ 4
Тель-Ави@@ 4
рэн@@ 4
жие 4
Площад@@ 4
dol@@ 4
Реги@@ 4
Вален@@ 4
key 4
velodrom@@ 4
wolfsbur@@ 4
Йохан@@ 4
Коттинг@@ 4
ответ@@ 4
дори@@ 4
l" 4
ww@@ 4
конферен@@ 4
ффа@@ 4
ando 4
ена" 4
открыватель 4
8788850000@@ 4
43 4
met@@ 4
worl@@ 4
температ@@ 4
nz195@@ 4
piazz@@ 4
.s. 4
164@@ 4
clematis@@ 4
Крей@@ 4
Уот@@ 4
мельный 4
марль@@ 4
amar@@ 4
ровать 4
поя@@ 4
лингтон 4
70. 4
ональный 4
сотрудни@@ 4
Деб@@ 4
Марко@@ 4
ро", 4
Нава@@ 4
Нью-Мексико@@ 4
Пир@@ 4
Форт-@@ 4
ир@@ 4
Кесе@@ 4
ща@@ 4
Шил@@ 4
tu@@ 4
dy@@ 4
ster@@ 4
нер. 4
ДА@@ 4
ств. 4
we@@ 4
Росави@@ 4
бутерб@@ 4
mering@@ 4
ue 4
cak@@ 4
товую 4
kw@@ 4
ниг@@ 4
Смет@@ 4
тик 4
шу@@ 4
subur@@ 4
осущест@@ 4
Луч@@ 4
Ос@@ 4
сил@@ 4
держи@@ 4
все-синкромеш@@ 4
раке@@ 4
ксо@@ 4
переда@@ 4
-3@@ 4
лин 4
Тури@@ 4
Транспор@@ 4
ply@@ 4
щен 4
Мемори@@ 4
-я 4
дит 4
land@@ 4
дик@@ 4
Буту@@ 4
Валю@@ 4
_ 4
Церков@@ 4
rap@@ 4
Лейден@@ 4
Асай@@ 4
Понтезона@@ 4
вра@@ 4
ribicof@@ 4
верх@@ 4
Холло@@ 4
тот 4
Шяр@@ 4
Шар@@ 4
сс-@@ 4
мира@@ 4
пе. 4
5-20@@ 4
Роха@@ 4
стина 4
рета 4
рона 4
mb-3@@ 4
"Ру@@ 4
гар@@ 4
yal 4
бург@@ 4
> 4
Эфк@@ 4
Пануч@@ 4
емля 4
poy@@ 4
ş@@ 4
стре@@ 4
huibert@@ 4
acao 4
arapri@@ 4
arap@@ 4
ens 4
"Реа@@ 4
аф@@ 4
лси@@ 4
chesterfiel@@ 4
atto@@ 4
mendr@@ 4
63. 4
законодатель@@ 4
elli@@ 4
e-@@ 4
ater@@ 4
0269-93@@ 4
Дис@@ 4
цип@@ 4
следующ@@ 4
tan@@ 4
пость 4
фика@@ 4
кинг@@ 4
ack. 4
arr@@ 4
mathers@@ 4
mathersch@@ 4
den@@ 4
"При@@ 4
ник. 4
тера@@ 4
ации 4
au 4
меча@@ 4
head@@ 4
wiley-black@@ 4
lufthav@@ 4
placi@@ 4
Алькобенда@@ 4
бомбарди@@ 4
соверши@@ 4
Аль-Ан@@ 4
Андреев@@ 4
andre@@ 4
Иколо-э-@@ 4
Владе@@ 4
poacea@@ 4
Управл@@ 4
Ади@@ 4
band@@ 4
дной 4
возник@@ 4
hop@@ 4
ов. 4
блюза@@ 4
ws 4
"Александ@@ 4
u.@@ 4
flibbertigb@@ 4
ран 4
экрани@@ 4
тому 4
к-испыта@@ 4
виде@@ 4
медаль@@ 4
02 4
thunder@@ 4
"Корити@@ 4
Эйнд@@ 4
футболь@@ 4
Ланаркши@@ 4
ки", 4
Чумако@@ 4
Макк@@ 4
ze 4
Пряд@@ 4
вшегося 4
Бра@@ 4
copen@@ 4
3x@@ 4
зи 4
Ампа@@ 4
являющ@@ 4
stat@@ 4
1923@@ 4
дати@@ 4
2006-12@@ 4
Готтинг@@ 4
английски@@ 4
Там@@ 4
Фе@@ 4
indian@@ 4
най@@ 4
ро-@@ 4
тера 4
бру@@ 4
infant@@ 4
АМ@@ 4
"Амат@@ 4
ian@@ 4
сит 4
жатый 4
встре@@ 4
полн@@ 4
pp@@ 4
negre@@ 4
жат@@ 4
peny@@ 4
Самба@@ 4
глий@@ 4
"Бекон@@ 4
хлебо@@ 4
теплы@@ 4
Перси@@ 4
до. 4
вощ@@ 4
сви@@ 4
себ@@ 4
граммо@@ 4
грам@@ 4
"Баджи@@ 4
кое 4
its 4
Пуиг@@ 4
тиру@@ 4
эксплуата@@ 4
тным 4
тактный 4
524 4
Тем@@ 4
Алексе@@ 4
Арез@@ 4
транспор@@ 4
them@@ 4
передвиж@@ 4
ющую 4
вну@@ 4
шко@@ 4
сопут@@ 4
ступила 4
hitleri 4
жден 4
це-@@ 4
Понте@@ 4
Эй@@ 4
Рибико@@ 4
еме 4
дерлан@@ 4
"Тер@@ 4
founta@@ 4
Мендо@@ 4
берна@@ 4
Луф@@ 4
кретаре@@ 4
här@@ 4
Основ@@ 4
члено@@ 4
4-1@@ 4
"Челси@@ 4
entin@@ 4
amsterdam@@ 4
(любители@@ 4
ред@@ 4
Фон@@ 4
ca, 4
ron@@ 4
Премьер-@@ 4
Афины@@ 4
(Афины@@ 4
daniel@@ 4
-Лу@@ 4
спе@@ 4
ura 4
латин@@ 4
978-1-4165-4253-@@ 4
издани@@ 4
Журна@@ 4
ВИЧ@@ 4
ластонбери 4
17, 4
последо@@ 4
0-@@ 4
что@@ 4
аббревиат@@ 4
дание 4
деш 4
военно-воздуш@@ 4
развер@@ 4
mcdon@@ 4
мадри@@ 4
зака@@ 4
сой 4
Иколо-@@ 4
ящее 4
ристи@@ 4
Кимбер@@ 4
ностью 4
Туркменистан@@ 4
ny 4
poal@@ 4
ведущ@@ 4
Певе@@ 4
"Греймаши@@ 4
mamif@@ 4
даб@@ 4
хип-хоп-@@ 4
Эк@@ 4
Кандом@@ 4
анского 4
Сансо@@ 4
лав@@ 4
Пуй@@ 4
бобслеисто@@ 4
dig@@ 4
раж@@ 4
-11-@@ 4
эксплуати@@ 4
правл@@ 4
Эрнанде@@ 4
Брюин@@ 4
эшви@@ 4
dolphin@@ 4
Дейтон@@ 4
Барков@@ 4
стов 4
"Динамо@@ 4
домаш@@ 4
Вайс@@ 4
мож@@ 4
entertainmen@@ 4
Марг@@ 4
busines@@ 4
Кампу@@ 4
дры 4
ach, 4
riversi@@ 4
Эфиопи@@ 4
thakur@@ 4
моном 4
162@@ 4
Матер@@ 4
Алаба@@ 4
Мэди@@ 4
ло, 4
Плехано@@ 4
менедж@@ 4
77,@@ 4
найд@@ 4
эро@@ 4
"Инста@@ 4
blanco@@ 4
сского 4
ящи@@ 4
тации 4
сар@@ 4
@@ 4
три@@ 4
умай 4
митра 4
(кондитер@@ 4
смет@@ 4
разговор@@ 4
Илоц@@ 4
custom@@ 4
1258@@ 4
ной, 4
денный 4
прямой-@@ 4
Лан@@ 4
deptfor@@ 4
"alhambra@@ 4
плава@@ 4
размерный 4
вающий 4
Среднеатлантиче@@ 4
бита@@ 4
етти 4
db@@ 4
e-tr@@ 4
классифици@@ 4
объе@@ 4
Корни@@ 4
bat@@ 4
Гете@@ 4
ете 4
енат 4
Магдален@@ 4
ах. 4
леги@@ 4
преми@@ 4
Еванге@@ 4
лоса 4
Констан@@ 4
тио@@ 4
Ольден@@ 4
стици@@ 4
Фредерик@@ 4
ль-@@ 4
чемпио@@ 4
Ципра@@ 4
efxeinoupolis@@ 4
(люби@@ 4
ская) 4
сезоне-@@ 4
Сент-Мэри@@ 4
вент@@ 4
предлага@@ 4
Вис@@ 4
Бел@@ 4
дис@@ 4
advanc@@ 4
Тинхэ@@ 4
88057@@ 4
yor@@ 4
ерикан@@ 4
ств 4
стол 4
Пинхаис@@ 4
"infraer@@ 4
авианосц@@ 4
провин@@ 4
"Гринви@@ 4
Лахо@@ 4
вли@@ 4
яет 4
рол@@ 4
шли 4
Тосу@@ 4
ми: 4
льшим 4
ez 4
ec@@ 4
дебюти@@ 4
дебютирова@@ 4
Лайонна@@ 4
Елизавет@@ 4
ez@@ 4
wy@@ 4
ию@@ 4
нером 4
"Бирминг@@ 4
6700000000003 4
студент@@ 4
29652@@ 4
земл@@ 4
Александри@@ 4
polis 4
ед@@ 4
приеха@@ 4
ляют 4
лый 4
Патри@@ 4
консер@@ 4
буль@@ 4
rus 4
Бартоло@@ 4
стви@@ 4
caterpill@@ 4
Папенбург@@ 4
лин, 4
(миллимет@@ 4
Абар@@ 4
тым 4
ятся 4
bersatu@@ 4
Асайай@@ 4
фли@@ 4
арас@@ 4
технологиче@@ 4
кампу@@ 4
ette@@ 4
apté-te, 4
române@@ 4
корот@@ 4
физи@@ 4
0001-839@@ 4
енти@@ 4
сем@@ 4
Аэропор@@ 4
Масу@@ 4
Хил@@ 4
it, 4
defen@@ 4
center@@ 4
res@@ 4
дочер@@ 4
Аделаид@@ 4
трене@@ 4
жиссе@@ 4
Великобритании@@ 4
Семенари@@ 4
accadem@@ 4
ческого 4
"Тирструп@@ 3
пена» 3
ск. 3
"Алпена@@ 3
eland 3
фаль@@ 3
фициальный 3
рисдик@@ 3
harriet@@ 3
«И@@ 3
стреби@@ 3
Бертрам@@ 3
pun@@ 3
инстру@@ 3
менте 3
тни@@ 3
це. 3
тови@@ 3
ятие 3
wilder@@ 3
стин 3
nr@@ 3
ge. 3
обще@@ 3
живу@@ 3
Кэмпбе@@ 3
Христи@@ 3
п-музы@@ 3
фесси@@ 3
ficti@@ 3
бира@@ 3
рудо@@ 3
Транс@@ 3
Риб@@ 3
ден. 3
Мисси@@ 3
стоящее 3
Альдри@@ 3
ein@@ 3
Колли@@ 3
1969-09-0@@ 3
сота 3
Пан@@ 3
тивная 3
mother@@ 3
les@@ 3
as" 3
Чер@@ 3
нен 3
Хьюст@@ 3
дил 3
vei@@ 3
brem@@ 3
мель@@ 3
оф@@ 3
сбур@@ 3
geor@@ 3
395@@ 3
води@@ 3
щее 3
пани@@ 3
«Аддис-Абе@@ 3
фектур@@ 3
/@@ 3
Азиат@@ 3
Гро@@ 3
que 3
Бирминг@@ 3
день@@ 3
"Гуджара@@ 3
Вьетнам@@ 3
lie 3
ково@@ 3
да-@@ 3
Рамаф@@ 3
ланки@@ 3
максима@@ 3
18,@@ 3
Елен@@ 3
one. 3
оттинг@@ 3
земель@@ 3
дами 3
ти-@@ 3
"Нью-Джерси@@ 3
jers@@ 3
Альби@@ 3
Три@@ 3
чивает 3
звез@@ 3
blockbust@@ 3
"о@@ 3
лан 3
н". 3
собира@@ 3
wolf@@ 3
park@@ 3
ton 3
ерб@@ 3
рем-арем@@ 3
arem-@@ 3
бази@@ 3
рабби@@ 3
ales@@ 3
explosi@@ 3
бездорож@@ 3
рождествен@@ 3
бный 3
банде@@ 3
Бандежа@@ 3
"Антио@@ 3
Од@@ 3
енна@@ 3
коро@@ 3
Карна@@ 3
поря@@ 3
дю@@ 3
щения 3
Алу@@ 3
mation 3
констру@@ 3
доко@@ 3
ступенча@@ 3
"Антаре@@ 3
desot@@ 3
dynam@@ 3
ibi@@ 3
комп@@ 3
та-@@ 3
Законодатель@@ 3
Гусей@@ 3
разработа@@ 3
чательный 3
ерм@@ 3
dem@@ 3
Техниче@@ 3
Холлоуэ@@ 3
Аден@@ 3
visi@@ 3
Неаве@@ 3
Дженни@@ 3
jenn@@ 3
admi@@ 3
Горбахо@@ 3
тва 3
su@@ 3
1939-01-0@@ 3
нис 3
тр@@ 3
Абуба@@ 3
кер 3
Муссо@@ 3
реме@@ 3
cesen@@ 3
интер@@ 3
suare@@ 3
фре@@ 3
Запад@@ 3
(футболист@@ 3
веро-@@ 3
public@@ 3
aters. 3
hoo@@ 3
pes@@ 3
argimi@@ 3
vant@@ 3
vis@@ 3
самми@@ 3
мберто 3
ac. 3
ако@@ 3
-Юли@@ 3
куль@@ 3
магист@@ 3
рат. 3
~ 3
сини@@ 3
гно@@ 3
церков@@ 3
Карната@@ 3
"Кера@@ 3
deste@@ 3
techn@@ 3
тийская 3
aff@@ 3
glaston@@ 3
ät 3
(journal@@ 3
ence 3
alcat@@ 3
z 3
ассоци@@ 3
етро@@ 3
Европе@@ 3
ini@@ 3
age. 3
juli@@ 3
гаар@@ 3
сел@@ 3
емого 3
местополож@@ 3
riti@@ 3
por 3
ais@@ 3
Сан-Хосе-дос-@@ 3
МА@@ 3
3528 3
регион@@ 3
фламанд@@ 3
скольку 3
ленде, 3
"Спартак@@ 3
певц@@ 3
za 3
загород@@ 3
диско@@ 3
Рау@@ 3
Сенди@@ 3
предста@@ 3
aldr@@ 3
Даллас@@ 3
личи@@ 3
shepar@@ 3
7) 3
1969@@ 3
thun@@ 3
fl@@ 3
estegh@@ 3
sport@@ 3
абаб 3
Томс@@ 3
uk@@ 3
Миге@@ 3
дани@@ 3
енцерков@@ 3
mari@@ 3
ддис@@ 3
кремесингхе. 3
«Ампа@@ 3
Хайлемари@@ 3
Дональ@@ 3
зы 3
15. 3
Пери@@ 3
кельвино@@ 3
сман 3
ey, 3
51159@@ 3
куда 3
мом. 3
od@@ 3
Роч@@ 3
Нор@@ 3
Биббо@@ 3
grass@@ 3
чу@@ 3
регио@@ 3
кальмар@@ 3
ся" 3
Ингредиент@@ 3
образо@@ 3
гие 3
вляется 3
поми@@ 3
мерин@@ 3
све@@ 3
морков@@ 3
Батаго@@ 3
арахи@@ 3
"Ку@@ 3
кро@@ 3
пеньет@@ 3
siomay@@ 3
кед 3
plaz@@ 3
СПИ@@ 3
круиз@@ 3
Порт-@@ 3
поезд@@ 3
короб@@ 3
коло@@ 3
емы@@ 3
ствующее 3
spaceport@@ 3
"Дель@@ 3
Инфанте@@ 3
Измир@@ 3
"Ататюр@@ 3
рец@@ 3
heart@@ 3
супру@@ 3
ститу@@ 3
sis@@ 3
Найтсб@@ 3
ъ@@ 3
Б.@@ 3
Фонтан", 3
Михетти@@ 3
-Хи@@ 3
тен@@ 3
bentego@@ 3
тего@@ 3
ландо 3
var@@ 3
еро 3
metap@@ 3
xeinou@@ 3
Иг@@ 3
blackpool@@ 3
challin@@ 3
geno@@ 3
ico 3
конкури@@ 3
З 3
100@@ 3
бизне@@ 3
исследовани@@ 3
Мери@@ 3
978-1-4165-4253-7@@ 3
"Фортри@@ 3
книг@@ 3
767983@@ 3
umber@@ 3
5739224@@ 3
следова@@ 3
сокра@@ 3
abh@@ 3
зависимо@@ 3
Корне@@ 3
nell 3
Гаррет@@ 3
денти@@ 3
фици@@ 3
journal@@ 3
ъедин@@ 3
indi@@ 3
3992,@@ 3
ighting 3
anam@@ 3
разворачи@@ 3
Поакэ@@ 3
ону 3
кменаба@@ 3
ких 3
"Фор@@ 3
тепи@@ 3
ано, 3
водит 3
хип-хо@@ 3
americ@@ 3
РБ@@ 3
бханг@@ 3
Лейборист@@ 3
нг@@ 3
вле@@ 3
ступи@@ 3
фью@@ 3
Мендель@@ 3
Банило@@ 3
бобслеи@@ 3
Рекор@@ 3
Лю@@ 3
Бор@@ 3
С., 3
Ц 3
5) 3
Пруднико@@ 3
ro 3
привы@@ 3
бори@@ 3
мл@@ 3
южноафрикан@@ 3
squ@@ 3
squar@@ 3
Эри@@ 3
cott@@ 3
"Аддис-Абе@@ 3
колу 3
хай 3
Махаджан@@ 3
Кот@@ 3
Сан-Франциско@@ 3
зей@@ 3
бани 3
серва@@ 3
pat@@ 3
ди, 3
эпоха@@ 3
Британ@@ 3
a9@@ 3
Стеубен@@ 3
ул@@ 3
Сан-Марко@@ 3
Мичиг@@ 3
круп@@ 3
pt@@ 3
"Аура@@ 3
вышед@@ 3
Шиллинг@@ 3
анам@@ 3
чил 3
Джи@@ 3
дже@@ 3
кба@@ 3
lar@@ 3
канц@@ 3
Кед@@ 3
Сумат@@ 3
жжен@@ 3
Вариа@@ 3
коричне@@ 3
запеч@@ 3
sandes@@ 3
pudding@@ 3
coo@@ 3
лим@@ 3
джи@@ 3
Важу@@ 3
Тхаку@@ 3
ины 3
тво@@ 3
дой 3
Блю@@ 3
Филиппина@@ 3
едя@@ 3
alun@@ 3
пуч@@ 3
дизе@@ 3
abar@@ 3
accord@@ 3
ury 3
роскош@@ 3
rys, 3
Постро@@ 3
чения 3
систе@@ 3
4.@@ 3
k" 3
Юж@@ 3
ел 3
Сипи@@ 3
hold@@ 3
нам@@ 3
ys@@ 3
зало@@ 3
тиче@@ 3
Анка@@ 3
Мини@@ 3
Квин@@ 3
Авра@@ 3
ele@@ 3
мили@@ 3
за". 3
Ниймеген@@ 3
заслуги@@ 3
лум@@ 3
амет@@ 3
Тей@@ 3
шей@@ 3
s.s.@@ 3
"Лумеззан@@ 3
"Тори@@ 3
"Даллас@@ 3
Нико@@ 3
poli@@ 3
аренда@@ 3
ella 3
креп@@ 3
Инженер@@ 3
acc@@ 3
gazett@@ 3
Хайн@@ 3
wal@@ 3
# 3
p, 3
опубликов@@ 3
МАХЕ@@ 3
леонто@@ 3
"Ад@@ 3
Шир@@ 3
капита@@ 3
кобен@@ 3
rar@@ 3
"Курити@@ 3
infraer@@ 3
Идентифика@@ 3
«Агра@@ 3
falc@@ 3
ac-130@@ 3
атаку@@ 3
ress 3
"Гринвилле@@ 3
Мена@@ 3
Мише@@ 3
ади@@ 3
цветущи@@ 3
Брай@@ 3
ска 3
Че@@ 3
лове@@ 3
Дру@@ 3
Р, 3
тери@@ 3
(Великобритани@@ 3
"Блю@@ 3
реалити-@@ 3
суд@@ 3
Менде@@ 3
Мой@@ 3
soh@@ 3
виолонче@@ 3
"Зо@@ 3
лей. 3
гун@@ 3
trin 3
ент-Лу@@ 3
tennes@@ 3
Теннесси@@ 3
footb@@ 3
управляе@@ 3
Джексо@@ 3
Зума@@ 3
Джек@@ 3
Лимери@@ 3
я") 3
Шри-Лан@@ 3
Фернан@@ 3
hou@@ 3
"Бай@@ 3
периа@@ 3
spacewatch@@ 3
назв@@ 3
перитони@@ 3
german@@ 3
27914200@@ 3
dou@@ 3
"Арлингто@@ 3
347,@@ 3
"Данву@@ 3
ital 3
op@@ 3
wash@@ 3
orth 3
входящ@@ 3
дин 3
Паис@@ 3
ается 3
утерб@@ 3
ное. 3
було@@ 3
нг 3
Кай@@ 3
"Лимон@@ 3
ингапу@@ 3
Альтернатив@@ 3
ракови@@ 3
ллокан@@ 3
долж@@ 3
Оберхоль@@ 3
32.@@ 3
дро@@ 3
реаль 3
Локомотив@@ 3
sic 3
it 3
dan 3
постави@@ 3
arianesp@@ 3
цион@@ 3
getty@@ 3
памятни@@ 3
Сол@@ 3
мемориа@@ 3
министер@@ 3
hig@@ 3
бико@@ 3
Константино@@ 3
Хох@@ 3
"Ю@@ 3
"Уай@@ 3
ПФК@@ 3
швейц@@ 3
весва@@ 3
нь 3
отредакти@@ 3
государств@@ 3
эксплуа@@ 3
hap@@ 3
"Абра@@ 3
Донне@@ 3
doth@@ 3
жени@@ 3
командо@@ 3
ванием 3
Альдрин@@ 3
< 3
>@@ 3
прое@@ 3
йся 3
0068 3
2,846 3
Фридри@@ 3
km@@ 3
началь@@ 3
валь@@ 3
Кэме@@ 3
Семенари-Ридж@@ 3
Корн@@ 3
Изми@@ 3
сосед@@ 3
сал@@ 3
Телан@@ 3
Мумба@@ 3
sc.@@ 3
мрамо@@ 3
лаживание 3
167,@@ 2
хипхо@@ 2
clay@@ 2
Луан@@ 2
кер@@ 2
публи@@ 2
sti@@ 2
ональным 2
Иоси@@ 2
pop-музы@@ 2
тромбо@@ 2
защи@@ 2
стави@@ 2
емо@@ 2
даль 2
Военно-мор@@ 2
Пос@@ 2
Лон@@ 2
кел@@ 2
558 2
ale@@ 2
стоне, 2
-Харатьят@@ 2
ес@@ 2
ландском 2
Москва@@ 2
Бран@@ 2
килограм@@ 2
Кекалай@@ 2
Сесси@@ 2
Джексон@@ 2
кка@@ 2
росси@@ 2
кола 2
зин@@ 2
площади@@ 2
bank 2
ыду@@ 2
разработ@@ 2
illar 2
лл-@@ 2
т: 2
groun@@ 2
рал-@@ 2
Эфио@@ 2
Глав@@ 2
'ceall@@ 2
per 2
солю@@ 2
гей 2
lydi@@ 2
ая@@ 2
Ченна@@ 2
ilen@@ 2
рина 2
69@@ 2
хо 2
Персона@@ 2
апре@@ 2
Астерик@@ 2
bayma@@ 2
стрибью@@ 2
Рудольф@@ 2
ard. 2
бре@@ 2
сточ@@ 2
рако@@ 2
Халиско@@ 2
док 2
пако@@ 2
"Замбоанган@@ 2
чок 2
дних 2
Щ@@ 2
преем@@ 2
motor@@ 2
ication 2
обра@@ 2
cumber@@ 2
sw@@ 2
mah@@ 2
линг@@ 2
зиден@@ 2
ald 2
американско@@ 2
"Звезда@@ 2
конгрес@@ 2
Абду@@ 2
сб@@ 2
алом 2
gorb@@ 2
ces@@ 2
вочный 2
йскими 2
Клы@@ 2
Кам@@ 2
пания 2
marcolin@@ 2
fior@@ 2
fut@@ 2
мар 2
ek 2
Робер@@ 2
.c. 2
Арапира@@ 2
вера@@ 2
подава@@ 2
awh@@ 2
Куттиккатто@@ 2
сотруд@@ 2
Чис@@ 2
Ачар@@ 2
оранж@@ 2
фициаль@@ 2
тинг@@ 2
"Ачар@@ 2
Арави@@ 2
ремьер-@@ 2
ure@@ 2
ael 2
вычисли@@ 2
0269@@ 2
-9@@ 2
льных 2
Ч 2
саа@@ 2
ффици@@ 2
352@@ 2
орванный 2
ус" 2
+ 2
леонтологи@@ 2
кварта@@ 2
маш@@ 2
powy@@ 2
ций 2
spring@@ 2
abi 2
авианос@@ 2
360@@ 2
ip@@ 2
сно@@ 2
орден@@ 2
«Туркменистан@@ 2
Суа@@ 2
падает 2
роны 2
рованную 2
лдер@@ 2
hol@@ 2
шло 2
haver@@ 2
cand@@ 2
Эли@@ 2
Элли@@ 2
сол 2
Ахма@@ 2
st, 2
jack@@ 2
"Аль-Ш@@ 2
ся. 2
Собяни@@ 2
primer@@ 2
Хель@@ 2
"Фенцерков@@ 2
fal@@ 2
тон. 2
ott 2
Ада@@ 2
Мэри@@ 2
ферен@@ 2
ломар@@ 2
410777) 2
608@@ 2
зис@@ 2
61196@@ 2
373513@@ 2
устано@@ 2
520906@@ 2
,9 2
490@@ 2
Альф@@ 2
Форт-Уор@@ 2
Георги@@ 2
нер" 2
Бананам@@ 2
Пот@@ 2
enz@@ 2
ajo@@ 2
риче@@ 2
"Арем-арем@@ 2
мясными 2
наполнителя@@ 2
Важ@@ 2
cubanel@@ 2
ная. 2
Фри@@ 2
Кури@@ 2
повыш@@ 2
гер, 2
лико@@ 2
шим 2
пуди@@ 2
фасоль@@ 2
Жарен@@ 2
горя@@ 2
ple 2
лап@@ 2
кунжут@@ 2
"Баджжи@@ 2
Бинигне@@ 2
Филиппи@@ 2
125@@ 2
fri@@ 2
дар@@ 2
-Х@@ 2
Мель@@ 2
coupé@@ 2
четыре. 2
coup@@ 2
Чири@@ 2
придуман@@ 2
доби@@ 2
ральная 2
все-синкроме@@ 2
mai@@ 2
veintist@@ 2
space@@ 2
пуско@@ 2
lo, 2
своение 2
Служ@@ 2
ı@@ 2
land, 2
Ниг@@ 2
Кабалье@@ 2
ствовал 2
рена@@ 2
ridge@@ 2
Бы@@ 2
chap@@ 2
мбу@@ 2
"whis@@ 2
Луфки@@ 2
губернато@@ 2
генера@@ 2
л-@@ 2
шийся 2
тони@@ 2
Руково@@ 2
alas@@ 2
сезоне-201@@ 2
Стю@@ 2
panu@@ 2
lim@@ 2
amin@@ 2
Чемпи@@ 2
сорев@@ 2
colle@@ 2
"Но@@ 2
тел@@ 2
я». 2
system@@ 2
бле@@ 2
первые 2
ama 2
isb@@ 2
math.@@ 2
кры@@ 2
320@@ 2
Фарер@@ 2
Орхус@@ 2
aktiesel@@ 2
Мадрид-Барайа@@ 2
Ут@@ 2
-истреби@@ 2
Джин@@ 2
coun@@ 2
monocot@@ 2
ole@@ 2
ретий 2
Ашхаба@@ 2
Афин@@ 2
Все@@ 2
Фаллудж@@ 2
Народ@@ 2
harri@@ 2
виш@@ 2
Син@@ 2
ерный 2
"Абрадаб@@ 2
Хип-хо@@ 2
Произ@@ 2
водная 2
Корнели@@ 2
Ассоци@@ 2
колле@@ 2
Элект@@ 2
'don@@ 2
пси@@ 2
Певи@@ 2
"Транс-@@ 2
jway@@ 2
poly@@ 2
АС 2
"Апол@@ 2
Ф 2
кую 2
Алкма@@ 2
Кекалайн@@ 2
дн@@ 2
дам 2
выб@@ 2
вшую 2
ос-Анджеле@@ 2
«Аль-@@ 2
Грузин@@ 2
lyonn@@ 2
Ита@@ 2
tiy@@ 2
СВ 2
"Сент-@@ 2
Джордж@@ 2
диагно@@ 2
Рах@@ 2
садь@@ 2
мери@@ 2
тый 2
амиль@@ 2
мит@@ 2
att@@ 2
Фицсим@@ 2
периап@@ 2
матер@@ 2
b-@@ 2
ia@@ 2
«гиги@@ 2
cle@@ 2
Албани@@ 2
1114@@ 2
представителе@@ 2
етрой@@ 2
мэро@@ 2
Коста@@ 2
ъединенные 2
нят 2
Дугер@@ 2
Шта@@ 2
стречи 2
Француз@@ 2
ki@@ 2
доч@@ 2
кк@@ 2
дзо@@ 2
сале@@ 2
guanci@@ 2
ale, 2
pi@@ 2
isi@@ 2
Каталон@@ 2
разбита@@ 2
ney 2
Афро@@ 2
alask@@ 2
ень@@ 2
меринго@@ 2
бой 2
кла@@ 2
ых 2
тоф@@ 2
ej@@ 2
chichar@@ 2
batag@@ 2
Непту@@ 2
bann@@ 2
лся. 2
разработан@@ 2
пе 2
acur@@ 2
engin@@ 2
Хельсин@@ 2
л.@@ 2
все-син@@ 2
сцепл@@ 2
атлантиче@@ 2
spaceport". 2
атлантический 2
«Антаре@@ 2
aire@@ 2
Габриэ@@ 2
ato 2
окон@@ 2
авгу@@ 2
хой 2
Ниинисто@@ 2
тные 2
friedrichshaf@@ 2
burg, 2
етти@@ 2
ethelwald, 2
амят@@ 2
tl@@ 2
ма-матер 2
Сарва@@ 2
Гонса@@ 2
стр 2
заму@@ 2
Кемб@@ 2
Фаверхэ@@ 2
ссише 2
Хади@@ 2
продолж@@ 2
Мариет@@ 2
Доу@@ 2
Сантилли@@ 2
Альбер@@ 2
ед 2
Арми@@ 2
пари@@ 2
am, 2
председатель@@ 2
chievo@@ 2
ane, 2
Бр@@ 2
tiv@@ 2
vit@@ 2
loc@@ 2
бывши@@ 2
"Рома@@ 2
уттиккатто@@ 2
Швейц@@ 2
Кем@@ 2
Дека@@ 2
ниверси@@ 2
Авто@@ 2
1634@@ 2
aids 2
ма-Ма@@ 2
1-56947-30@@ 2
0-374-26131-@@ 2
78@@ 2
46451790@@ 2
но-науч@@ 2
дисципли@@ 2
1080-@@ 2
one, 2
сии 2
шин@@ 2
ое 2
«Барайас@@ 2
inf@@ 2
Пинха@@ 2
тивной 2
разверну@@ 2
злет@@ 2
рок@@ 2
имбер@@ 2
ьей 2
Авиа@@ 2
аллу@@ 2
поверх@@ 2
тарый 2
реали@@ 2
либер 2
Производ@@ 2
гет@@ 2
неработа@@ 2
мента 2
певе@@ 2
вии 2
Сидне@@ 2
music@@ 2
Хи@@ 2
ровался 2
ших 2
tranc@@ 2
ings. 2
jawad@@ 2
несколь@@ 2
alex@@ 2
присо@@ 2
nw@@ 2
лотой 2
"Пена@@ 2
p.@@ 2
Джеф@@ 2
kharaitiy@@ 2
ара 2
gus@@ 2
Мартин@@ 2
"Дина@@ 2
Бату@@ 2
Луж@@ 2
sampdori@@ 2
подготовл@@ 2
черноко@@ 2
фин 2
усадь@@ 2
Дельф@@ 2
ли" 2
ша, 2
Уилья@@ 2
добавлен@@ 2
ute 2
спроектиро@@ 2
оке@@ 2
desaleg@@ 2
афри@@ 2
399710000@@ 2
ceall@@ 2
цсим@@ 2
Ол@@ 2
дорф@@ 2
523329@@ 2
felic@@ 2
ga 2
336@@ 2
enton 2
Ней@@ 2
609@@ 2
ove 2
полни@@ 2
столица@@ 2
стояни@@ 2
бен 2
berg 2
вещатель@@ 2
Гей@@ 2
зали@@ 2
"Инстаграм@@ 2
далу@@ 2
Грас@@ 2
"Арр@@ 2
ха" 2
нал@@ 2
Бекон@@ 2
юш@@ 2
"Сан@@ 2
meringu@@ 2
око@@ 2
Ла-Па@@ 2
сое@@ 2
baji@@ 2
ago 2
пользу@@ 2
patri@@ 2
arab@@ 2
острова 2
цилин@@ 2
четырех@@ 2
spang@@ 2
среднеразмер@@ 2
Нидерланда@@ 2
колес@@ 2
автома@@ 2
ья" 2
м., 2
й-@@ 2
Тар@@ 2
ческую 2
муще@@ 2
"А-Ро@@ 2
| 2
катего@@ 2
Бай@@ 2
seyin 2
ürk 2
roxbur@@ 2
mus@@ 2
учи@@ 2
ган 2
ПФ@@ 2
Дой@@ 2
kin@@ 2
stell@@ 2
пциг@@ 2
ics 2
Сток@@ 2
Афина@@ 2
буду@@ 2
"Акрон@@ 2
оказа@@ 2
cc@@ 2
modl@@ 2
Кера@@ 2
утти@@ 2
тто@@ 2
Акаде@@ 2
Технологиче@@ 2
dev@@ 2
eapté-te, 2
сик@@ 2
резиден@@ 2
копи@@ 2
крет@@ 2
люде@@ 2
начально 2
смотря 2
610@@ 2
мокра@@ 2
руд@@ 2
бу 2
РА@@ 2
воздуш@@ 2
alderne@@ 2
пун@@ 2
кант 2
"Аль-Андер@@ 2
Эрра@@ 2
выводи@@ 2
Кристи@@ 2
candomb@@ 2
онне@@ 2
содержа@@ 2
all-star@@ 2
Бёр@@ 2
манским 2
Бёрн@@ 2
бре 2
"Аполлон@@ 2
опы@@ 2
НАС@@ 2
Петерб@@ 2
ург@@ 2
Нэшви@@ 2
суще@@ 2
clev@@ 2
and, 2
Госпо@@ 2
используемы@@ 2
arc@@ 2
sbur@@ 2
r.@@ 2
постко@@ 2
перво@@ 2
371 2
2,3968 2
по-китай@@ 2
д», 2
925 2
крес@@ 2
роля@@ 2
county@@ 2
ther@@ 2
"Альбани@@ 2
зве@@ 2
зда@@ 2
"вы@@ 2
бычно 2
Лам@@ 2
кометраж@@ 2
Рют@@ 2
yshi@@ 2
Игоро@@ 2
är@@ 2
ts@@ 2
Старто@@ 2
«Имущество@@ 2
"Тур@@ 2
lands 2
министр 2
Грена@@ 2
Ев@@ 2
Джеффер@@ 2
Университ@@ 2
inst@@ 2
рити@@ 2
Нью-Гэмпшире@@ 2
Смотри@@ 2
спортив@@ 2
каде@@ 2
-Юлия 2
посвя@@ 2
северо-запа@@ 2
româ@@ 2
iden@@ 1
int 1
anne 1
87@@ 1
rond@@ 1
цепл@@ 1
cur@@ 1
Лиде@@ 1
Пакист@@ 1
торж@@ 1
k". 1
ction 1
цкий 1
тывает 1
мене@@ 1
fein@@ 1
соста@@ 1
-17@@ 1
од 1
Тринида@@ 1
"Хьюст@@ 1
Ты@@ 1
á 1
ъ 1
Шот@@ 1
январ@@ 1
"3aren@@ 1
зиат@@ 1
bath@@ 1
Нью-Йорк" 1
5,0 1
билен 1
Берналль@@ 1
почто@@ 1
километров@@ 1
marco@@ 1
пп@@ 1
amaz@@ 1
fair@@ 1
blockbu@@ 1
комик@@ 1
bus@@ 1
cem@@ 1
tive 1
добави@@ 1
ao 1
хаджи. 1
ома@@ 1
mel@@ 1
bun@@ 1
veinticali@@ 1
il. 1
щение 1
чи. 1
3,0@@ 1
ключительный 1
ура 1
lockh@@ 1
средне@@ 1
Пенсиль@@ 1
роекти@@ 1
Абдулса@@ 1
caballer@@ 1
win 1
exp@@ 1
Найтсбридж@@ 1
ридж@@ 1
ral 1
ach. 1
Дэни@@ 1
fow@@ 1
shivers@@ 1
179@@ 1
Прин@@ 1
стон@@ 1
дольфо 1
coln 1
10000@@ 1
Чаллино@@ 1
fon@@ 1
Палло@@ 1
гдебург@@ 1
РО@@ 1
РИ@@ 1
сио 1
рань@@ 1
Сини@@ 1
минист@@ 1
amman@@ 1
technolog@@ 1
"Е@@ 1
pub@@ 1
led 1
рук@@ 1
mather@@ 1
associ@@ 1
quar@@ 1
managem@@ 1
вычислитель@@ 1
ссоци@@ 1
estin@@ 1
log@@ 1
Джей@@ 1
"Тир@@ 1
струп 1
Паракуэль@@ 1
Джара@@ 1
аллудж@@ 1
le". 1
"alderne@@ 1
дерни 1
enaire@@ 1
вный 1
m" 1
ролл, 1
сун@@ 1
бенни 1
нато@@ 1
bod@@ 1
отмет@@ 1
"фью@@ 1
завер@@ 1
стронав@@ 1
кипа@@ 1
Евг@@ 1
eas@@ 1
instit@@ 1
nandez 1
Баси@@ 1
alab@@ 1
jackson@@ 1
accr@@ 1
Прое@@ 1
нова@@ 1
мутом 1
proper@@ 1
Чика@@ 1
Авгу@@ 1
473 1
Ричард@@ 1
254989570.@@ 1
254989570,@@ 1
диссерта@@ 1
camill@@ 1
0,0. 1
«Лиди@@ 1
келви@@ 1
44,@@ 1
alpharet@@ 1
524,@@ 1
Д, 1
Столиц@@ 1
Капито@@ 1
енс 1
evi@@ 1
кст@@ 1
париж@@ 1
стья@@ 1
наполни@@ 1
прозвищ@@ 1
тти@@ 1
-бутерб@@ 1
чатый 1
пот@@ 1
реб@@ 1
свеже@@ 1
"Баксо@@ 1
baks@@ 1
oc@@ 1
eda 1
угле@@ 1
кревет@@ 1
сточке 1
baj@@ 1
Вари@@ 1
binign@@ 1
Пуигде@@ 1
rie 1
shaf@@ 1
пара 1
arth 1
,8 1
впечатля@@ 1
Автомоби@@ 1
1", 1
Сулей@@ 1
лони@@ 1
шуби@@ 1
Адольф@@ 1
демократиче@@ 1
ev@@ 1
eni@@ 1
инское 1
рое@@ 1
чительный 1
дмун@@ 1
ьего 1
ёль@@ 1
onio 1
cali@@ 1
"Ассоциаци@@ 1
Роб@@ 1
pic@@ 1
ella, 1
Пау@@ 1
Менедже@@ 1
v.@@ 1
виа@@ 1
istan@@ 1
spor 1
насчиты@@ 1
ная" 1
apul@@ 1
лу. 1
варский 1
634 1
rest@@ 1
мати@@ 1
mac@@ 1
117@@ 1
1-56947-301-3@@ 1
проис@@ 1
88-@@ 1
ologica 1
ithac@@ 1
библиоте@@ 1
1080-63@@ 1
след 1
еймут 1
Тир@@ 1
434@@ 1
ão 1
-Пра@@ 1
Сво@@ 1
ровки 1
77. 1
знач@@ 1
"schipho@@ 1
97 1
по-английски@@ 1
600@@ 1
"Гринвилл@@ 1
aster 1
благо@@ 1
ск@@ 1
таре@@ 1
виат@@ 1
Арти@@ 1
Эр@@ 1
гас@@ 1
элемент@@ 1
chel@@ 1
Манче@@ 1
flib@@ 1
bert@@ 1
Афи@@ 1
юю 1
синте@@ 1
adash 1
смен@@ 1
rhy@@ 1
певи@@ 1
Домаш@@ 1
тя@@ 1
bhangr@@ 1
Монтевиде@@ 1
6-02-0@@ 1
Григо@@ 1
дне@@ 1
ahm@@ 1
Кад@@ 1
Хамад@@ 1
енц@@ 1
Фер@@ 1
патри@@ 1
патриот@@ 1
кг@@ 1
Алк@@ 1
сандер 1
Владими@@ 1
кар 1
Михайло@@ 1
Зо@@ 1
пдори@@ 1
н.@@ 1
чере@@ 1
bremen@@ 1
проекти@@ 1
4411@@ 1
охва@@ 1
aven@@ 1
Эмануэ@@ 1
populo@@ 1
enter@@ 1
inmen@@ 1
"Мар@@ 1
интернэшн@@ 1
agen 1
dor 1
wickrem@@ 1
ingh@@ 1
префектур@@ 1
колы 1
dalp@@ 1
bhai 1
Джаявар@@ 1
денепу@@ 1
зея. 1
asil@@ 1
grov@@ 1
blv@@ 1
виж@@ 1
зани@@ 1
ддис-А@@ 1
сервато@@ 1
41077@@ 1
6391) 1
1,8388 1
орбита@@ 1
период@@ 1
ма-@@ 1
17994@@ 1
felicit@@ 1
264 1
2,3 1
6,0. 1
"Амарльо@@ 1
оттер@@ 1
158@@ 1
«Атлан@@ 1
ал" 1
tay@@ 1
листо@@ 1
ajoblan@@ 1
даль", 1
"Аматриче@@ 1
смо@@ 1
китаян@@ 1
эндви@@ 1
кондитер@@ 1
поступа@@ 1
Губ@@ 1
образи@@ 1
миче@@ 1
"Ч@@ 1
ори@@ 1
cla@@ 1
говяж@@ 1
Слад@@ 1
цеп@@ 1
bioni@@ 1
Нье@@ 1
ент-@@ 1
yaco@@ 1
suburb@@ 1
56 1
электропередач@@ 1
Мельбур@@ 1
chrysl@@ 1
Ниинист@@ 1
Финлянди@@ 1
гамбра@@ 1
avis 1
spor@@ 1
труб@@ 1
сим@@ 1
Космиче@@ 1
mart@@ 1
изготавли@@ 1
аналоги@@ 1
предприяти@@ 1
lamborghin@@ 1
установ@@ 1
Двига@@ 1
ela@@ 1
roll 1
Фридрих@@ 1
banner@@ 1
gett@@ 1
бери 1
canon@@ 1
стенском 1
пода@@ 1
"Инф@@ 1
association@@ 1
Мири@@ 1
Куш@@ 1
Обасандж@@ 1
монархо@@ 1
ridgewoo@@ 1
Рибикоф@@ 1
благосостояни@@ 1
cas@@ 1
Коннекти@@ 1
ony 1
Адам@@ 1
пута@@ 1
пад@@ 1
нос-Ай@@ 1
рес 1
Ска@@ 1
стани@@ 1
Команд@@ 1
еттисбур@@ 1
пци@@ 1
kom@@ 1
Дра@@ 1
lam@@ 1
veron@@ 1
gor@@ 1
ei@@ 1
Павло@@ 1
ссо@@ 1
stu@@ 1
318@@ 1
ek, 1
"Алкмар@@ 1
ham, 1
Кампеона@@ 1
Брасилей@@ 1
pier@@ 1
техниче@@ 1
дриси@@ 1
насчи@@ 1
хите@@ 1
Мендриси@@ 1
оре, 1
палли 1
премьер-министро@@ 1
бур@@ 1
896468@@ 1
transl@@ 1
ters 1
реда@@ 1
5196917@@ 1
серо@@ 1
покро@@ 1
iao@@ 1
Полони@@ 1
леобиологи@@ 1
wiley@@ 1
университе@@ 1
hard@@ 1
Хопкин@@ 1
струп@@ 1
? 1
Сан-Хосе-@@ 1
eo 1
"Альфон@@ 1
Инф@@ 1
дду@@ 1
Эксплуа@@ 1
сража@@ 1
usaf@@ 1
вни@@ 1
анос@@ 1
ренад@@ 1
кеем 1
протяжен@@ 1
аг@@ 1
Ико@@ 1
Висконси@@ 1
Эгг@@ 1
Пор@@ 1
michel@@ 1
Барай@@ 1
lak@@ 1
хаба@@ 1
озер@@ 1
adirond@@ 1
тром@@ 1
оформи@@ 1
зне@@ 1
металли@@ 1
"Грей@@ 1
гва@@ 1
dis@@ 1
"Ах@@ 1
шингто@@ 1
gra@@ 1
фран@@ 1
canad@@ 1
Миссиси@@ 1
ССС@@ 1
Рит@@ 1
chamele@@ 1
борист@@ 1
дож@@ 1
alligat@@ 1
хно@@ 1
цева@@ 1
кун@@ 1
Джона@@ 1
ллом 1
b-uni@@ 1
ся@@ 1
Буур@@ 1
ig 1
burn@@ 1
pop@@ 1
Сы@@ 1
яти@@ 1
Родри@@ 1
Испыта@@ 1
Ны@@ 1
врем@@ 1
м-2@@ 1
Хамбург@@ 1
Хеккинг@@ 1
Иахи@@ 1
Сегун@@ 1
тивам 1
egh@@ 1
трам@@ 1
кра 1
-Харатьят 1
обе@@ 1
а). 1
ледо@@ 1
Гаджи@@ 1
ье@@ 1
nand@@ 1
Макна@@ 1
unt@@ 1
50-@@ 1
агона@@ 1
counc@@ 1
афаэ@@ 1
843,8 1
Дем@@ 1
реша 1
ingham@@ 1
haput@@ 1
Шри-@@ 1
кот@@ 1
46,66 1
даба@@ 1
Ости@@ 1
мером 1
вижение 1
ри-@@ 1
6603633@@ 1
Обнаруж@@ 1
25977@@ 1
2.47055 1
Бли@@ 1
Пьяц@@ 1
aa907 1
канаде@@ 1
д; 1
гру@@ 1
213 1
43717@@ 1
437@@ 1
479343@@ 1
camilla@@ 1
846 1
зис 1
ach 1
львино@@ 1
440756@@ 1
455 1
,722 1
475426@@ 1
вуд, 1
atti@@ 1
alabam@@ 1
ties 1
delk@@ 1
alb 1
атлан@@ 1
Тарран@@ 1
Окруж@@ 1
ington. 1
утри 1
upp@@ 1
ith@@ 1
Дун@@ 1
появи@@ 1
Шел@@ 1
лины 1
стручко@@ 1
arro@@ 1
брас@@ 1
дается 1
ленда@@ 1
сколь@@ 1
теп@@ 1
(свежевыпеченны@@ 1
МакЛоу@@ 1
паис@@ 1
чиха@@ 1
(пата@@ 1
(морков@@ 1
бо 1
-Па@@ 1
йло-@@ 1
тами@@ 1
Бионико@@ 1
дала@@ 1
раковин@@ 1
которо@@ 1
мари@@ 1
пенси@@ 1
javen@@ 1
acho@@ 1
ствие 1
bul@@ 1
переме@@ 1
"Кру@@ 1
mey@@ 1
may@@ 1
изве@@ 1
veintig@@ 1
Берто@@ 1
hond@@ 1
99,@@ 1
tech 1
4hp18@@ 1
ступенчатая 1
phrys, 1
"Альгамбра@@ 1
virag@@ 1
Пеори@@ 1
"Аи@@ 1
Фире@@ 1
жая 1
Анге@@ 1
Гвиан@@ 1
|@@ 1
информа@@ 1
предоставля@@ 1
all 1
Монокар@@ 1
тве 1
eras@@ 1
Ё@@ 1
эн 1
"Барис@@ 1
ерии 1
онером 1
Кай-@@ 1
Демпси@@ 1
ственник 1
охран@@ 1
Ль@@ 1
Народного 1
Рад@@ 1
it" 1
ight@@ 1
торой 1
спуст@@ 1
Буэнос-Ай@@ 1
вре@@ 1
Джу@@ 1
Реидсви@@ 1
whis@@ 1
Дари@@ 1
Стали@@ 1
берт 1
окомотив 1
babel@@ 1
etro 1
Лумез@@ 1
"Торино@@ 1
dim@@ 1
Эфксено@@ 1
efxeinou@@ 1
Марс@@ 1
shor@@ 1
Ланка@@ 1
olympi@@ 1
соревну@@ 1
"Че@@ 1
uth 1
erb@@ 1
"q@@ 1
rab@@ 1
сент-@@ 1
Высш@@ 1
оби@@ 1
mö@@ 1
öl@@ 1
ella@@ 1
esvaray@@ 1
apté-@@ 1
жис@@ 1
Прабхуку@@ 1
мара. 1
Печат@@ 1
Бурбан@@ 1
информацион@@ 1
ьютер@@ 1
156-3648@@ 1
-0. 1
498055@@ 1
nov@@ 1
oni@@ 1
60040714@@ 1
изуч@@ 1
quarting@@ 1
quart@@ 1
787711@@ 1
hu 1
вопро@@ 1
len@@ 1
ссен 1
identifi@@ 1
"Барай@@ 1
adol@@ 1
4349@@ 1
неш@@ 1
nai@@ 1
ъе@@ 1
fight@@ 1
таку@@ 1
c-1@@ 1
f-1@@ 1
inter@@ 1
Орг@@ 1
-Ридж@@ 1
744 1
"Эндрю@@ 1
8,0@@ 1
heli@@ 1
winneb@@ 1
лирует 1
comp@@ 1
commel@@ 1
бас@@ 1
bas@@ 1
yl@@ 1
erson 1
листическое 1
thpo@@ 1
Зита@@ 1
berti@@ 1
carav@@ 1
kiss@@ 1
щих@@ 1
рования 1
shan@@ 1
cro@@ 1
пеш@@ 1
Кишин@@ 1
художника@@ 1
kais@@ 1
чка@@ 1
хип@@ 1
поги@@ 1
Сильви@@ 1
нандо 1
whe@@ 1
тен 1
рети@@ 1
двин 1
gen 1
заслу@@ 1
eria 1
ashi@@ 1
marri@@ 1
Аль-Хор@@ 1
арать@@ 1
Нары@@ 1
онна@@ 1
Гуру@@ 1
Оле@@ 1
Жан-@@ 1
"Мемориа@@ 1
Абе@@ 1
Пеньа@@ 1
проспек@@ 1
fiel@@ 1
гостини@@ 1
пенга@@ 1
честве 1
провинци@@ 1
ь), 1
romanes@@ 1
ствующим 1
9710000@@ 1
каза@@ 1
61559@@ 1
7055 1
wat@@ 1
исследо@@ 1
41 1
апсис 1
299196@@ 1
488@@ 1
670000@@ 1
кши@@ 1
открыва@@ 1
ganymed@@ 1
"st@@ 1
288@@ 1
вн@@ 1
Альбани@@ 1
"Альби@@ 1
бани@@ 1
»@@ 1
ry, 1
марльо@@ 1
ос-Анджелес 1
ос-Андже@@ 1
4,9 1
107,@@ 1
75.@@ 1
tic 1
guardi@@ 1
3,1 1
осе 1
окку@@ 1
гвоз@@ 1
Лаура@@ 1
кза@@ 1
око 1
специаль@@ 1
Путраджай@@ 1
Закари@@ 1
Пень@@ 1
стен@@ 1
Беко@@ 1
сифици@@ 1
Дим@@ 1
Пат@@ 1
губ@@ 1
clu@@ 1
"Чикаго@@ 1
сеф 1
совый 1
хаджи@@ 1
хаджи" 1
mahaj@@ 1
хаджи 1
binig@@ 1
"Грано@@ 1
Ари@@ 1
творо@@ 1
Силь@@ 1
олес 1
frang@@ 1
гли@@ 1
Ренци@@ 1
amatri@@ 1
Яако@@ 1
philip@@ 1
Диа@@ 1
cia 1
anci@@ 1
crocier@@ 1
лько 1
дизель-@@ 1
дизель-элект@@ 1
Вар@@ 1
все-@@ 1
31,@@ 1
antar@@ 1
урой 1
Обер@@ 1
werf@@ 1
Материн@@ 1
рации 1
croci@@ 1
"Кей@@ 1
"antar@@ 1
minot@@ 1
среднеатлантиче@@ 1
hail@@ 1
semin@@ 1
issippi 1
Спроекти@@ 1
mb@@ 1
bumiputer@@ 1
Демокра@@ 1
ель 1
Митсо@@ 1
орги@@ 1
ниса 1
Георгиади@@ 1
Вори@@ 1
Митсотаки@@ 1
сбурге, 1
Джейм@@ 1
деж@@ 1
должност@@ 1
dagg@@ 1
ash 1
хиг@@ 1
Ципрас@@ 1
вета 1
Хорри@@ 1
прозви@@ 1
"Мери@@ 1
sc@@ 1
nei@@ 1
Мен@@ 1
Г.@@ 1
"Вис@@ 1
стату@@ 1
Шко@@ 1
ker@@ 1
дело@@ 1
предвар@@ 1
одна@@ 1
infor@@ 1
обита@@ 1
Велико@@ 1
Бара@@ 1
Оба@@ 1
cho@@ 1
sen 1
пользо@@ 1
in" 1
сконча@@ 1
Э 1
торговли@@ 1
лого 1
экипа@@ 1
Ж 1
fenv@@ 1
следу@@ 1
Кумберлен@@ 1
issi@@ 1
pi 1
Гет@@ 1
Лат@@ 1
mendrisi@@ 1
go@@ 1
Нар@@ 1
подклю@@ 1
"Висвесварай@@ 1
Мум@@ 1
Ачарь@@ 1
Расмус@@ 1
ensis@@ 1
расхо@@ 1
Преж@@ 1
ald@@ 1
провед@@ 1
63 1
шер@@ 1
тре@@ 1
восто@@ 1
hitl@@ 1
потер@@ 1
этому 1
э-@@ 1
Радха@@ 1
шнан 1
Ред@@ 1
achar@@ 1
ху 1
Рас@@ 1
предлагаемы@@ 1
Алаб@@ 1
учрежд@@ 1
