the 28421
. 25623
is 21508
, 16961
of 14681
in 14547
and 11067
a 6427
was 4744
by 3664
has 3183
which 3162
located 3059
from 2804
airport 2629
are 2399
united 2343
leader 2288
where 2288
states 2124
it 1832
city 1756
an 1660
as 1635
to 1525
( 1518
) 1507
county 1492
at 1423
new 1374
on 1374
's 1341
with 1333
runway 1326
university 1303
born 1229
he 1162
international 1153
" 1149
for 1092
ethnic 1084
country 1067
found 1057
dish 1039
part 997
its 997
capital 994
texas 958
language 932
bacon 879
who 873
one 852
also 844
number 836
spoken 829
alan 809
length 751
english 750
region 731
name 725
main 711
above 703
comes 696
india 667
sea 666
ingredient 660
ground 656
group 649
ingredients 642
metres 639
apollo 637
level 630
published 612
pilot 611
americans 592
served 584
monument 576
be 574
aarhus 568
club 567
nasa 565
national 563
operated 557
character 557
can 555
american 550
location 546
written 545
member 538
sauce 528
: 521
serves 512
indonesia 511
established 506
crew 498
institute 496
members 488
1634 484
york 482
fc 480
jersey 475
di 474
spain 472
long 470
school 468
groups 457
acharya 455
denmark 453
affiliated 449
created 446
austin 441
people 428
that 421
designed 408
italy 407
president 405
book 395
california 394
john 389
technology 383
william 376
hall 375
there 374
leaders 373
infantry 372
aldrin 366
us 365
made 362
mendrisio 360
graduated 359
manager 358
originates 356
known 353
called 350
12 350
they 344
akita 343
madrid 342
played 342
shepard 341
anders 341
died 339
washington 339
or 337
retired 334
state 333
elliot 331
see 331
air 328
buzz 327
1 326
bean 325
square 323
singapore 323
dessert 323
1963 320
plays 320
completed 315
test 313
regional 302
have 302
beef 302
public 300
comic 299
11 298
whose 298
journal 298
sandwich 297
pennsylvania 297
architect 291
home 291
athens 290
malaysia 290
al 287
students 287
sri 285
philippines 285
great 285
britain 285
adams 282
' 278
business 278
afc 277
academic 277
11th 275
pakistan 273
led 271
their 270
play 266
force 265
paisa 265
league 262
north 261
area 260
contains 258
calcio 256
food 253
lead 251
accademia 251
ram 250
mississippi 250
association 248
sciences 248
baku 246
switzerland 246
july 245
south 244
bangalore 244
ajax 243
isbn 243
asian 240
appleton 239
floors 239
bionico 238
ayam 237
white 236
bakewell 236
de 235
architettura 235
greece 234
france 234
2000 234
native 233
currency 233
penyet 232
road 232
atlantic 231
akron 229
turkey 229
ac 228
baked 228
both 228
wisconsin 227
addis 227
staff 227
ababa 226
variation 226
pudding 226
issn 226
airbase 225
explosion 225
football 225
flint 225
fighter 224
adolfo 223
a.s. 223
eric 223
conference 222
acta 222
hampshire 221
obama 221
bandeja 221
british 220
barack 219
season 219
this 219
includes 218
lanka 217
binignit 217
township 216
hong 216
250 216
visvesvaraya 216
technological 216
bavarian 216
crisis 216
u.s. 215
kong 215
ridge 214
street 214
mexico 213
social 212
asad 211
popular 211
rebellion 211
authority 209
blackpool 209
romania 209
– 208
antwerp 206
alaska 206
ajoblanco 204
chicken 203
serie 203
rome 202
fried 202
st. 201
were 200
asilomar 199
ice 199
maryland 198
java 197
kingdom 195
mary 195
karnataka 195
abilene 194
alpena 194
order 194
dallas 194
ohio 194
chinese 193
african 193
asam 193
batchoy 193
1st 191
a.c. 190
spanish 189
louis 189
turkish 189
derbyshire 188
f.c. 188
poaceae 187
london 187
kway 187
teow 187
agra 186
now 186
big 186
england 186
college 186
azerbaijan 186
alcatraz 186
versus 186
8 183
pedas 183
meters 182
full 182
pietro 182
sportiva 182
press 179
andrews 178
abbreviated 178
evil 176
2014 175
20 174
preceded 174
owned 173
science 173
librarians 171
way 170
champions 170
alderney 169
european 169
1932 168
row 168
bella 168
vegetables 168
wheeler 167
birmingham 167
hotel 167
chicago 167
allama 165
iqbal 165
been 165
colmore 165
pages 165
oclc 165
grounds 164
historic 164
used 163
loyal 163
department 162
ashgabat 162
memorial 161
aircraft 160
negre 160
italian 159
wizard 158
pena 157
avenue 157
amatriciana 157
mars 157
first 156
adare 156
johnson 156
severed 156
wasp 156
b 155
virginia 155
summit 155
print 155
dancer 155
medal 154
art 154
zealand 153
selected 153
d.c. 153
operating 152
his 151
delaware 151
ii 149
cleveland 149
museum 149
uk 149
bakso 149
property 149
province 148
glen 148
contributing 148
dr. 148
fortress 148
angola 147
st 147
asser 147
levy 147
bananaman 147
lccn 147
aip 147
based 146
grey 146
copenhagen 144
roma 144
service 143
bhajji 142
verona 142
traditional 141
followed 141
hardcover 141
organisation 140
amsterdam 139
japan 139
aids 139
103 138
suárez 137
1962 137
egg 136
23 136
largest 135
baths 135
gubbio 135
barajas 134
sky 134
arapiraquense 134
discipline 134
ardmore 133
oil 133
sweet 133
600 133
indian 132
iraq 132
belongs 132
san 132
miller 132
300 131
marriott 131
ampara 131
greenville 129
frank 129
council 129
indiana 129
lake 128
company 128
ireland 128
include 128
decembrie 128
1918 128
romance 128
michigan 126
manor 126
kerala 126
rice 125
author 124
administrative 123
& 123
founded 123
1910 123
but 123
illinois 122
awh 122
engineering 122
johann 122
glastonbury 122
community 121
lasalle 121
14th 121
efxeinoupolis 121
fylde 121
livorno 121
quarterly 121
blt 120
cakes 120
dean 120
1996 120
addiction 120
identifier 119
building 119
200 119
house 119
dales 119
available 119
volunteer 119
dimitra 119
lumezzane 118
assault 118
advances 118
dc 117
campus 117
tenant 116
adisham 116
ni 116
bbc 116
batagor 116
grasso 116
1957 115
october 114
code 114
red 114
grantville 114
named 113
under 113
barny 113
frederick 113
flemish 112
space 112
nwc 112
felipe 112
manages 112
demarce 112
; 112
3arena 111
cream 111
vi 111
schneider-ammann 111
hessarghatta 111
languages 110
t 110
floor 110
black 110
soldevanahalli 110
radhakrishnan 110
560090 110
amdavad 109
gufa 109
places 109
parker 109
banana 109
chievo 109
indonesian 108
martyrs 108
charlie 108
afonso 107
register 107
family 107
sarvapalli 107
madin 106
a.e 106
mathematics 106
1927 105
uttar 104
pradesh 104
civil 104
high 104
andalusia 104
math 104
aviation 103
battle 103
1955 103
backup 103
alba 103
federal 103
lahore 102
e 102
robert 102
punjab 101
belgium 101
live 101
added 101
southeast 101
milk 101
party 100
david 100
title 100
style 100
baymax 100
malaysian 100
suarez 99
diagonal 99
east 99
within 99
prime 99
minister 99
pork 99
dedicated 99
stuart 99
3rd 98
turkmenistan 98
official 98
g 98
b. 98
gettysburg 98
cornell 98
january 97
system 97
ethiopia 97
ahmet 97
managed 97
azal 97
agremiação 97
harbor 96
minutes 96
current 96
6 96
malay 96
team 96
became 96
los 95
awarded 95
joe 95
biden 95
garlic 95
arros 95
adirondack 94
starred 94
hero 94
veil 94
type 93
speak 93
cumberland 93
technical 93
1928 93
currently 93
town 92
flowering 92
attended 92
dublin 92
m 92
prefecture 92
cuisine 92
philippine 92
associazione 92
a.f.c. 92
enaire 91
french 91
gujarat 91
potato 91
battlefield 91
acm 91
uses 90
government 90
hospital 90
usa 90
cesena 90
alcobendas 89
total 89
distinguished 89
fenchurch 89
eastern 89
olive 89
siomay 89
shumai 89
aenir 89
parent 89
situated 88
elizabeth 88
surface 88
brazil 88
23rd 88
arrabbiata 88
c 88
assembly 87
ut 87
chancellor 87
antioquia 87
elevation 86
inhabitants 86
navy 86
catalonia 86
borman 85
manhattan 85
lars 85
sausage 85
widodo 85
categorised 85
monocacy 85
ataturk 85
many 85
tirstrup 84
africa 84
737 84
arem 84
joko 84
novel 84
rasmussen 83
peter 83
arem-arem 83
izmir 83
az 83
700 83
headquarters 82
- 82
sumatra 82
magdeburg 82
aek 82
mario 82
williams 82
100 82
stadium 81
tart 81
botta 81
polonica 81
along 81
paracuellos 80
jarama 80
iii 80
war 80
coconut 80
jens 80
amateurs 80
palaeontologica 80
saranac 79
lockheed 79
dead 79
inaugurated 79
constructed 79
man 79
paul 79
1923 78
1930 78
1969 78
district 78
morgan 78
avocado 78
west 78
lippincott 78
soho 78
two 78
jusuf 78
kalla 78
icao 77
pinhais 77
airlines 77
march 77
1933 77
euro 77
mumbai 77
wilkins 77
dos 76
van 76
julia 76
alternative 76
academy 76
mattarella 76
spaniards 76
plack 76
den 76
publisher 76
madrid-barajas 75
reyes 75
scott 75
afit 75
susana 75
meat 75
sour 75
sergio 75
isidro 75
campeonato 75
brasileiro 75
abbreviation 75
powys 75
operates 74
arabic 74
went 74
14 74
february 74
lemon 74
hilmi 74
ankara 74
port 73
plants 73
mission 73
reference 73
republic 73
parliament 73
population 73
being 73
cake 73
alkmaar 73
feet 72
s 72
almond 72
almonds 72
course 72
all 72
valls 72
davutoglu 72
kuttikkattoor 72
bengo 71
brussels 71
competed 71
modi 70
15 70
spent 70
ranil 70
narendra 69
alma 69
wickremesinghe 69
larcher 69
municipality 69
michele 69
well 69
coden 69
thakur 68
transport 68
mater 68
peanut 68
sandesh 68
atatürk 68
soldiers 68
stadio 68
marcolini 68
brom 68
bronze 68
schiphol 67
arròs 67
nationwide 67
same 67
noodles 67
vincent-st 67
cowper 67
architectural 66
april 66
ryan 66
javanese 66
ottoman 66
army 66
metapan 66
tennis 66
hopkins 66
carrol 66
november 65
pacific 65
grove 65
castle 65
2009 64
tony 64
bread 64
2014-15 64
prabhukumar 64
garth 64
nix 64
burbank 64
base 63
invasion 63
ahmedabad 63
bolt 63
chosen 62
commerce 62
gold 62
body 62
bill 62
film 62
beans 62
come 62
attached 62
leipzig 62
anthem 62
sequel 62
broadcast 62
canonica 62
34 61
ac-130 61
originated 61
haputale 61
jam 61
gazette 61
1983 61
eaten 61
prokopis 60
division 60
higher 60
september 60
mason 60
creator 60
stars 60
paris 60
peninsula 60
china 60
pfk 60
juventus 60
director 60
postgraduate 60
klaus 60
belgaum 60
colombian 60
bucharest 60
alfred 59
joined 59
3 59
halimah 59
secret 59
viking 59
palaeontol 59
1966 59
m.a. 58
won 58
than 58
g. 58
governing 58
leads 58
key 58
cooked 58
granola 58
yacob 58
tan 58
solanales 58
category 58
killed 58
before 58
lies 58
silvano 58
aureoles 58
conejo 58
jose 57
alexis 57
harrietstown 57
globemaster 57
1862 57
asher 57
isabelle 57
georgia 57
butter 57
eggs 57
härtel 57
a.t. 57
information 57
granite 57
marble 57
3500 56
sao 56
chute 56
tsipras 56
boeing 56
june 56
student 56
built 56
richardson 56
lira 56
mahajan 56
nikos 56
curitiba 55
c-17 55
27 55
duncan 55
taro 55
17000 55
2001 55
systems 55
editor 55
scripture 55
universities 55
influenced 55
sumitra 55
reddy 55
18 54
15th 54
1959 54
address 54
governed 54
lokke 54
thomas 54
leaf 54
huseyin 54
butuner 54
guner 54
year 54
gazettes 54
transactions 54
voutsis 54
wrote 54
artur 54
rasizade 54
210 53
m.s. 53
rupee 53
rouleau 53
blockbuster 53
brown 53
sago 53
condensed 53
a. 53
série 53
mit 53
asphalt 52
elevated 52
pavlopoulos 52
infraero 52
central 52
award 52
sponge 52
variations 52
franklin 52
church 52
massimo 52
rolando 52
latin 52
universitas 52
iohannis 52
luanda 51
stern 51
jayawardenepura 51
water 51
plant 51
cheese 51
raisins 51
drago 51
jorge 51
superleague 51
premier 51
italians 51
jones 50
previous 50
george 50
tenants 50
including 50
manuel 50
valencian 50
park 50
a.d. 50
maran 50
northeast 50
johns 50
speaking 50
previously 50
der 49
bundelkhand 49
began 49
nation 49
significant 49
kotte 49
kilometres 49
madison 49
legislature 49
tomato 49
tomatoes 49
sambal 49
sarnie 49
1907 49
southwest 49
nickname 49
iulia 49
germans 49
swiss 49
pol 49
heinlein 49
placid 48
organization 48
mayor 48
ma 48
17th 48
per 48
francisco 48
j. 48
u.s 48
butty 48
flour 48
religion 48
1500 48
acf 48
2015 48
education 48
fallujah 48
owner 47
fought 47
awadh 47
1974 47
sanger 47
piece 47
barm 47
muffin 47
ketchup 47
organs 47
shrimp 47
footballer 47
weymouth 47
sands 47
usaf 46
place 46
28 46
smashed 46
rasher 46
given 46
istanbul 46
dan 46
greek 46
among 46
18l/36r 45
wilson 45
t. 45
poales 45
commander 45
worked 45
45 45
1987 45
buildings 45
africans 45
aired 45
cob 45
celery 45
belly 45
chorizo 45
standard 45
gerard 45
fiorentina 45
fk 45
status 45
mathematica 45
demonym 44
involved 44
1976 44
construction 44
320 44
center 44
cyril 44
michael 44
squeezed 44
'n 44
sesame 44
hungarica 44
later 44
159 43
Ícolo 43
charles 43
monocotyledon 43
had 43
architecture 43
p. 43
1931 43
ramaphosa 43
auron 43
seagle 43
countries 43
once 43
stoger 43
paperback 43
wolf 43
cameron 43
mcloughlin 43
northwest 43
visayas 43
610 42
b.s. 42
worden 42
entertainment 42
pain 42
local 42
mendoza 42
cullins 42
hot 42
cold 42
gram 42
jakarta 42
27th 42
originally 42
1904 42
patrick 42
viag 41
grand 41
german 41
commelinids 41
hired 41
arena 41
tudor 41
cuyahoga 41
jacob 41
kansas 41
jalisco 41
zamboangans 41
İzmir 41
metapán 41
dave 41
christian 41
panucci 41
ganges 41
kochi 41
sc.d 41
a/s 40
taylor 40
labour 40
chief 40
edwin 40
falls 40
am 40
asherton 40
density 40
albany 40
balder 40
1986 40
tim 40
warm 40
hogao 40
after 40
humberto 40
ticino 40
1913 40
sehitleri 40
aniti 40
operation 39
admin 39
margrethe 39
korean 39
108 39
anderson 39
roger 39
guadalajara 39
fullname 39
10000 39
olympic 39
sportpark 39
toekomst 39
harvard 39
polish 39
16000 39
546 38
anbar 38
essex 38
class 38
received 38
august 38
georges 38
terrace 38
irish 38
zuma 38
colombia 38
fish 38
sandwiches 38
arepa 38
plantain 38
genus 38
cornish 38
3180 38
sc 38
abhandlungen 38
aus 38
dem 38
mathematischen 38
seminar 38
hamburg 38
sci 38
sebastian 37
sebastián 37
naik 37
18th 37
compete 37
buffalo 37
roberts 37
minced 37
meringue 37
variant 37
enrique 37
nieto 37
arabs 37
arabian 37
solent 37
columbian 37
turk 37
then 37
25 36
lufthavn 36
211 36
headquartered 36
grenada 36
astronaut 36
december 36
wall 36
revival 36
boris 36
land 36
ernie 36
guanciale 36
lazio 36
hails 36
christmas 36
oyster 36
igorot 36
ealdorman 36
anglia 36
el 36
challinor 36
agremiacao 36
vila 36
clube 36
stanford 36
maiden 36
away 36
massachusetts 36
cape 36
containing 36
more 36
1-4165-2060-0 36
10l/28r 35
911 35
ellington 35
battles 35
included 35
jr 35
date 35
count 35
2008 35
limerick 35
fernando 35
auburn 35
aurakles 35
steve 35
another 35
tapioca 35
potatoes 35
hollande 35
nova 35
futebol 35
trans 35
inf 35
60040714 35
serving 35
names 34
attack 34
d 34
80002709 34
desalegn 34
km 34
steven 34
diaz 34
compressed 34
shredded 34
seminary 34
koln 34
70634 34
stöger 34
doctoral 34
tinkham 34
hiv/aids 34
ithaca 34
passed 34
teshome 34
pallesen 34
16,000 34
mahe 34
b.m. 34
james 33
hailemariam 33
atlanta 33
urich 33
oddie 33
fruit 33
metropolitan 33
chopped 33
salvador 33
s.p.a. 33
operate 33
river 33
psalm 33
series 33
blanco 33
10r/28l 32
al-taqaddum 32
maple 32
280 32
fighting 32
commonly 32
boston 32
arts 32
albuquerque 32
anaheim 32
patacones 32
sv 32
sk 32
978-1-4165-4253-7 32
hiv 32
edited 32
publishes 32
produced 32
while 32
banyumasan 32
ajo 32
postcode 32
general 31
dynamics 31
freedom 31
panama 31
100305 31
20th 31
cost 31
amharic 31
rock 31
walt 31
marv 31
dane 31
whitman 31
morcilla 31
confectionery 31
mexican 31
da 31
player 31
advisor 31
syst 31
qiu 31
wiley-blackwell 31
management 31
shirley 31
-3.3528 30
run 30
texans 30
falcon 30
eagle 30
performed 30
beach 30
riverside 30
graeme 30
garden 30
neighbouring 30
chicharon 30
dark 30
other 30
fruits 30
chievoverona 30
antonio 30
luciano 30
coaracy 30
mata 30
c. 30
austria 30
wien 30
telangana 30
baltic 30
galileo 30
affair 30
physics 30
universität 30
wolters 30
kluwer 30
60 30
14l/32r 30
agr 29
88 29
parana 29
f-16 29
douglas 29
17 29
million 29
dollars 29
populous 29
kilometre 29
comics 29
kesel 29
brooke-taylor 29
wolfman 29
fillings 29
contain 29
chilli 29
lega 29
spalletti 29
fonseca 29
mols 29
up 29
into 29
origin 29
deploy 29
citizen 29
typical 29
93645978 29
become 29
airports 28
497.0 28
tejano 28
carriers 28
degree 28
nationality 28
office 28
will 28
l. 28
started 28
rahm 28
emanuel 28
løkke 28
karl 28
desmond 28
colon 28
cephalopod 28
ink 28
cubanelle 28
lauraceae 28
vermicelli 28
laura 28
boldrini 28
filipino 28
ilocano 28
moro 28
categorized 28
estadio 28
horrigan 28
graduate 28
federation 28
xiaolong 28
grant 28
find 28
28th 28
specific 28
you 28
aktieselskab 27
s. 27
helicopter 27
mcdonnell 27
enduring 27
1981 27
! 27
competing 27
30843.8 27
richard 27
87000823 27
kenny 27
jan 27
ben 27
creators 27
la 27
using 27
stockport 27
youth 27
kv 27
mechelen 27
apulensis 27
motto 27
nurturing 27
excellence 27
448 27
1985 27
meride 27
iata 26
08/26 26
icolo 26
michel 26
hub 26
f-15 26
represented 26
awards 26
3xn 26
politician 26
enda 26
oregon 26
union 26
some 26
arion 26
person 26
bright 26
adsit 26
gene 26
gula 26
melaka 26
sliced 26
dried 26
soy 26
lengkuas 26
soya 26
39371 26
d. 26
paulo 26
sousa 26
gus 26
poyet 26
amsterdamsche 26
lokomotive 26
berliner 26
07 26
carrarese 26
vicenza 26
former 26
chesterfield 26
89646863 26
19238 26
faber 26
2776.0 25
schipol 25
3800.0 25
u.s.a. 25
sharif 25
birth 25
jr. 25
real 25
architects 25
height 25
craftsman 25
crafts 25
jackson 25
chinatown 25
australia 25
lankan 25
tv 25
colan 25
chili 25
cuttlefish 25
noodle 25
claude 25
putrajaya 25
form 25
nearest 25
davutoğlu 25
ak 25
babelsberg 25
03 25
torino 25
wiener 25
neustadt 25
aarhusiensis 25
short 25
authored 25
sage 25
973 25
like 25
carroll 25
hungar 25
2777.0 24
11/29 24
head 24
program 24
gregory 24
perth 24
1980 24
512 24
asterix 24
broadcasting 24
fox 24
buscema 24
rosaceae 24
freshly 24
broth 24
kailan 24
salted 24
shallots 24
cookie 24
bartolone 24
kuala 24
lumpur 24
districts 24
rovers 24
vincent 24
1174 24
57392246 24
publications 24
0-439-17684-0 24
0-439-92550-9 24
although 24
stv 24
bhaji 24
cottage 24
0-670-03380-4 24
57059226 24
u 24
taqaddum 23
03l/21r 23
menasha 23
mamnoon 23
hussain 23
1998 23
hok 23
owns 23
movement 23
brooklyn 23
alabama 23
tom 23
antioch 23
dick 23
lambien 23
writer 23
gardner 23
knight 23
squid 23
rutland 23
arms 23
preserves 23
ed 23
palm 23
carles 23
gérard 23
manual 23
pro 23
rodriguez 23
chairman 23
counties 23
2014-2015 23
69618 23
hartel 23
bari 23
1908 23
1909 23
olympiacos 23
magistrate 23
292 23
0-439-17685-9 23
wiley 23
0002-9327 23
random 23
columbia 23
sachsen 23
diane 23
latter 23
dr 23
são 22
josé 22
167.94 22
bachelor 22
deceased 22
fenves 22
australian 22
50 22
erected 22
augustus 22
pugin 22
1911 22
conservative 22
tamil 22
condiments 22
1820 22
use 22
sugar 22
tender 22
loin 22
rupiah 22
rutaceae 22
mondelez 22
23900 22
lancashire 22
berlin 22
carpi 22
about 22
abh 22
semin 22
univ 22
hambg 22
83646315 22
paleobiology 22
paleontology 22
0001-8392 22
work 22
ia 22
bajji 22
76798317 22
duane 22
apgpac 22
18r/36l 21
n@@ 21
dale 21
fuad 21
haider 21
e. 21
1988 21
seat 21
101 21
ukrop 21
alpharetta 21
b@@ 21
houston 21
airman 21
sometimes 21
mckenzie 21
sheldon 21
moldoff 21
lyle 21
francois 21
matteo 21
renzi 21
ximo 21
puig 21
köln 21
s.r.l. 21
playing 21
4150 21
sports 21
admira 21
wacker 21
steyr 21
breaz 21
valer 21
daniel 21
adv. 21
q 21
penguin 21
here 21
these 21
5300 21
works 20
faroese 20
al-abadi 20
nawaz 20
birthplace 20
over 20
aboard 20
ranks 20
helmut 20
cook 20
vietnamese 20
codes 20
municipal 20
lee 20
angeles 20
dillin 20
reith 20
larry 20
bolatinsky 20
gary 20
cohn 20
considered 20
jack 20
kirby 20
varied 20
pastry 20
paz 20
vala 20
abu 20
zahar 20
ujang 20
hüseyin 20
bütüner 20
güner 20
inhabited 20
jong 20
vitesse 20
arnhem 20
own 20
46451790 20
13/31 20
t@@ 20
aka 20
serve 20
cookies 20
alongside 20
0567-7920 20
oraa 19
don 19
jurisdiction 19
hal 19
masum 19
es 19
commanded 19
jahn 19
140000.0 19
natives 19
coloured 19
alexandria 19
ing 19
jill 19
shilling 19
i@@ 19
mark 19
carmine 19
infantino 19
rosids 19
l@@ 19
often 19
shortcrust 19
4.8 19
fat 19
iloilo 19
vajubhai 19
abdul 19
halim 19
kedah 19
solanaceae 19
Æthelwald 19
olimpico 19
2011 19
qarabag 19
boer 19
rector 19
employees 19
ad@@ 19
stories 19
lives 19
following 19
books 19
0-7156-3648-0 19
garrett 19
507 19
malatu 19
desserts 19
baduy 19
having 19
id 18
2215.0 18
3800 18
4000 18
greenlandic 18
light 18
combat 18
provincial 18
time 18
p 18
blvd. 18
filipinos 18
sq 18
q. 18
potter 18
duursema 18
baron 18
founder 18
last 18
roy 18
inkpot 18
puerto 18
peppers 18
puigdemont 18
llocano 18
d.c 18
1907-07-11 18
a.s 18
alvinegro 18
s.s.d. 18
milan 18
s.s. 18
uab 18
size 18
sport 18
kempe 18
gowda 18
publication 18
study 18
0-374-26131-8 18
388 18
sanderson 18
sons 18
picked 18
him 18
sve 18
leinster 18
mishkin 18
f.c 18
3000 18
mascot 18
hook 18
malays 18
15/33 17
3992.88 17
09l/27r 17
3310.0 17
tourist 17
destination 17
m. 17
guardian 17
democratic 17
danish 17
greeks 17
jinnah 17
ribbon 17
francis 17
pickard 17
chilton 17
concerts 17
events 17
quay 17
1964 17
1980-04-23 17
andrew 17
indians 17
attica 17
bay 17
kupperberg 17
simonson 17
appeared 17
pirate 17
classed 17
pepper 17
regions 17
condiment 17
pakora 17
political 17
ethic 17
efxeinoupoli 17
armando 17
picchi 17
denzil 17
bury 17
chelsea 17
associated 17
virtus 17
entella 17
inter 17
brandon 17
afonsa 17
libya 17
3360.12 17
near 17
examiner 17
netherland 17
pecorino 17
romano 17
frangipane 17
kolin 17
5000 17
competes 17
'em 17
1700 17
such 17
philippe 17
third 16
governs 16
mobility 16
second 16
brasilia 16
100305.0 16
s@@ 16
feinstein 16
slay 16
111484 16
munster 16
williamsburg 16
giles 16
476 16
anandiben 16
patel 16
legislative 16
representatives 16
king 16
measures 16
len 16
wein 16
stan 16
goscinny 16
either 16
genoa 16
drogheda 16
8805735 16
1732-2421 16
society 16
four 16
world 16
trade 16
herald 16
originating 16
1.8 16
protein 16
78771100 16
madrid-barejas 15
o@@ 15
05l/23r 15
little 15
2nd 15
chris 15
52 15
dianne 15
bird 15
romanesque 15
via 15
cyrus 15
vance 15
inhabit 15
sterling 15
orange 15
astérix 15
odinson 15
ballistic 15
disney 15
studios 15
otherwise 15
rosales 15
similar 15
honey 15
chicharron 15
acehnese 15
ad 15
cornwall 15
dino 15
manuzzi 15
development 15
gordon 15
marsden 15
colwyn 15
offered 15
almamater 15
0269-9370 15
1473-5571 15
annie 15
dunne 15
amahe9 15
1588-2632 15
0965-2140 15
doctorate 15
mulatu 15
shown 15
broadcasted 15
types 15
atalanta 15
deșteaptă-te 15
române 15
printed 15
1-56947-301-3 15
graduating 15
tenanted 15
bungalows 15
itself 15
deportiva 15
back 15
brazilians 15
17l/35r 14
kimberly 14
4/22 14
t.s. 14
patten 14
eugene 14
purple 14
finch 14
1969-09-01 14
22 14
america 14
hearst 14
pound 14
.@@ 14
ann 14
arbor 14
ahri'ahn 14
geering 14
motion 14
starring 14
rican 14
different 14
too 14
carbohydrates 14
should 14
soup 14
carrie 14
lam 14
javenese 14
karnatka 14
martyr 14
50000 14
marc 14
rodríguez 14
47290 14
max 14
huiberts 14
f@@ 14
tranmere 14
netherlands 14
zaragoza 14
robur 14
siena 14
offers 14
romane 14
1558-2868 14
computing 14
978-0-15-204770-2 14
84 14
sardar 14
ayaz 14
below 14
ts 14
since 14
88002539 14
dishes 14
know 14
p@@ 14
pa 14
holds 14
17023 14
k-w 14
affiliate 14
strong 14
services 14
between 14
aethelwald 14
connections 14
aktieselkab 13
3078.48 13
peoples 13
2900.0 13
8.0 13
4000.0 13
a@@ 13
queen 13
c-130 13
hercules 13
nov 13
l 13
senator 13
collin 13
ambassador 13
norway 13
1929 13
1961 13
42 13
finished 13
a.m. 13
georgian 13
1995 13
blvd 13
gale 13
brewer 13
postal 13
arlington 13
covers 13
moench 13
pictures 13
rochdale 13
arrow 13
laurales 13
lettuce 13
chicharrón 13
françois 13
provided 13
27250 13
bentegodi 13
n.v. 13
minicipal 13
rb 13
graafschap 13
anderlecht 13
castrovillari 13
authors 13
et 13
1046-8188 13
j.v. 13
publishers 13
bombing 13
sadiq 13
518.0 13
nj 13
tofu 13
k@@ 13
32024459 13
45644811 13
managing 13
compliment 13
studied 13
respectively 13
scd 13
kabi 12
610.0 12
3,500 12
3500.0 12
4349 12
1800 12
3990.0 12
07/25 12
900.0 12
turkmenabat 12
flight 12
21st 12
120 12
62145.3 12
110 12
lewis 12
cottingham 12
philip 12
hardwick 12
ated 12
beds 12
route 12
83 12
clancy 12
khalid 12
mahmood 12
gates 12
springfield 12
re@@ 12
drake 12
kapitan 12
harry 12
sahle 12
alter 12
ego 12
fictional 12
doug 12
maya 12
rudolph 12
w@@ 12
an@@ 12
invented 12
make 12
nice 12
sapindales 12
shiitake 12
cesana 12
i 12
warton 12
futbol 12
alkmaair 12
championship 12
catania 12
atiset 12
computer 12
machinery 12
hardback 12
amhaaj 12
1360-0443 12
behalf 12
1080-6377 12
violet 12
keystone 12
notable 12
hq 12
n 12
spata 12
shephard 12
ms 12
r@@ 12
cept 12
several 12
m@@ 12
originate 12
eat 12
.the 12
during 12
additionally 12
1533.0 12
belonging 12
monarchy 12
however 12
she 12
b.s 12
1121.0 11
aiport 11
4349.0 11
1800.0 11
saint 11
2744.0 11
2744 11
am@@ 11
1411 11
597.0 11
03r/21l 11
94 11
n.j. 11
1873 11
if 11
mar 11
21 11
representative 11
1933-10-17 11
redefine 11
properties 11
firm 11
121.92 11
jacobean 11
inauguration 11
dimmit 11
liberal 11
democrats 11
abe 11
hometown 11
justice 11
amarillo 11
offset 11
ca 11
titled 11
parts 11
capitol 11
stevens 11
albert 11
uderzo 11
bibbowski 11
tudyk 11
jamie 11
chung 11
jerry 11
ordway 11
preparation 11
y 11
oregano 11
throughout 11
southeastern 11
calero 11
srl 11
53502 11
eredivisie 11
estádio 11
ado 11
r.s.c. 11
alianza 11
maccabi 11
tel 11
aviv 11
modling 11
rapid 11
vorwärts 11
varese 11
irlam 11
runcorn 11
halton 11
past 11
ammann 11
ring 11
fire 11
th 11
impact 11
factor 11
0-7653-0633-6 11
bodley 11
49805501 11
publish 11
wizards 11
harcourt 11
focused 11
samuel 11
curtis 11
scrivener 11
1878 11
lincoln 11
nebraska 11
cities 11
bs 11
byron 11
lalbhai 11
opp 11
addition 11
persea 11
udinese 11
0025-5858 11
surfaced 11
dutch 11
lord 11
californian 11
formation 11
turn 11
r 11
# 11
1,121 10
ata 10
arrondissement 10
600.0 10
2989.0 10
75 10
23.0 10
paraná 10
turkmenbashi 10
1930-01-20 10
1971 10
start 10
hosts 10
nockalls 10
3746.66 10
27nd 10
bloomsbury 10
monroe 10
utc 10
rona 10
radio 10
manley 10
voiced 10
bibbo 10
roland 10
eisner 10
lemons 10
arifin 10
zakaria 10
stands 10
liga 10
a.e. 10
kellamergh 10
pallotta 10
-@@ 10
nicknamed 10
topklasse 10
matches 10
portugal 10
mödling 10
blackburn 10
post 10
post-graduate 10
desteapta-te 10
schneider 10
put 10
aaidbi 10
51969173 10
360 10
concerned 10
pure 10
bones 10
2702.0 10
headed 10
al@@ 10
page 10
dupage 10
10/03/1983 10
consists 10
o 10
mechanics 10
fans 10
vorwarts 10
original 10
pol. 10
llcn 10
primary 10
v 10
aarus 10
prequel 10
anwar 10
zaheer 10
jamali 10
sbct 10
feb 10
episode 10
ft 9
3,990 9
3,992.88 9
'' 9
03/21 9
lo@@ 9
ac@@ 9
5 9
outagamie 9
12r/30l 9
3048.0 9
clayton 9
winnebago 9
leading 9
1998-07-21 9
operator 9
living 9
appointed 9
sept 9
crewed 9
limited 9
44114 9
monastery 9
mitchell 9
ethiopian 9
akihito 9
bethesda 9
congress 9
e@@ 9
genre 9
st@@ 9
g@@ 9
distributed 9
brooke 9
onion 9
carbs 9
recipes 9
mindanao 9
citrus 9
najib 9
razak 9
designer 9
designers 9
spa 9
epsth 9
s.p.a 9
klubu 9
asa 9
gigante 9
c.f.c. 9
arapiraca 9
haag 9
a.s.d. 9
vigor 9
500 9
10@@ 9
blue 9
u@@ 9
90640840 9
318875313 9
0236-5294 9
233 9
1480153 9
glendower 9
le@@ 9
out 9
,@@ 9
a.s.l. 9
in@@ 9
j@@ 9
obtained 9
/@@ 9
link 9
bridge 9
814 9
rooms 9
dalpatbhai 9
famous 9
phillippines 9
1936 9
salvadoran 9
primera 9
/ 9
el@@ 9
as@@ 9
1,533 9
jon 9
coming 9
still 9
clubs 9
aircrafts 9
join 9
abbrv 9
17r/35l 8
en@@ 8
i.d. 8
habbaniyah 8
09r/27l 8
733.0 8
eberhard 8
laan 8
2014.0 8
2,@@ 8
1,982 8
1982 8
12/30 8
34.0 8
kurdish 8
transportation 8
stephen 8
dilts 8
just 8
defense 8
legion 8
merit 8
brutalist 8
rafael 8
build 8
j 8
mcmanus 8
jacabian 8
musuem 8
kendall 8
palace 8
westminster 8
shinzo 8
landmark 8
ski 8
404 8
most 8
fountain 8
pierce 8
travis 8
pe@@ 8
amazing-man 8
fairhead 8
voice 8
damon 8
wayans 8
so 8
aberdeen 8
rene 8
rené 8
gustavson 8
lemper 8
grams 8
18.0 8
requires 8
batak 8
solanum 8
bundesliga 8
jepson 8
al-shamal 8
pavloopoulos 8
c.d. 8
aguila 8
empoli 8
potenza 8
lamezia 8
vienna 8
lask 8
linz 8
unione 8
triestina 8
2012 8
h@@ 8
undergraduate 8
c@@ 8
weber 8
media 8
resides 8
2158-3226 8
1.524 8
v. 8
tor 8
penned 8
universitat 8
1865-8784 8
abh.math.semin.univ.hambg 8
springer 8
248 8
academically 8
version 8
australians 8
literature 8
warsaw 8
poland 8
sara 8
mccune 8
ny 8
1932-03-15 8
career 8
got 8
erie 8
features 8
foods 8
u.k. 8
said 8
dumpling 8
türk 8
locally 8
delfino 8
pescara 8
b.c. 8
bc 8
capacity 8
vica 8
facts 8
novels 8
mans 8
and/or 8
affiliation 8
130 8
joining 8
rivers 8
plane 8
working 8
bsc 8
g.p. 8
25.0 7
4100.0 7
4th 7
5th 7
3400.0 7
16/34 7
appletone 7
operators 7
900 7
1873.0 7
shehbaz 7
lavern 7
retirement 7
exact 7
1974-08-01 7
aug 7
occupation 7
ted 7
13017 7
benedict 7
haputhale 7
nakadori 7
koreans 7
behind 7
fulton 7
senate 7
ates 7
hays 7
li@@ 7
kelvin 7
mao 7
superhero 7
appearance 7
colón 7
rick 7
may 7
ation 7
basko 7
related 7
potatotes 7
heard 7
placed 7
1932-07-27 7
stone 7
pro/a 7
ae 7
lane 7
a.s.roma 7
shuvalan 7
pdl 7
giorgos 7
kaminis 7
loc@@ 7
heads 7
a.Ş 7
istanbulspor 7
ssd 7
archarya 7
63 7
ic@@ 7
672 7
cowpher 7
owen 7
came 7
macmillan 7
3990 7
973.0 7
recipient 7
co@@ 7
benitoite 7
gemstone 7
actually 7
we 7
benjamin 7
origins 7
important 7
when 7
phillipines 7
studies 7
patron 7
apostle 7
adv 7
is@@ 7
retiring 7
shepherd 7
reside 7
specifically 7
germania 7
schoneiche 7
asociación 7
asociacion 7
m.s 7
numbers 7
aso 7
largely 7
ethnically 7
positioned 7
abi 6
2194.0 6
2,195 6
n.y. 6
1818 6
ay 6
3,310 6
aplena 6
3@@ 6
3453.0 6
18c/36c 6
3,800 6
1510.0 6
atw 6
1960 6
kacy 6
1,873 6
malik 6
muhammad 6
rafique 6
rajwana 6
1923-11-18 6
un@@ 6
13017.0 6
9 6
organized 6
52.0 6
8820.0 6
1978 6
formerly 6
28.0 6
begun 6
tadao 6
ando 6
bed 6
dáil 6
Éireann 6
birr 6
emperor 6
kilometers 6
6@@ 6
linn 6
berry 6
fall 6
creek 6
williamson 6
ch@@ 6
de@@ 6
aman 6
everett 6
laird 6
birkenhead 6
bozo 6
iron 6
brenner 6
a.k.a. 6
thought 6
1999 6
corn 6
apium 6
peso 6
peña 6
ethnicity 6
dollar 6
minangkabau 6
regionalliga 6
ed@@ 6
a.c 6
a.f.c 6
bryning 6
on@@ 6
nv 6
peşəkar 6
zaanstreek 6
qarabağ 6
cfc 6
alagoas 6
İstanbulspor 6
fas 6
asd 6
licita 6
barrow 6
favoritner 6
cantania 6
sparta 6
affilaited 6
colours 6
ranking 6
monarch 6
library 6
classification 6
farrar 6
straus 6
giroux 6
560 6
blackwell 6
1461102 6
fantasy 6
eissn 6
1080 6
alexander 6
ab@@ 6
air@@ 6
the@@ 6
2900 6
bo@@ 6
centre 6
no@@ 6
den@@ 6
k 6
1966-02-28 6
salle 6
bo 6
er@@ 6
boasts 6
be@@ 6
not 6
usually 6
nola 6
1925 6
th@@ 6
ds 6
it@@ 6
barcelona 6
amateur 6
johannis 6
example 6
ak@@ 6
2777 6
1533 6
becoming 6
criona 6
dhalaigh 6
alternatively 6
kate 6
hardie 6
h 6
abbr 6
gr@@ 6
u.s.a 6
citizens 6
various 6
enjoyed 6
metro 6
1/19 6
m.a 6
st.louis 6
tarō 6
asō 6
germanic 6
oct 6
slk 5
1219.0 5
4,100 5
911.0 5
618 5
apn 5
tion 5
7/25 5
fourth 5
haarlemmermeer 5
zwanenburgbaan 5
e11 5
2/20 5
8002 5
3/21 5
1411.0 5
2953 5
asb 5
flanders 5
iraqi 5
dinar 5
ahora 5
sh@@ 5
io 5
term 5
texan 5
noted 5
days 5
00@@ 5
0@@ 5
07/23/1927 5
vice 5
1973 5
ce 5
120m 5
exchange 5
bank 5
venue 5
completion 5
responsible 5
jp 5
admisham 5
money 5
asians 5
2@@ 5
30@@ 5
kilometer 5
benton 5
765 5
678 5
-8 5
tarrant 5
dekalb 5
ar@@ 5
bi@@ 5
seattle 5
randall 5
ri@@ 5
provides 5
distributor 5
ralph 5
payne 5
buxton 5
meal 5
basil 5
padeh 5
claim 5
whole 5
kidney 5
classified 5
valencia 5
source 5
d@@ 5
> 5
complete 5
lucky 5
laughlin 5
fsv 5
zwickau 5
cd 5
soccer 5
attend 5
attending 5
ly 5
outlook 5
call 5
e-book 5
residence 5
h. 5
crespi 5
bernard 5
gerstman 5
masaaki 5
tanaka 5
enge 5
wang 5
simon 5
schuster 5
adice5 5
ne@@ 5
orthoretrovirinae 5
retrovirus 5
l'engle 5
macdonald 5
prior 5
elkin 5
mathews 5
18@@ 5
held 5
common 5
po@@ 5
2 5
gar@@ 5
av@@ 5
v@@ 5
barney 5
dumplings 5
bananas 5
ment 5
participated 5
ro@@ 5
men@@ 5
amsterdam-centrum 5
games 5
marousi 5
lulia 5
abbreviating 5
7877110 5
identified 5
4 5
ons 5
bombed 5
4@@ 5
residents 5
te@@ 5
críona 5
ní 5
dhálaigh 5
marriot 5
houses 5
22nd 5
valor 5
ay@@ 5
brazilian 5
took 5
syst. 5
ru@@ 5
14r/32l 5
major 5
phillipe 5
er 5
vinoly 5
whilst 5
.its 5
neighbours 5
lentivirus 5
prominent 5
planes 5
granted 5
3678 4
7202 4
2195.0 4
6573 4
id@@ 4
2003.0 4
4,349 4
2988 4
4019.0 4
3090 4
anne 4
04/22 4
polderbaan 4
2939 4
1773.0 4
4000ft 4
bart 4
wever 4
1982.0 4
age 4
12l/30r 4
concrete 4
wellington 4
aircraft-capable 4
headquarter 4
69 4
crewman 4
20,1930 4
7@@ 4
walked 4
smilodon 4
8820 4
ter@@ 4
aud 4
1200 4
142 4
millar 4
2009-10-02 4
hopsital 4
website 4
winkler 4
japanese 4
sqkm 4
7 4
lafayette 4
washtenaw 4
214 4
marcos 4
produces 4
ore 4
field 4
rico 4
adding 4
cre@@ 4
cooking 4
recipe 4
fritters 4
wheat 4
cauliflower 4
paneer 4
saw 4
a.f.c.fylde 4
barbetti 4
hoofdklasse 4
bakou 4
afas 4
stadion 4
ens 4
os 4
left 4
ecology 4
mendriso 4
enrolled 4
~ 4
pro@@ 4
around 4
institue 4
ers 4
te 4
editors 4
assigned 4
bimonthly 4
bi-monthly 4
ages 4
madeleine 4
populated 4
2702 4
ian 4
3684 4
3684.0 4
210m 4
3.3528 4
12.0 4
har@@ 4
ally 4
ave. 4
140000 4
1988-11-22 4
mar@@ 4
star 4
ban@@ 4
co 4
vari@@ 4
comprised 4
son 4
penet 4
goes 4
referred 4
inside 4
con@@ 4
ic 4
18g 4
at@@ 4
Şehitleri 4
anıtı 4
or@@ 4
1fc 4
obviously 4
neighboring 4
parented 4
counts 4
sub@@ 4
librarian 4
math. 4
scriptures 4
e-@@ 4
ter 4
f16 4
island 4
497 4
orders 4
runs 4
33@@ 4
only 4
speaks 4
se@@ 4
belong 4
3048 4
flew 4
20@@ 4
covering 4
child 4
y@@ 4
pre@@ 4
wh@@ 4
ur@@ 4
f. 4
i. 4
admin.sci.q 4
airforce 4
pen@@ 4
resident 4
structure 4
three 4
doshi 4
ruler 4
show 4
tenderloin 4
lie 4
through 4
romanian 4
prece@@ 4
onto 4
sen 4
ruled 4
balgalore 4
techology 4
dept 4
nasa-operated 4
seal 3
1,219 3
1818.0 3
4,019 3
3090.0 3
ai 3
877.0 3
9001 3
lpena 3
oostbaan 3
09/27 3
ser@@ 3
aalsmeerbaan 3
9@@ 3
39 3
1773 3
15@@ 3
1,411 3
12467 3
gu@@ 3
harrietsown 3
battled 3
involving 3
performs 3
spend 3
ju@@ 3
fossil 3
representing 3
beginning 3
ausitin 3
39599.0 3
viñoly 3
120770.0 3
developed 3
addid 3
halls 3
1-4-2 3
30 3
gro@@ 3
sytle 3
shinzō 3
joh 3
project 3
` 3
14.2 3
286.5 3
429.9 3
161.54 3
.0 3
144.7 3
dougherty 3
54 3
1104.1 3
bernalillo 3
755.3 3
1.0 3
55.4 3
992.6 3
min@@ 3
-7 3
25.2 3
131.6 3
48.0 3
tait 3
336265 3
107.43 3
268.0 3
523.9 3
steuben 3
524.5 3
74.33 3
z@@ 3
75.324 3
102372 3
94509 3
94531 3
682 3
817 3
469 3
972 3
470 3
347.1 3
609 3
clerk 3
1421.2 3
4.14 3
logan 3
783.1 3
1.7 3
140.8 3
368.65 3
forms 3
914.8 3
1296.65 3
corvallis 3
z 3
navajo 3
san@@ 3
greater 3
em 3
richland 3
worth 3
uni@@ 3
tes 3
olympia 3
o'neal 3
o'neil 3
does 3
af@@ 3
simply 3
dillian 3
alley 3
winner 3
consist 3
ist 3
apple 3
contained 3
sn@@ 3
casillas 3
romero 3
ting 3
monuments 3
dictates 3
branch 3
participating 3
antonis 3
milionis 3
a.s.livorno 3
pesokar 3
premierleague 3
eehoorn 3
noord 3
amsterdam-noord 3
cf 3
ly@@ 3
ated@@ 3
licata 3
rotterdam 3
si@@ 3
x 3
ap@@ 3
ately 3
ait 3
colors 3
?? 3
kke 3
desteapta 3
vicent 3
glastonbuy 3
ascqag 3
ary 3
virus 3
bundsgaard 3
2776 3
airportis 3
4100 3
733 3
schuphol 3
locals 3
159m 3
ve 3
280m 3
auckland 3
utaa 3
211m 3
position 3
ranked 3
life 3
prepared 3
occupied 3
postmodern 3
0 3
tall 3
ents 3
metre 3
kevin 3
eastman 3
winning 3
frenchman 3
di@@ 3
movie 3
northbrook 3
hugh 3
hazzard 3
go@@ 3
ger 3
amatricana 3
ent 3
fil@@ 3
catalonian 3
sumatran 3
surprisingly 3
fresh 3
mainly 3
ag@@ 3
bhaj@@ 3
les 3
le 3
desert 3
origin@@ 3
hon@@ 3
connected 3
división 3
ist@@ 3
ul@@ 3
competition 3
flows 3
large 3
aaarhus 3
number@@ 3
1635 3
cannon 3
law 3
ased 3
subsidiary 3
lian 3
almost 3
mad@@ 3
ica 3
am.j.math 3
1.337 3
2,776 3
2,194 3
2215m 3
ut@@ 3
4019 3
fighters 3
al-@@ 3
ans 3
me@@ 3
12@@ 3
1.@@ 3
518 3
host 3
chose 3
fr@@ 3
se 3
leadership 3
ure 3
laselle 3
ll 3
ethopia 3
col@@ 3
andalusian 3
antioquio 3
mushrooms 3
very 3
product 3
mexicans 3
est 3
ach@@ 3
mo@@ 3
mu@@ 3
officially 3
es@@ 3
champion 3
ex@@ 3
val@@ 3
aj@@ 3
n.@@ 3
memberrs 3
event 3
governor 3
chieti 3
1600 3
predecessor 3
ville 3
tr@@ 3
abreviation 3
adviser 3
follow 3
format 3
hungar. 3
nu@@ 3
mb@@ 3
danes 3
2195 3
alcobenda 3
a.@@ 3
runaway 3
ent@@ 3
ce@@ 3
controlled 3
bas@@ 3
s.@@ 3
896 3
wi 3
597 3
f 3
193@@ 3
1927-07-23 3
years 3
stre@@ 3
198@@ 3
facility 3
her 3
fransisco 3
ethiopa 3
showed 3
featured 3
ald@@ 3
leader@@ 3
predomin@@ 3
ital@@ 3
ate 3
ing@@ 3
fun 3
fe@@ 3
cuisine.the 3
indonesia.@@ 3
puidgemont 3
commemorated 3
homeground 3
st.mary 3
ar 3
architetturia 3
univerrsity 3
mahé 3
ity 3
comprise 3
help 3
palaeontol.pol 3
us@@ 3
brit@@ 3
though 3
jo@@ 3
u.s.a.f. 3
14/32 3
mr 3
until 3
pilo@@ 3
hosted 3
ras@@ 3
ous 3
and@@ 3
sandoval 3
turkeys 3
-born 3
spending 3
7,202 2
6,573 2
fier 2
kheria 2
station 2
2743.0 2
mat 2
877 2
fifth 2
ph@@ 2
3300.0 2
3,453 2
derbaan 2
buitenveldertbaan 2
pl@@ 2
929.0 2
929 2
13,123 2
13123 2
zeland 2
curitaba 2
utiliz@@ 2
separ@@ 2
13017,0 2
13@@ 2
01 2
7th 2
197@@ 2
/01 2
1971-07-01 2
fo@@ 2
senators 2
willian 2
opened 2
ran@@ 2
johannesburg 2
ret 2
developers 2
benedicts 2
style`@@ 2
aid@@ 2
30th 2
2007 2
au@@ 2
gujurat 2
julie 2
bethseda 2
sqk 2
albilene 2
524.0 2
.88 2
0.@@ 2
1239.3 2
62.0 2
535.0 2
541 2
458 2
0,@@ 2
008 2
4.@@ 2
505 2
575 2
486.2 2
n.m. 2
490.9 2
1142.3 2
6.81 2
26@@ 2
5@@ 2
770 2
346.0 2
806 2
109@@ 2
9.0 2
746 2
657 2
714 2
16.55 2
734 2
christopher 2
82.8 2
258.2 2
344.9 2
129@@ 2
334 2
686.0 2
703.95 2
contra 2
costa 2
ult@@ 2
covington 2
lansing 2
newark 2
tripp 2
chez 2
tacoma 2
canyon 2
fort 2
ying 2
biggest 2
ps 2
round 2
products 2
bcc 2
stared 2
anc@@ 2
actor 2
bolf 2
colle@@ 2
cted 2
var@@ 2
ita 2
resu@@ 2
needed 2
strawberries 2
strawberry 2
introduc@@ 2
best 2
whet 2
bing@@ 2
apiaceae 2
jesús 2
jes@@ 2
pic@@ 2
founding 2
responsibility 2
ahmet_davutoğlu 2
fiorentia 2
shuvulan 2
eenhoorn 2
akrons 2
ones@@ 2
ta 2
qu@@ 2
youth@@ 2
peterstöger 2
und@@ 2
employs 2
x@@ 2
technolog@@ 2
under@@ 2
graduates 2
institude 2
op@@ 2
give 2
ati@@ 2
telagana 2
rebelllion 2
studiies 2
devoted 2
pr6031 2
.0867 2
pr6031o867 2
ps3523.e55 2
s4 2
+ 2
discipine 2
abbreivated 2
machine 2
unversity 2
retroviruses 2
vi@@ 2
europe 2
blaenau 2
ffestin@@ 2
oliver 2
porius 2
julius 2
airpor 2
00.00 2
carrier 2
carried 2
ft. 2
commelinid 2
29@@ 2
govern 2
25@@ 2
runways 2
intere@@ 2
2989m 2
2989 2
authorities 2
covered 2
pur@@ 2
su@@ 2
cr@@ 2
100,305 2
ians 2
ci@@ 2
outer 2
ge@@ 2
eliot 2
28,1966 2
28@@ 2
02@@ 2
/1966 2
ign@@ 2
24@@ 2
du 2
mariott 2
overseen 2
man@@ 2
bu@@ 2
aba 2
styled 2
inagurated 2
easter 2
kar@@ 2
3/10/1983 2
tayler 2
u.k 2
cy 2
ge 2
ajo@@ 2
atar@@ 2
iciana 2
component 2
ale 2
derives 2
've 2
others 2
ance 2
flavour 2
sl@@ 2
sandwhich 2
them 2
better 2
sum@@ 2
pasta 2
ry 2
por@@ 2
ty 2
makes 2
ve@@ 2
solan@@ 2
binigit 2
bin@@ 2
ignit 2
bionic@@ 2
'll 2
ant 2
puig@@ 2
accompani@@ 2
ah@@ 2
ajji 2
zamboangan 2
inds 2
ab 2
acy 2
a.c.chievo 2
nar@@ 2
dim@@ 2
fc. 2
ss 2
19,238 2
fl@@ 2
manag@@ 2
membership 2
spor@@ 2
17,000 2
teams 2
et@@ 2
tur@@ 2
bordered 2
per@@ 2
primarily 2
follow-up 2
alum@@ 2
j.v 2
rele@@ 2
0-@@ 2
xialong 2
unrelated 2
rel@@ 2
ine 2
388-page 2
mat@@ 2
math.hungar 2
pol@@ 2
je@@ 2
abbrevi@@ 2
conrnell 2
ae@@ 2
320-page 2
therefore 2
denamrk 2
lufthaven 2
3500m 2
of@@ 2
par@@ 2
for@@ 2
falcons 2
figh@@ 2
f15 2
aircarft 2
nel 2
ions 2
1@@ 2
97@@ 2
ney 2
allam 2
3,300 2
indigen@@ 2
4,000 2
en 2
res 2
ale@@ 2
2439.0 2
0.9 2
istan 2
ash@@ 2
airpor@@ 2
helicop@@ 2
ters 2
q@@ 2
allan 2
fly 2
nws 2
ren 2
bus@@ 2
organised 2
ake 2
late 2
call@@ 2
politic@@ 2
cover 2
winckler 2
fig@@ 2
helped 2
desig@@ 2
ba 2
dal@@ 2
il@@ 2
corpor@@ 2
jh@@ 2
bir@@ 2
fair@@ 2
banaman 2
billie 2
daughter 2
roule@@ 2
appears 2
ture 2
ating 2
alus@@ 2
jusef 2
cur@@ 2
des 2
apor@@ 2
jav@@ 2
sausages 2
inclusdes 2
claimed 2
pan@@ 2
pat@@ 2
variety 2
bakew@@ 2
colomb@@ 2
ain 2
bartalone 2
bat@@ 2
indones@@ 2
filippino 2
ico 2
philippin@@ 2
ethinic 2
closest 2
sy@@ 2
lan@@ 2
ethelwald 2
vis@@ 2
fi@@ 2
ional 2
lost 2
dr@@ 2
ag 2
reg@@ 2
che@@ 2
vo@@ 2
s.s.d 2
-1@@ 2
active 2
vout@@ 2
today 2
rsc 2
ham 2
-based 2
pi@@ 2
formally 2
der@@ 2
accadmia 2
cap@@ 2
foundation 2
visvesaraya 2
arhus 2
universi@@ 2
follows 2
influence 2
oc@@ 2
heinlen 2
al. 2
predominantly 2
ass@@ 2
advance 2
char@@ 2
399@@ 2
english-@@ 2
establish@@ 2
focuses 2
hungar@@ 2
palaeontological 2
27367194 2
math@@ 2
met@@ 2
ics 2
br@@ 2
ies 2
vers@@ 2
operationg 2
do 2
infrareo 2
i.d 2
identifiers 2
identifi@@ 2
tit@@ 2
3.@@ 2
aircaft 2
carry 2
ada 2
worthy 2
ate@@ 2
3310 2
a.the 2
06/24 2
kaagbaan 2
austin.@@ 2
eng@@ 2
lu@@ 2
sh 2
widely 2
green@@ 2
ton@@ 2
are@@ 2
poacea 2
airlines.the 2
38@@ 2
un 2
spain.it 2
ake@@ 2
rated 2
2215 2
ma@@ 2
count@@ 2
poace@@ 2
loh@@ 2
w 2
2.@@ 2
sadly 2
11@@ 2
obtaining 2
ear@@ 2
affiliations 2
7.@@ 2
dying 2
10/@@ 2
17/@@ 2
09/01/1969 2
1969.09.01 2
ceived 2
consisting 2
colman 2
39599 2
linked 2
205 2
dail 2
eireann 2
-speaking 2
commenced 2
ech 2
2013 2
tu@@ 2
mi@@ 2
ler 2
med@@ 2
manhat@@ 2
ten 2
4/2@@ 2
who@@ 2
tor@@ 2
produce 2
spain@@ 2
components 2
y.@@ 2
sauces 2
sauce@@ 2
.it 2
att@@ 2
ia.@@ 2
singapore.it 2
mashed 2
too@@ 2
malas@@ 2
well.the 2
.blt 2
states.its 2
eth@@ 2
fact 2
main@@ 2
frangipane-based 2
bakwell 2
chocolate 2
flavoured 2
shitake 2
philipp@@ 2
pines 2
ba@@ 2
confectionary 2
ines@@ 2
together 2
mexic@@ 2
o.it 2
ra 2
tarts 2
ind@@ 2
ric@@ 2
ig@@ 2
redi@@ 2
present 2
car@@ 2
legislated 2
turk@@ 2
7and 2
pr@@ 2
winners 2
ite@@ 2
unded 2
souza 2
inter@@ 2
aklmaar 2
educational 2
karanataka 2
alp 2
a.t 2
ish 2
caucasian 2
bac@@ 2
ants 2
look@@ 2
ong@@ 2
measuring 2
l/@@ 2
loca@@ 2
610m 2
brasil 2
911m 2
details 2
2,215 2
wars 2
od 2
control 2
11/39 2
8m 2
3m 2
helipad 2
leng@@ 2
wiconsin 2
com@@ 2
ili@@ 2
cont@@ 2
going 2
achievements 2
command 2
short@@ 2
graduation 2
beintoite 2
recently 2
competitor 2
wiliam 2
ks 2
ho@@ 2
projects 2
me 2
3/@@ 2
site 2
barak 2
airing 2
cia 2
kaila 2
ked 2
ard 2
serverd 2
aristoteles 2
deryshire 2
categorization 2
get@@ 2
sburg 2
south-east 2
iz@@ 2
mendris@@ 2
attendance 2
aya 2
kuttittattoor 2
ently 2
eric@@ 2
despite 2
amongst 2
sub-group 2
earned 2
because 2
would 2
azer@@ 2
gly 2
rectore 2
accadem@@ 2
dr.sarvapalli 2
alcharya 2
aarh@@ 2
death 2
passing 2
commemorates 2
iti@@ 1
alder@@ 1
schi@@ 1
ol@@ 1
oo@@ 1
stbaan 1
buitenvel@@ 1
dam 1
sci@@ 1
phol 1
10 1
ver@@ 1
75@@ 1
bel@@ 1
im 1
town@@ 1
def@@ 1
ence 1
1/@@ 1
sil@@ 1
str@@ 1
delaw@@ 1
re 1
develo@@ 1
j.@@ 1
gur@@ 1
524@@ 1
53@@ 1
4,@@ 1
114@@ 1
6,@@ 1
81 1
occupi@@ 1
5.0 1
46.0 1
inhabit@@ 1
258.@@ 1
214@@ 1
68@@ 1
was@@ 1
sch@@ 1
ka 1
á@@ 1
sal@@ 1
occup@@ 1
georg@@ 1
amaz@@ 1
her@@ 1
é 1
cast@@ 1
bowski 1
wolf@@ 1
arrabbi@@ 1
pad@@ 1
ack 1
oks 1
mag@@ 1
burg 1
inte@@ 1
res@@ 1
arapiraqu@@ 1
pallo@@ 1
magde@@ 1
bur@@ 1
gs 1
rod@@ 1
guez 1
rodri@@ 1
ez 1
magistr@@ 1
im@@ 1
ial 1
rou@@ 1
gh@@ 1
,000 1
associ@@ 1
neighbor@@ 1
bor@@ 1
roman@@ 1
hel@@ 1
form@@ 1
legisl@@ 1
john@@ 1
onis 1
ice@@ 1
publ@@ 1
jour@@ 1
liter@@ 1
alcatr@@ 1
not@@ 1
lufth@@ 1
ave 1
46@@ 1
pot 1
seb@@ 1
00m 1
ip@@ 1
34@@ 1
00 1
admin@@ 1
istr@@ 1
ingly 1
ur 1
ited 1
astronau@@ 1
om 1
californ@@ 1
retire@@ 1
1969@@ 1
09@@ 1
unds 1
ym 1
85@@ 1
3.8 1
ago 1
lic 1
1400@@ 1
,0 1
47@@ 1
gard@@ 1
ethi@@ 1
haile@@ 1
steph@@ 1
worl@@ 1
od@@ 1
brooke-@@ 1
night 1
amer@@ 1
cian 1
ars 1
ling 1
gras@@ 1
arrab@@ 1
ight 1
nick@@ 1
surpris@@ 1
ast@@ 1
class@@ 1
ocado 1
enjo@@ 1
sin@@ 1
singapor@@ 1
coun@@ 1
ables 1
enjoy@@ 1
chiev@@ 1
ack@@ 1
deser@@ 1
phillippin@@ 1
negr@@ 1
abel@@ 1
ant@@ 1
mon@@ 1
cal@@ 1
own@@ 1
mor@@ 1
atten@@ 1
spallet@@ 1
pau@@ 1
orent@@ 1
ina 1
pay@@ 1
2014@@ 1
spor 1
tive 1
archi@@ 1
cent@@ 1
akes 1
demar@@ 1
bn 1
stud@@ 1
hard@@ 1
mac@@ 1
mil@@ 1
2-@@ 1
36@@ 1
shor@@ 1
ten@@ 1
gem@@ 1
ct 1
elizab@@ 1
ir 1
exam@@ 1
ple@@ 1
austr@@ 1
produc@@ 1
tot@@ 1
tirstru@@ 1
lufthav@@ 1
219@@ 1
olfo 1
airpo@@ 1
vers 1
ane 1
run@@ 1
wi@@ 1
ces 1
bar@@ 1
deplo@@ 1
ys 1
mcdon@@ 1
invas@@ 1
22@@ 1
877@@ 1
l/36r 1
10.0 1
97 1
ang@@ 1
olo 1
600@@ 1
elev@@ 1
vel 1
982 1
349 1
out@@ 1
amie 1
98@@ 1
lah@@ 1
sadi@@ 1
stan@@ 1
harri@@ 1
est@@ 1
ondack 1
war@@ 1
tw@@ 1
enti@@ 1
eth 1
1966-0@@ 1
-0@@ 1
ences 1
design@@ 1
ramapho@@ 1
pub@@ 1
set 1
enter@@ 1
inment 1
lim@@ 1
erick 1
wickrem@@ 1
sing@@ 1
add@@ 1
ath@@ 1
bhai 1
prov@@ 1
dist@@ 1
act 1
mingham 1
guar@@ 1
cas@@ 1
sho@@ 1
ws 1
broadcast@@ 1
chan@@ 1
au 1
ok@@ 1
jamin 1
ater 1
ton 1
ema 1
win 1
kal@@ 1
jap@@ 1
rec@@ 1
sau@@ 1
span@@ 1
ards 1
putraj@@ 1
ways 1
cam@@ 1
bak@@ 1
fran@@ 1
gin@@ 1
serv@@ 1
ature 1
sham@@ 1
alter@@ 1
vaju@@ 1
org@@ 1
itra 1
typ@@ 1
ically 1
binig@@ 1
ther 1
jal@@ 1
oa 1
ium 1
getty@@ 1
sbury 1
penn@@ 1
eas@@ 1
ily 1
able 1
can@@ 1
histor@@ 1
ical 1
monoc@@ 1
battle@@ 1
a.c.@@ 1
lam@@ 1
cio 1
ben@@ 1
cl@@ 1
ax 1
isis 1
stu@@ 1
sr@@ 1
tiva 1
arn@@ 1
remi@@ 1
acao 1
brazili@@ 1
ero 1
dris@@ 1
fer@@ 1
academ@@ 1
gl@@ 1
sar@@ 1
alli 1
gran@@ 1
ti@@ 1
actions 1
hard 1
57@@ 1
46 1
aolong 1
ace 1
ere 1
ccn 1
hun@@ 1
chool 1
publish@@ 1
orit@@ 1
librar@@ 1
? 1
abo@@ 1
17r/@@ 1
19 1
baraj@@ 1
paran@@ 1
state@@ 1
alf@@ 1
pin@@ 1
hal@@ 1
akur 1
az@@ 1
addum 1
ude 1
84.0 1
oper@@ 1
ations 1
heed 1
gen@@ 1
qbal 1
shar@@ 1
if@@ 1
gbaan 1
tex@@ 1
77@@ 1
andre@@ 1
servic@@ 1
states.@@ 1
ole 1
colo 1
vil@@ 1
apple@@ 1
ki@@ 1
ery 1
kimber@@ 1
ley 1
3r/21l 1
13 1
31 1
belgi@@ 1
fallu@@ 1
abadi 1
um 1
ree 1
ira@@ 1
rid@@ 1
ales 1
stit@@ 1
utes 1
harrietst@@ 1
ow 1
03.@@ 1
11-1@@ 1
8-@@ 1
192@@ 1
1966@@ 1
.0@@ 1
side 1
low 1
33 1
stin@@ 1
1114@@ 1
1,4@@ 1
jan@@ 1
200@@ 1
construc@@ 1
tion@@ 1
parli@@ 1
843.8 1
12077@@ 1
sus@@ 1
amhar@@ 1
196@@ 1
1-@@ 1
14@@ 1
meter 1
jacab@@ 1
ded 1
spe@@ 1
haput@@ 1
kot@@ 1
27@@ 1
46.66 1
aki@@ 1
prefec@@ 1
medabad 1
guj@@ 1
ura 1
para 1
frans@@ 1
signific@@ 1
architectur@@ 1
with@@ 1
/0@@ 1
'@@ 1
let@@ 1
y-@@ 1
usly 1
anti@@ 1
yk 1
lic@@ 1
cuisine@@ 1
compris@@ 1
squ@@ 1
alon@@ 1
rom@@ 1
malays@@ 1
squeez@@ 1
sm@@ 1
uk@@ 1
condi@@ 1
hai@@ 1
clai@@ 1
esh 1
edi@@ 1
to@@ 1
oqu@@ 1
carbohydr@@ 1
rit@@ 1
ue 1
.00 1
straw@@ 1
eber@@ 1
ries 1
siom@@ 1
nood@@ 1
llo@@ 1
ilo 1
sou@@ 1
ef@@ 1
indi@@ 1
ji 1
confec@@ 1
guadalaj@@ 1
guadal@@ 1
sand@@ 1
fav@@ 1
ite 1
nati@@ 1
ons@@ 1
iana 1
amar@@ 1
peop@@ 1
choy 1
categor@@ 1
all@@ 1
ol 1
clo@@ 1
carr@@ 1
rol 1
190@@ 1
high@@ 1
ro 1
lumezz@@ 1
ini 1
salv@@ 1
za 1
bry@@ 1
portu@@ 1
ese 1
erbaijan 1
sse 1
hap@@ 1
fute@@ 1
mit@@ 1
assaul@@ 1
c.@@ 1
amsterdam-@@ 1
ccer 1
so@@ 1
kutti@@ 1
attoor 1
provid@@ 1
archite@@ 1
ttur@@ 1
joh@@ 1
varaya 1
annis 1
978-1-4165-4253-@@ 1
stor@@ 1
hein@@ 1
lin 1
tran@@ 1
inf@@ 1
advan@@ 1
ces@@ 1
ber 1
7156-3648-0 1
bre@@ 1
abrevi@@ 1
foc@@ 1
sed 1
addic@@ 1
ition 1
1-8392 1
istrative 1
45@@ 1
44811 1
ings 1
ev@@ 1
r/@@ 1
ai@@ 1
ram@@ 1
ussen 1
akti@@ 1
elskab 1
du@@ 1
bb@@ 1
112@@ 1
3,@@ 1
434@@ 1
9m 1
lev@@ 1
1,@@ 1
800 1
des@@ 1
ona 1
274@@ 1
miss@@ 1
airc@@ 1
lik@@ 1
we@@ 1
inv@@ 1
bal 1
10m 1
speak@@ 1
533 1
8.@@ 1
ta@@ 1
ins 1
tejan@@ 1
lun@@ 1
do@@ 1
wn@@ 1
2439@@ 1
gree@@ 1
vir@@ 1
900@@ 1
airlin@@ 1
turkmen@@ 1
tsi@@ 1
rol@@ 1
aid 1
bund@@ 1
hand 1
comme@@ 1
anac 1
tim@@ 1
nasa-@@ 1
195@@ 1
whee@@ 1
retir@@ 1
shepar@@ 1
repres@@ 1
educ@@ 1
employe@@ 1
19@@ 1
oh@@ 1
land@@ 1
concer@@ 1
wash@@ 1
tel@@ 1
pu@@ 1
na 1
jay@@ 1
aw@@ 1
epura 1
hito 1
gujar@@ 1
dalpat@@ 1
mer@@ 1
musu@@ 1
em@@ 1
tered 1
nation@@ 1
wide 1
ian@@ 1
catalon@@ 1
off@@ 1
malay@@ 1
ya 1
yet 1
penh@@ 1
polit@@ 1
ich 1
ong 1
ven 1
del@@ 1
ici@@ 1
aceae 1
rut@@ 1
pal@@ 1
sa 1
clu@@ 1
ade 1
siz@@ 1
wid@@ 1
ator 1
ties 1
spo@@ 1
naren@@ 1
karnat@@ 1
feat@@ 1
uring 1
ó@@ 1
teles 1
hail@@ 1
fam@@ 1
mont 1
crust 1
bake@@ 1
serg@@ 1
ey 1
ano 1
phili@@ 1
igor@@ 1
pino 1
ities 1
nat@@ 1
mississ@@ 1
ppi 1
sylvania 1
near@@ 1
memor@@ 1
old 1
ou@@ 1
park@@ 1
ee@@ 1
inau@@ 1
universit@@ 1
ie 1
sc@@ 1
ider 1
dem@@ 1
neighbo@@ 1
ured 1
logy 1
aff@@ 1
dr.@@ 1
g.@@ 1
instit@@ 1
ulia 1
lar@@ 1
økke 1
palle@@ 1
ding 1
klu@@ 1
ves@@ 1
que@@ 1
pun@@ 1
ished 1
sp@@ 1
ken 1
pec@@ 1
cul@@ 1
.c. 1
apol@@ 1
adu@@ 1
fen@@ 1
dall@@ 1
liv@@ 1
/2@@ 1
8@@ 1
ined 1
part@@ 1
monu@@ 1
mississi@@ 1
pi 1
fred@@ 1
mary@@ 1
rs 1
aijan 1
dict@@ 1
wald 1
volun@@ 1
ahmet_@@ 1
mi 1
davuto@@ 1
lat@@ 1
kuttikk@@ 1
fili@@ 1
techno@@ 1
b.@@ 1
m.@@ 1
ron@@ 1
mumb@@ 1
ana 1
telang@@ 1
ioh@@ 1
ann@@ 1
ensis 1
ining 1
cei@@ 1
ving 1
member@@ 1
jerse@@ 1
/01/@@ 1
americ@@ 1
199@@ 1
head@@ 1
die 1
day 1
bri@@ 1
hit@@ 1
dedic@@ 1
| 1
schneider-@@ 1
neigh@@ 1
bor 1
gal@@ 1
radh@@ 1
ishnan 1
gradu@@ 1
ataka 1
ute 1
um@@ 1
ek 1
gi@@ 1
ion 1
ala 1
well@@ 1
buchar@@ 1
5600@@ 1
