#version: 0.2
а н
к о
р о
с т
е н
р а
н а
е р
д и
т о
с я</w>
п о
л и
т а
е т
н о
л ь
е т</w>
г о
р е
н ы
с о
л о
н и
в л
а р
м е
р у
в о
к и
к а
вл я
ко то
д о
р и
д е
в а
б ы
ет ся</w>
х о
н а</w>
с ко
д а
л е
л а
т е
г о</w>
ч е
0 0
и н
ан и
о р
н е
a r
с и
я вля
з ы
с ки
a n
т и
и з</w>
хо ди
" А
д е</w>
ны й</w>
т ся</w>
ы й</w>
г ра
а м
e r
ц и
и ме
явля ется</w>
a l
бы л</w>
С Ш
ер и
э т
име ет</w>
1 9
и с
кото р
i n
на ходи
л у
о н
л ся</w>
находи тся</w>
ч а
o n
по ло
г де</w>
ш та
к ан
ст о
м а
котор ый</w>
в и
ро ди
р ан
ст а
ру п
го д
ен и
" ,</w>
a t
м у
и гра
c o
л а</w>
б е
з и
ж и
СШ А
" .</w>
e n
s t
б и
с е
н ,</w>
в е
ро м</w>
Д ж
ери кан
ин г
роди лся</w>
г руп
м о
з а
х а
и ,</w>
в ер
и .</w>
б а
ра с
б о
к у
с а
a c
т а</w>
л ю
в ы
з а</w>
поло ж
o r
му зы
шта т</w>
но й</w>
ам ерикан
л ен
А н
i s
п ре
эт о</w>
ко м
ст ь</w>
го ро
п у
рас полож
по р
ски й</w>
u n
ст в
г и
М а
С о
О н</w>
д ер
ж д
о б
e l
o n</w>
с п
ни че
ен ны
п а
на я</w>
л я</w>
е н</w>
r e
r o
И н
м и
г а
ли де
Т е
в .</w>
К о
ско й</w>
м .</w>
ш и
ь ю
эт ниче
го да
ль ный</w>
я зы
вля ет</w>
А ль
л ь</w>
е й</w>
бе ко
д ж
э ро
л ан
эро пор
е ,</w>
i l
игра ет</w>
американ ц
е ди
я .</w>
ли ц
со ста
a m
м ет
д ен
t i
Б а
ч и
e r</w>
еди н
я ,</w>
ме р</w>
с ,</w>
ж е</w>
Со един
о к
и з
Н ью
п ро
беко н,</w>
США ,</w>
Нью -
ен т
п е
по л
та к
c h
ка к</w>
с ка
ско м</w>
ен а</w>
i t
у р
a i
с а</w>
ст и
до м</w>
В а
груп п
r i
кото ро
2 00
a d
a s
у т
СШ А</w>
бы ла</w>
ч лен
е .</w>
е го</w>
л и</w>
К а
1 0
о н</w>
Ш та
к а</w>
а эропор
о т
п и
e s
л ет
Те ха
М е
Соедин енны
м ,</w>
года .</w>
ска я</w>
п ар
ни вер
но -
б лю
о м</w>
сто лиц
нивер си
США .</w>
кото ра
так же</w>
г ли
котора я</w>
ан д
а д
e t
ст ран
п ани
у ю</w>
с во
ле к
в ани
во з
u r
ро в
но го</w>
р а</w>
год у
ан а</w>
Ин ди
ок ру
a l</w>
a n</w>
до ч
ро дом</w>
то м</w>
ро д
, 0</w>
го во
ре ди
но- по
з лет
са доч
но-по садоч
злет но-посадоч
l i
s .</w>
е й
ств е</w>
п ри
с лу
инг реди
ко н
ком пани
г ла
1 6
ени я</w>
я т</w>
т е</w>
но е</w>
ско го</w>
ь ю</w>
о с
п ери
соста вляет</w>
к лу
l o
ы .</w>
2 0
ски х</w>
о на
ли н
со ци
о д
t h
ри т
в злетно-посадоч
ли ко
i c
" С
лиде р</w>
Соединенны х</w>
е м</w>
д у
год у</w>
гово р
п ер
п ра
ан а
m ar
ф и
е м
игра л</w>
гли й
слу жи
l e
х и
л ли
ва ет</w>
но м</w>
в ар
ре д
ниверси т
американц ы</w>
п ло
язы к
ча ст
ны м</w>
у мер</w>
p or
a k
инг то
un t
н о</w>
б р
с .</w>
д ля</w>
А лек
ш ингто
Ва шингто
год а</w>
на й
м и</w>
а й
at i
х у
член ом</w>
a b
пре д
п ис
co unt
н ую</w>
т о</w>
ан глий
ф ор
на род
П а
б ер
ру ется</w>
а ци
l a
м ор
горо де</w>
е в
c .</w>
ени е</w>
году .</w>
щ ад
ва л</w>
е е</w>
, 0
столиц а</w>
ен а
в я
p o
Р о
ни ко
горо д</w>
а с
со з
а н</w>
располож ен</w>
a g
с анд
t e
со у
ходи т</w>
ю т</w>
м ен
а т
Р и
e e
говор ят</w>
те ль</w>
a m</w>
те ле
ро н</w>
А б
er s
"А ль
ст у
бр я</w>
ут бо
Л и
ст ро
этниче ская</w>
поло с
А р
щ и
ра й
з вани
а ль
д о</w>
музы ка
с б
ны е</w>
ва н</w>
у ров
- 1
М ар
й .</w>
д а</w>
00 00
фор ни
ли форни
в ,</w>
част ью</w>
г у
а в
ж ан
г а</w>
ра з
воз гла
20 1
у народ
жд ународ
Шта то
т ер
о на</w>
an d
Ка лифорни
ш е
к ти
б рит
a st
которо го</w>
м ар
ф утбо
И сп
пло щад
ль я
ингреди ен
ai r
ра бо
во й</w>
аэропор т</w>
котор ы
в ши
А ла
на ча
19 6
д ви
пу б
Б е
т у
ки ло
y ,</w>
ф е
П о
этниче ских</w>
ча сть</w>
зи ден
в ходит</w>
Алек санд
В и
a .
А а
Ан дер
ati on
ре м
лиде ром</w>
Ф К</w>
М и
не м</w>
th e</w>
a ,</w>
м а</w>
ны х</w>
1 8
компани ей</w>
В е
из ве
ю тся</w>
но в
до не
т ы
т ран
на звани
t er
А м
е сть</w>
у пра
к то
d i
но мер</w>
к у</w>
Исп ани
a .</w>
ра .</w>
" Б
У и
e m
к ар
кило мет
изве ст
00 0
т ,</w>
а ф
у ниверсит
с у
об служи
ь ер
2 5
Аль ф
Аа рон</w>
с м
пре зиден
a v
ro m
ски е</w>
l an
a u
располож ена</w>
взлетно-посадоч ной</w>
a y
пар ти
п о</w>
ла с
ко р
Нью- Й
Нью-Й ор
о д</w>
ет а</w>
d i</w>
c i
a p
с вя
л я
e s</w>
о т</w>
возгла вляет</w>
че стве</w>
но ст
ка честве</w>
н я
А в
рабо та
групп а</w>
в рем
ar t
u m
ре ги
пери од</w>
к и</w>
s ,</w>
co r
дви га
1 1
дж е
во й
полос ы</w>
М у
19 5
по д</w>
h ar
э к
в е</w>
О р
e ,</w>
н .</w>
19 9
ев ый</w>
э по
та ли
ли п
л о</w>
к си
s i
b ur
а ра
к е</w>
жи т</w>
19 8
на д</w>
Ли де
v i
шта те</w>
А да
со евый</w>
por t</w>
гра ф
ы ,</w>
уров нем</w>
n ation
соста в</w>
к лю
и ю
Ала н</w>
соу с,</w>
"А пол
"Апол ло
соз да
м ер
Е го</w>
Ве лико
брит ани
М э
Велико британи
мо ж
й ц
по ль
З а
явля ются</w>
- музы
о л
h o
врем я</w>
- А
00 0</w>
ко во
к ,</w>
Ф ран
ast on</w>
клу б</w>
с ред
in g
ти в
ждународ ный</w>
Аб ду
д ри
п ен
з о
0 0</w>
р е</w>
пред ста
би та
од на</w>
ас соци
И тали
ско н
Д е
ti n</w>
с "</w>
по стро
ди н</w>
т ь</w>
b u
ст во
та .</w>
язы к</w>
доне зи
Л у
Р а
mar tin</w>
,0 .</w>
на пис
Дж ер
ж а</w>
ме сто
ен ный</w>
g r
не ,</w>
хо д
О б
со н</w>
но сть</w>
Ф и
С и
n e
) .</w>
a f
пуб лико
i i
ски м</w>
окру га</w>
к .</w>
d e
) ,</w>
т и</w>
сб ор
v ers
s e
Нью- Джер
бита льный</w>
Ор ху
й ,</w>
я бря</w>
о публико
an t
по д
д лин
p u
по фе
д ле
т у</w>
она ль
o m
3 9
гра жд
при на
прина дле
ассоци и
Д ани
сп лу
сплу а
ра т
ла й
к е
Ме кси
которо й</w>
пофе о
к в.</w>
в о</w>
чи л</w>
с чи
Уи лья
s p
s h
те ль
d o
cor d
а м</w>
ли дер
зи ат
эк сплуа
че ский</w>
жан р</w>
аф ро
1 4
де н</w>
б ра
1 5
б у
обслужи вает</w>
и та
л ла
ни к</w>
in ter
пофео з</w>
inter nation
окру г</w>
re cord
ассоции руется</w>
a j
эксплуа ти
ор битальный</w>
Н и
w il
f .
на ру
граф стве</w>
b l
an c
Б у
is i
енны е</w>
т .</w>
л ле
- й</w>
b er
3 4
з у
а ,</w>
С у
клу б
за пу
А эропор
ee m</w>
ak eem</w>
К он
та ,</w>
ком ан
Р е
e .</w>
19 3
Аэропор т</w>
К ар
блю до</w>
Ин донези
o f</w>
l e</w>
d r
е дже
об нару
груп п</w>
2 6
ис п
поль зу
ис пол
ан ской</w>
зы ва
el l</w>
ки па
э кипа
ро к
ро в</w>
О на</w>
Б и
1 7
а пофеоз</w>
на зыва
де ка
а .</w>
ро ле
нико м</w>
груп по
П ен
о ,</w>
Л он
i a</w>
с ин
Б о
с ле
ру ково
m at
пи ло
Дж он
до л
лай зи
теле м</w>
со на
с т</w>
на счи
насчи ты
к о</w>
t a</w>
Р у
с е</w>
ло ве
ко м</w>
дол ж
i n</w>
" Ба
кото ром</w>
Ме ждународный</w>
р и</w>
count y</w>
че лове
н и</w>
- 0
см ени
ер м
г ан
В о
А С
in g</w>
про ис
англий ском</w>
к е,</w>
ент -
в ет
роле в
" Т
названи е</w>
к е.</w>
а п
об щ
2 7</w>
года ,</w>
к м</w>
хо жд
ло ги
к руп
а я</w>
экипа жа</w>
за вер
о дин</w>
лу м
во е
со н,</w>
Лиде ром</w>
Александ р</w>
u s</w>
ос нов
он е</w>
на у
ингреди ент
в клю
count y,</w>
мож но</w>
Нью-Джер си
шта та</w>
си с</w>
про из
ю щи
стран ы</w>
l in
се ,</w>
ро н
ar i
ac c
хи те
ско е</w>
ро в.</w>
мар та</w>
ст ин
о кон
а зиат
с ер
лум би
х ,</w>
ци и</w>
ur a</w>
то й</w>
Н АС
al c
т лан
которы е</w>
ки .</w>
Альф ре
то р</w>
ств о</w>
й ся</w>
ию ля</w>
ли г
С то
i g
созда н</w>
парти и</w>
А ф
al an</w>
не й
вклю ча
Вашингто н,</w>
университ ет
пери ап
ар и
М ен
Ко ролев
Андер с</w>
r u
смени л</w>
л л
к ва
un i
el l
air port</w>
Ш е
до ж
аци и</w>
У ниверсит
ху дож
запу щ
ди с
О стин
Аль бер
ингредиен т</w>
Соединенны е</w>
Альфре д</w>
ти че
ис пользу
го то
is s
проис хожд
длин у</w>
7 7
" Г
ско ро
ми ни
место м</w>
вы со
т ы</w>
ста л</w>
internation al</w>
c it
эпо х
на ,</w>
лас ь</w>
1 1</w>
произ во
площад ь</w>
Ч и
ка ,</w>
к ра
га й
О гай
e d
000 ,0</w>
ниверси те
ро е
насчиты вает</w>
p l
н е</w>
ме ст
Ма лайзи
m en
l on
1 0</w>
ку ю</w>
К у
член о
А х
принадле жит</w>
в а</w>
М ан
ци и,</w>
най ден
кар ьер
u t
3 4</w>
2 3</w>
ра ,</w>
з ер
Ма дри
ши й</w>
ма с
л е</w>
ж ен
Г ру
сту па
сво ю</w>
ро д</w>
работа л</w>
а пу
Уилья м</w>
a s</w>
упра вля
ст е
поло са</w>
исп ан
ру д
Г у
ac e
ва я</w>
Н е
она льный</w>
А .</w>
f. c.</w>
ре й
Ав ра
3 6
опублико ван</w>
р ы
музыка ль
мен едже
Д о
с кую</w>
аэропор та</w>
ан ный</w>
c e</w>
рое кти
м ан
С ан
Н о
d a</w>
сп роекти
свя з
Гру зи
я щ
ингредиент ы</w>
тран с
то м.</w>
би ко
н я</w>
дека бря</w>
ар ен
Инди ана
as s
групп ы</w>
Э н
Б ан
к ри
к ер
Сто лиц
Ри бико
со дер
скоро сть</w>
груп па
Э р
d er
« А
ква д
квад рат
двига тель</w>
году ,</w>
ше л</w>
сво е</w>
гото вл
ц е
д ли
в ход
200 6</w>
пе ве
ен ная</w>
д ,</w>
вши йся</w>
m on
х но
происхожд ение</w>
долж ност
а л
196 3</w>
ь я</w>
хно логи
то в</w>
Фи лип
Нью- Мекси
c al
1 ,
ха й
Д и
b at
и ли</w>
Столиц а</w>
Рибико ф
ц ы</w>
на се
С а
c l
ст ан
руд нико
ку .</w>
ар хите
американц е
q u
х .</w>
м пи
ур г
пер сона
у ниверсите
коман ди
ка .</w>
да ,</w>
Ви скон
си ль
ро жд
периап сис</w>
К ан
uni vers
o l
соз д
с ам
2 0</w>
ня ет</w>
те р</w>
м ы
3 1</w>
ст ре
ре ,</w>
Ко лумби
2 9
лан ди
окон чил</w>
мор я.</w>
Ан гли
r a</w>
p p
нача л</w>
вое вал</w>
те ля</w>
ль ф
a w
НАС А</w>
Шта та
f a</w>
л ы
дер лан
а ли
h al
не кти
круп ней
к м.</w>
Кон некти
Г ра
z z</w>
р .</w>
й ский</w>
ам а</w>
П И
Коннекти ку
lo g
ac k
ми че
ль ш
Е в
univers it
под пис
не р</w>
най ти</w>
Ни дерлан
e c
d e</w>
b i
карьер у</w>
ав то
а ка
В В
ис си
бра н</w>
g e</w>
ки ,</w>
инг апу
д жи
Абду л</w>
a b</w>
"А н
кор енные</w>
группо й</w>
П ре
рожд ения</w>
Пен силь
ле н</w>
Пенсиль вани
en t
co l
ьер -
Ам ерикан
Ада м</w>
са ,</w>
д -
с де
а ви
Т ер
- 3
сти че
служи л</w>
з д
a r</w>
де сер
д ар
американц ы.</w>
Н а
Лон до
Г ре
предста ви
музы кан
ент- Лу
вши й</w>
в у
Ше пар
С ингапу
u s
ж а
ски й.</w>
з ем
bu zz</w>
an e</w>
стран е</w>
ст ер
ста в
руково ди
ком анд
ко ла</w>
гражд ани
c k
пер е
де ,</w>
го ,</w>
200 9</w>
Орху с
o log
ра б
ст ва
американ ской</w>
r y</w>
7 0
теле й</w>
музыка льный</w>
on ,</w>
ч ер
пре м
не .</w>
Т и
b o
та "</w>
располож ения</w>
г ре
ве йц
sh i
m o
ц а</w>
Штато в</w>
Т ур
у э
ч ар
то в.</w>
с и</w>
Соедин ен
"А л
прем ьер-
насе л
Ба ра
f i
4 4
200 0</w>
1 8</w>
о х
ко с
О с
o h
ци он
К лу
in f
рок -музы
и х</w>
e d</w>
a z
от став
н "</w>
взлетно-посадоч ная</w>
с си
Ан д
Ан го
v il
по лу
в ый</w>
Теха с,</w>
d el
c h</w>
сту ден
с соци
ме та
Вискон син
5 2
в ш
19 7
футбо ль
ру ю</w>
кото рую</w>
Э то</w>
д ни
спроекти ро
Мэ ди
ing t
"Аполло н
э м
ба зи
Ос нов
Ми чи
g u
р ани
на ци
мет ра.</w>
завер ш
да ль
Штато в,</w>
m i
эксплуати руется</w>
Л ан
азиат ские</w>
Х у
Авра ам</w>
o r</w>
не го</w>
га ,</w>
т ность</w>
ств а</w>
испол няет</w>
бу кер
Ада м
ri n</w>
3 3
т вер
с у</w>
д .</w>
Ма х
men dr
- Х
дж а
вы м</w>
Университ ет</w>
sp ace
э н
рай она</w>
он и</w>
Теха с</w>
Нью-Мекси ко
Б ер
at lan
al d
се б
на хай
ПИ Д
Му зы
ци я</w>
вар и
С тран
mendr isi
af c</w>
ю щ
университет е</w>
р ,</w>
кто ром</w>
ti c</w>
a d</w>
находи лся</w>
Дж ей
10 3</w>
тер на
километ ров.</w>
lon g</w>
1 2
э та
ран ее</w>
п -
к "</w>
ен ни
Па ки
П ер
П ар
п ин
ле с</w>
высо те</w>
Ш кола</w>
Д э
e o</w>
соци аль
а л</w>
t t
r a
i i</w>
8 8
"А к
роди вшийся</w>
ер б
ба з
Ш вейц
Ев ро
pu b
" К
терна тив
ми лли
pub li
e x
art h</w>
a c</w>
эм п
из готовл
бе ль</w>
9 0
названи ем</w>
г е</w>
б а</w>
Г он
я т
транс пор
ссоци аци
ма н</w>
С ам
Д у
Г ар
Бара к</w>
er s</w>
ad em
мини ст
м у</w>
крупней ший</w>
b ak
т ве</w>
со льный</w>
о .</w>
лья н
д "</w>
ва ется</w>
atlan tic</w>
ь ет
са .</w>
с ы
мо ло
p i
16 34</w>
то ром</w>
ку ри
компани я</w>
ака де
a t</w>
т ур
вл ен
Б ар
t .</w>
ент-Лу ис
С е
П е
Мэ ри
А ки
do d
ch i
ри -
ре .</w>
м "</w>
Ро ди
Клу б</w>
o w
n i
en t</w>
язык е</w>
n r
ро м.</w>
ны .</w>
л л</w>
б ен
я н
те ,</w>
м ин
й ского</w>
га ло
г ва
Швейц ари
" Л
этниче ской</w>
себ я</w>
пуб ли
лли но
до льф
Мах му
Вашингто н</w>
e n</w>
5 ,
ц ,</w>
пило том</w>
насел ения</w>
к ре
Штато в.</w>
Дж он</w>
ВВ С</w>
acc adem
" О
ц .</w>
ур на
Т ай
is b
Шепар д</w>
y a</w>
ber t
0 ,0</w>
я "</w>
с о</w>
ру ет</w>
м е</w>
ва лю
А бель</w>
isb n</w>
cal ci
созд ана</w>
г не
Испани и.</w>
h er
accadem ia</w>
19 0
М он
9 7
6 0
т ю
с се
обнару ж
мет ров</w>
ль ная</w>
группа .</w>
групп .</w>
d on
d .</w>
am s</w>
aj a
язык ,</w>
т ан
мет ра</w>
к ры
запущ ена</w>
Бан гало
ac har
ц у
е ра
вы ступа
афро американцы</w>
Ви р
ti v
achar ya</w>
2 8</w>
"А р
ут ерб
по ли
пе ра
Б .</w>
publi c</w>
es .</w>
сто ч
содер жит</w>
нау к</w>
аэропор ту</w>
П ро
al fa</w>
т ра
пред ше
менедже ром</w>
б ан
Ш ри-
С .</w>
es ,</w>
c on
1 -
ст ри
б утерб
Роди лся</w>
К ана
r o</w>
m or
f er
ци и.</w>
руководи т</w>
ма ш
ком и
вы шел</w>
блю до
Чи ка
rom eo</w>
record s.</w>
il la
та р
су дар
на .</w>
го судар
англий ский</w>
Н а</w>
4 -
1 3
1 .</w>
. ,</w>
д дис
в ин
Г о
s por
16 34
управля ется</w>
сти ту
со м</w>
ри че
по сле
па д
мо ри
г ен
Теха са</w>
Ко м
c ti
b a
хнологи че
сб ург
ре с</w>
пол ет</w>
мор я</w>
извест ен</w>
А ссоциаци
r am</w>
ящ ее</w>
э ва
эва ку
эваку ации</w>
се .</w>
должност и,</w>
ддис -А
ам ят
Х ол
Ко ва
te ch
re s
as il
"Аполло -1
"А нахай
фи ци
скон ча
лл ,</w>
дольф о</w>
ддис-А бе
Ру мы
Мэри лен
Джон с</w>
"А тлан
ти о
ллино й
И ллиной
ян вар
н г
м ет</w>
ита льян
Шри- Лан
сто ящее</w>
на "</w>
ко л
Ф ор
Ф е
ac e</w>
25 0</w>
А фи
w ell</w>
n ell</w>
c ,</w>
a is
2 ,
" Ма
ющи й</w>
эмп ши
ств ен
пло тность</w>
У ай
Р ай
Нью- Г
Нью-Г эмпши
is on</w>
ell a</w>
201 4</w>
на стоящее</w>
ли влен
Румы ни
tech n
an d</w>
обнару жи
за н</w>
з е
Мичи ган
Великобритани и.</w>
w er
1 000</w>
у .</w>
ство вал</w>
сде лан
включа ет</w>
К ор
on .</w>
d er</w>
1634 :</w>
10 1</w>
мо кра
которо е</w>
ени ем</w>
брит ан
Тер нер</w>
Гра жд
techn olog
p ar
or t
, 8</w>
о й</w>
к м,</w>
Джей м
et t
e st
ald rin</w>
называ ют</w>
мо би
ла д
г е
Гон кон
iss n</w>
en ce</w>
эта ж
т ы.</w>
располож ен
ор г
но ября</w>
гне с</w>
Н аци
Евро пе
А чар
b e
то р
Т а
З е
u p
5 6
"Б и
"Ак рон
социаль ных</w>
ля р
к ет
воз ник</w>
Су а
Д а
p ro
mon um
il l
ar e</w>
реги она</w>
представи телей</w>
ни с</w>
ме ждународ
вы е</w>
вар ский</w>
Кар на
an ,</w>
"А лек
рит м</w>
до маш
вы бран</w>
бы ли</w>
195 5</w>
10 9
эпох у</w>
та ре
стре би
свя зан</w>
на гра
би тве</w>
А гнес</w>
ны ми</w>
де б
ба й
1 2</w>
с ь</w>
ерм он
в ета</w>
Калифорни и.</w>
В ермон
сред не
ри сти
ма я</w>
и стреби
дж ан
Ан тио
re st
in di
сво й</w>
об ла
Ф он
Дж а
Ах мет</w>
Альф ред
a. c.</w>
a y</w>
0 -
ц ент
про жи
которы м</w>
Э ри
m et
ad i
язык е,</w>
руднико в</w>
произво д
вя ди
Ф лин
Теха с.</w>
П ло
p al
nr b
j oh
располож енный</w>
ра ль
де .</w>
да .</w>
вы ш
"А й
январ я</w>
пу ляр
ли за
Альбер т</w>
am c</w>
4 7
э той</w>
сп е
пани я</w>
ко г
к со
горо да</w>
а ди
Х е
Ма к
Итали и,</w>
Г е
роди лась</w>
предста вля
к тур
з ани
Орхус ском</w>
6 8
3 7
то м,</w>
ре кор
зани ма
д р
Х ью
С та
Ком пания</w>
Е е</w>
ru cti
rest ructi
e in
b an
at er
ari ane</w>
ai re
4 ,
эпо ха
че й</w>
пра вл
от но
ны ,</w>
ни га</w>
дли ной</w>
u l
se e</w>
pl et
o t
c am
ap plet
я щи
ч лен</w>
ро й</w>
реги ональ
л ый</w>
й "</w>
взлетно-посадоч ную</w>
О сбор
Л ар
Г ерм
inf ant
ee d</w>
bak e
ш а</w>
по пуляр
площад ка</w>
п- хо
ери и</w>
горо д
ва ла</w>
Анд ре
ati on</w>
ac ta</w>
- 8
у с</w>
ку ,</w>
ко в
гра м
Р об
Р ам
j av
ic a</w>
bl ack
a "</w>
язык е.</w>
сти н</w>
команди ром</w>
аль тернатив
авто моби
Роб ер
М о
Дж ор
co n</w>
ab arth</w>
у мер
т "</w>
р м
испол ни
У ру
Об ама</w>
mor e</w>
infant ry</w>
g en
an g
ня я</w>
и сто
в н
ан о</w>
С ент-Луис
Л а
Инди ан
s k
mendrisi o</w>
h am</w>
c ar
and re
с -
р о</w>
орг ани
называ ется</w>
н ан
компани и</w>
гла в
Абду л
ч ья</w>
столиц ей</w>
к ета</w>
зер бай
де ж
вход ят</w>
Э лли
po l
щ е
ло с</w>
е ц</w>
Испани и,</w>
bake well</w>
те л
л "</w>
ко в</w>
Элли от</w>
0000 00
произво ди
мест о</w>
блю зо
Ху ан</w>
tt ura</w>
s y
r s
pro j
proj ec
projec ttura</w>
d s</w>
ch ar
ac ura</w>
a. s.</w>
1 7</w>
упра вл
напис ан</w>
мо м</w>
ию ня</w>
ав гу
Стран а</w>
universit y</w>
mat ad
k lin
al p
че мпи
р ро
но м,</w>
наци ональ
ара ва
С арава
Герм ани
h am
alc at
200 5</w>
-А са
ча т
органи за
Ан твер
v er
t r
co up
ла ,</w>
вы пол
ат лан
Ме мори
Е лиза
ba con</w>
201 5</w>
. С.</w>
ст рани
персона ж</w>
о ко
бы ло</w>
Соединен ного</w>
Висконсин .</w>
v ar
s v</w>
ra z</w>
om ar</w>
e y
asil omar</w>
an y
alcat raz</w>
0 ,0
се з
пе ч
ни м</w>
ем ником</w>
го -
С ар
И ра
Гражд анской</w>
3 0
ра "</w>
о пера
англий ски
Р од
en n
ча с</w>
упра вляет</w>
ма -
ль ную</w>
лип е</w>
ки та
к лас
в ет</w>
Фе липе</w>
vers us</w>
язык .</w>
т ября</w>
ро га,</w>
полос у</w>
ок тября</w>
не е</w>
кто р</w>
ин ди
д ж</w>
блюдо ,</w>
Шта ты.</w>
З ита
Ассоциаци ей</w>
Ав стри
t ,</w>
la un
e v
1 3</w>
по -
най ден</w>
ко лле
к м
во щ
Рибикоф ф
Музы ка
Зита рро
Зе ланди
technolog y</w>
cit y</w>
b lan
3 5
1 5</w>
х а</w>
сп ла
п ена
б ор
Филип пи
Ра кета</w>
in st
h on
про вин
з ис
Адам с,</w>
spor tiv
f c</w>
c ater
cater p
alc o</w>
3 8
ф ер
от кры
енны х</w>
вари а
в ую</w>
А тлан
3 -
раз мер
подпис ан</w>
о вощ
кри зис
Эн др
Па ра
p ri
laun ch</w>
g la
c c
as am</w>
"Аполлон -1
эпох а</w>
ь ,</w>
связ ана</w>
постро ен</w>
пар ла
основ ана</w>
ни к
ло ,</w>
квадрат ный</w>
з не
У от
С ерии</w>
Огай о,</w>
Дж е
Ба рай
ut e</w>
as h
"С ПИД
со т
президен т</w>
ле й
и м
би зне
ба за</w>
Сан -
Ро ма
Лиде р</w>
in ,</w>
музы ки.</w>
мор я,</w>
лидер ы</w>
квадрат ных</w>
а "</w>
Рибикоф ф</w>
О д
Музыка льный</w>
За х
2 8
193 2</w>
"Аль -
рм инг
представля л</w>
к вар
блю з
ар ми
Ри дж
un it
e l</w>
2 2</w>
"Ай ам</w>
цу з
сте р</w>
мож ет</w>
ма- ма
ла ми</w>
к ба
использу ет</w>
граждани н</w>
бизне са</w>
Р ас
Дж енни
Во сточ
o cl
ocl c</w>
er i
d anc
"Б ар
члено в.</w>
худож ни
се й
руково д
постро ена</w>
н ы</w>
ли т
А ля
у ма
те ли</w>
та к</w>
сез оне</w>
ави а
Те хнологиче
Основ ные</w>
Но вая</w>
И з
А л
p ed
le v
g ro
b and
au bur
aja x</w>
"С е
ство м</w>
ст а</w>
ох ан
Т о
И р
И кба
Дженни нг
y al</w>
b ella</w>
5 -
стран е,</w>
со ль
сбор ную</w>
лла ма</w>
б -
Ма й
А до
unit ed</w>
s .
lo ck
hal l</w>
col more</w>
ха ба
ств у
с ент
отстав ку</w>
найден ная</w>
Ю ж
Индонези и.</w>
Д ей
inst it
al l
al ison</w>
a ar
' don
ш хаба
завер ши
ж урна
Лон доне
К рей
Итали и</w>
Бе ан</w>
te is
ne w</w>
instit ute</w>
g t</w>
b re
b h
an a</w>
199 6</w>
ч ис
та м</w>
ло м</w>
й ской</w>
воз ник
би лен
Суа рес</w>
Испани и</w>
lo yal</w>
b r
art er</w>
с ка</w>
ос но
лу .</w>
ли на</w>
ен но-
во сто
Индонези и,</w>
is si
те .</w>
т инг
сы гра
обла ст
музы ки</w>
ли мпи
квар ти
б- кварти
А к
А зербай
vil le</w>
sportiv a</w>
pp i</w>
issi ppi</w>
illa r</w>
" Нью-Джерси
с ен
располож ение</w>
ор ги
око мо
моло деж
ми ческий</w>
ло н
г но
американце в.</w>
Б ра
Александ ра</w>
m iss
miss issippi</w>
d d
d ,</w>
al v</w>
ри с</w>
рай оне</w>
р эн
обнаружи л</w>
ма т
клуб а</w>
д н
ам и</w>
За пад
Ге орги
Аки та,</w>
p ais
e j
dod ge</w>
caterp illar</w>
" Ф
у ба
те гу
сент ября</w>
р ен
п -музы
ност ью</w>
за ка
д ет</w>
ба ль
б ли
Эр тегу
С ер
Мар и
Елиза вета</w>
Аб уба
te l</w>
n ,</w>
ch arter</w>
calci o</w>
ant ar
ши м</w>
хи п-хо
университ ет</w>
кос мо
Георги ади
» ,</w>
t l
ej a</w>
ch o
band eja</w>
"Аль букер
сто м</w>
ства .</w>
ст ,</w>
льш ой</w>
г ент
возгла вля
валю та</w>
бази руется</w>
Ре ги
К ливлен
Дэ ви
Гар т</w>
li v
il en
co .</w>
8 .</w>
3 0</w>
стиче ское</w>
ст ем
ро ва
о ном</w>
музы ку</w>
ка "</w>
ин ы</w>
Хол ло
Пло щад
Ва ль
3 00</w>
ь "</w>
тю р
та тюр
сти ли
м ент
лин г
д ы</w>
Теха се,</w>
vi r
o t</w>
ingt on</w>
ab ilen
2 7
- 1</w>
университ ета</w>
со кра
ски ми</w>
ри н
которы х</w>
групп у</w>
атлан тиче
а б
Ф ин
u e</w>
t enn
ort h</w>
el li
ad v
- Ан
ф он
ле .</w>
ет ти
гово ри
вл а
Тай б</w>
Ка баль
Ин ф
au st
18 5
" В
я тся</w>
ст ру
пра ви
мар ль
лидер .</w>
л у</w>
ин ститу
и г
ена т</w>
ве ,</w>
Холло уэ
Великобритани и,</w>
o ,</w>
l as
er ,</w>
ai p</w>
ac k</w>
сокра щ
с ".</w>
окомо тив
з на
е да,</w>
да -
вер х
ана .</w>
st a</w>
bert o</w>
al berto</w>
член а</w>
ур а</w>
те сто
па ла
дни й</w>
ги м
архите ктором</w>
арен да
Нидерлан да
Би рминг
А ддис-Абе
space port</w>
o .</w>
n er</w>
elli ot</w>
black po
an es
aj o
ad ams</w>
университе том</w>
те льный</w>
ко д</w>
ву т</w>
v 8</w>
ri e</w>
monum ent</w>
l cc
it ra</w>
g h
e vi
c o</w>
ч то</w>
со б
от тер
н ди
ля нди
л ли</w>
ко в,</w>
говори т</w>
Я по
Фин лянди
П рудников</w>
Нью-Джерси ,</w>
Аль би
p res
lev y</w>
evi l</w>
c ru
ass er</w>
ajo blan
"С пар
у част
мокра тиче
лиг е</w>
гражд анской</w>
амят ник</w>
Фран ции,</w>
Паки стан
h e
d s.</w>
то н</w>
д и</w>
Теха с
М исси
Калифорни и,</w>
Го род</w>
Г ро
Г ви
Альфред о</w>
ver on
8 9
- Ридж
спроектиро ван</w>
р я
опублико в
ингредиен тов</w>
бе с
Но вой</w>
Нидерлан до
w ay</w>
o l</w>
et ro</w>
d y
со н"</w>
се й</w>
ре ц
предше ствовал</w>
м ",</w>
лидер а</w>
клуб е</w>
Х ор
С ка
Ж ан
pi etro</w>
pal a
p ,</w>
lcc n</w>
d b
7 ,
"Аль -Аса
" Д
члено в</w>
сконча лся</w>
с публи
кан ц
го .</w>
вы х</w>
Мисси си
К нига</w>
Ир ланди
Инф ан
Инди и.</w>
Г лен
Великобритани и</w>
Альбер та</w>
el a
chi ev
16 4
"Алек санд
э й
ы та
тесто вым</w>
принадле жа
президен том.</w>
по ступа
он не
ма-ма тер</w>
л .</w>
дли на</w>
гла ве</w>
Фор ре
Филип пин
Рома гно
Миссиси п
Калифорни я,</w>
record s</w>
d ag
dag g
con fer
196 2</w>
0 7
,0 ,</w>
спла в</w>
ку с
ку н
ди цион
Штата х,</w>
Шта ты</w>
Ф рэн
Уру гва
К ристи
Джейм с</w>
ped as</w>
n as
ii .</w>
cru is
ai da</w>
11 -й</w>
1 4</w>
х ниче
ут ри</w>
ста ди
сбор ной</w>
от тинг
кан т</w>
исто риче
Япо ни
Филиппи на
Осбор н</w>
Индиана ,</w>
Инди ана</w>
Д онне
n orth</w>
m us
g i
aar on</w>
a h
ю го-
сси о</w>
ско -
се да
ро и
но вой</w>
ле ссио</w>
ком ,</w>
ей ,</w>
вн утри</w>
в ли
британ ском</w>
бер ет</w>
акаде миче
а пре
Ц ент
Ма т
pu dd
applet on</w>
198 6</w>
ф ран
площад ью</w>
ос -Ан
ос-Ан дже
обнаруж ен</w>
клю че
ж ден</w>
д не
Европе йского</w>
Ба варский</w>
or n
m ill
air e</w>
6 00</w>
19 28</w>
ч ет
це -
ф а
полу чил</w>
пе в
ор ган
ме ждународный</w>
лле н</w>
ко й</w>
игра ют</w>
во е</w>
Пенсильвани я,</w>
О ре
О ни</w>
Нью-Мексико ,</w>
Мар к</w>
А ли
v in
mar ri
au di</w>
4 5
3 6</w>
2 5</w>
' Донне
музыкаль ным</w>
ми ро
звани е</w>
да ет</w>
д- р</w>
вла де
У ор
Бе лы
wil li
s on</w>
r y
p h
k .</w>
e f
an i
1 6</w>
ю ю</w>
худож ником</w>
у ча
тра дицион
т ный</w>
ро н,</w>
ки "</w>
к г
да- то</w>
во го</w>
Э по
П ра
Инди я.</w>
Гро з
Глен -Ридж
le y</w>
ig n
"Спар так
то рой</w>
пен ьет
отно си
музы ку.</w>
мас су</w>
л ла</w>
ис кус
ж е
ет е</w>
группо й.</w>
бы ть</w>
Фран ци
У правл
Бе ль
Ачар ья</w>
rom a</w>
c u
ay ers</w>
alp har
8 ,</w>
3 ,
эпоха льную</w>
рок -
ри и</w>
поступа ет</w>
певе ц</w>
пе ви
напис ана</w>
м э
деб ю
ви це-
бе ,</w>
Эндр ю</w>
Хью сто
Х али
Гре ции,</w>
Вашингто н.</w>
h i
del aw
delaw are</w>
bh an
bhan gr
" М
т я
ро ж
ред ери
пре емником</w>
о ст
мен т</w>
ма ,</w>
историче ских</w>
джа зо
да ту</w>
вой не,</w>
Р ад
Пенсильвани я.</w>
Оре го
Аф ро
Али сон</w>
o u
nrb q
b in
10 7</w>
10 36</w>
- бутерб
шта б-кварти
ч о
тя жен
се кун
нан де
ла с</w>
ко ро
жи теля</w>
Эр нанде
Х ан
Д .</w>
Б р
Адо нис</w>
mill er</w>
ho tel</w>
de n</w>
d av
bur y</w>
" П
у ,</w>
ст в</w>
со бр
собр ани
ль ни
кто р
извест ный</w>
и р
жи вут</w>
до р
ви де
Те й
Гу ру
Афро американцы</w>
Антио хи
sk y</w>
ot t</w>
mus ic
las al
bat h
an .</w>
1 00
0 .</w>
'don nell</w>
у лиц
стили стическое</w>
с ш
ро вал</w>
премьер- минист
од ним</w>
об раз
миро вой</w>
ме ,</w>
ла в
кос миче
коман до
й ская</w>
е д</w>
ви а
Фи лли
Площад ка</w>
Му р</w>
Восточ ной</w>
Бр ю
Барай ас
x -1</w>
k ,</w>
av en
am at
9 9
2 6</w>
"Се вер
со ре
злетно-посадоч ная</w>
бес ное</w>
б ин
Реги ональный</w>
Мэди со
Мен едже
К ей
Индиана поли
Г ор
Ва сп
В злетно-посадочная</w>
А виа
st on
marri ott</w>
l un
g any
gany m
en a</w>
199 8</w>
"Ан дер
"А дольфо</w>
язы ком</w>
ци п
то го,</w>
т ин
т ен
средне атлантиче
с ь
ре ша</w>
прожи вает</w>
певе ц,</w>
пар та
ли ,</w>
ког да-то</w>
ан о
Л ин
Абдул са
t on</w>
f re
confer ence</w>
am er
al ,</w>
adv anc
20 0</w>
19 27</w>
"СПИД "</w>
"С умер
участ во
ту рец
те го
те виде
пен си
нача ло</w>
н юю</w>
ме .</w>
ма ти
искус ств</w>
запущ ен</w>
ер ков
ер бы
е ль</w>
е д
двига телем</w>
ана ,</w>
ам ет
Ре спубли
Нью-Джер си</w>
Мэди сон,</w>
Мон тевиде
Карна та
Индонези и</w>
Дж оном</w>
Бангало р</w>
Аль букер
Абдулса лами</w>
w s</w>
w ee
r .</w>
mat h
2 1</w>
"Альбукер ке
щ ая</w>
ч у
з ей</w>
ги та
бен ни</w>
Ан то
ост ров
награ жден</w>
л ,</w>
беко н</w>
американце в</w>
аль ма-матер</w>
Ка та
За печ
Андре й</w>
Аль бенни</w>
s o
s ci
on e</w>
hon da</w>
200 0,0</w>
"Нью-Джерси "</w>
"Атлан та"</w>
футбо ли
фи лип
филип пин
ф у
управл ением</w>
т лас</w>
су н
сп и
сделан а</w>
рин ви
относи тся</w>
ност и</w>
нау ч
на ход
на род</w>
музы ка</w>
марль о
коми ксо
ка тего
дис цип
га н</w>
вой не.</w>
апре ля</w>
Эри к</w>
Уи лл,</w>
Мадри д-
Инди и</w>
Из ми
До у
o s
klin k</w>
195 7</w>
челове к</w>
сун сь
са "</w>
с ",</w>
ро -
музыкан т</w>
мест е</w>
ер о</w>
ди ско
де ш
де л
ви ат
баз е</w>
Нью-Джерси .</w>
А сунсь
joh n
danc er</w>
ar e
andre ws</w>
" Мемори
ч а</w>
те м
та м,</w>
си стем
региональ ного</w>
ра ст
ос у
ле м</w>
лан д
во д
б е</w>
Паки ст
Е лен
Ан глий
w i
g az
c k</w>
anc e</w>
5 4
3 2
фи о
стран ы.</w>
раз говор
ей .</w>
бази ру
Ш най
Чи ри
Д лина</w>
Д ербы
wer der</w>
v is
m an</w>
k in
gr ant
grant ville</w>
g ar
e t</w>
dagg et
ar ap
10 8
чет ы
ци ей</w>
сей час</w>
с ена
окру ге</w>
общ ей</w>
ги ни
вариа тор</w>
би -
авгу ста</w>
Фон тан
Кабаль еро</w>
Джор джи
Дани и.</w>
Вир гини
Бра зи
x ein
xein ou
pri est
j on
gro un
f c.</w>
c .,</w>
amer ic
8 4
19 23</w>
"Север ед</w>
ь я
ц ы.</w>
х ар
то го</w>
стер да
ст о</w>
по- английски
но с
ни г
ма тер
лли ,</w>
л ер
исп ыта
име ют</w>
заверш ен</w>
жан ра</w>
ж арен
дебю ти
включа ют</w>
ве ро-
ве .</w>
С т
В ис
Бар бо
А гу
var ay
t ow
r on
es varay
8 ,
19 10</w>
17 0
я )</w>
че м</w>
стран а</w>
р ы</w>
на н</w>
лек т
изготовл ен</w>
извест ное</w>
де ла
да "</w>
ан ского</w>
Уай т</w>
Т у
Па ла
Ар ми
Андер сон</w>
Анго л
vis v
visv esvaray
v ic
u di
p et
matad or</w>
g re
9 .</w>
6 3
5 7
193 0</w>
футбо лу.</w>
те ло,</w>
та ки
общ ую</w>
ни й</w>
мета лли
место полож
ди амет
джи ни
гре с
возник ла</w>
Ф редери
Л ей
Зитарро са</w>
Вир джини
В торой</w>
teis aire</w>
rs -3
p en
lock h
i m
gla ston
ef xeinou
b .</w>
arap ri
americ an</w>
al e
56 00
" Ко
я ни
то т</w>
см исси
сво ей</w>
президен том</w>
не ш
кар то
заверш ена</w>
де в
во л
бо й</w>
Нью-Йор ке,</w>
Наци ональ
Махму д</w>
Л е
Де мократиче
Бе кон
Авиа база</w>
А шхаба
ri mi
on al</w>
lockh eed</w>
h el
d is
ag rimi
"А билен
" Ю
футболь ной</w>
ст ра
со бран</w>
по да
пер вые</w>
од ной</w>
о нико
гим н</w>
ген ти
г ри
в месте</w>
бер на
бе лы
Глен-Ридж ,</w>
Брази ли
Ар генти
y .</w>
g in
d al
co sta</w>
chiev o</w>
0 9
0 ,
( 6
фи ка
то г
ро к</w>
премьер- мини
премьер-мини стро
по п-музы
пе рат
н ер
лет чи
енны м</w>
ени я,</w>
граждани ном</w>
Не бесное</w>
Итали и.</w>
Дани и</w>
Гор ба
w ay
s ar
glaston bury</w>
g lo
dagget t</w>
b en
'Донне лл</w>
"Аполло-1 2
ш е</w>
сту п
му ще
зем ля</w>
го вяди
в первые</w>
Нью-Йор ке.</w>
Кан ад
Бель ги
vi s</w>
ro l
l y
is ham</w>
c la
al vis</w>
al .</w>
198 9</w>
- го</w>
- Ам
"Аполлон -8
" З
хнологи ческий</w>
столиц у</w>
соста ве</w>
сво и</w>
пред седа
но м.</w>
ма .</w>
м и.</w>
ле с
круп ный</w>
километ р.</w>
ки й</w>
з же</w>
вы пу
вл ен</w>
бо б
боб сле
Ч ума
Технологиче ским</w>
Лондоне .</w>
Бирминг е
Б лю
w .</w>
st re
s t</w>
ro s
ro ck</w>
p ad</w>
ig h
fi el
a. e</w>
' s</w>
"Анахай м",</w>
"А м
ты ,</w>
ско му</w>
пев ц
пе ча
он .</w>
образ о
ле ,</w>
ингредиен том</w>
да лу
гу берна
вой не</w>
ве л</w>
б ре
У т
С ент-
Р ей
Остин е,</w>
Наци ональный</w>
Ам стерда
k i
di m
c .
al ab
201 4-
2 3
"Акрон ",</w>
я ".</w>
тран смисси
те мати
та м.</w>
работа ет</w>
по свя
пеньет "</w>
област и</w>
нос -А
нос-А й
на р
международ ного</w>
лиде ром.</w>
ко но
до ба
Хьюсто н</w>
Сент-Луис е.</w>
Род ри
Огай о.</w>
Кан т</w>
Й охан
Инди и,</w>
Дей р</w>
А са
А ллен</w>
ut h</w>
liv orn
f or
en c
dim itra</w>
alab am
5600 90
- Пра
этниче скую</w>
э лект
щ ен</w>
ур у</w>
тар -Пра
сш ем</w>
рекор д
раз дел
пол ное</w>
ка я</w>
вы сшем</w>
ва ли</w>
бре виат
б ар
афро американцы.</w>
ал лас
ави ации</w>
Ю ли
Э фио
Ут тар-Пра
Родри ге
А татюр
n i</w>
met ap
in e</w>
bat t
abilen e</w>
я ",</w>
ф ев
фев ра
февра ля</w>
сту пен
со вет
с ви
ров ,</w>
ра льный</w>
образо вани
ма к
ж енат</w>
етти сбург
ду ш
ан ам
азиат ских</w>
Огай о</w>
В ер
А .С.</w>
ti y
t us</w>
ela -3
ad isham</w>
a -
4 9
14 -й</w>
00 ,0</w>
"А гра
ы "</w>
ч .</w>
ходи л</w>
у чи
у тог
се веро-
сам ый</w>
р ет
ло д
й ское</w>
зер в
дни м</w>
дер ни
дер -Ам
блю за
ам и.</w>
ав утог
Эфио пи
Шнай дер-Ам
С ред
Рай ель</w>
Крей г</w>
Д авутог
Бе лый</w>
ron d
f ul
cl u
anes p
al dr
- испыта
щ е</w>
художни ка
тем перат
тел я.</w>
т ь
сто л</w>
с ан
руковод ством</w>
пер ь</w>
остров е</w>
ло сь</w>
кури ц
ко ль
ка р</w>
и мен
з ве
ени и</w>
ден ти
англий ский.</w>
Холлоуэ й</w>
Се вер
С ПИД
Нью-Мексико .</w>
Нью-Йор к.</w>
Мен до
Ме сто</w>
К .</w>
Йохан н</w>
Дж о</w>
tow n
town shi
s qu
k har
khar ai
kharai tiy
ar t</w>
al li
adi rond
- -</w>
"Г о
язы ков,</w>
ю т
ци па
ти в</w>
ства ,</w>
секун ду
ро ван</w>
по ст
ни ципа
наход ятся</w>
науч ных</w>
м анд
коно да
ко раб
зд ани
ена "</w>
е к</w>
С С
Пен джа
Нью-Гэмпши ре</w>
Му зей</w>
Ла хо
Калифорни и</w>
Георгиади с</w>
Васп "</w>
s e</w>
livorn o</w>
l ,</w>
195 0</w>
170 68
- би-
ч ,</w>
фран цуз
тяжен ность</w>
студен тов.</w>
се ро
ро м,</w>
размер е</w>
обслужи вается</w>
нача ль
ем ый</w>
до н
вход ящ
ан ная</w>
Со л
Мэрилен д.</w>
Малайзи и</w>
Икба л
Англий ский</w>
А зиат
wil d
wild wee
u t</w>
kharaitiy at</w>
dav ad</w>
ch it
c re
batt le
and ers
amat ri
am davad</w>
ale x</w>
" Орху
" Об
" Ди
ф он</w>
серо го</w>
при со
певе ц.</w>
лиде ров</w>
ки та"</w>
за па
денти фика
д мор
ви но
ам и
Эпо ха</w>
Штата х</w>
Х ай
Ска лес</w>
Са би
Малайзи и,</w>
Де ка
Гонкон г
Барбо са</w>
Ала а</w>
Агу стин</w>
» .</w>
w ash
udi om
udiom acc
r e</w>
pais a</w>
co m
cla udiomacc
aven ue</w>
amatri ci
108 9</w>
0 3
"Т ер
"А марльо
"А кита"</w>
э нос-Ай
челове к.</w>
фици аль
уров ня</w>
стиче ской</w>
соу с</w>
сво их</w>
мет ров.</w>
исполни тель</w>
дри си
должност и</w>
до ступ
ден бер
да та</w>
группа ,</w>
ан денбер
Х и
Ри т
Пре стол</w>
О тель</w>
М .
Колумби я,</w>
Грузи и,</w>
Бу энос-Ай
Американ ский</w>
s c</w>
o v
o ci
g e
er .</w>
del ta</w>
cit y,</w>
a. f.c.</w>
6 .</w>
10 0</w>
- 3</w>
"Анахай м"</w>
со сто
со вер
расположен ы</w>
присо еди
ку х
й ском</w>
ер ный</w>
дев ана
девана ха
дебюти ровал</w>
Сол деванаха
Ра х
Пара гва
Мэдисо не,</w>
Мен дриси
Мадрид- Барайас
К ера
Да лла
Брю ссе
Ба й
Азиат ские</w>
lasal le</w>
are m</w>
4 .</w>
11 0</w>
- 2
э том</w>
ц вет
фе ктур
с ва
ра ми</w>
ра во
парти я</w>
п п
он ы</w>
общ е
о ни
мет ра
менедже р</w>
ме ст</w>
лле ,</w>
далу си
выступа ть</w>
ве сва
Э тот</w>
Сар ва
О стин</w>
Ко мический</w>
Дже ф
Вер ф
Блю до</w>
vir ag
m c
200 4</w>
16 4</w>
109 9</w>
ящи й</w>
ю ,</w>
ш нан</w>
х эт
па лли</w>
обнаруж ена</w>
канц ле
им я</w>
занима л</w>
да ль</w>
групп е</w>
ара б
а я
Эн н</w>
Ч ар
Ф ер
Университ ета</w>
То ма
Т ар
Рад ха
По а
Нью-Йор к,</w>
Лин коль
Гроз ны
Г оттинг
ne av
gaz ett
f o
bat cho
ak a</w>
ag n
ace a
4 16
26 4</w>
"Тер ек</w>
сред и</w>
соб ран
ре зерв
публи ку
по сть</w>
опера цион
о п
ни е</w>
матер ин
лла .</w>
ла н</w>
л ло
кри шнан</w>
и с</w>
домаш няя</w>
д ру
г ер
Сарва палли</w>
Сам ара
Рибикофф ,</w>
Радха кришнан</w>
Жан р</w>
До рога,</w>
ã o</w>
y or
un k</w>
st o
c em
ari anesp
arapri vin
196 9</w>
17068 ,8</w>
11 264</w>
эксплуати ру
ь е</w>
фер ен
фе де
те перь</w>
та н</w>
т ри
ро жен
ро .</w>
пре фектур
после дний</w>
м лад
к рас
до мом</w>
вш ая</w>
весва рай
бо ри
баз ы</w>
ая ся</w>
Про тяженность</w>
Миссисип и</w>
Ман ор
К и
Б ен
ç ão</w>
x .</w>
sci ence</w>
ros a</w>
p la
nas a</w>
gu fa</w>
de cem
decem b
decemb rie</w>
bath s</w>
antar es</w>
aire y</w>
a ção</w>
2 .</w>
1 ".</w>
я йц
у ч
сте рои
со н.</w>
ро ,</w>
осно ван</w>
ли в
ком .</w>
ко ,</w>
игра ть</w>
и муще
де парта
де ло
б ани
ан ,</w>
аб бревиат
Швейцари и</w>
Теха се.</w>
Солдеванаха лли,</w>
Од на</w>
Об ам
Мичиган ,</w>
Кор енные</w>
Запад ная</w>
Дж она
st at
s u
restructi on</w>
la s</w>
at las</w>
ass oci
( родился</w>
" Па
хи м</w>
сти ль</w>
сокращ ен
с пор
наци ональный</w>
н ",</w>
музыка ,</w>
ме даль
ли "</w>
кон ферен
ко лумби
за пис
е р</w>
дело вых</w>
Я зы
Эрнанде с</w>
Штата х.</w>
Чика го
Филли п
Пе рон</w>
Мен де
Б ор
Андер сон,</w>
Аля ска</w>
Алек с</w>
Авра ама</w>
tl x</w>
pl or
plor isi
le .</w>
il .</w>
ii ,</w>
ham bur
ex plorisi
aust in</w>
ac m</w>
6 ,
5 5
5 )</w>
2 9</w>
"Орху с"</w>
"Л окомотив
" 3
учи лся</w>
ти ческий</w>
м но
ла .</w>
кор енных</w>
колле дж</w>
ке л
граф ство</w>
возглавля ется</w>
воз душ
архите ктур
ав тор</w>
По л
Лондо н.</w>
Карна так
Д аллас
Ам ери
А лессио</w>
veron a</w>
v 8,</w>
or ,</w>
l .</w>
an t</w>
air por
000000 ,0.</w>
000 ,0.</w>
"Ба й
та я</w>
т -
стран ы,</w>
си фици
с но
пило том.</w>
общ ая</w>
мет ра,</w>
к мар
длин у.</w>
ги ги
га ар
г ет
белы е</w>
По льш
П амятник</w>
Мар ти
Ма стер</w>
Ах ма
Антвер пен
y l
sy n
ro ck
g er</w>
co t
7 00</w>
16 2
"Го вяди
"Ал дерни
ю .</w>
стран е.</w>
ра ж
оттер да
организа ция</w>
обслужи ва
милли метра.</w>
металли че
ко со
клас сифици
за ли
енно- воздуш
выпол н
бор ,</w>
Форре ст</w>
Си ль
Р оттерда
Ме стом</w>
Мак к
Кор не
Колумби я.</w>
Буэнос-Ай ре
А З</w>
f yl
d ent</w>
c es
adirond ack</w>
70 5
201 3</w>
0000 ,0</w>
"Акрон "</w>
этниче ские</w>
ы ".</w>
фи ли
спи ран
сам о
с ут
с лад
провин ции</w>
при сут
постро и
после до
но ва
ла манд
истреби теля</w>
из да
до в</w>
гент ин
в ходил</w>
аэропор том</w>
а спиран
Уттар-Пра деш
Со ус</w>
О дин</w>
Н .</w>
Малайзи и.</w>
Ма ди
Лар с</w>
Калифорни я.</w>
Ж урна
Даллас е</w>
po acea
or b
m in
hi p</w>
ful ton</w>
e g
der am</w>
aubur n</w>
al l</w>
196 6</w>
"Бай мак
футбо л</w>
твер до
раст ени
музы ку,</w>
лив ково
ки н
йц ы</w>
ин донези
и дет</w>
зака з
д ро
г .</w>
в ы</w>
Шнайдер-Ам ман
Чика го,</w>
Рас му
Ман хэт
М ос
Гу б
Ан далуси
y shi
tr an
p es
k ing</w>
ent ,</w>
ab ner</w>
5, 3</w>
4 10
410 77
"К ре
" Чикаго
ь и</w>
т ти
стре ча</w>
сот руднико
пользу ется</w>
ни .</w>
му ниципа
м я
км ени
занима ет</w>
га .</w>
вой ны.</w>
в сей</w>
Хан т</w>
Сан- Франци
По по
Ми лан
Инди я,</w>
Ар хите
x ,</w>
willi ams</w>
th po
te x
li br
libr ari
l um
in c.</w>
agrimi ação</w>
7 3
199 5</w>
"Ар дмор
"Аполлон-1 2
"Ал кмар
цвет у
футбо лу</w>
со бой</w>
ру к
п ту
м бер
льни ца</w>
ль да"</w>
ло ж
жи вет</w>
дн я.</w>
г ран
выш е</w>
восто ку</w>
блю з</w>
али стической</w>
Тур ции</w>
Рас полож
Пер сона
Не пту
Ка д
Демократиче ской</w>
Бо льшой</w>
Аф ины</w>
Антио ки
syn thpo
st er
s oh
s am
po lon
mon o
li e</w>
lan d</w>
g al
f ign
der b
derb yshi
ch el
c an
blackpo ol</w>
ai n</w>
1 0000
. s.</w>
"О т
чемпи оны</w>
тра м
спроекти ров
разговор ный</w>
публику ет</w>
по се
не й</w>
напис анный</w>
мин ут
метра х</w>
ма лайзи
ль ,</w>
линг то
комиксо в</w>
испан ском</w>
дж ара
десер т,</w>
деб ург
года :</w>
г дебург
бо я
Соединен ном</w>
Румыни и</w>
Ми ри
Марти н</w>
Кад хим</w>
Журна л</w>
Гуру ли</w>
В ин
Афи на
townshi p,</w>
t or
si b
p e
ex p
d u
alli g
201 1</w>
1 101</w>
"Т ур
"Говяди на"</w>
тель ство</w>
та го
среднеатлантиче ского</w>
ра кет
п ан
ма р</w>
кило грам
в ан
б ы</w>
Ф утбо
Р ют
Персона ж</w>
Пар кер
О .</w>
Лондо н</w>
Коннектику т</w>
К ита
Ин ститу
Зах ра</w>
Бер трам
Азербай джан
А ль</w>
v i</w>
u pp
record s,</w>
o "</w>
mar y</w>
lo si
f on
exp losi
count ry</w>
be an</w>
19 18</w>
"Ма гдебург
ящи м</w>
худож ник</w>
хи о</w>
хи г
х ле
футбо льный</w>
соре в
слу ж
связ ан
с ар
основ ные</w>
ос-Андже ле
о те
о м.</w>
м и,</w>
ког да</w>
ко косо
испан ский.</w>
извест ны</w>
государ ств
американ ского</w>
Сер хио</w>
На звание</w>
Му м
Ман че
Кей си</w>
Ам па
Альф он
Абду ла</w>
«А ллама</w>
z a</w>
wil kin
upp o</w>
t an
squ are</w>
sp eed</w>
soh o</w>
s chi
schi p
schip ho
pp in
p art
olog ica</w>
mar t
li ppin
ic ti
gr uppo</w>
gr ass
fre w</w>
char lie</w>
bin ig
battle fiel
an am
197 4</w>
. К.</w>
-Х о
( часть</w>
"Кре пость</w>
"Б о
ст руп
содер жа
сво его</w>
роди ной</w>
присут ствовал</w>
о е</w>
не ме
мас ло</w>
ль .</w>
ло ни
лиг е.</w>
команд у</w>
к т</w>
к ка
е "</w>
губерна тором</w>
автомоби ль</w>
Фрэн к</w>
Тей ло
Сар ана
Р ок
Попо в,</w>
Пол ное</w>
Ни ко
Мум ба
Мат таре
Манче стер
Анго ла,</w>
Азербай дж
А д
pala en
palaen ologica</w>
ni t</w>
joh n</w>
i s</w>
ho us
binig nit</w>
a- rosa</w>
4 39
199 4</w>
15 7
10 9</w>
"О лимпи
"Ба варский</w>
"Аль-Аса д"</w>
ы е</w>
челове ка</w>
че сно
ц ем</w>
х е</w>
то н
ти п</w>
ти ,</w>
сыгра л</w>
сотруднико в.</w>
сорев нова
се м
ри ти
ри дж
ре да
р "</w>
президен та</w>
посвя щен</w>
популяр ностью</w>
пена ,</w>
организа цией</w>
они ко</w>
мен та</w>
кол ба
клу бо
использу ется</w>
ер т
ба ,</w>
б ,</w>
ал "</w>
Эртегу н</w>
Рибикофф .</w>
Л ос-Анджеле
Кливлен де,</w>
Карната ка,</w>
Бертрам ва
tenn es
t ra</w>
st ar
r ay
priest ley</w>
on "</w>
nrb q</w>
m er
m ad
k w
j o
i .</w>
h a
er ing</w>
e i
az z
ajoblan co</w>
198 3</w>
193 3</w>
00 ,0.</w>
"А ла
цвету щи
хай ло
ф ло
традицион ное</w>
те хниче
ст р</w>
со м.</w>
роди на</w>
опубликов ана</w>
материн ская</w>
лю ди</w>
ла "</w>
ко т
ко бен
кел вино
к же</w>
ена я</w>
горо дом</w>
блюзо вой</w>
арми и</w>
У ол
Та кже</w>
Су мат
Си ни
Ро сто
Ми хайло
Л ай
Колумби я</w>
Калифорни я</w>
К ем
Д ис
t o
lo s</w>
h um
et .</w>
en s</w>
d s,</w>
ban anam
associ ation
ar d</w>
amatrici ana</w>
allig at
3 -й</w>
199 3</w>
-Х ор
"Ан таре
я р
чат ый</w>
университе та.</w>
су д
спроектиро вал</w>
сар гет
саргет та</w>
с саргетта</w>
с ко</w>
ре з
располож енная</w>
при вы
предста вляет</w>
постро енная</w>
посе щ
по зже</w>
на ".</w>
ли н</w>
клуб у</w>
и дентифика
за во
ен не
до рога,</w>
д ский</w>
д ра</w>
выпу ска
Хе ссаргетта</w>
Х ар
Си дне
С кот
Нью-Йор ке</w>
Михайло ви
Индиана .</w>
Дербы ши
Губ би
Грузи я</w>
Антвер п
Ангол ы</w>
Адам с</w>
А у
ti tan
aubur n,</w>
association e</w>
ar en
ar em
alphar ett
alligat or</w>
199 9</w>
18 6
1, 2</w>
-би- си
"Агра "</w>
" Ре
эксплуати рует</w>
ш ер
члено в,</w>
та ми</w>
син те
по с
персона ж
местополож ения</w>
ме ром</w>
лер мо
Чума ков</w>
Уилья ма</w>
Р .</w>
П ос
Ман уэ
Иллиной с,</w>
Бо льница</w>
Александ ре</w>
y "</w>
um i
umi pu
umipu ter
tennes see</w>
space por
pudd ing</w>
part i</w>
m an
f el
fel ic
f c,</w>
d en
b umiputer
ab el
198 1</w>
- млад
"Па лермо
ы вается</w>
ф ли
то в,</w>
созда л</w>
со л
сол да
ри с,</w>
ре ч
пре ж
по ги
ор пе
ор ган</w>
мо нар
команд ы</w>
колле дж
кобен да
ко лес
кан ад
жи тели</w>
енно- мор
дисцип лин
д ском</w>
бо р</w>
Эри ком</w>
Тар ран
Север ной</w>
Робер т</w>
Пре зиден
Кова ч</w>
Карнатак а</w>
Запеч енная</w>
Джеф фер
Альби на,</w>
v .</w>
ur n
u r</w>
tenn ant</w>
t u
so lan
ro w</w>
ri ch
pes aka</w>
ic k
dy k
bumiputer a</w>
"Александ ри
" alco</w>
ч но</w>
фициаль ным</w>
ть ся</w>
студен тов</w>
ст ья
привы к</w>
президен т.</w>
поги б
от вет
милли метра</w>
космо се</w>
ис ходит</w>
журна л</w>
джазо вую</w>
дж и</w>
де й
го м</w>
г ей</w>
во ка
ве ра
бер т</w>
Рей е
П ена</w>
О .К.</w>
Дис ко</w>
Дани я,</w>
Вис весварай
Ак рон,</w>
wil der</w>
w y
su bur
l u
isi dr
isidr o</w>
felic it
ers at
e y</w>
do u
b ersat
6 7
0- 439
"А реша</w>
"А ддис-Абе
э того</w>
чер ного</w>
у шел</w>
транс ли
т ",</w>
столиц а.</w>
ству ющи
ст ар
ски й,</w>
с ана</w>
ре а
о но
километ ров</w>
ин ха
доступ ен</w>
бо ле
ба стья
ба "</w>
акаде ми
Чар ли</w>
Цент раль
Хью ст
Уор д</w>
Су сана</w>
Се бастья
П инха
О дним</w>
Королев стве</w>
Иллиной с.</w>
Джеффер сон</w>
Дани и,</w>
Бу ре
Бо гаар
Бер н
Ар ту
« Аль
wer f
sy st
ri d
os i</w>
nation al</w>
n am
m el
le gen
j ack
h it
fer enc
derbyshi re</w>
andre w</w>
al m
ac y</w>
8 8</w>
6 -
25 3
штаб-кварти ра</w>
участво вал</w>
у раль
ро на</w>
по хо
ливково е</w>
ле м.</w>
ла п
кмени стан
ен ц
ен ,</w>
е мо
ди .</w>
де -
Хе ль
Филиппина х,</w>
Т енне
П у
Нью-Йор ка</w>
Нидерланда х,</w>
Непту н</w>
НАС А.</w>
Кана вера
Дженнинг с</w>
Дж .</w>
Д ен
Висконсин ,</w>
Бо рис</w>
wildwee ds.</w>
ry s,</w>
neav e</w>
m ey
jon es</w>
ingt on,</w>
ic s</w>
hous e</w>
en gin
cal i
ac h
6 39
416 5-
2 4
198 7</w>
"М ерт
"Амарльо "</w>
уров не</w>
транспор т
те м</w>
с ня
про е
пи рож
откры т</w>
ме ль
м исси
конода тель
кон фли
г вая</w>
бе лый</w>
арми и,</w>
ан ом</w>
Чири ко
Хор хе</w>
Фран цуз
Фон д</w>
Ф К
Теха се</w>
Пер си
Нью-Мекси ко</w>
Н арен
М .</w>
Королев ст
К ро
К ла
К ам
Дэви д</w>
Ду бли
Гу джара
Грузи я,</w>
Во льф
Би онико</w>
Бай ден</w>
Американ ец</w>
Абдул -
s eri
ray el</w>
music .</w>
mo y
mey er</w>
lum es
lumes z
jav a,</w>
ganym ed
db s</w>
bhangr a</w>
a 1</w>
73 7</w>
34 3
12 -й</w>
109 7</w>
"К ливлен
эн дви
стро и
со ответ
сбург е,</w>
подпис ывается</w>
по-английски .</w>
пен га
ох ран
ны неш
ни х</w>
мин даль
м ся</w>
м бу
командо й</w>
ключе вой</w>
карто ш
име л</w>
за город
жи телей</w>
ен ного</w>
д »</w>
глав ный</w>
выступа л</w>
вш аяся</w>
вой ны,</w>
во ди
ва ют</w>
боя х</w>
а кти
Остин .</w>
Мири ,</w>
Л и</w>
Ка пи
Губби о</w>
Гонкон ге</w>
Г ринви
Г лав
Ба ку.</w>
Анто нис</w>
Альби на</w>
wash ington</w>
w ol
subur b
st i
s a
librari es</w>
f. c.,</w>
engin e
engine ering</w>
con tra</w>
c -1
b ar
aw h
ar r
alpharett a,</w>
ai d
5 .</w>
19 25
13 1,
131, 6</w>
0 ,0.</w>
"Т орпе
"Ала а</w>
" Э
" Ин
язы ков</w>
э ти
уча сти
тер а</w>
счи та
стерои д</w>
си т</w>
с эндви
род ,</w>
рова лся</w>
раво охран
раб би
премьер-министро м.</w>
ниг ери
напис ал</w>
ку р
команд а</w>
к ру
извест на</w>
зд равоохран
запу ска</w>
долж ность</w>
до ктор
выступа ет</w>
во ч
бори ст
блюз .</w>
аф фили
ан ский</w>
Сан- Себастья
Самара с</w>
С те
Мадрид-Барайас "</w>
Ма с
Коннектику т.</w>
Ко пенга
Дани и
Вашингто не,</w>
Англи и</w>
Аль кобенда
suburb an</w>
s l
ph rys,</w>
m il
jo urn
gen er
gener al</w>
fi at</w>
c a</w>
bre m
a ",</w>
8 3
201 6</w>
" Мон
эк пу
ъ е
челове к"</w>
стра ли
сокращен но</w>
с ли
руп и
рит ма</w>
посещ ал</w>
пер во
парла мент
он су</w>
о стро
не м
лю би
л экпу
ку да</w>
й ",</w>
за пад
дека н</w>
д ",</w>
групп ,</w>
г вар
г ам
ве д
блюза .</w>
блю де</w>
ан .</w>
альтернатив ный</w>
Ш ар
Фредери к,</w>
Флин т</w>
Ста мбу
Рит м</w>
Остин е</w>
Королев ства</w>
Зах ра"</w>
Г еттисбург
Бекон -бутерб
Ба ку
Аф онсу</w>
Алек се
Абуба кар</w>
Абуба кар
Аа рона</w>
ri bi
ribi co
ribico f
re gi
qu e</w>
mo uth</w>
in .</w>
ii "</w>
hum phrys,</w>
har ri
hal l,</w>
co den</w>
cam illa
bu s</w>
araprivin es
anders on</w>
alabam a</w>
ad am</w>
ac i
1 ,</w>
"Спартак ",</w>
" visvesvaray
язы ком,</w>
ч то
ут ти
улиц а"</w>
те хнологиче
т то
сена та</w>
резерв ным</w>
присоеди ни
при готовл
по ка</w>
па ис
о не,</w>
началь но</w>
нача лось</w>
най д
мета лл
международ ном</w>
м он
кси ма
команди ром.</w>
й ские</w>
з ан
жен ерный</w>
д ".</w>
г рани
Э г
Уилья м
Су пер
Са бин
С ти
Перси дском</w>
Пара ку
Не гре
Н Ж
Кем б
Испани я.</w>
Джейм сом</w>
Дж ара
В стреча</w>
Бу н
Ба ку</w>
Альфред а</w>
Австри и,</w>
var osi</w>
u te
t ur
s c,</w>
pres s</w>
pol is
m u
i t</w>
ferenc varosi</w>
coup e</w>
calci o.</w>
c le
al der
ag e</w>
560090 .</w>
200 1</w>
"Сумер ки"</w>
"Алек с</w>
" Ч
ху ку
т енни
спе ци
с- де-
с-де- Джара
рабби а
раб хуку
про вел</w>
популяр ное</w>
он на
музыка .</w>
ли ди
конфли к
кон чил</w>
кон грес
й ских</w>
заверши л</w>
ей час</w>
ев ,</w>
дн я,</w>
двига теля</w>
да б
го ся</w>
входящ ем</w>
ар еная</w>
альтернатив ное</w>
а льный</w>
Фран ции.</w>
Ста ди
С ена
С ейчас</w>
П рабхуку
П ор
Об щая</w>
Нарен дра</w>
Мануэ ль</w>
Ку ши
И м
До рис</w>
Дека л
Де Мар
В И
Американ ская</w>
«А тлас</w>
t a
seri e</w>
ro ad
ri char
j .</w>
her o</w>
harri et
en ter
dy nam
d c</w>
brem en</w>
blackpo ol
a y,</w>
4 8
253 26
- н</w>
, 7
чо к</w>
футболь ную</w>
ф ламанд
утти кка
уттикка тто
у ра
тель ,</w>
те ли
ста ви
секунду .</w>
реа ль</w>
пала ты</w>
от куда</w>
ор ан
о ри
кризис "</w>
ко .</w>
километ ра.</w>
ен ь
де мокра
да ба
г да
б рон
ан г
Шта ты,</w>
Централь ной</w>
Сингапу ре.</w>
Румыни и.</w>
Ромагно ли</w>
Мадри де,</w>
Ма гда
Лай онна
Ко ц</w>
Кемб ридж
К е
Запад ной</w>
Германи и.</w>
Брюссе ле.</w>
Альбукер ке,</w>
Ала б
sh e
sa ab</w>
s si
m b
indi ana</w>
f ort
aire ,</w>
ac -1
ab h
a ur
19 4
18 ,
100 1</w>
1 )</w>
- 9
"Ма темати
"Ба т
"Аль берт</w>
"А бра
ха ре
температ уру</w>
стар то
со ном,</w>
сле ду
само лет
с ки</w>
ро с</w>
пол но
под раздел
парти и.</w>
откры ва
о бе
на зем
мно ги
миндаль ,</w>
й ским</w>
ис .</w>
из мер
ени ю</w>
владе ет</w>
в ент
английски й,</w>
акти в
Тур ции,</w>
Си ти</w>
Ри м</w>
Орху се,</w>
Ми т
Менедже ром</w>
Малайзи я,</w>
Ма ки
Ката лони
Ка ро
К э
Во ри
Бу харе
Анд ра</w>
Англи и.</w>
Аль пена,</w>
Алексе я</w>
А ,</w>
pet ro
lo tus</w>
le ,</w>
i p
gu ar
groun ds</w>
ell ,</w>
co ,</w>
c ent
c and
bi g</w>
advanc es</w>
6 8</w>
54 26
47 5426
4 97
"А ллама</w>
хип-хо п</w>
университе та,</w>
то вое</w>
ти .</w>
сот рудников</w>
ро л
пу чок</w>
периап з</w>
от де
обе спе
об лан
но мером</w>
на ",</w>
ма йский</w>
километ ров
здравоохран ения,</w>
з "</w>
диамет р</w>
ди ,</w>
дж облан
де р</w>
д ня</w>
выпол няет</w>
вое ва
вар ень
в "</w>
боле е</w>
амят ни
ам и,</w>
Хель син
Футбо ли
Ти р
Саби н</w>
Менедже р</w>
Мари о</w>
Мар са</w>
Королев ства,</w>
К уттиккатто
Икбал »</w>
Гре ции.</w>
Вори ди
Б от
Американ цы</w>
Аль тернатив
А лан
st ow
st an
rs -3</w>
regi onal</w>
pudd ing
mo tor
mad ison</w>
kw 4</w>
harriet stow
gu b
gub bi
gubbi o</w>
gla s</w>
f alc
dynam ics</w>
dou glas</w>
alder ne
3 .</w>
1 .
"С ент-Луис
" alfa</w>
у да
сред нюю</w>
совет ской</w>
со м,</w>
сер ва
сен .</w>
сб ур
рай он</w>
ра »</w>
пе чат
па дает</w>
п ря
о зер
не ром</w>
не н</w>
муниципа лит
м )</w>
лла н</w>
ко пи
катего рии</w>
к нига</w>
де с
вши мся</w>
во енно-воздуш
ва .</w>
американ ский</w>
Шри-Лан ка.</w>
Ш и
Фонтан "</w>
Те хниче
Пала та</w>
П ет
Остин е.</w>
О лимпи
Нидерландо в,</w>
И х</w>
И охан
З А
Ба к
Англи и,</w>
s cho
ne w
n .</w>
it ,</w>
internation al,</w>
indi e</w>
ho p
f en
efxeinou polis
d icti
claudiomacc one</w>
aid ast
ad dicti
acc r
6 ,</w>
3 52
2 .
15 8
( километров
"Об ь"</w>
"Мон реаль</w>
"Антаре с"</w>
"Абра даб
чу с
чус ет
участи е</w>
ти но
са чусет
рон ы</w>
присоедини лся</w>
парла мент</w>
п ри</w>
окру г
лон дон
ло го</w>
ле х
ки ".</w>
имен и</w>
ена .</w>
ен ы</w>
дру ги
гре че
вход ящий</w>
Ч а
Ху ана</w>
Ти ро
Тер нер
Родриге с</w>
Род ные</w>
Ро за</w>
Рам с".</w>
Пос ле
П и
Мас сачусет
Кро ме</w>
Кла ус</w>
Инфан те
Дж она</w>
Гре ции</w>
Г а
Виргини я.</w>
Ви до
Ва лю
В ен
Аф ри
Ар ен
Ак хиг
А зи
v -2
road ,</w>
nrbq ,</w>
mendrisi o,</w>
indi an
grass o</w>
f d</w>
clu b
can on
bersat u
aldr in,</w>
al es
25326 0,0</w>
-0 .</w>
( в</w>
"Мерт вый</w>
"Ардмор "</w>
"Аль фон
"Абилен "</w>
" Ме
" Ка
" )</w>
ю ж
ше д
ци я,</w>
транспор та.</w>
то же</w>
т ут
созда ли</w>
сли воч
се вер
связ анный</w>
пу ди
поли ти
пере да
певи ца</w>
ол ет</w>
о р</w>
но ,</w>
медаль ю</w>
м ра
лиди рует</w>
кризис ,</w>
копи с</w>
име ется</w>
запад у</w>
е ".</w>
дви ж
вол новой</w>
в ло
ан е,</w>
Со то</w>
Про копис</w>
Пенджа бе,</w>
Паркер сбурге,</w>
Па вло
Ли ра</w>
Лей борист
Л окомотив
Копенга ген
Е К</w>
Джон сон</w>
Дженнинг са</w>
Во енно-мор
В ла
Бангало ре,</w>
Б ур
А .
« Ампа
w ,</w>
v isi
v ein
vein ti
t u</w>
t rin</w>
rs-3 "</w>
rom anc
rol l</w>
r ham</w>
po li
p ur
nrbq .</w>
m tu</w>
m ay
g arth</w>
f ri
col le
ar a</w>
8 7
7 )</w>
63 )</w>
60 63)</w>
186 2</w>
(6 6063)</w>
( люби
"Ю вент
"Бат чо
"Аполло-12 ".</w>
"Альфон с</w>
"Альбукерке "</w>
"Альбукерке ",</w>
"Абрадаб "</w>
ш "</w>
четы ре
футболь ного</w>
т ниче
ству ет</w>
ство ,</w>
соль ным</w>
работа ла</w>
погиб шим</w>
печа ти</w>
п ла
от прави
ок о</w>
ма ксима
ли сь</w>
крупней шим</w>
которо му</w>
космо дро
име ла</w>
говор я
го вя
гам бра
ва ть</w>
бли оте
аф ри
а ла</w>
Юли я</w>
Э тниче
Фор т-
Уру гвая</w>
Технологиче ского</w>
Т осу
Т они</w>
Располож енный</w>
Р ос
Павло пу
П руднико
П оттер
Мар тин
Л ь
Коннектику т,</w>
Институ т</w>
В анденбер
Ба эй
Б ы
Арту р</w>
Англи я,</w>
Аб нер</w>
syst em
sti an</w>
ster d
spor t
sib al</w>
sh af
s c
rom ance</w>
rock .</w>
ri stian</w>
on il.</w>
ic e</w>
g au
gau ssi
f unk</w>
er ia</w>
ch ristian</w>
car roll</w>
bl u
ast er</w>
am sterd
5 ,</w>
2 77
000 2
"Ар раббиа
" a.e</w>
ющ ая</w>
эпоха льная</w>
элект ро
фи ль
страни ц.</w>
см анской</w>
сви ни
производи тся</w>
прави тель
пп ле
пост у</w>
по ст</w>
п амятни
н анд
нанд о</w>
музы ки,</w>
мо щ
лло с-де-Джара
к ни
к ",</w>
ев ро.</w>
е ллос-де-Джара
горо д,</w>
ан "</w>
Юж ной</w>
Ф у
Сент- Вин
Параку еллос-де-Джара
О сманской</w>
Мендриси о,</w>
Ль во
Крей гом</w>
Инди я</w>
Дж око</w>
Г -н</w>
Вашингто на,</w>
Бертрамва й</w>
Ахма д</w>
Ататюр ку</w>
Антиохи я</w>
Аль ве</w>
А джоблан
v ers</w>
schipho l</w>
s ch
rich shaf
on e,</w>
glo b
glob em
globem aster</w>
gazett e</w>
fri ed
fried richshaf
fign eria</w>
el la
e ing</w>
cor nell</w>
bo eing</w>
a z</w>
a i</w>
44 7
3, 9</w>
3 ,8</w>
"С мер
"Би онико
"Аль- Андер
"Аль гамбра
" Новая</w>
" awh
ч ные</w>
ч и</w>
тор го
т ни
стади он</w>
совер ши
ско ш
си за
са м</w>
ру б
ра ко
представи теле
по верх
отно с
о ливковое</w>
неме ц
ло са</w>
линг тон</w>
лиг и</w>
канцле р</w>
ин стру
изготовл ена</w>
зака за</w>
домаш ние</w>
гу щ
государ ствен
выполн ена</w>
вице- президентом.</w>
в ано</w>
блюз ,</w>
би ра
американц ы,</w>
ал лу
Ц и
Ц ерков
Х апу
Фер нандо</w>
Управл ение</w>
Теха са,</w>
Те хнологический</w>
Та и
Со ци
Сарава к.</w>
Сан-Франци ско
Ри чар
Ра сиза
О си
О кончил</w>
Нью-Гэмпши ре,</w>
Монтевиде о,</w>
Май к</w>
Лондоне ,</w>
Кера ла,</w>
И ко
Грузи и</w>
Гринви лле,</w>
Вискон си
Вермон т</w>
Валь тер</w>
В ы
«Ампа ра»</w>
synthpo p</w>
s um
poli s</w>
petro trin</w>
par k
p le</w>
ganym ed</w>
g orb
fon s</w>
e "</w>
do r</w>
di visi
d an</w>
c-1 7</w>
alphar et
al fons</w>
88 )</w>
8 0
41077 7)</w>
38 8</w>
2 10</w>
195 9</w>
157 88)</w>
0 3</w>
, 9</w>
( 15788)</w>
"А тлас</w>
" Де
этаж ей</w>
ь ",</w>
ы ду
чис ло</w>
так тный</w>
сти ци
созд анный</w>
се к.</w>
реч ь,</w>
председа телем</w>
поль ско-
п а</w>
ос-Андже лес</w>
орган ом</w>
мисси и</w>
минист ра
ль ден
лей б
ла тин
е м.</w>
до кол
до ко
д у</w>
блюзо вую</w>
ар т</w>
Фран к
Уот сон,</w>
Уи л
Уай т,</w>
Сте у
С ПИ
Ро й
По л</w>
О льден
Маттаре лла</w>
Манхэт тен
Л ок
Висконси н</w>
Бун дес
Бак со</w>
Ба до
Аса д</w>
Анго ла</w>
th ak
p an
or eg
mi chel
j way
im ag
imag ine</w>
ii i</w>
en i
en .</w>
co o
c ast
bl t</w>
bi on
ar chit
alpharet ta</w>
alm a</w>
airpor t,</w>
195 6</w>
1 25
(люби тели
( штат</w>
( v-2
"С ент-Лу
"С ам
"Бар сы
"Андер сон"</w>
"А тти
" гиги
юго- восто
чемпи она
ч ения</w>
цветущи х</w>
фон су</w>
тив ной</w>
та у
сам ми
пря мо
проис ходит</w>
пре до
па ты</w>
п си
оран же
операцион ная</w>
окру ж
народ ной</w>
музыка "</w>
ль цем</w>
лиг и.</w>
конферен ции.</w>
кон стру
клубо м</w>
к э
испан ский</w>
институ т</w>
заво де</w>
з ви
ен о</w>
д ду
бан ано
аллу дж
авиа базы</w>
Э .</w>
Фран ции</w>
Тир струп
Т .</w>
Робер т
Рах ман</w>
Президен т</w>
Пре емником</w>
Пло тность</w>
П .</w>
Нью-Йор к</w>
Мэрилен д</w>
Музы ка</w>
Маки с</w>
М ин
Лахо р</w>
Кон стан
Ко т
Кар паты</w>
Дэви с</w>
Ду гер
Ва лен
Ва й
Б ром</w>
é rie</w>
«А дольфо</w>
w at
v 8.</w>
um ber
spacepor t.</w>
s érie</w>
r ,</w>
pur ple</w>
po wy
o s</w>
michel e</w>
mi t</w>
mar co
l and
ki ds</w>
ingt on.</w>
g e,</w>
bur l
bre men
bl ack</w>
aw h</w>
an ge</w>
a eni
639 1)</w>
6 9
6 70
2 1
1- я</w>
( 410777)</w>
"От кры
"Мемори ал"</w>
"Л ос-Анджелес</w>
"Батчо й"</w>
"Баймак с"</w>
"Алдерни "</w>
"А фонсу</w>
" Карпаты</w>
я ),</w>
ыду щи
четыре х
художника ми</w>
управля л</w>
то ни
то не,</w>
те хнологический</w>
со бира
сливоч ное</w>
раз рабо
премьер-минист р</w>
по джан
пенси ю</w>
образовани я</w>
кораб ля</w>
км ).</w>
й ".</w>
загород ной</w>
журна л
ев ро</w>
дор ф
доба влен</w>
дела ет</w>
г ру
блю за</w>
ака дду
Хи л
Ф аллудж
Тома с</w>
Т акадду
Суа ре
Сред не
Сингапу ре</w>
Рос си
Рок -музы
По ль
Па ис
П лан
Нико с</w>
Негре "</w>
Мэрилен д,</w>
Королев ства.</w>
Капи то
И ло
Ж ера
Джон с,</w>
Ва с
Атлан тиче
Алек сис</w>
А мар</w>
w ick
space wat
scho ol</w>
ro w,</w>
p .
ov e</w>
marco lin
lock bu
jway dan</w>
f r
f -1
es e</w>
dis co.</w>
b lockbu
b as
a 9
6 38
26 -го</w>
197 6</w>
1925 5)</w>
(6 6391)</w>
( журнал
( 19255)</w>
"Чикаго "</w>
"Л е
"Г рей
" ram</w>
" a-rosa</w>
чер ный</w>
чер ед
хо лод
феде ральный</w>
у с"</w>
твердо ст
тан ом</w>
т ".</w>
сти тут
социаль ного</w>
солда там</w>
сконча вшийся</w>
с ра
с ме
роди вшимся</w>
правл ения</w>
пере движ
п амятник</w>
отстав ке.</w>
отправи лся</w>
ос е</w>
оно в</w>
о черед
на з
ме даль</w>
м пу
ль ной</w>
ло .</w>
лит ра.</w>
лап ш
куриц а,</w>
и ".</w>
доко л</w>
включа я</w>
варень е,</w>
би блиоте
базиру ющ
афро американцев.</w>
архите кто
ан ско-
авгу ст</w>
а х</w>
Я ку
Уот сон</w>
СПИ Д</w>
С тю
Расму с
Пакист ана</w>
Махму д,</w>
Кар лоса</w>
Капито ли
К А
ЗА Л</w>
Вермон т.</w>
В ари
Бур бан
Бан де
Асунсь оне,</w>
Ар лингтон</w>
Ар бор</w>
Алек сей</w>
tiv e</w>
she par
s on,</w>
or i
n ation</w>
m as
lippin cot
lippincot t</w>
li b
ii »</w>
h un
ganymed .</w>
falc on
f lib
explorisi on</w>
ela-3 ,</w>
efxeinou polis</w>
de mar
blockbu st
ber ti
batcho y</w>
aja x.</w>
a. d.</w>
5 9
"Г ринви
"Ба таго
"Ал пена
"А шхаба
"3 aren
четырех тактный</w>
ча тельный</w>
ч ени
цент ре</w>
хи мо
т рен
т ва</w>
ст .</w>
сред ства</w>
сем ьи</w>
с мет
с мен
производ ный</w>
президен том,</w>
пи та
пери тони
обслужива ющий</w>
обеспе чения</w>
националь ную</w>
насчиты вается</w>
муниципалит ете</w>
музы ке.</w>
констру ктор
коми ческий</w>
к ".</w>
ис ход
идентифика тор</w>
до м.</w>
вли яни
в се</w>
библиоте кар
бе .</w>
акаде мический</w>
Этниче ская</w>
Те м
Сер гей</w>
Сан -Х
Сан-Х осе</w>
СС С
Ра ши
Ра химо
Р ан
П ан
Ольден дорф
Обам а.</w>
На род
Кар лос</w>
Ин женерный</w>
Елен ы</w>
ДеМар се</w>
В се
Бекон-бутерб род</w>
Антверп ена</w>
А реша</w>
v al
universit as</w>
u tive</w>
st u
sp ang
s is
ne gr
negr e</w>
mat er</w>
fyl de</w>
flib berti
ex ec
exec utive</w>
ent in
di ag
diag onal</w>
c umber
bhangr a.</w>
b ,</w>
ar c
ag u
ab ove</w>
7 4
190 7</w>
19 13</w>
16 ,
1 9</w>
1 -й</w>
"Ю стици
"awh "</w>
" Остин
" Ве
" 1</w>
ющ ей</w>
э ш
част и</w>
ц ы,</w>
техниче скому</w>
стран а,</w>
собира ется</w>
со обще
сле до
си о</w>
сде лан</w>
связан ные</w>
сам олет</w>
производ ная</w>
при ня
польско- советской</w>
подраздел ение</w>
п .</w>
овощ и,</w>
нача ла</w>
найден ный</w>
ме мори
ли ги
кан т,</w>
кан ской</w>
ингредиен тов.</w>
зна чи
з ву
ер а</w>
енц ерков
диско те
де мо
грам ма</w>
вока до</w>
вой ны</w>
вн у
ве дет</w>
баз у</w>
ба н</w>
б ю
б .</w>
Хол л"</w>
Стю арт</w>
Сингапу ра,</w>
Сарана к,</w>
ССС Р</w>
Ра у
Пар ти
П ред
Остин ,</w>
Констан тино
Д А
Бразили и.</w>
Алаб ам
w or
te ch</w>
stu art</w>
s on
s c.</w>
s and
rom agn
matad or,</w>
lun a"</w>
le d</w>
is abel
isabel le</w>
h u
felicit as</w>
ers ,</w>
efxeinoupolis "</w>
e k</w>
bin ign
ben o
az al</w>
at o</w>
ash er</w>
ac f</w>
a o</w>
36 0
200 8</w>
197 1</w>
164 ,</w>
-1 7
( США
"Би -би-си
"Б ол
"Аль -Хор
"Аддис-Абе ба</w>
" Хьюстон</w>
" Ку
т ным</w>
стади оне</w>
соу са,</w>
ро скош
ро к,</w>
ри ч
региональ ном</w>
пре ми
открыва телем</w>
од ного</w>
о м,</w>
ниверсите том</w>
м ери
м ".</w>
ло -
летчи ка
летчика -испыта
километ ра</w>
итальян ский</w>
ингредиен тами</w>
игра ли</w>
зи с</w>
зве зд
ен ди
доч ер
до с</w>
ди ре
д ани
гражд ан
горо д.</w>
глав ные</w>
военно-воздуш ными</w>
во м</w>
во енного</w>
вариа тором</w>
ва ,</w>
бы вши
ба с"</w>
архите ктор</w>
аренда тором</w>
ами ль
а го
Хил ми</w>
Хапу та
Х ристи
Управл ением</w>
У ниверситетом</w>
Тернер ,</w>
Тай ба</w>
Стран а,</w>
Соци алистической</w>
С енди
Рейе с</w>
М. О.</w>
Кон грес
Кана де,</w>
Индианаполи с.</w>
Давутог лу</w>
Гонконг е.</w>
Все инди
Бан анам
Ау ре
Альфон с</w>
Альбер то</w>
« Орхус
t ab</w>
spang led</w>
sp ace</w>
shi p
ship y
ro 1</w>
richar d
richard son</w>
polon ica</w>
or ange</w>
ly di
hon d
gre y</w>
glo om
fi or
et ,</w>
cumber land</w>
colle ge</w>
co pen
c roma</w>
arianesp ace</w>
arem -
arc tech</w>
ang el
97 8
9 -0
3 18
18 l</w>
17 000</w>
100 30
0-439 -17
0-439-17 68
(километров ).</w>
"Б лэкпу
"Александри я"</w>
"А татюр
" Ли
эти кет
э фи
ч ный</w>
то ,</w>
тел я,</w>
сти ле</w>
со й</w>
с гущ
рей ской</w>
расположен ной</w>
про зви
по стави
отстав ку.</w>
окон чательный</w>
музыкан том</w>
минист ра</w>
ма ши
м о</w>
ль -
ку зо
кри зис</w>
к ст
ж и</w>
ена ,</w>
ен с</w>
е мая</w>
де ли
вед ении</w>
ве сит</w>
блю да</w>
базиру ются</w>
афро американ
Ю су
Сена та</w>
Прабхуку мар
Па три
Основ ная</w>
Нидерландо в</w>
Мекси ке,</w>
М ол
Кливлен де</w>
Зеланди и</w>
Давутог лу.</w>
Горба хо
Геттисбург ,</w>
Валь с</w>
Бе л
Ан ка
Амстерда ма</w>
Аджоблан ко</w>
А ппле
y de</w>
wick re
wickre m
st ar</w>
si o</w>
res s</w>
r ani
rani l</w>
pri mer
pl y
pe on
peon ato</w>
m e
ing h
in men
he art
ham b
h es
en sis
ei ro</w>
do th
cl yde</w>
cam peonato</w>
br asil
brasil eiro</w>
all an</w>
ales sio</w>
ac h</w>
6 ,0</w>
4 0
35 00</w>
3- я</w>
190 5</w>
18 7
15 00</w>
1 ",</w>
0 7</w>
"Локомотив "</w>
"Бионико "</w>
"Арраббиа та"</w>
"Аполло-1 1".</w>
"А лессио</w>
"А -
юж но
южно афри
э ле
ш е,</w>
че н</w>
умер ла</w>
со вет</w>
см ер
си лами</w>
с лож
слож ности</w>
руп ней
пос ле</w>
пило том,</w>
персона жа</w>
памятни ка</w>
оп ы
ны м.</w>
музыкаль ными</w>
кре вет
ка х</w>
ка ",</w>
ин ститут
ен ной</w>
ди зе
десер т</w>
года х.</w>
американц ев,</w>
американ е
ам бо
академиче ской</w>
Чирико ва</w>
Футболи ст</w>
Филлип с</w>
Филиппин .</w>
Филиппин ,</w>
Тосу н,</w>
Техас ской</w>
Те кст
Си ти
Рют те.</w>
Рау ль</w>
Поттер ,</w>
П ФК
Н ай
Мос к
Мекси ке.</w>
Макк ей</w>
Лайонна ис
Кристи ан</w>
Константино с</w>
К рупней
К ре
Й енс</w>
И КА
Джона таном</w>
Дани я.</w>
Г .
Барай а
Ал ва</w>
А ра
wickrem es
wickremes ingh
vic ia</w>
v k
ta inmen
st ati
stati c</w>
par k</w>
mono c
monoc acy</w>
math .</w>
klin k,</w>
jav a.</w>
ing s.</w>
in o</w>
ii i.</w>
fo unt
fior entin
enter tainmen
e at
col um
ch am
car av
bo o
av er
97 10000
638 00,0</w>
197 9</w>
. c.</w>
"Ф енцерков
"Сент-Лу ис</w>
"Би тве</w>
"Аполлон-8 ".</w>
"Аль-Андер сон"</w>
"А д
"А И
" Н
" Инфанте
ющи йся</w>
це п
ф аль
сред ства.</w>
соре вну
собран а</w>
ров ан
ре е
размер ный</w>
р у</w>
производи т</w>
при вод
пода ется</w>
по-английски ,</w>
относ ятся</w>
об а</w>
о фициальным</w>
найден ное</w>
му чени
мо де
ль дер
ло ри
лен а</w>
кре таре
колумби йской</w>
жан ром</w>
жан ре</w>
ем ы
ед ят</w>
до н</w>
до .</w>
вш его</w>
бобсле и
бо ро
американ ском</w>
Христи анско-
Т ам
Ст рои
Сини ша</w>
Сидне е,</w>
Сент-Луис е</w>
Сенди ч</w>
Сам ба
Ри м.</w>
Пинха ис
П лех
П ена"</w>
Лондо н,</w>
Л о
Королевст ве,</w>
Ки ри
К рас
Иохан ни
Индиан е,</w>
Жера р</w>
Ж и
Д она</w>
Г. П.</w>
Бу ур
Ар гентин
А ЕК</w>
«Аль -Аса
wi chit
wichit a</w>
th un
solan al
primer a</w>
pet er</w>
g ang
demar ce</w>
carav an</w>
camilla ,</w>
cam ill
al -
adi o</w>
89 5
5 7</w>
39 9710000
3 20</w>
2 1,2</w>
185 0</w>
000 ,0,</w>
"Ди на
"Аполло -8
"Абилен ",</w>
" Юж
я ).</w>
щи й</w>
четы ре</w>
ча сти
ци лин
ха джи
фа соль
университет .</w>
у спе
тни к"</w>
те ля
та ции</w>
сто роны</w>
сред ство</w>
со постави
со е
с си</w>
с инг
рен ад
ракет ы</w>
пило та</w>
персонаж ,</w>
певи ц
опы тным</w>
он те
он "</w>
озер о</w>
об ъе
о лес</w>
националь ного</w>
музыкаль ного</w>
международ ным</w>
ма й
ло т
ло м.</w>
ло м"</w>
лин ы</w>
лейб л</w>
ла га
карьер а</w>
использу ют</w>
з да
ен ное</w>
е пу
дисциплин у</w>
ден епу
блю дом</w>
библиотекар и</w>
ассоци аци
ар ский</w>
американц ами.</w>
аббревиат ура</w>
Эндр ю
Тенне сси</w>
Супер лиге</w>
Стеу бен
Ста тен
Сам ми
С па
Робер та</w>
Рам аф
Пенсильвани я</w>
П онте
Ор битальный</w>
НЖ Д</w>
Мар ком</w>
Ма ла
Кэ ме
Кон серва
Икба л"</w>
Изми ре,</w>
Джона тан</w>
Джа я
Гон са
Г ос
Вермон т,</w>
Вашингто на</w>
Вас ке
ВИ Ч</w>
Буур ен,</w>
Богаар д</w>
Бо льш
Ба ксо
Ба ко,</w>
Б рит
Арми н</w>
Андер с,</w>
Аки та</w>
w ay,</w>
stre et</w>
sc ri
ro y
ribicof f</w>
lo om
liv e</w>
it .</w>
h ig
fort ress</w>
doth an,</w>
d es
camill a</w>
bo l</w>
b loom
as ,</w>
9 000</w>
8, 3</w>
7 8
6 60
5 3
4 6
15 9</w>
1 20
000000 ,0</w>
00 .</w>
(журнал )</w>
"Фенцерков ная</w>
"Смер тник"</w>
"Ан д
"Аль би
ы ",</w>
ч ная</w>
хо м</w>
футболи ст</w>
у стан
устан о
турец кая</w>
транспор тный</w>
тор ы</w>
та -
ствен ником</w>
ста ту
спор тив
соль ного</w>
с по
рекор д-
ре лиги
поль зо
од и</w>
найден а</w>
мо й</w>
ме сти
мбер лен
мас сой</w>
лен ые</w>
коро б
карто фе
к ниг
к г</w>
й мо
име ющий</w>
извест ная</w>
зем ле</w>
заказ у</w>
е ",</w>
диско .</w>
дизе ль-
десер т.</w>
денепу ра</w>
гран ол
гото ви
вш ей</w>
вани я</w>
беко ном,</w>
аспиран тов.</w>
ана логи
американце м,</w>
Эр ра
Э та</w>
Швейцари и.</w>
Чика го.</w>
Хи п-хо
Хали ма</w>
Фе де
Ф ар
Уот соном,</w>
Со ю
Силь ви
Силь вано</w>
Ро ха
Патри к</w>
На д</w>
Н ы
Ми ше
Ме ждународ
М оди</w>
Ку мберлен
Кристи аном</w>
Корне ли
Ко не
Изми р
Джорджи я,</w>
Г ренад
Афина х,</w>
Ауре олес</w>
Амери ки,</w>
Александ ри
Акхиг бе</w>
Аддис-Абе б
А нахай
А на,</w>
yor k</w>
y s
vi .</w>
tu re
teis aire,</w>
stan ley</w>
s. p.
ro w.</w>
r and
ply mouth</w>
pal o</w>
new port</w>
moy ine</w>
marcolin i</w>
m ah
l am
k way</w>
john son</w>
ic o</w>
hun gar
harrietstow n,</w>
har bo
g ,</w>
el e
d ay</w>
coo ki
c ro
b .s.</w>
am .</w>
af it</w>
99 4
44 07
4407 56
29 07
26 .</w>
2 16
190 4</w>
17 994
1 29
(v-2 )</w>
"Дина мо
"Аполлон-8 "</w>
" Бекон
я лся</w>
эфи р</w>
ь .</w>
что бы</w>
чис ле</w>
цилин д
фасоль ,</w>
ты вает</w>
тар ый</w>
счита ется</w>
ступен ча
столиц е</w>
стату с</w>
сое вого</w>
сня лся</w>
служи т</w>
се -
са а
рич не
полу ча
по п-
парти ю</w>
ох ва
осу дар
оранже вой</w>
овощ ами</w>
нача лась</w>
на м
молодеж ную</w>
молодеж ном</w>
мо рожен
ми дор
мета лла.</w>
максима льная</w>
ма темати
лиг е,</w>
космиче ского</w>
конгрес с</w>
колес ная</w>
классифици руется</w>
ке р</w>
ис пользо
институ та</w>
и "</w>
за конодатель
жи во
домаш ней</w>
демокра ти
гу б
го й</w>
гита ри
высо ту</w>
вы води
влияни ем</w>
ас фаль
ани я</w>
Юсу ф</w>
Филиппина х.</w>
Уил сон,</w>
Теха с"</w>
Ска ле
Ру т</w>
Ромагно ли"</w>
Республи канской</w>
Расмус сен.</w>
Рай ан</w>
Поа це
Ны неш
Н .
Михайлови ч.</w>
Менде ль
Манор "</w>
Ле докол</w>
Кан за
И та
Европе йский</w>
Дэ н</w>
Далла се,</w>
Да г
Грозны й",</w>
Германи и</w>
Гви анского</w>
Гви ан
Г осудар
Вен гри
ВВ С
Бор ман
Би лл</w>
Б ол
Афи н</w>
Аль -Хо
А й
« СПИД
thun der
sto m</w>
st .</w>
p er</w>
ho l
groun ds,</w>
ela-3 .</w>
ec t
cu stom</w>
cro ci
bert one</w>
ation s</w>
arianesp ac
al as
ag ra</w>
accr ington</w>
9 20
7 -
440756 000,0</w>
0000 0,0.</w>
0 ,</w>
( Новая</w>
"Грей маши
"Батаго р"</w>
"Б ан
"А ЗАЛ</w>
" ara</w>
я ти
ь ей</w>
ш его</w>
та ри
спроектиро вала</w>
совер ш
со ,</w>
скоро ст
с я,</w>
рок-музы ки</w>
рок-музы ки.</w>
рок-музы кант</w>
ри ю</w>
ри ческий</w>
реги оне</w>
реги ональный</w>
раз работа
ра бан</w>
прожи вают</w>
премьер-министро м,</w>
построи ла</w>
охва тывает</w>
он ,</w>
о ма
музыкаль ную</w>
лит ра</w>
л дер
кури цу
кри п
кретаре м</w>
которо го,</w>
изда тель</w>
из начально</w>
иг ро
зд нее</w>
до м,</w>
д ю
город ской</w>
году :</w>
гита ре</w>
ар гентин
ан ган
амбо анган
а ла
Ю го-
Хьюст он.</w>
Х ал
Стеубен ,</w>
Рамаф о
Р име
П ерм
О пера
Мумба и.</w>
Мо но
Мичиган .</w>
Лар ше</w>
Корне ль
Ка лла</w>
Джей ко
Джа лан</w>
Дербы ш
Гонконг е,</w>
Германи и,</w>
Ва н</w>
Белы й,</w>
Бадо и.</w>
Ба ку,</w>
Ба дж
Ах ме
Афи ны
Англи я</w>
А ден
А билен
willi am</w>
vi e
ut c</w>
un er</w>
sum itra</w>
s bur
pi azz
metap á
mah aj
le n</w>
k om
i den
her a</w>
hambur g</w>
ha il
gr a
explosi on</w>
el i
ee l</w>
croci er
c ul
ber lin
b or
au s</w>
angel es</w>
al hamb
af f
90 6
9 4</w>
8 ,0</w>
7 5</w>
54 6</w>
5 -0
44 109
44109 2000,0</w>
27 .</w>
2 4</w>
19 18
1918 "</w>
11 .</w>
,7 22</w>
( который</w>
"Сумер ки".</w>
"П ена
"Магдебург "</w>
"Ма стер</w>
"Атти ка"</w>
"А х
" Орхус
че ского</w>
ч ной</w>
ц ер
хо дели
тель .</w>
студен том</w>
соу с.</w>
ска че
сде ла
ро тации</w>
ро ка.</w>
ри то
ра з</w>
очеред ь,</w>
основ ным</w>
объе мом</w>
н у</w>
мы се</w>
музыкан т,</w>
министра тив
мбер то</w>
космодро ма</w>
ко ролев
иг ры</w>
зем л
здани е</w>
жарен ое</w>
ен на
даль "</w>
групп ы,</w>
гру н
го ря
выводи тся</w>
ба .</w>
ав стри
Шепар д,</w>
Ч лен</w>
Со льный</w>
Понте з
О ба
Нью-Гэмпши ре.</w>
Н оттинг
Мендо се,</w>
Манчестер е,</w>
Линколь н</w>
Лейборист ской</w>
Канад ы,</w>
Итали я</w>
И саа
И о
Горба ш"</w>
Георгиади с,</w>
Гар вар
Великобритани и
Б рук
Арми ном</w>
Ази и.</w>
Ада ма</w>
А стероид</w>
wor l
wi en
w per</w>
w er</w>
vk 8</w>
vir gin
v e
to e
toe kom
titan s,</w>
thak ur</w>
te o
teo w</w>
st ell
s c.
pres s,</w>
pi er
o p
mar ys
lumesz ane</w>
lo u
iden ti
f c
co wper</w>
cham ele
ces ena</w>
bl ue</w>
bersatu .</w>
ar ro
ar ena</w>
antar es,</w>
alas k
9 343
6 2
6 10</w>
5, 4</w>
5 "</w>
47 9343
4 ,</w>
3 3</w>
195 8</w>
193 1</w>
15 13
1513 ,722</w>
( Измир
"Спартак "</w>
"С тарый</w>
"Олимпи к</w>
"В анденбер
эш ви
этаж ей.</w>
этаж а.</w>
эмп бе
ьет нам
штаб-кварти ру</w>
чесно к,</w>
чат ую</w>
части чно</w>
хожд ение</w>
фор ма
филь ме</w>
филиппин ский</w>
ф ред
уров не
то н,</w>
ступен чатую</w>
сопостави ма</w>
собрани е</w>
се гу
сан дж
рок-музы ку.</w>
роди вшаяся</w>
ро к.</w>
ро да.</w>
ро "</w>
рей с</w>
реги стр</w>
ра м
производи тель</w>
принадлежа щая</w>
предо ста
поджан р</w>
парламент .</w>
но му</w>
н г</w>
место ,</w>
лу сегу
кол ы</w>
ко го</w>
ж ат
ем ен
други х</w>
десер та.</w>
гвар де
вы печ
врем енным</w>
в ".</w>
бар е</w>
аффили рован</w>
американц ем</w>
академиче скую</w>
Флин т,</w>
Тирструп ,</w>
Та баре</w>
Сент-Вин сен
Сарава к</w>
Рам с",</w>
Рай х
Пар кер</w>
Оба сандж
О лусегу
О л
Националь ном</w>
Мос ква
Мендель сон,</w>
Лу ф
К эмпбе
Зеланди я.</w>
З а</w>
Ду гла
Джор дж</w>
Джая вар
Далла се.</w>
Г .</w>
Висвесварай я.</w>
Вирджини ей</w>
Аргенти ны,</w>
Аль бани
wil der
virag e,</w>
system s</w>
star s</w>
sport park</w>
shepar d</w>
sh um
s ing</w>
s b</w>
romagn ol
romagnol i</w>
rom a,</w>
qu art
pier ce</w>
park er</w>
o m</w>
ni e</w>
mart in.</w>
m er</w>
jack et
internation al.</w>
in c.,</w>
igh t
har d
et te
er as
e -
coup é</w>
coup é
colum bus</w>
co p
chamele on</w>
bak ed</w>
au di
arro s</w>
abilen e,</w>
52 33
5233 29
479343 000,0</w>
4 ".</w>
37 35
3735 13
2 88
185 6</w>
10 8</w>
0 8</w>
- я</w>
( км).</w>
"С ан
"Мемори ал</w>
"Бекон "</w>
"Аполло на
"Алпена "</w>
" Ро
" atlantic</w>
" akeem</w>
эта жа</w>
ь ".</w>
ха джи</w>
транспор том</w>
студен т
стро на
строна в
соу се</w>
со н",</w>
со .</w>
си мо
сделан ная</w>
с я.</w>
ри ке</w>
рекорд- лейбл</w>
разработа н</w>
преж нее</w>
пп е</w>
полно привод
пол ни
пода вать</w>
нигери йских</w>
н у
мета лла
лу ,</w>
лин .</w>
лиде рами</w>
ли .</w>
ключе вым</w>
изготовл енный</w>
заверш ено</w>
за й
журна ла</w>
дю ймо
до ,</w>
департа мента</w>
гражд анского</w>
говя ж
выш е,</w>
ви симо
ве р</w>
в ше
в з
бр е</w>
ассоциаци ю</w>
али си
ав страли
а ли</w>
а гент
Эн рике</w>
Ци пра
Хай н
Уттар-Прадеш .</w>
Техниче ский</w>
Т ран
Сингапу ре,</w>
Нидерланда х.</w>
Май к
М С</w>
Колумби и.</w>
Ко с
Зеланди я)</w>
Джаявар денепура</w>
Де ма
Г алиси
Вис ай
Валю та</w>
Ба а
Альбани ,</w>
Аб ра
vil le,</w>
vi king</w>
tl x,</w>
t à</w>
t y
t art
stre et.</w>
stell en
stellen d
st ev
so uth</w>
sar gh
sargh at
sarghat ta</w>
r h
rh y
priest le
poacea e</w>
metap an</w>
m us</w>
m ation</w>
ho p</w>
hit l
hes sarghatta</w>
gang sta</w>
f all</w>
eras mus</w>
dod ge,</w>
dod ge
cruis es,</w>
cit tà</w>
ci a</w>
bananam an</w>
b un
84 6</w>
7 49
52 4</w>
318 0</w>
3 ,0
288 749
12 .</w>
1 "</w>
( сокращенно</w>
"Тур кменистан
"Торпе до</w>
"Аль- Такадду
" agrimiação</w>
ьет ро</w>
ци ю</w>
ф фа
уров не,</w>
ти ту
теле м,</w>
сте пен
ство .</w>
ссе к
сра жа
состо ялся</w>
соревну ется</w>
со ном.</w>
со вета</w>
секунду ,</w>
самми та</w>
ру ,</w>
род а</w>
рем -
рем- а
раз би
ра ке
про грам
последо вал</w>
передвиж ения</w>
пала те</w>
п тау
окру га,</w>
мет а</w>
мент е</w>
лидер ,</w>
ли ни
ле м,</w>
кури рует</w>
кревет ки</w>
кол лек
кита йц
ке ем</w>
к -
из готови
и н</w>
зы .</w>
з е,</w>
емо го</w>
е ха
де ствен
г реди
вани е</w>
ва й
в ском</w>
беко на</w>
б и</w>
афро американцев</w>
аренда тор</w>
ар ти
ан ы</w>
ан о,</w>
авто ром</w>
а стронав
Ю А
Э ссек
Э ми
Шар лот
Ч енна
Цент ральный</w>
Феде раль
Ф а
У мберто</w>
Техас ского</w>
Тарран т,</w>
Статен ,</w>
Сингапу ра</w>
Ран ее</w>
По г
Пакистан ,</w>
Пакист ана.</w>
П ьетро</w>
П от
Ол лан
О ли
Нидерланда х</w>
Мон ро,</w>
Мичиган ском</w>
Лок ке</w>
Ку рити
Ко рейской</w>
Кей птау
Ин греди
И а
Ду н
Доу сон.</w>
Джа кар
Дж вай
Дании л</w>
ДА лу
Горбахо в</w>
Во пере
Би лли</w>
Бельги и.</w>
Ба л
Ах мета</w>
Ара ви
Антиоки я</w>
Аддис-Абе бе,</w>
«Аль-Аса д»</w>
universit y,</w>
tran s.</w>
th em
st ,</w>
sh an
s "</w>
rhy th
record ings.</w>
r ap
p d
p .</w>
n .
mono cot
mel lo
mello w</w>
may o"</w>
mar i
m a
lan cia</w>
l o</w>
j azz
in es
i a,</w>
hitl er
hitler i</w>
hambur ger</w>
g en</w>
g a</w>
es "</w>
en aire
dyk es</w>
d on</w>
aw ad
at a</w>
alp ena</w>
air ast
ac-1 30</w>
ab el</w>
8 388</w>
6 00
4165- 20
4165-20 60
373513 000,0</w>
3,0 4</w>
3 2,
26 03
2, 846</w>
14 2603
1- 4165-2060
1 000,0</w>
-9 3
-1 2
"Т ран
"С и
"Г еттисбург
"Ве лом"</w>
"Ататюр к"</w>
"Ар рос</w>
"Анд ра"</w>
"Альгамбра "</w>
"Алкмар ".</w>
"А- Роза</w>
" Ш
" Вашингто
этикет ке</w>
ф ин
таки х</w>
стем а</w>
ствующи м</w>
сси мо</w>
спроектиров ана</w>
руководи телем</w>
рее стр</w>
пуди нг</w>
пу т
префектур а</w>
представителе й.</w>
пред ыдущи
полу чи
по выш
пар и
ор ден
она ,</w>
обла дает</w>
нивер са
ни са</w>
ни ма
металл "</w>
мель ч
ма "</w>
лю де
которы й,</w>
коми ческого</w>
ко ды</w>
ки ",</w>
ка н</w>
из мельч
и м</w>
зи ль
земл ю</w>
за ция</w>
дон не
доктор ской</w>
дека бре</w>
да ла
верх нюю</w>
бра зиль
бо льшой</w>
ани то
ани ло
американ ских</w>
американ ец</w>
авиа компании</w>
Япони и</w>
Холлоуэ й,</w>
Хал тон</w>
Х яр
Форт- Кэмпбе
Флин том,</w>
Университ ете</w>
Си стема</w>
Сан-Себастья н</w>
Паракуеллос-де-Джара ма,</w>
Па лле
Орего н</w>
Мит со
Мартин е
Мак донне
Ма ссимо</w>
М анито
Л и,</w>
Конгрес са</w>
К А</w>
Ира ка</w>
И горо
Жи тели</w>
Дун кан</w>
Джор дж
Д ра
Глав ная</w>
Бот та.</w>
Бе ан,</w>
Бар ные</w>
Б анило
Афи ны,</w>
Алан а</w>
Аки та.</w>
А пофеоз</w>
x -1
worl d</w>
w art
ti es
ties el
si om
shan ac
shanac hi
shanachi e</w>
se cre
secre t</w>
scri p
sam u
rom a.</w>
pla y</w>
p unk</w>
or .</w>
o o
math ers
m ain</w>
lun gen</w>
le agu
k lu
j ens</w>
inf or
in i
in "</w>
gorb ach</w>
f aver
ent on</w>
ella ,</w>
ela -3</w>
e z</w>
de m</w>
ces en
canon ica</w>
bur n
bl t,</w>
ay am</w>
as h</w>
ar d
applet on,</w>
and lungen</w>
am a</w>
ak tiesel
ag le</w>
abh andlungen</w>
a g</w>
9 14
7 .</w>
600 4
6004 07
6 34</w>
475426 000,0</w>
4 5</w>
4 3</w>
4 37
39 5
3 12</w>
198 8</w>
164 09
162 16409
"Ф лори
"Математи ка"</w>
"Инфанте "</w>
"Бо льшой</w>
" ariane</w>
язы ком.</w>
я ет</w>
ш вейц
ш а
чу п</w>
х ис
француз ский</w>
университет е,</w>
температ ура</w>
су а</w>
страни ц</w>
ста ла</w>
ст ре</w>
ст ви
ссе н</w>
среднеатлантиче ском</w>
соци алистической</w>
со се
систем у</w>
синте за
си к
с ве
ров ана</w>
ро ман
рекор д</w>
провин ции,</w>
про изве
предше ство
постро ены</w>
пор то
перво открывателем</w>
ок е
о "</w>
нан ят</w>
на л
музыкан та</w>
мра мор
мидор ы,</w>
ми :</w>
местополож ение</w>
ме з
мас ло.</w>
ман ди
манди ром</w>
малайзи йские</w>
ма ла
м ного</w>
м м</w>
ль ным</w>
ли ней
лан до</w>
коро т
кита йцы</w>
килограм ма.</w>
ки х</w>
келвино в.</w>
к рон
измер ение</w>
и сточ
за мести
з ".</w>
жи й</w>
ем ля</w>
е з
до ри
де ш</w>
говяди на.</w>
г у</w>
г да</w>
владе льцем</w>
ва дала
бобслеи ст,</w>
беко н
ан ку</w>
ад жи
аго на
Эг г
Хапута ле,</w>
Хайн лей
Фран суа</w>
Финлянди и.</w>
Уругва е,</w>
Тур ции.</w>
Ту анку</w>
Сам ый</w>
С тив</w>
Ру ле
Рок-музы ка</w>
Пот тер</w>
Поа кэ
План те</w>
П эй
Оси м.</w>
Нью-Йор ка.</w>
Н эшви
Митсо таки
Мар ри</w>
Мар ко
Лу мез
Коннектику та</w>
Ко мандиром</w>
Кабаль е
К ен
Исп ан
Иоханни с.</w>
Дубли не,</w>
Джейко б</w>
Джа я,</w>
Гонса лес</w>
Г вадала
ВВС ,</w>
Ар ена"</w>
Абдул- Захра"</w>
А шер
А ре
«А крон
y le
vil a</w>
vie w</w>
ute bol</w>
un c
u st
st om
si c</w>
s v
s k</w>
s au
r ab
polon ic
oreg on</w>
n ov
monum ent,</w>
monum ent
monocot yle
li n</w>
kin s</w>
john son,</w>
infor mation</w>
hop kins</w>
f utebol</w>
en za</w>
dis co</w>
cu stom
cruis es.</w>
cit ta</w>
blu es</w>
ban n
b ro
b ee
b b
ay ers,</w>
aust in,</w>
ar n
alderne y</w>
al len</w>
ajoblan co,</w>
air bas
advanc es,</w>
ad ash</w>
70 634</w>
437 17
4 8</w>
4 -0
399710000 0000
39 68</w>
360 .
2907 5)</w>
190 1</w>
10 l</w>
1 -0
-музы кант</w>
( 29075)</w>
'don n
"Палермо ",</w>
"Ку бан
"К ера
"Ашхаба д"</w>
"Аполлон-1 1".</w>
"Ам па
"Аль бани
"А ени
яйц а.</w>
щ а
чи тельный</w>
ч ьи</w>
ф рук
университет е.</w>
ту .</w>
технологиче ского</w>
те м,</w>
стран ах</w>
столиц а,</w>
сти на</w>
смер ти</w>
ско ль
си л
сан ти
ре ме
растени й.</w>
раздел ению</w>
приня л</w>
президен т,</w>
повыш ен</w>
пи о
перитони та.</w>
пари ж
паис а,</w>
п ци
п е</w>
ок ку
о го</w>
о в</w>
нем цы</w>
назем ные</w>
н тари
минут ы.</w>
мер .</w>
м м
лу ж
ло с.</w>
ли м
ле ц</w>
курицу ,</w>
крас ного</w>
командо вал</w>
ком пенси
ко ричне
исполни тель
зве з
за тем</w>
з ам
з ",</w>
ен .</w>
ей ся</w>
до сто
до лла
дире ктором</w>
дизель- элект
департа менте</w>
двига теля.</w>
дани е</w>
говоря т.</w>
го д</w>
вы ход
бо льш
блюз "</w>
беко н.</w>
бе лого</w>
бар ,</w>
аренда торы</w>
араб ском</w>
ани н</w>
авиа базу</w>
Язы к</w>
Эгг -Х
Эгг-Х ар
Э рас
Ципра с</w>
Т ан</w>
С ы
Ре д
Расму ссен</w>
Рад бу
Понтез она
Основ ными</w>
Од ной</w>
О нтари
Н. Р.</w>
Музы кант</w>
Митсотаки с</w>
М. А.</w>
М орган</w>
М .С.</w>
Лумез зан
Крупней ший</w>
Ка к</w>
Испани я,</w>
Индиан ы</w>
Ико ло</w>
Е ще</w>
Дэ в
Дугер ти,</w>
Джорджи я.</w>
Дж у
Дж ано,</w>
Гви ана.</w>
Гарвар дский</w>
Военно-мор ского</w>
Вла де
ВВ С.</w>
Бельги и</w>
Бел га
Бангало р,</w>
Ба ту
Архите ктор</w>
Аля ска
Азербайдж ана</w>
Ав тор</w>
А мат
А дольфо</w>
wil ey
w hit
tex an
ter .</w>
stat e</w>
st adio</w>
shi vers</w>
restructi on
rab adash</w>
r .
pala et
palaet onil.</w>
nov a</w>
mc qu
l ar
john s</w>
jav anes
it al</w>
harbo ur</w>
fount ain</w>
falcon s,</w>
f. c.
f un
do l
cul lin
cruis es</w>
com mel
blackpool .</w>
b enton</w>
at ti
araprivines se</w>
amsterd am</w>
al ban
aj o</w>
a k</w>
978 -1
978-1 -
978-1- 4165-
978-1-4165- 4
978-1-4165-4 25
978-1-4165-425 3-
9 11</w>
8 0002
80002 70
7, 5</w>
7 -0
560090 ,</w>
43717 0000,0</w>
28 0</w>
2 11</w>
164 "</w>
120 2,846</w>
1, 9
1, 524</w>
( или</w>
"СПИД ",</w>
"Откры ти
"Ди агона
"Аполлон-12 "</w>
"Андер с</w>
"Ам кар</w>
"visvesvaray a"</w>
ё к
ёк ке</w>
эксплуати рова
щ ение</w>
ш ко
ш .</w>
цент ра,</w>
ффа ло,</w>
фу тов</w>
фред о</w>
тор ж
тиче ская</w>
ти па</w>
ти к</w>
тер рито
те н</w>
сэндви ч,</w>
ств енный</w>
ст "</w>
средне й</w>
ски .</w>
сик вел</w>
с я
с раж
с ман</w>
рупи я.</w>
рет и
реда кти
пци г
пси ходели
прозви ще</w>
прое к
президен та.</w>
предше ственником</w>
построи л</w>
печа ти.</w>
оп кин
оке ане,</w>
но .</w>
ни з
насел ение</w>
нал ль
найд ете</w>
мя со,</w>
мен том</w>
ма ги
ло язы
лен ный</w>
лен да
кре п
клю чительный</w>
классифици рован</w>
ка де
к ле
й ме
ингредиен та.</w>
ин х
и т</w>
и д
зе ппе</w>
звезд ы</w>
заверши лась</w>
ж ареная</w>
е да</w>
е гося</w>
дис ко</w>
дизель-элект риче
де мократиче
даль ний</w>
га раж
возник ли</w>
банано вой</w>
ан т</w>
аббревиат уру</w>
Шри-Лан ка,</w>
Ши вер
Ш ри</w>
Х опкин
Х ам
Тур кменистан
Ту ри
Ти хом</w>
Те с
Т инх
Соединен ное</w>
Са скаче
С емен
П ла
Об ще
О кру
Ни йме
Мэди сон</w>
Мише ль</w>
Мар са"</w>
Л ёкке</w>
Кэме рон</w>
Королев ство</w>
Карната ка.</w>
Канавера л</w>
Кабалье ро,</w>
Ирланди и</w>
Индианаполи с</w>
Индиан ы,</w>
И у
Джу зеппе</w>
Декал б</w>
Де парта
Грузи и.</w>
Верф т,</w>
Вашингто на.</w>
Бер налль
Белы е</w>
Ахме даба
Антиоки я.</w>
Александ ры</w>
Абра да
wol f
wiley -
wiley- black
v f
vf l</w>
tran sl
tr anc
si s</w>
se hitleri</w>
s b,</w>
r ca</w>
qu ar
o ber
ober hel
mil an,</w>
met al.</w>
mc don
mat is
j ers
hel sing</w>
h il
gr and</w>
commel ini
cle matis
at h
8 3</w>
660 36
66036 33
6 0</w>
52 395
52395 158
5 0000
39 705
39 2
34 7,
2 ,0</w>
125 8
10 r</w>
10 7,
1 39705
000 .</w>
-млад ший</w>
"Магдебург ".</w>
"Альби на"</w>
"Альбани "</w>
"Аль-Аса д".</w>
"Аль фредо</w>
" universitas</w>
" bacon</w>
" alcatraz</w>
швейц арский</w>
ш е.</w>
член а.</w>
ча ется</w>
ч и.</w>
фло та</w>
фламанд ским</w>
фици альный</w>
тю ш
то .</w>
тел ленда
та ",</w>
содер жи
соверш ен</w>
се зо
сезо не
сезоне -
ро ман</w>
религи я</w>
рам ках</w>
разрабо т
преми ю</w>
похо жа</w>
последо вала</w>
по падает</w>
по зднее</w>
п ,</w>
област и,</w>
националь ном</w>
мэ ром</w>
молодеж ной</w>
многи е</w>
ми т
ми н</w>
ло деж
лиде ром,</w>
ли ч
латин ское</w>
космиче ском</w>
клуб ы</w>
к ла
истреби теля.</w>
использу емый</w>
изда телем</w>
зербай дж
зербайдж анской</w>
за ключительный</w>
жан р,</w>
ени я.</w>
до кто
до би
ди зай
д ной</w>
д ва</w>
групп ами</w>
гри б
вше гося</w>
врем я,</w>
ве н</w>
вари аци
в торж
бор ту</w>
блюза ,</w>
блюдо .</w>
ба тюш
б-кварти ра</w>
атлан тический</w>
а с</w>
а по
а ку
Я ко
Юго- Восточной</w>
Шта б-квартира</w>
Шнайдер-Амман н.</w>
Христианско- демократиче
Фрэн ком</w>
Франк лин</w>
Финлянди и</w>
Тур ция,</w>
Ти м</w>
Теха са.</w>
Тейло р</w>
Т ы
Сан-Себастья не</w>
С телленда
С енат</w>
Ро ландо</w>
После дний</w>
По зже</w>
Олусегу н</w>
Оли вер</w>
Нью мар
Мо лодеж
Массачусет ский</w>
Мадри да</w>
Лондо не</w>
Л аци
Ко лле
Ката лон
Кана де</w>
Ка й
К ент
Ита льян
Инди йский</w>
ИКА О</w>
Ж ареная</w>
Дж ав
Дека н</w>
Даг га
Гра н</w>
Готтинг ена.</w>
Г рас
Г ен
Г ан
Вай с
Буэнос-Айре се,</w>
Бухаре ст,</w>
Буре с.</w>
Бен го,</w>
Б .
Ар бор,</w>
Альфон со</w>
Альтернатив ный</w>
А. Т.</w>
«СПИД »</w>
«Орхус »</w>
werf t</w>
virgin ia</w>
vi ag
uni on</w>
transl ations</w>
t el
st on</w>
ra er
r am
q i
qi u</w>
mu sic</w>
mathers ch
mat her
m ai
journ al
inf raer
indian a,</w>
i a
heart .</w>
co tt
claudiomacc one,</w>
bo ston</w>
bananam an,</w>
as ad</w>
arem- arem</w>
ajoblan co.</w>
ac ao</w>
ab ar
8 4</w>
6603633 000,0</w>
5-0 6-
5 20
520 906
39 447
352 8</w>
25 2000,0</w>
201 5-06-
107, 43</w>
10030 5</w>
(любители )</w>
( также</w>
( кв.</w>
"Ювент ус"</w>
"Ко л
"Кера ла"</w>
"З а</w>
"Аль-Такадду м"</w>
" Техас"</w>
явля ющ
ющ ее</w>
эн фор
цеп л
художника ми:</w>
футболи ст
ураль ской</w>
у са</w>
у ниверса
транспор та</w>
ти йская</w>
ступенча тая</w>
скорост ью</w>
си сте
сгущ енное</w>
сви ные</w>
са л
руковод ящим</w>
ри э
рабо чей</w>
присоеди нен</w>
принадлежа л</w>
при шед
при еха
пере д</w>
п дори
орган ы,</w>
окруж ным</w>
овощ и</w>
об лож
о ре,</w>
наз ван</w>
мя с
музыкаль ной</w>
милли метра,</w>
ма лай
м с
лим он.</w>
лиг и,</w>
летчи ком
ла ди
лади по</w>
л ланд
ку би
конода тельный</w>
кон ди
конди тер
коллек тив</w>
кокосо вые</w>
кокосо вое</w>
клуб ,</w>
километ ров,</w>
ка ".</w>
испан ский,</w>
ир ланд
игро ком</w>
зе мель
живо та,</w>
ен ы"</w>
ен е,</w>
ден ь
д вер
го лланд
ги тар
гент ины</w>
га с
бо д
аб риэ
а вокадо</w>
Эрра те,</w>
Эр ни</w>
Эг г</w>
Шри-Лан ке,</w>
Церков ь</w>
То ба
Ти то
Т ри
Ст энфор
Со зда
Сини са</w>
С м.</w>
Роттерда ме,</w>
Ри м,</w>
Раши д</w>
Пе ори
Пакистан .</w>
П ут
На род</w>
Монтевиде о</w>
Мичи ган</w>
Ми х
Мади ном,</w>
Лей пциг
Лахо р.</w>
Ко э
Ко ло
Кири лл</w>
Кан т,</w>
К ру
Иа хи
З емля</w>
Дербыши р.</w>
Грозны й"</w>
Г абриэ
Всеинди йского</w>
Бор ман</w>
Би онико
Бар ков
Бадж жи</w>
Архите ктором</w>
Ар гентины</w>
Ангол ы,</w>
Аль дри
Австри и</w>
te ow
t art</w>
si m
re vi
orb ital</w>
on n
ne gre
nas a,</w>
mart in,</w>
m ati
mati s</w>
legen ds</w>
jack son
ing .</w>
il eo</w>
i ,</w>
hig h</w>
her a,</w>
gra em
graem e</w>
gal ileo</w>
flibberti gi
d ani
clu b</w>
cle matis</w>
ch ute
bremen ,</w>
battlefiel d
b y</w>
ard more</w>
a ".</w>
705 5</w>
60 57
6057 18
6, 7</w>
55 89
52 3,9</w>
5, 57</w>
5 5</w>
5 0</w>
4 3
4 .
3 -0
25 2</w>
200 3</w>
2 14
13 5589
1-4165-2060 -0.</w>
000 ,</w>
0- 7
( футболист
"Юж но
"Торпе до
"Остин "</w>
"Динамо "</w>
"Би т
"Ад министратив
"А ллан</w>
" q
ю гу</w>
этниче скими</w>
эксплуатиру емый</w>
эксплуати ровался</w>
фу тов.</w>
фу гас
фи зи
феде ра
ут у
у ли</w>
торго вли
те о</w>
та вли
столиц а
стан ,</w>
ста ть</w>
специ фи
специ аль
сил ы</w>
си лей
се льдер
свини на</w>
с цепл
рож дествен
ро м
риче н</w>
рем-а рем
реги стре</w>
ра н</w>
ра ".</w>
пу ско
происхожд ения</w>
про спе
при яти
при креп
преж де</w>
пор я
пе она
п ру
п "</w>
окон чи
напис ано</w>
найден ы</w>
найден о</w>
называ ются</w>
на хождение</w>
музыкаль ная</w>
мит ра</w>
металличе скими</w>
мен е
ме кси
ма-ма тер
лю ди,</w>
л ери
кораб ль</w>
кита йский</w>
километ р,</w>
кг ,</w>
катего ричен</w>
итальян ской</w>
испан цы</w>
из го
изго тавли
иг рок</w>
и ни
ен ную</w>
ем у</w>
ем е</w>
доби лся</w>
дне й</w>
джан г</w>
государств енная</w>
го ло
воз выш
ва ющий</w>
бы вшая</w>
блюзо вый</w>
ара хис
аналоги чные</w>
азиат скими</w>
авто ма
а д</w>
Япони и.</w>
Шри-Лан ки</w>
Шнайдер-Амман .</w>
Ше стан,</w>
Швейцари я.</w>
Швейцари и,</w>
Форт-Кэмпбе лл,</w>
Ти чи
Тейло р,</w>
Те джан
Со лен
Самми т,</w>
Са ули</w>
Роха с.</w>
Роберт с</w>
Ро дже
Рит м"</w>
Республи ке</w>
Рамафо са</w>
Пи тер</w>
Пеори и,</w>
Пе ви
Осбор н"</w>
Орху с,</w>
Ни ини
На ва
Мичи г
Мат тео</w>
Ли мери
Куттиккатто оре,</w>
Коннектику те</w>
Кова ч.</w>
Каталон ской</w>
Каро ли
Кам пу
Кам пеона
Исаа к</w>
Ира ке</w>
Индиан е.</w>
Иахи ни.</w>
И з</w>
Зитарро са"</w>
З дание</w>
З амбоанган
Елен а</w>
Дж о
Дани я</w>
Вольф сбург
Вари а
Ванденбер г.</w>
Ва лери
Бра силей
Б эй
Б уту
Ахма даба
Атлантиче ского</w>
Ассоциаци я</w>
Аргенти ны.</w>
Андре я</w>
А ллан</w>
wolf sbur
w ey
v o
v en
tur k</w>
t o</w>
spacewat ch
sam pd
ry sl
pres s.</w>
powy s</w>
pol y
ph in
p aci
paci fi
pacifi c</w>
n y</w>
met al</w>
mai den</w>
m ap
map le</w>
lydi a</w>
lumesz an
lo at
loat ing</w>
le ip
leip z
le e</w>
k n
jav a</w>
jackson ville</w>
ia o
hol lo
hard co
gro v
gr en
gren adi
grenadi er</w>
gaussi a</w>
fiorentin a</w>
f loating</w>
f lin
eri c</w>
entertainmen t.</w>
el ect
e p
dol phin
db s.</w>
d em
chiev o
ch rysl
c ar</w>
bu s
blockbust er</w>
bion ico</w>
ben nie</w>
bee f</w>
and ra</w>
am i
all -
al bennie</w>
9 77
9 36
936 45
93645 97
88 2
882 343
8 -
6 5</w>
520906 000,0</w>
5, 75</w>
4 7055</w>
4 ,0</w>
347, 1</w>
32 4</w>
25 977
216 0</w>
2. 47055</w>
19 23
17994 200
14 l</w>
11 -го</w>
1- 8
"Сам пдори
"О ке
"Кливлен д"</w>
"Гринви лл
"Атлан то
"Аль-Аса д",</w>
"АИ ДАлу
"А ссоциаци
"А ри
"3aren a"</w>
" Ритм"</w>
" Милан
" buzz</w>
" bakewell</w>
южноафри кан
юго- запа
эксплуатиру ют</w>
экипа ж
ш ки
чи ха
чер ни
ч ье</w>
устано влен</w>
у досто
трен ер</w>
торговли .</w>
те п
су ста
суста ва
строи тельство</w>
сража лся</w>
специаль ности</w>
соревнова лся</w>
сме ж
слад кая</w>
северо- востоку</w>
с ери
рок-музы кант,</w>
рожен ец</w>
род ной</w>
ров анный</w>
про тяжен
про долж
пред лага
полу остро
поверх ност
пан к-
обнару жен
о фициальный</w>
нынеш ний</w>
но гда</w>
народ ную</w>
н д
музы ке</w>
моло ко,</w>
мо гу
могу т</w>
минут .</w>
металличе скую</w>
мене дж
мен но</w>
ман уэ
лл .</w>
ле докол
кух ни</w>
коро сть</w>
колледж е</w>
колба са.</w>
ингредиент ,</w>
изготавли вается</w>
игра ла</w>
и ногда</w>
зали ве.</w>
жарен ую</w>
ж ени
етти сбур
ени зе
д нее</w>
гранол ы,</w>
говор ящим</w>
глав ных</w>
выход цы</w>
воева вший</w>
ви ды</w>
в ра
бы чно</w>
бекон -бутерб
б ург
б о</w>
ам а"</w>
альтернатив ного</w>
а рас
Япони я.</w>
Эми ль</w>
Э мануэ
Ш ир
Хор ри
Француз ская</w>
Строи тельство</w>
Стади он</w>
Со зд
Со вет
Скот т</w>
Сидне е.</w>
Сан-Франци ско</w>
Самба лом.</w>
С тер
С луж
С корость</w>
Румыни и,</w>
Ру ково
Ричар д</w>
Расиза де.</w>
Поль ской</w>
Пакист ана,</w>
П ери
Орху с</w>
О т
Миссисип и,</w>
Ман ор</w>
Магда лен
Лу ч
Ла ура
Куши к,</w>
Кос миче
Кова к</w>
Кампеона то</w>
К ло
Исп анской</w>
Доу сона
Доу сон,</w>
Джвай д
Дема к</w>
Д ом</w>
Гуджара те,</w>
Габриэ ла</w>
Вирджини я</w>
В енизе
В МС</w>
Брасилей ро</w>
Бирминге ме,</w>
Би тва</w>
Б. М.</w>
Ашхаба да</w>
Ашер тоне,</w>
Ачар ского</w>
Аф ин
Анка ра.</w>
Аден ан</w>
Ав страли
А тти
А г
y a
x iao
wilkin s,</w>
virag e.</w>
u .c.</w>
ter s</w>
sto ck
shipy ard</w>
scrip ture
s al
roy ce</w>
restructi on.</w>
po st
pais a,</w>
mcdon nell</w>
lippin cott
lippincott ,</w>
land s</w>
l ak
journ al</w>
hail s</w>
grov e,</w>
ge or
fun k.</w>
f or</w>
er o</w>
en ,</w>
dal un
c r
c ak
bus ines
bloom ington,</w>
az in</w>
aidast ella</w>
ai dalun
aeni r</w>
ad min
a. s.
9 84
84 3,8</w>
670 2.47055</w>
6 52
5 2</w>
5 11
511 59
41077 7</w>
4 14
414 984
3 9</w>
29 652
25977 6702.47055</w>
2014- го</w>
18, 29</w>
1258 00,0</w>
12 ,</w>
0000 0,0</w>
0 9</w>
. 3528</w>
-млад ши
- Лу
(США ),</w>
( Великобритани
"Ч ерный</w>
"З ве
"Диагона льная</w>
"Де ль
"Ассоциаци я</w>
"Ар лингто
"А ллен</w>
" Нептун</w>
яйц о,</w>
явля ющийся</w>
явля лся</w>
эк рани
щ ения</w>
ши ре,</w>
ш у
ш кола</w>
чиха рон,</w>
чис лен
ц е,</w>
хо й</w>
ф л</w>
участво вали</w>
ты "</w>
традицион ный</w>
технологиче ском</w>
теп лы
та пио
т ый</w>
т ное</w>
сцепл ения,</w>
ствующи е</w>
сп раво
справо чный</w>
соци али
соверши ла</w>
собран ный</w>
си день
сезоне- 201
север у</w>
сво ем</w>
сбор ная</w>
са й
ру .</w>
род .</w>
раб ль</w>
р ета</w>
протяжен ностью</w>
председа тель</w>
пре дела
предела х</w>
порто вым</w>
поло са,</w>
по я
пев ца</w>
пала та</w>
п лан
он то
образовани ю</w>
обнаружи ла</w>
но дар
ни да
напис али</w>
награ дной</w>
милли мет
ма д</w>
ли бе
летчика-испыта теля.</w>
ле онто
клас са</w>
ки нг
кг с.</w>
кг с,</w>
катего рию</w>
к ро
исход ным</w>
истреби теля,</w>
инстру мен
значи мы
земель ных</w>
за слу
жи ма
ен е</w>
е в.</w>
ди ви
деш "</w>
да ".</w>
го ссе
вое вала</w>
вари ации</w>
бу ма
ба рабан</w>
аэропор том.</w>
афроамерикан ка.</w>
ан ге
ам ,</w>
а стероид</w>
а рон</w>
Эгг-Хар бор,</w>
Хар бор,</w>
Хали ско</w>
Уттар-Прадеш ,</w>
У ри
Три нида
Тем зе,</w>
Там пер
Т ом</w>
Стади о</w>
Сред няя</w>
Си пи
Сан-Франциско .</w>
Сан да
Сабин ,</w>
Родриге с.</w>
Рах м</w>
Пен ьет
Певи ца</w>
Парти и</w>
П сал
П ри
П анам
О фициальным</w>
Но мер</w>
Мин даль</w>
Махму да,</w>
Мар г
Манор ",</w>
Лаура у
Кристи ной</w>
Крас нодар
Космиче ском</w>
Ко рабль</w>
Каро лины</w>
Ира ке.</w>
Ио си
За конодатель
Ев анге
Дра го</w>
Гу сей
Гвиан ском</w>
Г ю
Г еттисбур
Видо до</w>
Вайс с.</w>
В ар
В .</w>
Бурбан ке,</w>
Больш ого</w>
Бирминге м,</w>
Бал тийская</w>
Арми я</w>
Ан кар
Аль ба
Австри и.</w>
Абрада б</w>
Абдул- Захра</w>
y in</w>
wol ters</w>
w oo
w he
v 6</w>
us af
u c</w>
ty us</w>
technolog i
t c</w>
st ö
st eel</w>
st e
se yin</w>
rs-3 ,</w>
rid ge</w>
restructi on"</w>
poly dor</w>
ph il
oberhel man</w>
music ,</w>
motor s</w>
me chel
mathersch en</w>
m pi
m i</w>
m an,</w>
k v</w>
in t</w>
ho p,</w>
hil mi</w>
dodge "</w>
de fen
de .</w>
db s,</w>
com pan
bl v
ath ens</w>
at ar</w>
an g</w>
airast ella</w>
air bus</w>
agrimi acao</w>
aff air
a. t.</w>
9 196
87 000
87000 8
8 62
7 5
69 862
6 18</w>
55 312</w>
5 ,0</w>
4. 55312</w>
4 19
419 11
41911 3
419113 39
41911339 4.55312</w>
37 1</w>
32, 2</w>
30 843,8</w>
29 9196
2, 3968</w>
199 0</w>
198 5</w>
15 5</w>
1, 8388</w>
- Юли
( столица
( во</w>
( Афины
"Сан деш"</w>
"Орхус ",</w>
"Ме даль"</w>
"Ко рити
"Бар ные</w>
"Аполлон-12 ".</w>
"Аполло-12 ",</w>
"А арон</w>
" Рома
" Ви
являющ егося</w>
юго-восто ке</w>
эле мент
чемпи о
ч е</w>
футбо ле</w>
фрук ты,</w>
ф .</w>
уч ре
твердо й</w>
сыгра вший</w>
сто лич
сто в</w>
ста ли</w>
сред ством</w>
сот руд
созда тель</w>
со пут
смени вший</w>
смен ом</w>
с раз
сраз у</w>
с »</w>
рол ",</w>
ро н.</w>
реда ктором</w>
растени й</w>
р ",</w>
произве ден</w>
приеха л</w>
приготовл енный</w>
премьер-минист ром</w>
поря д
под падает</w>
певц ом</w>
певи цы</w>
операцион ной</w>
опера тивной</w>
окру га.</w>
общ ины</w>
о бычно</w>
на полни
монар хо
ль -А
ль-А ви
лапш и,</w>
лан ,</w>
л я.</w>
л ",</w>
королев а</w>
команди ров</w>
команд ы.</w>
ко в.</w>
клу ба"</w>
ка мпу
й скую</w>
источ ником</w>
исто рический</w>
инди -
зву ки</w>
заслу ги
за воевал</w>
ж е,</w>
ж ай
енно-воздуш ные</w>
ени й</w>
ена ".</w>
ен т</w>
е ще</w>
ден .</w>
д ву
грун товое</w>
грани та</w>
государств енных</w>
говяж ьей</w>
выпол нен</w>
во р
вля ется</w>
ва до
в ьетнам
бы .</w>
бе н</w>
американе ц,</w>
аль вадо
ал дор
актив ным</w>
а зербайджанской</w>
Ш ари
Ченна и.</w>
Христианско-демократиче ской</w>
Форре ст"</w>
Фа верх
Тенне сси
Те ль-Ави
Стран у</w>
Сингапу ра.</w>
С альвадо
Руково д
Ромагно ли,</w>
Ро ман</w>
Про из
Прабхукумар .</w>
Пер вой</w>
Пала той</w>
ПФК "</w>
О ро
Националь ное</w>
Народ ная</w>
Мадри д»</w>
Мадри д</w>
М ура</w>
М орган
М Б
МБ А
МБА Д.</w>
Лу ан
Лайоннаис ",</w>
Ку ру,</w>
Коне хо
Колле дж</w>
Ко у
Ко ли
Ко д</w>
Им я</w>
З у
Ж ор
Джорджи я</w>
Дже к
Декал б,</w>
Д ем
Д ари
Грузи я.</w>
Гра ц.</w>
Государ ство</w>
Галиси и,</w>
Во енно-воздушные</w>
Вариа тор</w>
Бы вший</w>
Би -би-си
Барков -младший</w>
Ар лингто
Антверпен ,</w>
Англи я.</w>
Альтернатив ное</w>
Абубакар ,</w>
yor k,</w>
x iii</w>
wilkin s</w>
whe el
w et
wet lands</w>
virag e</w>
vic enza</w>
u li
tu dor</w>
t ama</w>
se .</w>
samu da</w>
s ang
sang er,</w>
res t</w>
r ar
pol lo</w>
pla za</w>
p eri
peri ap
periap sis</w>
o d
moy in
min ot
mb a.</w>
le s</w>
k ais
k "</w>
it s</w>
ing s</w>
g h</w>
g er
for rest</w>
for ni
fign eri
f-1 5</w>
f k</w>
f d,</w>
f ab
explorisi on"</w>
est er
ester fiel
enaire .</w>
dem os</w>
del k
de Сото</w>
dal es</w>
cor on
ch esterfiel
cali forni
bro th
bh ai</w>
berlin er</w>
ber g</w>
aven u
audi ,</w>
ap ul
ani ti
and ers</w>
aldr in"</w>
alban y,</w>
ag o</w>
ack .</w>
ac-1 30
ac .</w>
a pollo</w>
99 ,
97 3</w>
920 6
895 70
89 6
896 4
8964 68
60 8
523329 000,0</w>
49 89570
44 8</w>
4 90
352 497
34 9206
25 4989570
200 6
2 2
19 14</w>
16216409 1,8388</w>
0, 21</w>
0 -0
( из</w>
( где</w>
'donn ell,</w>
"Кубан ь</w>
"Бол т"</w>
"Ампа ра"</w>
"Амарльо ",</w>
"Алдерни ",</w>
"А рем-арем
" Нью-Мексико
" Новой</w>
" infantry</w>
я хо
юго- востоку</w>
эпо хой</w>
элемент ы</w>
ъ един
цент ра.</w>
ц ами.</w>
успе л</w>
тор т</w>
то н.</w>
ти пи
сыгра ла</w>
стран у</w>
стиче скую</w>
степен ь</w>
содержа т</w>
со ве
смет ан
следу ющи
сво им</w>
са ле
рок "</w>
ри я</w>
произ о
пришед шего</w>
посвя щ
по мо
пирож ки</w>
пери п
откры тый</w>
о не.</w>
о бо
но вая</w>
наполни теля
на -бутерб
мяс ными</w>
мэ р</w>
моло ко.</w>
м ы</w>
лет .</w>
короб ка</w>
конферен ции</w>
компенси рует</w>
команд у.</w>
клуб ного</w>
кет чуп</w>
кг .</w>
канц лер
ка пита
к мен
имуще ства.</w>
з е</w>
жи в
жив ут
жени лся</w>
жат ый</w>
ет ро
ена ",</w>
докто ран
до м
до в.</w>
да ти
говяди на,</w>
го дов</w>
гварде йц
вод ная</w>
ван ни</w>
в стре
бутерб род,</w>
британ ские</w>
беко на-бутерб
ба с</w>
архитектур ный</w>
аренда то
ан ос
американ ским</w>
американ ская</w>
академи я</w>
авто заводе</w>
австри йский</w>
Япони и,</w>
Ю ха</w>
Э ф
Шир ли,</w>
Швейцари я</w>
Шар ль</w>
Ч ер
Фредери к
Фонтан ,</w>
Уильям сон,</w>
Тинх э
Сто к
Средне атлантиче
Сингапу р
Си эт
Си л
Сент-Луис е,</w>
Саскаче ван
Сарава к,</w>
Рой мер.</w>
Ро й</w>
Риме ,</w>
Республи ка</w>
Ре кор
Пор т-
Пен ь
Пакистан е</w>
Орего н.</w>
Ольдендорф е</w>
Ньюмар кет
Нынеш ний</w>
Не а
Мемори ал</w>
Мекси ке</w>
Махму да</w>
Ма ран</w>
Лу на"</w>
Лу анд
Лос-Анджеле се</w>
Лиде рами</w>
Ку яхо
Корнель ский</w>
Корнели ем</w>
Ко в
Кампу с</w>
Итали я.</w>
Ирланди я,</w>
Иоси ф</w>
Джо ванни</w>
Джа з
Да та</w>
Готтинг ена</w>
Г аджи
Восточ ная</w>
Великобритании ).</w>
В К
Буту нером</w>
Бундес лиге.</w>
Бу ш
Бу рес</w>
Белы х</w>
Б хаджи</w>
Атлан те,</w>
Аргенти на,</w>
Антверп ен</w>
Амери ки.</w>
Аля с
Аль-Хо ре.</w>
А ссоци
А марль
wien er</w>
werf t,</w>
wer .</w>
veron a.</w>
ust ad
t uner</w>
shum ai</w>
s ee
see ,</w>
ro be
ri c</w>
rhyth m</w>
revi v
po al
pl aci
pais a.</w>
p r
om b
ne ustad
minot au
minotau r</w>
mat a</w>
kais er</w>
j r</w>
hu seyin</w>
elect ric</w>
de er</w>
d ane</w>
cit y"</w>
chute ,</w>
cand omb
c a,</w>
burl ington.</w>
bun delk
bu tuner</w>
bar ny</w>
b abel
ar d.</w>
apul ensis
al e</w>
aktiesel sk
aidast ella,</w>
af robe
a ek</w>
a 90
99, 83</w>
8000270 9.</w>
52395158 2,3968</w>
51159 2000,0</w>
5 0-
475426 000</w>
45 5</w>
4- го</w>
4, 9</w>
39 371</w>
33 09
3 arena</w>
2, 3</w>
2 36
198 0</w>
1923 8</w>
18 3309
16 000</w>
11 -я</w>
10 1.</w>
0 5</w>
"Т ир
"Рома "</w>
"Дель та-
"Ванденбер г</w>
"Ба джи
"Арлингто н"</w>
"Алкмар ",</w>
"Александри я",</w>
"3 Арена"</w>
" оранжевой</w>
" Ритм</w>
" По
" acta</w>
" a</w>
я ми</w>
я л</w>
э ,</w>
ьет о</w>
щи х
чемпиона ми</w>
челове к,</w>
ча г</w>
це в.</w>
ц кий</w>
ц ей</w>
фран цу
фи на
фа ло
трансмисси я.</w>
суд на</w>
су пру
страни цы.</w>
ству ющее</w>
состо ит</w>
содержи тся</w>
собрани е.</w>
соб ствен
ски й"</w>
се ме
семе й
све же
са го.</w>
с с-
с м</w>
с к
ры чаг</w>
ру кто
рок- музыка,</w>
ро ка</w>
раст е</w>
пу тера</w>
пу та
прямо линей
постро енный</w>
площад кой</w>
пирож ки"</w>
пи щ
орден ом</w>
опубликов анный</w>
не работа
не которые</w>
нача льни
начальни ка</w>
народ ный</w>
напис ан
моло ко</w>
ми путера</w>
металли ческий</w>
мекси кан
мар и
ля ют</w>
ло тая</w>
леонто логи
ланд ском</w>
л лет
л ет</w>
кури ное</w>
космиче ским</w>
конфлик та,</w>
кон цер
ком ани
ко ны
ко е</w>
килограм ма,</w>
ка за
к рет
использу емы
ис следо
ис ани
измельч енные</w>
и )</w>
за конодательный</w>
за висимо
ж ена</w>
ет и
ен е.</w>
дизель-электриче ская</w>
двига тель.</w>
выполн енный</w>
вы .</w>
вра щения</w>
воз расте</w>
вани ем</w>
валю той</w>
б ле
американце м.</w>
ала -Лу
ала-Лу мпу
ави анос
а ",</w>
Эфиопи и</w>
Шта ты
Шри-Лан ка</w>
Ш ве
Хе к
Фу л
Фран си
Уол тера</w>
Тома ты</w>
Тиро ль</w>
Те лан
Тарран т</w>
Сумат р
Спа ллет
Сан-Франциско ,</w>
Сам арас
Са лем</w>
С пор
С лад
Рют те</w>
Румыни я.</w>
Ру та
Ро са
Ра м</w>
Р ,</w>
Пруднико ва</w>
По д</w>
Пень а
Пар ти</w>
Пан тер
Павлопу лос</w>
Павлопу лос.</w>
П исани
Осбор н,</w>
Н ьето</w>
Н ор
Михайлови ч</w>
Ме сто
Маттаре лла.</w>
Магдален ский</w>
Ма су
Луч ано</w>
Локомотив "</w>
Лар ше.</w>
Ку ала-Лумпу
Королевст ве.</w>
Копенгаген е,</w>
Консерва тивной</w>
Коннектику те,</w>
Ко ц,</w>
Ира к,</w>
Дэв ис.</w>
Джон са</w>
Гусей ном</w>
Гуру ли"</w>
Гвадала хар
Га джи</w>
Г э
Вориди с.</w>
Вла ди
Вашингто не.</w>
Бу мипутера</w>
Брю ин
Брук -
Бол дри
Би -би-
Би-би- си</w>
Бе лого</w>
Б э
Ачар ском</w>
Афи ны.</w>
Ала ба
Азербайджан е,</w>
ä r
«А л
« Барайас
wilkin s.</w>
w h
vo ice</w>
visvesvaray a.</w>
vers i
v an</w>
v 12</w>
u k
thunder .</w>
t c.</w>
stev en</w>
se n</w>
s ".</w>
romanc e,</w>
ro u
ri versi
publi c
poacea e,</w>
po pu
piazz ia</w>
p er
p agn
nr -1
ni x</w>
monocotyle don
ly onn
lun a</w>
leagu e.</w>
jazz .</w>
javanes e</w>
j a
inf .</w>
igh t</w>
identi fi
ic k</w>
hond a,</w>
ho k</w>
h or
gloom .</w>
g .</w>
fon se
f-1 6</w>
er s.</w>
eat ers</w>
e vil
dal es,</w>
d e,</w>
cak es</w>
bion i
ber t</w>
battlefiel d</w>
babel berg</w>
araprivines se
ap t
airbas e</w>
ad m
a ;</w>
9 ,0</w>
8 0-
77 29
7729 43
670 -0
670-0 33
670-033 80-
67 0000
608 15</w>
57 392
57392 24
5 4</w>
5 12</w>
490 ,9</w>
4 34
4 2</w>
4 2,3</w>
34 4,9</w>
3 x
29652 1000,0</w>
277 7
25 50-
2 1.</w>
162 447
11 7
11 42,3</w>
1 20</w>
1 10
0-439 -9
0-439-9 2550-
0- 670-03380-
0,0 455</w>
0 4</w>
-Юли я,</w>
- ю</w>
( столица</w>
"гиги ены"</w>
"Тир струп
"Нью-Джерси ",</w>
"Локомотив ".</w>
"Би-би-си "</w>
"Бан анам
"Арем-арем "</w>
"Ардмор ",</w>
"Александ ре</w>
"Ал ва</w>
" черного</w>
экрани зация</w>
ш ла</w>
ш ин
цион ной</w>
ц ве
хле бо
хип-хо п-музы
ха р</w>
футбо лу,</w>
уча щих
управля емого</w>
удосто ен</w>
теплы м</w>
твердост и.</w>
т руб
стро -
сто н</w>
средне размер
соверши л</w>
со та</w>
систем ы</w>
систем ы.</w>
сем ье</w>
сельдер ей,</w>
северо- запа
северо- восто
се н</w>
роскош ный</w>
рован ную</w>
ри .</w>
расположен ном</w>
ран ж
ракет у</w>
раке той</w>
работа ют</w>
ра дж
радж ай
прое кт</w>
провин ция</w>
принадлежа т</w>
префектур у</w>
премьер-минист ра</w>
предшество вала</w>
пред вар
поя ви
полу ч
полити к</w>
под водная</w>
по мощ
пенси ю.</w>
паис а.</w>
отде ла</w>
основ анная</w>
он у</w>
но- мясными</w>
наполнителя ми.</w>
н -
му ки</w>
мра мо
миче лли,</w>
мин но-мясными</w>
математи ка"</w>
маги ст
ма стер</w>
ль ф</w>
ле мари
кух ни.</w>
ку ль
кризис .</w>
ко й
кин г</w>
ка ль
й сон"</w>
й скими</w>
исследо вани
им пери
игра ющий</w>
зна ч
здани я</w>
запис и</w>
з ,</w>
жи л</w>
должност и.</w>
длин у,</w>
дисцип лина</w>
де пута
говоря т,</w>
го ль
выпуска ется</w>
вы м.</w>
вой на</w>
вер мичелли,</w>
ва вший</w>
в се
в )</w>
базирующ ейся</w>
анг лоязы
амят ка</w>
Эссек с,</w>
Эрас уса</w>
Эн да</w>
Э л
Швейцари я,</w>
Хай лемари
Фу ад</w>
Финлянди я,</w>
Фер нан
Уругва й.</w>
Управл ения</w>
Уор ден</w>
То мс
Теннесси .</w>
Тампер е,</w>
Т ам</w>
Сток голь
Сент- Мэри
Сан -Хо
Сан-Хо се-
Сабин "</w>
Саби на</w>
С крип
С вет
Робер том</w>
Ро ман
Пут раджай
Пу иг
По й
Площад ь</w>
Пе рон,</w>
Пакистан е,</w>
П амятка</w>
Нико ла
Ни г
Н у
Н ей
Мэ ри</w>
Мендо са</w>
Мари и</w>
Марг рета</w>
Макдонне лем.</w>
Мак Ло
МакЛо у
Мадрид- Барайа
Ма ха
Ма тер
Льво в"</w>
Ли ге</w>
Лар ри</w>
Ирланди и,</w>
Индиан ы.</w>
И менно</w>
Жан о,</w>
Европе йским</w>
Еванге лос</w>
Е сть</w>
Дугла с</w>
Доу сон</w>
Джек сон</w>
Де сале
Д ональ
Гражд анин</w>
Гос по
Г амиль
Вориди с</w>
В о</w>
Бо сто
Баксо ,</w>
Ассоциаци ю</w>
Ассоци ации</w>
Аре ше,</w>
Ар тур
Аппле тон,</w>
Аль -Хор
Аль -А
Адо ниса</w>
Ав стро-
А дела
wickremesingh e</w>
wey mouth</w>
vin cent
vincent -
v az</w>
universit y.</w>
u m</w>
tranc e,</w>
toekom st,</w>
tex as</w>
t ura</w>
stock port</w>
sau ce</w>
sampd ori
s.p. a.</w>
s er
s age</w>
s ach
sach sen</w>
rar ese</w>
pala e
o de
ode on</w>
mas on</w>
m ol
m ami
mami f
m .</w>
ing ,</w>
indi a</w>
il d
identifi er</w>
gazett es.</w>
gaz ette
g un
f ,</w>
defen se</w>
d .
coup e.</w>
car rarese</w>
bu ild
bl t.</w>
binign it,</w>
be an,</w>
bath s,</w>
as .</w>
arr tus</w>
arr ab
arrab bi
archit tura</w>
amsterd am
all- star
airpor t.</w>
ah vaz</w>
af it,</w>
ab i</w>
99 2,
9364597 8.</w>
9 4,
94, 80
9 2
77 15
7715 10000
705 92
69 618</w>
670000 000000
670000000000 3</w>
60 9
6 3</w>
6 -0
5 70592
47 3</w>
44 5
416 1
4161 36
4, 7</w>
4 88
4 ",</w>
3 ,0</w>
29 2</w>
27 914
2014- 2015</w>
2 -0
197 2</w>
19 11</w>
18 9
157 88</w>
14 7
14 4,7</w>
117 4</w>
0002 -93
000000 ,0,</w>
000 0</w>
0-439-1768 5-
0,0 ,</w>
( свеже
"С т
"Ре ал"</w>
"Д ру
"Бо стон</w>
"Бар се
"Атланто й"</w>
"Аполло-12 "</w>
" Пеньа
" monocacy</w>
январ е</w>
я сь</w>
я »</w>
ющи х</w>
этаж а,</w>
эпо ху
эпоху ,</w>
эк спо
э сп
эсп ан
эспан ь
э .</w>
ъедин енные</w>
ъ ем</w>
шта ба</w>
ш ли</w>
чер ная</w>
чер е
челове ком</w>
ц вет</w>
холод ным.</w>
хар д
фугас ный</w>
у н
труб чатый</w>
то ло
титу л</w>
тив ная</w>
т ха
сто яни
ств енных</w>
социали стов</w>
соу се.</w>
соу са</w>
сокращ енный</w>
со рат
смен ы</w>
служи ть</w>
сам бле
са ",</w>
ро сси
рем ьер-
рекорд ным</w>
резерв ного</w>
региональ ным</w>
реги она,</w>
расположен ного</w>
ран ь
раз му
принадлежа щий</w>
при во
появи лся</w>
поп-музы ки.</w>
по мидоры,</w>
по вли
пар ка.</w>
па леонтологи
основ ного</w>
ор и</w>
опера ции</w>
обще ственных</w>
обнаружи вший</w>
о фициаль
нынеш ние</w>
ны й.</w>
ни ,</w>
началь ником</w>
нау к.</w>
многи х</w>
мест .</w>
ме синг
м ана</w>
м ).</w>
летчиком -испыта
л я,</w>
кури ца</w>
ку пе</w>
кре месинг
коричне вый</w>
институт е</w>
ин форма
значимы х</w>
з ин
з .</w>
етро й
доба влен
до с-
до рож
до ма</w>
дисцип ли
диви зи
дж ори</w>
дж а</w>
группо й,</w>
групп ы.</w>
груп пу
выпуска лся</w>
вы шед
вы рез
вы играл</w>
владе лец</w>
вари ант</w>
бю ро</w>
бы вший</w>
бы ,</w>
бутерб ро
бу ло
бу дет</w>
бин та</w>
аспиран тов</w>
ас самбле
араб ский</w>
ара ть
ани л</w>
авианос ц
а ется</w>
Эфиопи и,</w>
Эртегу на</w>
Ш колы</w>
Чер ны
Ча сть</w>
Хельсин ки,</w>
Хали ско
Х о
Х а
Ф ламанд
Тель-Ави ва</w>
Т ама</w>
Сти вен</w>
Сред и</w>
Сарава ке.</w>
Сан-Хосе- дос-
Р анил</w>
Пруднико в,</w>
Пре у
Плех ано
Пет рако
Пет ерб
Пан уч
Пакистан е.</w>
Паис а.</w>
П рое
П Е
О бер
Нидерлан д
Мо ди.</w>
Мар джори</w>
Мади на,</w>
И с
И дентифика
Ди тер</w>
Департа мента</w>
Гре ция</w>
Готтинг ена,</w>
Го род
Г и
Вопере з</w>
Ванденбер г</w>
Бурбан ке</w>
Бирминге ме.</w>
Бер то
Бель га
Бар толо
Банило у.</w>
Ашхаба де,</w>
Атлантиче ском</w>
Андалуси и</w>
Андалуси и,</w>
Алькобенда се,</w>
Алабам а.</w>
Азербайджан е</w>
А ллама</w>
А кеем</w>
А каде
«Барайас »</w>
y mpi
way .</w>
w as
ve il
te ,</w>
t wil
spacewat ch</w>
solanal es.</w>
se agle</w>
s ol
ru its</w>
ro vers</w>
ro m</w>
restruction ".</w>
re dd
p i</w>
ol ympi
ne cti
mon del
mondel ez</w>
mari o</w>
lyonn ais
k u
jon g</w>
j ar
in to</w>
i g</w>
i c</w>
hond a.</w>
h är
g p
friedrichshaf en</w>
felicit as,</w>
faver ham</w>
f ruits</w>
f rom</w>
en aire</w>
el and</w>
dyk es.</w>
di g
con necti
club e</w>
chesterfiel d</w>
canon ic
c e.</w>
c d</w>
bert one,</w>
be t</w>
aur ak
ar m
ap gp
any ang</w>
anders on,</w>
and o</w>
advanc es.</w>
9 83
9 45
74 4</w>
7 67
767 983
7 4,
74, 33</w>
69862 200
488 16
39 00</w>
38 00,0.</w>
3 1,
25 ,</w>
2 3900</w>
193 6</w>
17 .</w>
1 27</w>
00 68</w>
0,0 473</w>
. )</w>
-1 1-
- Па
(столица :</w>
"Т ама"</w>
"Спартак ".</w>
"Се крет
"С ент-
"Ре а
"Палермо ".</w>
"Оке ан</w>
"Г амиль
"Би рминг
"Аполлон-12 ",</w>
"Андер сон",</w>
"Ак та</w>
"А и
" бас"</w>
" Хип-хо
" Но
яр лы
этаж ей,</w>
чере з</w>
це ва
худож е
фу н
ф ью
то ни</w>
ти ва
те ше
т во
студент кой</w>
страни цы</w>
столиц ы</w>
ство м.</w>
ствен ной</w>
ст ери
стери к
ссе й
среднеразмер ным</w>
сред няя</w>
соревнова лись</w>
соответ ствующее</w>
собрани я</w>
сидень ем</w>
с ъе
с жатый</w>
роскош ным</w>
ро прияти
рекорд сменом</w>
рань ше</w>
раб ан"</w>
пу теше
префектур е</w>
предыдущи е</w>
пре ем
под готовл
пило т</w>
переда ч,</w>
пена »</w>
певц ом.</w>
певц а,</w>
парти и,</w>
парти ей</w>
основ ной</w>
опублико вала</w>
она .</w>
од ну</w>
националь ной</w>
музыкан тами</w>
му т</w>
му зей</w>
монар ха</w>
мо н</w>
металла "</w>
ме роприяти
мас са</w>
ль вино
лод ка</w>
лин и</w>
лидер ы.</w>
лиде ра.</w>
ла ту</w>
л ар
л -
кузо в</w>
кризис ",</w>
кре с
книг и</w>
клас с</w>
келвино в,</w>
ке д</w>
кан а
ка лифорни
к -испыта
й ло-
й в</w>
й )</w>
ию не</w>
информа цион
инди йскими</w>
имуще ства,</w>
изготовл енная</w>
законодатель ного</w>
з ом</w>
ет .</w>
ем а</w>
е м,</w>
дочер няя</w>
ди н,</w>
джазо вый</w>
дж жи
десер та</w>
демо ном</w>
де сь</w>
дви н</w>
дати рованную</w>
д во
губерна то
горя чем</w>
гитари ст</w>
гита ре.</w>
встре чается</w>
вое вали</w>
вице- президентом,</w>
вз ры
вет ке
ве ду
в анный</w>
брон зо
бори ген
би т
бан де
ба с-
ба с
ба ".</w>
б х
араб ский.</w>
анд ар
ам хар
Язы к,</w>
ЮА Р,</w>
Эн тони</w>
Э й
Ху ссей
Хельсин ки</w>
Фредерик сбур
Финлянди я</w>
Филиппина х</w>
Филиппин ы</w>
Федераль ное</w>
Телан г
Сумат ра</w>
Со у
Сильви о</w>
Росто к,</w>
Ра з
Прое кт</w>
Поаце я.</w>
Пар ана.</w>
П ари
Онтари о,</w>
О ладипо</w>
Нэшви лле,</w>
Ниг ери
Мумба и</w>
Морган ,</w>
Мол до
Май ка</w>
Ма дин</w>
Лан синг
Ла -Па
Л и.</w>
Ко чи.</w>
Ки шин
Канад ы</w>
Канад ы.</w>
К ир
К вин
Й ин</w>
Иллиной с</w>
Дэ йв</w>
Ду б
Дженнинг са,</w>
Дербыш ского</w>
Де лав
Грозны й".</w>
Гроз ном.</w>
Госпо дин</w>
Г ера</w>
Вы сш
Вермон та,</w>
Великобритани я</w>
Брит ани
Бер лу
Ачар ский</w>
Атлан тический</w>
Антиохи я,</w>
Андалуси йской</w>
Ан бар,</w>
Альбукер ке</w>
Аль -
Азербайдж ана,</w>
Абубакар .</w>
x im
xim o</w>
w ack
wack er</w>
viag .</w>
veinti cali
val er</w>
v ant
ur y</w>
uk ro
ukro p</w>
titan s</w>
ti on</w>
technologi es</w>
stat es.</w>
st ey
se co.</w>
scripture .</w>
sci .</w>
sampdori a.</w>
s. r.
rom an
rol l
ro 1,</w>
rap .</w>
rand om</w>
rand all</w>
priestle y"</w>
post -
po y
po g
placi d,</w>
phil ip
pen y
pen gu
pengu in</w>
orn ia</w>
olympi que</w>
m acc
macc abi</w>
log an</w>
lam bi
jacket s,</w>
igh t,</w>
i d</w>
hop .</w>
hal la
gaussi a,</w>
g us</w>
figneri a,</w>
f ornia</w>
f ly
ett ,</w>
ell .</w>
di ane</w>
dani el
dagg ett,</w>
cruis e</w>
cre ek</w>
cor por
copen ,</w>
clematis ,</w>
chi char
car pi</w>
cali fornia</w>
c lev
c ant
c ab
cab all
bremen .</w>
bre az</w>
bo at</w>
bat ag
aur on</w>
atti ca,</w>
ater s.</w>
arianespac e,</w>
arem ,</w>
archit ura</w>
ar l
amatrici an
all-star s.</w>
alhamb ra
alabam a.</w>
addicti on</w>
ach ,</w>
83 70
8370 8
83708 0,
837080, 744</w>
8 36
836 4
8364 63
78 77
75 .
609 37
60937 000,0</w>
600407 14
5, 7</w>
5 60937000,0</w>
4, 14</w>
4 15
415 0</w>
31, 48</w>
3, 1</w>
26 5</w>
185 7</w>
18 r</w>
18 20</w>
16 7,
14 0
1- го</w>
000 1-8
-Х арать
( Соединенные</w>
"Флори да</w>
"Нью-Мексико "</w>
"Н у</w>
"М ин
"З о
"Баджи "</w>
"Ба рабан"</w>
"Ба джжи
"Атлан ты"</w>
"Ан ти
"Александ ра</w>
"Акрон ".</w>
"Аи да</w>
" Школа</w>
" Центральный</w>
" На
" dodge"</w>
" alhambra
ющ его</w>
юго- западу</w>
ю мас
эксплуатирова вшего</w>
ы м</w>
шко ле</w>
част о</w>
це м,</w>
хо т
хот я</w>
хип-хо п-
фор ми
фламанд скому</w>
управл ение</w>
улиц е</w>
у поли
торго вл
торговл и</w>
ти -
тан цева
сэндви ча</w>
су до
стояни и</w>
стер ,</w>
старто вой</w>
ст рети
стрети ть</w>
сси ше</w>
соста ви
сове том</w>
смет ана,</w>
синте з</w>
си с.</w>
секун ду</w>
се кретарем</w>
се д
с к</w>
с вет</w>
руководи тель</w>
росси йской</w>
рок-музы ки,</w>
ри й</w>
реме се
ре гу
рас стоянии</w>
рай онов</w>
разрабо тан
пуди нг
пре успел</w>
пре сс-
полос у,</w>
полнопривод ный</w>
по р</w>
по ет</w>
план тан</w>
пере ме
п ти
од на
о лимпи
о би
нико в</w>
не сколь
насе ляют</w>
мор ков
молодеж ного</w>
мини стер
ми ра
лиза б
лизаб ет</w>
ли бо</w>
лей ские</w>
л си
куль тур
кре тар
конструктор ское</w>
конгрес са</w>
кни гой</w>
клас се</w>
ки е</w>
кет бо
келвино в</w>
ке львино
кг с</w>
итальян ский.</w>
истреби тель</w>
испан цы.</w>
информацион ным</w>
извест ного</w>
идентифика тором</w>
зо й</w>
зем ли</w>
зе я</w>
жан ров,</w>
ж ная</w>
ет ,</w>
енц и</w>
ем ".</w>
е ве,</w>
добавлен ы</w>
двига тель,</w>
губ чатый</w>
губ ча
государ ство</w>
госсе кретарем</w>
год :</w>
глав ная</w>
ген ера
ге р</w>
высо ту.</w>
высо кое</w>
ви и</w>
ве ща
в стретить</w>
блю да.</w>
блю да,</w>
би б
биб лейские</w>
бас кетбо
апо гей</w>
ан е.</w>
автомоби лем</w>
а ра.</w>
Эфиопи и.</w>
Эф к
Э лизабет</w>
Э двин</w>
Хайлемари ам</w>
Хай дер</w>
Француз ской</w>
Филиппи н</w>
Фернан до.</w>
Фаллудж а</w>
Фаллудж а,</w>
Ты ус</w>
Т рен
Стэнфор дский</w>
Со обще
Сильви я</w>
Сан че
Сан ти
США )</w>
С М
Руковод ящим</w>
Ру ссе
Рок -
Рам с"</w>
Р енци</w>
Петерб ур
Пала ты</w>
Па у
П ремьер-
Окру г</w>
Ньюмаркет ",</w>
Мекси ки,</w>
Манхэттен е,</w>
Манхэт т
Локомотив ".</w>
Л .</w>
Кор ни
Конехо .</w>
Кло д</w>
Кишин еве,</w>
Кера ла</w>
Кембридж .</w>
Кар лом</w>
Капитоли и.</w>
Кана да,</w>
Ка ду
К ами
Индиан е</w>
Ило йло-
Ико ло-
И ту
Зу ма</w>
Зе лен
Запеч енный</w>
Ж арен
Ди ас</w>
Джон сон,</w>
Дже ксо
Демократиче скую</w>
Высш ая</w>
Вы сота</w>
Видо до.</w>
Ве ро
Васке с.</w>
Вален си
ВИ Ч
Би б
Берналль о,</w>
Бе ко
Баксо .</w>
Афри ке,</w>
Аф ара.</w>
Аса д"</w>
Арен да
Анто ни
Анкар а</w>
Аль ба,</w>
Алаба ме,</w>
Ал дри
Азербайджан е.</w>
Ав гу
Абуба ка
Аб у</w>
«Акрон »</w>
«А марльо
wart s</w>
veinticali o</w>
v or
vor warts</w>
v it
v el
ul l</w>
synthpo p,</w>
stö ger</w>
stellend am</w>
sk a</w>
si ensis
s n
s cal
riversi de</w>
rid ge
restructi on,</w>
re ,</w>
r un
r ad
quart ing</w>
pudding ,</w>
po st</w>
philip s</w>
par c</w>
ot b
n w
may o</w>
mar s</w>
mahaj an</w>
li gh
li ,</w>
land ,</w>
j r.</w>
j enn
is .</w>
in c
i a.</w>
her a.</w>
hardco ver
guar di
gar den
fo otb
fc "</w>
f.c. "</w>
explosi on.</w>
en aire,</w>
divisi on.</w>
de por
dav e</w>
cullin s</w>
coupé .</w>
co ar
coar acy</w>
ch al
chal lin
cast le.</w>
camilla .</w>
c at
beno it.</w>
b "</w>
arianespac e.</w>
al ex
ag le.</w>
ad e</w>
a h</w>
88 8
87 888
78 3,1</w>
75. 324</w>
7- 7
605718 000,0</w>
6- 36
6-36 48
56 7-7
5 300</w>
49 50000
46 45
4645 17
4 "</w>
39 9
38 00</w>
33 10
33 ,9</w>
22 15
2, 7</w>
2 33,9</w>
198 2</w>
19 9</w>
16, 55</w>
15 6-3648
12 4950000
03 l</w>
0 567-7
- Ри
- 5
(Измир )</w>
( под</w>
"Юстици я",</w>
"Тур кмен
"Сент- Жор
"Об ъединенные</w>
"Ли ди
"Дельта- ii"</w>
"Д етрой
"Греймаши на".</w>
"В ис
"Ба лдер
"Ах мад</w>
"Алкмар "</w>
"Ак рон</w>
"Аддис-Абе ба"</w>
"А мат
"3aren a",</w>
" разби
" Уттар-Прадеш
" Уай
" Технический</w>
" Ньюмаркет",</w>
" Индиана
" 1928</w>
ящ его</w>
ью .</w>
шер .</w>
член а,</w>
че ских</w>
хо в
хлебо було
хаджи ,</w>
х ристи
француз ском</w>
участво вала</w>
уча сто
участо к</w>
уровне ",</w>
ты м</w>
турец кого</w>
то на</w>
то ви
тель ные</w>
та ку
та ".</w>
т ного</w>
ст и.</w>
соста вля
со лю
си ро
себ е</w>
сделан о</w>
рок-музы ку</w>
рова ть</w>
ро л"</w>
рекорд ный</w>
ре али
ра ",</w>
р ена
прикреп лен</w>
подпис анный</w>
подготовл ен</w>
по что
по н
персонаж а,</w>
переме щение</w>
пер вый</w>
пер вой</w>
пе р</w>
парла мен
пар ке</w>
па та
отде льная</w>
остро в</w>
оби о
обио логи
о ф
о ру
но й.</w>
ни ки</w>
нар комани
н ".</w>
мэ р.</w>
музыкаль но</w>
ме ра.</w>
матер "</w>
малайзи йского</w>
ма ",</w>
лья не
лондон ской</w>
ло м,</w>
лиде ров.</w>
либе р</w>
ли ра.</w>
ли н,</w>
лет ,</w>
ле обиологи
ла жи
лажи вание</w>
ла ".</w>
л лом</w>
крес ло</w>
крас ном</w>
коми к
ком п
колледж а</w>
кол у</w>
китайц ы.</w>
кита й
километ р</w>
килограм ма</w>
ка лав
к э</w>
исполни л</w>
институ том</w>
инди йский</w>
зо вут</w>
зна ком</w>
зна к</w>
запис ы
зали ва</w>
заверши вшийся</w>
за щи
жен ер
ж да
е ль,</w>
е )</w>
домаш нюю</w>
долла ров.</w>
ди л</w>
де ц</w>
граф ства</w>
граждани на</w>
говя жий</w>
гитар у</w>
га "</w>
г ре</w>
вышед ший</w>
ву д,</w>
возвыш ается</w>
во сточ
во с
в ",</w>
бобсле ем.</w>
бо льни
ба калав
аэропор тов</w>
архитектур ном</w>
арти ст
ар а</w>
ан ".</w>
американц ами</w>
американе ц.</w>
аль -А
аль-А ба
академиче ского</w>
а х.</w>
а пофео
а лся</w>
Я май
Эртегу н,</w>
Эртегу н"</w>
Шта т</w>
Ше ста
Ш от
Чири ков</w>
Хали м</w>
Фрэн сис</w>
Франси ско</w>
Фон тан</w>
Флин том</w>
Филип п</w>
Ф ри
Ф ре
Уол тер</w>
Уай т.</w>
У роженец</w>
Тур ци
Техас ском</w>
Тер рас
Т ро
Сы ка
Средне атлантический</w>
Со б
Си ти,</w>
Сент-Мэри ,</w>
Север ная</w>
Сарана к</w>
Сан-Хосе-дос- Пинхаис
С тив
С тали
Рахимо в.</w>
Райх ель</w>
Пуиг де
Пре й</w>
Пер во
Пе ве
Пау ло</w>
Парагва й.</w>
Оро сман</w>
Оллан д</w>
Об ь,</w>
О сти
Нью-Йор ка,</w>
Не гре</w>
Националь ной</w>
Мичиг ана,</w>
Мендриси о</w>
Мендриси о.</w>
Мартин ,</w>
М ена
Луф ки
Ли ди
Ла ура</w>
Л ю
Кристи ана</w>
Кре стом</w>
Краснодар ".</w>
Консерва тивная</w>
Кливлен де.</w>
Кар лес</w>
Кана де.</w>
Кана да.</w>
Итали я,</w>
Ирланди я.</w>
Ира ке,</w>
Инфан те,</w>
Иллиной се.</w>
Изми ре</w>
Идентифика тор</w>
Джеф ф</w>
Дербыши р</w>
Д жи
Гуру ли,</w>
Гре ци
Ге рой</w>
Гар та</w>
Гар рет
Верф т",</w>
Берн сом,</w>
Бельги и,</w>
Б ени
Афина х</w>
Аль бе
Александри и,</w>
Аддис-Абеб ская</w>
Ад нан</w>
А хиг
А С</w>
ä t</w>
yor k.</w>
wil ey</w>
w in</w>
w ell,</w>
veron a,</w>
v am</w>
v 6.</w>
us a
usa f</w>
unc an</w>
th er
th av
th ,</w>
stre et,</w>
st any
stany an</w>
sib al,</w>
sh or
se co</w>
sch e</w>
ry .</w>
rou le
re .</w>
r us</w>
qu e
pudding "</w>
poacea e.</w>
po wer</w>
pan u
nr -1</w>
ni x,</w>
motor s,</w>
mor g
mc lou
mclou gh
mclough lin</w>
matad or.</w>
mamif fer
mamiffer .</w>
mahaj an.</w>
m ac
lu f
luf thav
le ga</w>
k ent,</w>
ja zz</w>
j uli
j awad
j .
il ton</w>
ight ing</w>
ig .</w>
ho tel
gre en
gal ac
fyl de.</w>
fr an
flibberti g
f. c</w>
f icti
ella .</w>
e k,</w>
divisi on</w>
danc er,</w>
d uncan</w>
d .,</w>
crocier e</w>
co ur
clev eland</w>
chrysl er</w>
chievo verona</w>
chichar r
ch in
calci o,</w>
beno it</w>
ar ,</w>
an a
amsterdam sche</w>
alhamb ra</w>
ah r
94,80 24</w>
88 .</w>
6 57
5 07</w>
4- ступенчатая</w>
360. 29</w>
33 26
28 3326
2 ,</w>
194 1</w>
167, 94</w>
16, 6700000000003</w>
15 16,6700000000003</w>
125 ,8</w>
0-7 156-3648
0, 0068</w>
( пата
"Южно ураль
"Т о
"Откры тая</w>
"Остин ",</w>
"Ле докол
"Вис весварай
"Барсы ",</w>
"Баджжи "</w>
"Ах мет</w>
"Аполлон-8 ",</w>
"Аполло-8 ".</w>
"Ам кар
"Аль- За
"Аль- Ва
"Агра ",</w>
" Мо
" Манчестер
" Лумеззан
" infraer
ю сей
юсей н</w>
э р</w>
ще ст
щ ади
ш ени
ш ей
ч ную</w>
ци й</w>
цент р</w>
це в</w>
ц ерков
х о</w>
футболь ному</w>
футболи ст,</w>
фина льный</w>
ф рукто
ф а.</w>
ур се
управл ени
университет ,</w>
трансли рует</w>
то ма
теле м.</w>
те пи
тво ро
таки ми</w>
та ми
сто и
стиче ская</w>
ств енная</w>
средне размерный</w>
спортив ном</w>
соу сом</w>
соревнова лась</w>
со леные</w>
ска я)</w>
синтеза ,</w>
синте за</w>
си .</w>
сен ,</w>
сво ему</w>
са ".</w>
с- вермичелли,</w>
с ха
с жима
рок-музы кан
рок ер
род ву
ро лл,</w>
ро ка,</w>
рм о</w>
ри я.</w>
ри ци
ри с-вермичелли,</w>
реги он</w>
ре ка</w>
ре б
производи телем</w>
провин ци
принадле ж
при ду
помощ ью</w>
по шел</w>
площад ке</w>
пло щади
переда ч</w>
певц а.</w>
пе ш
па .</w>
оте ле</w>
от редакти
осу щест
округ е,</w>
но ко
нима л</w>
низ кой</w>
немец кий</w>
народ .</w>
награ д.</w>
морожен о
мо вый</w>
мно же
множе ство</w>
минист р</w>
мин да
мер а</w>
ме дов</w>
м м.</w>
люде й</w>
ль мовый</w>
ли стическое</w>
лан ки
л ка,</w>
коны ),</w>
конфлик та.</w>
кон кури
ко роле
ко ле
книг у</w>
клуб ный</w>
картош ка</w>
канцлер а</w>
каль мар
исполнитель ным</w>
институт ,</w>
имен но</w>
измер яет</w>
и ",</w>
здани й,</w>
замести телем</w>
зали ве,</w>
за .</w>
жен ой</w>
жарен ой</w>
ет ся,</w>
ена »</w>
е с
е ль
е г
дни х</w>
джазо вой</w>
д ь
д ы
государствен ном</w>
государ ства</w>
года х</w>
гер ,</w>
га ",</w>
г ар
во ды</w>
вин ег
верх ность</w>
в се-
в ис
бутерб род.</w>
британ ского</w>
бо м
бли жай
би тва</w>
би онико
базирующ аяся</w>
ба ши
ба б</w>
ассоции ровался</w>
аргентин ского</w>
ара бы.</w>
американц ами,</w>
алдор ман
аку стическую</w>
ад рес</w>
авгу стом</w>
а таку
а ко
а баб</w>
Язы ком,</w>
Я рмо</w>
Эпо х</w>
Шот ланди
Шари ф.</w>
Чири ков,</w>
Ч ез
Хе ссише</w>
Хан т"</w>
Х юсейн</w>
Х ох
Француз ский</w>
Флин том.</w>
Филлип с,</w>
Фар ер
Уттар-Пра деш</w>
Тар о</w>
Т .С.</w>
Стали н</w>
Созд анный</w>
С В</w>
Ридж вуд,</w>
Рейе с,</w>
Пуигде мон
Псал м.</w>
Пред седа
Пор товое</w>
Понтезона х,</w>
Поакэ ,</w>
По верхность</w>
Плехано вском</w>
Пануч и,</w>
Пантер з".</w>
Па леобиологи
Орего не,</w>
Олимпи к</w>
Ноттинг еме</w>
Не ме
Нава з</w>
НАС А,</w>
Монтевиде о.</w>
Миссисип и.</w>
Ми шки
Мемори ала</w>
Мари ет
Ма э,</w>
Ма медов</w>
Ма лай
Лондо на</w>
Линколь на.</w>
Ли вор
Л ью
Кру з"</w>
Кова ч,</w>
Кова к"</w>
Ко ды</w>
Кера ла.</w>
Ката ре</w>
Кай лан,</w>
К ур
К рокер
К енни
К Ц
К "</w>
Иу со</w>
Ирланди я</w>
Ира к.</w>
Ин ва
За хар</w>
Жарен ое</w>
Ев ро</w>
Дэви дом</w>
Ду урсе
Доусона .</w>
Джвайд ан,</w>
Ден ь"</w>
Дем пси
Дей тон
Де Сото</w>
Гэ ри</w>
Ген ри</w>
Владе льцем</w>
Ви лдер
Ви ктор</w>
Бо ри
Бо латин
Бартоло не</w>
Банде ю</w>
Баку -
Баку ",</w>
Ба таго
Ба кин
Ба кед</w>
Б лэкпу
Ашхаба де</w>
Ахмедаба д,</w>
Ахмадаба де,</w>
Аргентин е</w>
Антверпен ский</w>
Анахай м,</w>
Американ ским</w>
Амарль о,</w>
Альдри н
Алабам а,</w>
Ай ри</w>
Азербайдж ана.</w>
Адам с.</w>
Ад си
А вокадо</w>
«Ал пена»</w>
x "</w>
wee d.</w>
vit es
vites se</w>
vincent- st</w>
tr ance</w>
them a</w>
t s
squ ar
spacewatch .</w>
sp ell</w>
siom ay</w>
shor ta</w>
sc. d</w>
sc. d.</w>
romanc e.</w>
rol ando</w>
ridge woo
ribicof f,</w>
ri a</w>
palae onil.</w>
op eli
opeli k
op el</w>
moyin e,</w>
met al,</w>
met al
marys ville,</w>
legen ds.</w>
lasal le,</w>
k .
jers ey</w>
in c,</w>
i ata</w>
här tel</w>
hollo way</w>
h ap
gar d
gard ner</w>
gar age</w>
g o
g e.</w>
g aar
for t</w>
f enc
evil "</w>
ed win</w>
e aters.</w>
e as
dig weed.</w>
cre ek,</w>
commelini ds.</w>
cesen a.</w>
caterp ill
cand le</w>
boo gaar
blockbust er,</w>
blan co
blackpool ,</w>
battlefield "</w>
b a</w>
at t
aniti .</w>
alex andra</w>
al un
ai gh</w>
aeni r,</w>
admin .</w>
ac ho
abar ag</w>
a9 11</w>
882343 00000,0.</w>
74 6</w>
7 4-
74- 26
74-26 13
7 37
63 .</w>
5- 20
5 35
5 -11-
445 895
39 .</w>
36 r</w>
3 000</w>
3 ,</w>
288749 000000,0.</w>
2015-06- 27.</w>
200 5-11-
2 -
195 3</w>
18, 52
18 .</w>
16 8
158 0,
1580, 7</w>
14 0000,0</w>
11 2</w>
11 14
0-439-92550- 9.</w>
0,0 112</w>
0 1</w>
0 -3
0-3 74-2613
(футболист )</w>
(пата коны),</w>
( кондитер
"Ч ер
"Локомотив ",</w>
"Ин ста
"Зо лотая</w>
"Г у
"Висвесварай я".</w>
"Вашингто на"</w>
"В фл</w>
"В стреча</w>
"Бирминг е
"Б родву
"Аполлона -1
"Аполлон-1 1",</w>
"Аполло-1 1"</w>
"Аполло-1 1",</w>
"Альгамбра ",</w>
"Аль-Хор "</w>
"А б
"А .С.</w>
"visvesvaray a",</w>
"q abarag</w>
" фью
" Ру
" Вальтер</w>
" А</w>
" kids</w>
" caterpillar</w>
" 1634:</w>
ё р
южноафрикан цы</w>
южноафри канц
экспо на
э р
э -
ь ),</w>
щ ена</w>
шта б</w>
цент ра</w>
це фало
ц е</w>
ц е.</w>
художника ми,</w>
хле б</w>
хард кор
х реб
х двер
х ва
францу зы.</w>
фон да</w>
у м.</w>
турец ких</w>
транспорт ное</w>
трансли ровался</w>
тон н,</w>
тенни са.</w>
те х</w>
твердост и</w>
тами ль
старто вал</w>
ст мин
сред него</w>
спроектиров анный</w>
состо яни
соответ ствующим</w>
сокращен ное</w>
совет ником</w>
со ном</w>
смеж ные</w>
служ бой</w>
слад кую</w>
сконча вшегося</w>
си ома
северо- западу</w>
связ анная</w>
санти мет
санд ро</w>
руб леные</w>
рождествен ский</w>
ро ль</w>
рит ме</w>
реда ктор</w>
реали ти-
ре спубли
рат .</w>
рако ви
раз во
разво ра
развора чи
ра сио</w>
ра к
р д</w>
пу н
производ ство</w>
прожи ва
проек те</w>
про ду
принадлежа щ
предше ствует</w>
представителе й,</w>
пол ностью</w>
поверх ность</w>
по- англий
по-англий ски</w>
по м</w>
по л</w>
площад ку</w>
пис а
печат ной</w>
певиц а,</w>
п рас
основ ными</w>
осно вания</w>
ос на
овощ ей.</w>
ны м,</w>
ны ".</w>
но со
ни ком.</w>
националь ным</w>
на чи
на то
му н
мо ном</w>
мм с</w>
министер стве</w>
милли онов</w>
мат чи</w>
м -
ль шим</w>
лес сандро</w>
лап ки,</w>
л ".</w>
куриц а"</w>
кто в</w>
крип ье</w>
космодро ме</w>
ком ет
комет раж
кельвино в.</w>
картофе ль</w>
канад цем</w>
ка лай
к-испыта тель</w>
ис ке</w>
ин ,</w>
изготови л</w>
зве ль
з дорож
ж н",</w>
ери я</w>
ера рд</w>
до р</w>
до ктор</w>
диамет ре</w>
ден ь"</w>
дву хдвер
да т
да пеш
да м</w>
д ского</w>
гвар ди
гараж ной</w>
г ,</w>
выпеч енны
вы хо
вши м</w>
вторж ении</w>
все- син
возглавля ют</w>
вице- президента</w>
ви ж
в торой</w>
бывши е</w>
британ ский</w>
бо м</w>
белы х</w>
бе здорож
б иске</w>
асфаль та.</w>
ана н</w>
академи и</w>
автомоби ли.</w>
аб солю
Я ве,</w>
Юж ного</w>
Эл лингто
Эй нд
Шнайдер-Ам ман</w>
Ши л
Чика го</w>
Ци прас
Хан т,</w>
Хайнлей на.</w>
Х ле
Фри дри
Форт- Уор
Филиппи ны.</w>
Ф АС</w>
Тичи но,</w>
Тай ус"</w>
Таи т</w>
Су лей
Сти листическое</w>
Стамбу л</w>
Си мон
Сент- Мэри</w>
Сан дер
СПИД .</w>
С ла
С бор
Руле у</w>
Ру звель
Росси и</w>
Рок-музы кант</w>
Ро дольфо</w>
Ред ди.</w>
Ре да
Расиза де</w>
Преу биске</w>
Пре с
Пре ж
Пинха ис</w>
Паис а</w>
Па уэ
Основ ным</w>
Ольдендорф е,</w>
Об нару
О расио</w>
Мэ р</w>
Моск ве,</w>
Место нахождение</w>
Мендо се</w>
Мемори альный</w>
Ме хи
Мартине с.</w>
Мадри де</w>
Мадри да.</w>
М ер
Луфки н,</w>
Лондо на.</w>
Лок к</w>
Лей ден
Куяхо га,</w>
Курити ба</w>
Ке калай
Кар ролл,</w>
Канад а</w>
Канавера л.</w>
К ри
Испан цы</w>
Исп анский</w>
Инфан те</w>
Икбал »,</w>
Замбоанган ов</w>
Дугер ти</w>
Ди его</w>
Джакар та</w>
Дж ин
Дж ерард</w>
Ден зи
Демпси .</w>
Д ол
Д ан
Германи я.</w>
Ган г.</w>
Гаджи ев.</w>
Г рена
Висвесварай я</w>
Висай а
Вирджини я,</w>
Виргини я,</w>
Виргини и,</w>
Ве стмин
Валю той</w>
Валери й</w>
Буш ке
Бу ффало,</w>
Бу дапеш
Брюссе ле,</w>
Бот та</w>
Бионико ,</w>
Бельга ме.</w>
Бананам ане,</w>
Б ёр
Б лан
Б ен</w>
Афина х.</w>
Аф ара</w>
Асунсь он.</w>
Ар рос</w>
Ар ена".</w>
Антиохи и,</w>
Антверпен ским</w>
Ампа ра,</w>
Аляска ,</w>
Алькобенда с.</w>
Аддис-Абеб ской</w>
Аддис-Абе бе</w>
Аддис-Абе бе.</w>
А лессандро</w>
А К</w>
«А тлан
z z
wash ington,</w>
w e</w>
w al
vir tus</w>
vic ia,</w>
ve il.</w>
v ec
v ap
vap all
vapall i</w>
v 12,</w>
t c,</w>
sim o</w>
sar vapalli</w>
sar an
saran ac</w>
s. s.</w>
ro que</w>
ridgewoo d,</w>
quar ter.</w>
polonic a,</w>
pol .</w>
panu cc
panucc i</w>
os lar
oslar er</w>
or man</w>
ne y</w>
mu ch
much acho
monument "</w>
monocotyledon .</w>
mo ther
metapá n</w>
mas simo</w>
man ag
ma x</w>
m an.</w>
lyonnais .</w>
la f
laf ay
k iss
k ",</w>
jenn ings</w>
jawad an</w>
ic ation</w>
ho o
grass o.</w>
gorb ach,</w>
gen e</w>
gazette s</w>
ganymed ,</w>
g oslarer</w>
footb all</w>
em .</w>
ed a</w>
eas t</w>
e- tr
e ald
eald orman</w>
e ".</w>
e ",</w>
daniel .</w>
cre we</w>
corpor ation</w>
cl ass
class ic
challin or</w>
c enter
bo tt
be b
beb i</w>
b -
avenu e.</w>
as "</w>
an n</w>
aktieselsk ab</w>
ad am
accr ington.</w>
978-1-4165-4253- 7.</w>
77 0
770 16
639 1</w>
6 6391</w>
570592 26.</w>
5 000</w>
39 90
36 r.</w>
34 .</w>
3 77016
2006 -12
2 4,
196 4</w>
17994200 0,0.</w>
17 l</w>
17 00</w>
14 -го</w>
139705 000,0.</w>
12 .
09 l</w>
0,0 2</w>
0,0 155</w>
- 6.</w>
(свеже выпеченны
( язык</w>
( морков
( Испани
( journal
"фью жн",</w>
"Юстици я"</w>
"Ч е
"Уай т"</w>
"Сумер ки",</w>
"С ерии</w>
"Палермо "</w>
"От крипье</w>
"Ко лин
"Ка либер</w>
"Гринви лле
"Геттисбург "</w>
"Ви кинг</w>
"В ы
"Би-би-си ",</w>
"Барсы "</w>
"Барсы ".</w>
"Баймак с",</w>
"Ар р
"Аполлон-1 4".</w>
"Аполло-8 "</w>
"Аль-Хор ",</w>
"alhambra "</w>
" Хьюст
" Фор
" Росто
" Монтевиде
" Жареная</w>
" azal</w>
" asam</w>
" agrimiacao</w>
" afc</w>
язы ка
я вшаяся</w>
этниче ским</w>
ья ц
ш колу</w>
чер ную</w>
ч ания</w>
хле б,</w>
хип-хоп- музыка,</w>
хи п
х ам
футболь ным</w>
физи ки.</w>
ф оном</w>
учре жд
универса л.</w>
у ру
уру гва
турец кий</w>
ту ри
транспорт ные</w>
террито рии</w>
тель ное</w>
тель но,</w>
тель ная</w>
те м.</w>
тапио ка,</w>
т сб
т реди
т ные</w>
т ном</w>
т ной</w>
суд ь
ступен чатый</w>
сту пи
столич ного</w>
столиц ы.</w>
столиц ей,</w>
сто явшаяся</w>
ство м,</w>
ст и</w>
ст ене,</w>
спроектиро вали</w>
спор та</w>
сотруд ни
сосе дних</w>
созда телем</w>
содержа тся</w>
ски ,</w>
систе мой</w>
синтеза .</w>
сен о
север е</w>
се ф</w>
сделан ный</w>
связ и</w>
самолет а</w>
самолет ,</w>
с ла
рол льную</w>
рок-музы ку,</w>
ров ый</w>
ри и.</w>
рекорд ".</w>
ре ктор</w>
разговор ных</w>
раз но
раз ви
разви ти
рабо ты</w>
рабо т</w>
р э
прямолиней ный</w>
продолж ение</w>
пода ют</w>
повли ял</w>
пла стин
пило та.</w>
печат ном</w>
пере дний</w>
пер бер
па ,</w>
п пербер
оф ис
осно ва
ор би
опера ций</w>
ональ ным</w>
округ ,</w>
окон чания</w>
окку пи
окку па
о боро
ны не</w>
не сен
насчиты ва
награ дил</w>
на рода.</w>
музы ке,</w>
материн ской</w>
мас ло,</w>
ман .</w>
м я</w>
ль ных</w>
куби ческий</w>
кремесинг х
кон курирует</w>
комиксо в,</w>
команд у,</w>
колумби йская</w>
ко ви
км ена
кмена ба
клубо в</w>
кле мати
километ р
картош ка,</w>
канад цы</w>
ка в
кав ка
итальян ца</w>
ингредиент .</w>
зер о</w>
з о</w>
жарен ые</w>
ж ая</w>
ес ли</w>
ен ти
емо й</w>
е ц,</w>
дюймо в.</w>
до ме</w>
дисциплин ы</w>
диско -музы
ди а
диа гно
дей стви
да той</w>
грече ской</w>
грече ский.</w>
грани тном</w>
государ ство,</w>
горя чи
город ка,</w>
г рен
выпу ск
вши е</w>
воз ве
виж ение</w>
в ке</w>
бывши х</w>
блюзо вом</w>
би лен</w>
бе лом</w>
батюш ка</w>
б у</w>
астронав тов</w>
ар "</w>
академи ей</w>
ад ре
ад мира
авиа базе</w>
а стерои
Я ном</w>
Ю дин,</w>
Эфк сено
Э к
Шри-Лан ки,</w>
Шивер с"</w>
Ше ст
Ше л
Шарлот те
Чи нато
Ча ллино
Ципрас .</w>
Хяр тель,</w>
Хопкин са</w>
Хек кинг
Хар бор
Флин т.</w>
Финлянди я.</w>
Финлянди и,</w>
Филиппин ский</w>
Фарер ских</w>
Ф рей
Уилья мом</w>
Текст ы".</w>
Сулей ман</w>
Стелленда ме</w>
Соу за</w>
Сообще ства</w>
Скале с,</w>
Са тем.</w>
Са ди
Роттерда ме.</w>
Родже ром</w>
Р ене</w>
Р И
Пэй н</w>
Премьер- министр</w>
Преж нее</w>
Пред ыдущи
Прабхуку мар</w>
Плех анского</w>
Перм ь",</w>
Пер вая</w>
Парти я</w>
П ьяц
П ир
П СВ</w>
Обам а,</w>
О зеро</w>
Нью-Йор к"</w>
Нийме ген
Нийме г
Нидерландо в.</w>
Най тсб
Н В
НВ К</w>
Му ниципа
Моно кар
Молдо ф
Мол да
Мих етти
Ми чу
Ми ни
Ми ге
Мендо са.</w>
Международ ной</w>
Мариет та,</w>
Мар в</w>
Макк ен
Майк л</w>
Мади н,</w>
Ма ги
Лос-Анджеле са</w>
Линколь н.</w>
Ли мон</w>
Куттиккатто ор</w>
Кумберлен д,</w>
Ку ппербер
Коне хо</w>
Клу бы</w>
Кита е.</w>
Кент ,</w>
Ка тови
Й о
Испани я</w>
Инфан те.</w>
Ингреди ент
Иколо- э-
И г
Зах ра,</w>
За па
Жан -
Е КА</w>
Ди лли
Джордж тау
Джон сон.</w>
Джон ни</w>
Джи лл</w>
Дербыши р,</w>
Да ль</w>
Д ва</w>
Грас со</w>
Глав ный</w>
Влади кавка
Вирджини я.</w>
Верф т</w>
Вален ское</w>
ВИЧ .</w>
Больш ая</w>
Би-би-си ,</w>
Бекон-бутерб род,</w>
Бе би</w>
Баку "</w>
Бай ден.</w>
Ба ду
Б ран
Б рай
Арави йское</w>
Анто ном</w>
Анд ра,</w>
Анахай м</w>
Аль-Хо р</w>
Аль- Ор
Аль ма-матер</w>
Аль -Ан
Александ ром</w>
Ад рес</w>
Агу стина</w>
Австро- Венгри
Абилен ,</w>
А стерик
А ФК</w>
«Атлан тик</w>
«Аль -
y ",</w>
x-1 .</w>
wolfsbur g</w>
wheel er,</w>
w in
w ald
wald ,</w>
vel od
velod rom
v er</w>
v ance</w>
universit ät</w>
tl x.</w>
texan s.</w>
sto ger</w>
st r
st ;</w>
sar ni
sarni e,</w>
s. s.
s s
ro gh
rogh eda</w>
richar d</w>
qu att
quatt ro</w>
q atar</w>
priestle y,</w>
popu lou
po t
pagn ell,</w>
p t
on om
onom ic</w>
on e.</w>
neav e,</w>
nation .</w>
n e</w>
mil an.</w>
m .s.</w>
lydi a,</w>
lak e</w>
klu wer.</w>
kiss ing</w>
k ey
juli a</w>
ic ao</w>
i r
hel wald,</w>
hel i
ha ;</w>
h u</w>
friedrichshaf en.</w>
fre der
freder ick</w>
explosi on,</w>
et helwald,</w>
en z
ec onomic</w>
e gh
dr ago</w>
dolphin s</w>
de v
dal es.</w>
d s
d rogheda</w>
d ent,</w>
cr af
craf ts
coupé ,</w>
coup e,</w>
compan y,</w>
cand le.</w>
busines s</w>
batcho y,</w>
bann er.</w>
bann er
ba y</w>
b ighting</w>
b ay
arl ington</w>
ar in
applet on.</w>
apgp ac.</w>
ani a.</w>
an e.</w>
am in
alask a</w>
alabam a,</w>
al d</w>
al bert</w>
ai r</w>
afrobe at</w>
ach .</w>
ac e,</w>
abh .</w>
a9 19</w>
a u</w>
9 0</w>
89 4</w>
88 0
880 57
88 -
870008 23
83 000,0</w>
8, 34</w>
8 ,0
52 4,
416136 000000,0.</w>
4 000</w>
4 -1
36 .</w>
35 00.</w>
33 16
3316 83000,0</w>
32 -2
32-2 4
3- м</w>
299196 00000,0.</w>
28 r.</w>
2777 ,0</w>
2014- м.</w>
198 0-0
1980-0 4-
195 2</w>
17 32-24
1114 84</w>
10030 5,0</w>
0-670-03380- 4.</w>
-музы кан
(свежевыпеченны м)</w>
(морков ь),</w>
(Великобритани я).</w>
( ранее</w>
( миллимет
"гиги ена"</w>
"Чикаго ".</w>
"Че лси
"Хьюст он"</w>
"Ф редери
"Сам треди
"Пена рол",</w>
"О ранж
"На лаживание</w>
"Математи ка",</w>
"К ей
"Ин тер
"Дру м</w>
"Бар ис
"Аполло-1 4".</w>
"Амат риче
"Александ р</w>
"Аени р"</w>
" о
" Эндрю
" alvis</w>
" addicti
" a
" ;</w>
" ).</w>
" ),</w>
юмас ский</w>
эспань ол
экипаж а.</w>
э н</w>
шей ха</w>
ш ри-
шри- ланки
ш колы</w>
ш ,</w>
чесно к</w>
че скую</w>
ч "</w>
церков ь</w>
художни ка</w>
хип хо
ха льная</w>
ха ку
футболи стом</w>
француз ский.</w>
фор тепи
филиппин ском</w>
учрежд ена</w>
учащих ся.</w>
университе том.</w>
ума й</w>
уда лен</w>
у ю
у т</w>
у г
уг ле
турец кой</w>
трансмисси я</w>
трансмисси ю</w>
трансли ровал</w>
традицион ным</w>
тон н</w>
ти ру
тен сио</w>
теле сери
те ра
те ло</w>
су б
стер .</w>
ст он
спортив ный</w>
содержа щий</w>
собрани ем</w>
со бра
следующи ми</w>
се кретар
самолет ы</w>
с со
руковод ящий</w>
роди л
ро вала</w>
разработ анный</w>
пуско вой</w>
пун кт</w>
публи ка
премьер- лиге</w>
предлага ет</w>
полно размерный</w>
поли тический</w>
по ста
площад ки</w>
пло т
пла ва
пи ра
перип ети
пер цы.</w>
певц ом,</w>
парла мента</w>
опубликов ано</w>
оно в.</w>
ол к</w>
окруж ное</w>
окончи ла</w>
око ма
окома т</w>
озер а</w>
образовани ю,</w>
обнаружен о</w>
о лон
олон че
ны й,</w>
ни гне
не бесное</w>
награ ду</w>
на ло
мы ш
муще ство
музыкан том.</w>
монархо м.</w>
мин ут</w>
мер ин
менедже ром.</w>
менедж ера</w>
мемори а
мала йцы</w>
люде й,</w>
льдер ей</w>
ло вой</w>
ланд ский</w>
ла ка,</w>
кро ме
крас ная</w>
котора я,</w>
космиче ское</w>
корот кометраж
конструктор ским</w>
конкури ровать</w>
колледж ,</w>
колес ной</w>
канад цем,</w>
кальмар ы,</w>
ка жд
кажд ый</w>
к ман
й н,</w>
итальян цы.</w>
итальян цы,</w>
используемы х</w>
исполни телем</w>
индонези йском</w>
ин женерный</w>
им бер
из уч
звез д</w>
заслуги "</w>
за ло
за ,</w>
за "</w>
живут ,</w>
ер ,</w>
емо е</w>
доктор ская</w>
доба ви
ди о</w>
ди к
дев из</w>
да ва
д ве</w>
губча тым</w>
гу ла</w>
гриб ной</w>
государ ства.</w>
говяди на</w>
гиги ен
вы ходи
все-син кроме
возгла ви
во лон
во енно-мор
ви де</w>
веща тель
ветке ",</w>
вет ке,</w>
в ский</w>
в ный</w>
в ни
бутерб рода.</w>
бу ль
больш ин
бер и</w>
бай джи
атаку ющий</w>
архитекто рами</w>
ано -
англий ского</w>
американ скую</w>
аль-Аба ди</w>
Яку б</w>
Яко ба</w>
Ю сеф</w>
Эфксено уполи
Эфиопи я.</w>
Эфиопи я,</w>
Эрнанде с,</w>
Эпо хальная</w>
Э ли
Шел дон</w>
Шарлот т,</w>
Ш ти
Хох не.</w>
Хор тенсио</w>
Хельсин ки.</w>
Хеккинг .</w>
Хам ад
Х ади
Х .</w>
Футболи ст,</w>
Фре й</w>
Франк лин,</w>
Уругва я.</w>
Уругва е.</w>
У джанг</w>
Ту рец
Ту кман
Тиро ль,</w>
Ти п</w>
Техас ский</w>
Тей ше
Т хаку
Суматр ы,</w>
Сти вом</w>
Сент-Винсен т</w>
Се льдерей</w>
Свет лый</w>
С К</w>
Руссе ля</w>
Роттерда ме</w>
Ро к</w>
Ро дом</w>
Риме .</w>
Республи ки</w>
Пьяц ц
Прабхукумар ,</w>
После днее</w>
Поаце я,</w>
По лони
Пер те,</w>
Пеньет "</w>
Певе ц</w>
Паркер ,</w>
Парагва е.</w>
Па т
Обасандж о.</w>
О ливковое</w>
Не которые</w>
Му лату</w>
Москва "</w>
Монокар ском</w>
Молодеж ная</w>
Ми ша</w>
Менде лем.</w>
Менде лем,</w>
Ме лака,</w>
Мар с
МакЛоу лин</w>
Мак на
Магда лины</w>
Ма йский</w>
М А
Луф тха
Лу на".</w>
Лин н,</w>
Лимери к,</w>
Лейборист ская</w>
Кот те.</w>
Копенгаген е</w>
Кова ком</w>
Ко лин</w>
Кембридж е.</w>
Кекалай н
Ке зе
Каталони и</w>
Кар л</w>
Капитоли и</w>
Канза с</w>
Ка лла.</w>
Ирланди и.</w>
Иохан нис</w>
Ингреди ент</w>
Ило ц
Зитарро са,</w>
За тем</w>
З о
Жан- Мишель</w>
Елен ы,</w>
Дубли не.</w>
Ди митра</w>
Джейм са</w>
Дж ано-
Де сер
Грена де</w>
Гражд ан
Гор дон</w>
Г ет
Вольф ман
Ве б
Васке с</w>
Бёр н
Борман ом.</w>
Бирминг ема</w>
Батаго р</w>
Бара ком</w>
Бананам ан</w>
Ба ффало,</w>
Б рэн
Атлан те.</w>
Атлан та.</w>
Аса й
Аппле тон</w>
Антвер пена,</w>
Анка ра,</w>
Андер с.</w>
Амат риче
Альфре дом</w>
Альдрин -младши
Аль-А мин</w>
Алан ом</w>
Адела ид
Аддис-Абе ба</w>
Абубака ра,</w>
А билен</w>
А РИ
é ri
é -
z 195
ya ho
yaho ga</w>
y rus</w>
wy n</w>
wilder ,</w>
wickremesingh e.</w>
whit man</w>
visvesvaray a</w>
veinti g
v a;</w>
univers al</w>
um .</w>
udi os</w>
ti s</w>
teow ,</w>
sv ,</w>
su are
stey r</w>
st udios</w>
st ation</w>
squar e,</w>
sport s</w>
spacepor t
ser vic
rom â
rock ,</w>
rid ge,</w>
r q
r al</w>
po r</w>
p re
p ic
ol ,</w>
nas a.</w>
n z195
mer ing
marys vil
man u
lufthav n</w>
lon g,</w>
ligh t</w>
kn ight,</w>
k ab
it h
identi f
identif ication</w>
ho u
ho mer</w>
heli cop
hap ut
h ein
hein le
h al</w>
geor ge</w>
gen o
g uner</w>
g et
friedrichshaf en,</w>
fonse ca</w>
flibbertigi bb
flibbertigi b
flibbertigib bet</w>
f k"</w>
est egh
ers "</w>
er b
en g
eli hu</w>
dr .</w>
dod ge.</w>
dis ney</w>
d. c</w>
d .c.</w>
cu yahoga</w>
count y.</w>
cop en</w>
confer enc
col wyn</w>
co unc
co un
candomb e</w>
c. d.</w>
c yrus</w>
c roma,</w>
c as
build ing</w>
bersatu ,</w>
be ach.</w>
batcho y.</w>
ban ner</w>
ban k</w>
b- uni
b ru
aurak l
atlan ta</w>
at k</w>
ast éri
arrabbi at
arm in</w>
arapri ven
apt é-
alun a</w>
al- j
agn es</w>
a90 4</w>
a 1.</w>
@ @</w>
90 5</w>
9 47
947 -3
947-3 0
88- 26
88-26 32
8,0 5</w>
8, 65</w>
772943 0000
77 ,
6, 2</w>
6 5-
65- 214
56 947-30
524, 5</w>
5 l</w>
5 97
5 57
5 5,4</w>
497 ,0</w>
48 6,2</w>
47 6</w>
36 8,65</w>
34 8</w>
32 r</w>
3- 557
3 360.
3 1.</w>
26 9
254989570 .
25 .</w>
24 ,0.</w>
236 8,05</w>
197 8</w>
190 9</w>
190 7-0
187 3</w>
17 8,0</w>
15 88-2632
15 33
147 3-557
140 ,8</w>
14 21,2</w>
13 0
129 9</w>
11 47
1- 56947-30
1 ,0</w>
09 65-214
0567-7 920
03 .</w>
0002-93 27.</w>
0-439-17685- 9.</w>
0,0 348</w>
0 5l</w>
0 2</w>
0 269
-3 .3528</w>
( жителей</w>
"Эндрю с"</w>
"Ш абаб</w>
"Чикаго ",</w>
"Т а
"Си ома
"С ка</w>
"Ре ал</w>
"П ри
"Лиди я"</w>
"Л окомат</w>
"Кей п</w>
"Индиана "</w>
"Д вижение</w>
"Д аллас
"Г ра
"Барис ан</w>
"Баймак с".</w>
"Ба ксо
"Арр ту</w>
"Ан тио
"Аматриче "</w>
"Ал ания</w>
"А дам</w>
"А бар
"infraer o
" Т</w>
" Нью-Йорк"</w>
" И
" star</w>
" calcio</w>
" associatione</w>
я пон
ющи м</w>
ющи е</w>
юго-восто ке.</w>
электро гитару</w>
эле ментом</w>
э тическая</w>
э й.</w>
ь е
ша ло
чис ли
чи вает</w>
чемпио ны.</w>
че ское</w>
цион ная</w>
художни к.</w>
художни к,</w>
хаджи "</w>
ха "</w>
х у</w>
х ани
федера цией</w>
фа к
уровне "</w>
умер .</w>
угле во
у н.</w>
у л
у "</w>
то й.</w>
тиче скую</w>
ти ку</w>
техниче ского</w>
те ром</w>
та )</w>
т ру
т ром
студен тов,</w>
сточ ке</w>
стон бери</w>
сти лем</w>
стер лин
стерлин го
стви е</w>
ствен но.</w>
ства ".</w>
стади о</w>
ст ы
сраж ений</w>
сра вни
спо соб
спла вный</w>
спла в.</w>
сопут ствующие</w>
соответ ственно.</w>
созд ан
собран ная</w>
сметан е</w>
см он
служ бу</w>
следу ет</w>
следо ва
сле д</w>
слад кий</w>
ско- музыка"</w>
сиро те</w>
си ни
се л
связан ы</w>
свини ны,</w>
само ле
рупи я</w>
рол ".</w>
рок- группы</w>
род ная</w>
ро ма</w>
ро ".</w>
реч ь</w>
ре та.</w>
располож енным</w>
ракови ны.</w>
разработ ана</w>
разговор ным</w>
разворачи вают</w>
работа ть</w>
ра кета</w>
про тив</w>
при зы
предо стави
пре де
поп-музы ку.</w>
подпис ал</w>
под лод
по п.</w>
печат ля
пери о
перио дом</w>
переда ч
пере до
передо вого</w>
пере дает</w>
парламент ской</w>
отстав ку,</w>
отно ш
осущест вляется</w>
остров а</w>
основ ных</w>
ор ванный</w>
оп ыта
обнаруж енный</w>
облож ке</w>
об ъем</w>
о форми
о тель</w>
о ливково
оливково го</w>
о й,</w>
но- науч
но й,</w>
низ он</w>
ни к.</w>
неме ц.</w>
не зависимо
нача лся</w>
нау к,</w>
насе ленный</w>
народ а</w>
найден ной</w>
найд енных</w>
наз в
на я.</w>
на силь
на правл
н .
музыкаль ных</w>
музы кой</w>
моде льных</w>
моби ль
мобиль ности</w>
мо ст
минист ром</w>
ми и</w>
манд о</w>
ма дри
м .,</w>
лум бу
лли ".</w>
лл -
лин е</w>
ла стонбери</w>
ла ",</w>
кух ни,</w>
кух н
куби ческих</w>
ку рон
ку "</w>
короб ку</w>
конструктор ском</w>
кон сер
колес ную</w>
колба са</w>
ко й.</w>
км ),</w>
ки й.</w>
к то</w>
к ра</w>
йц о</w>
итальян скую</w>
инструмен тали
инстру мент
индонези йская</w>
инди йская</w>
инг ,</w>
ин ское</w>
ин .</w>
имен ем</w>
изуч ению</w>
изготовл енные</w>
извест но</w>
зы ,</w>
зи ция</w>
зе я.</w>
зам ок
жи з
жи ву
ев ро,</w>
е ц.</w>
ду ар
др ы</w>
доне ,</w>
добави ть</w>
дискоте ку</w>
диамет ре,</w>
ди н
ди бен</w>
дебюти рова
даль него</w>
да ",</w>
д зо
гу н
голланд ские</w>
году )</w>
год .</w>
говяди н
говор ящи
глав ным</w>
гим н.</w>
гар низон</w>
га ".</w>
г ю
г воз
выш ла</w>
высо та</w>
выпуска лась</w>
вы числи
вш ую</w>
входящ ей</w>
ви ана
ве той</w>
валю ты.</w>
в печатля
бы вшей</w>
би н</w>
бездорож ье</w>
бе лка,</w>
баскетбо льной</w>
банано вый</w>
ба раб
аспиран тов,</w>
ара хи
ара го
апре ле</w>
ап сис</w>
ап ин
андар тные</w>
ан дибен</w>
ам .</w>
аль ма-матер
ад министра
агент ство</w>
а г
Я йцо</w>
Я ве.</w>
Эмануэ ле</w>
Э разму
Э дуар
Штаты ),</w>
Чума ко
Чар ль
Хуссей н</w>
Хорри ган
Хамад .</w>
Фридри х
Фламанд ский</w>
Фер гю
Тран с
Текст ы",</w>
Теджан о.</w>
Те кан
Такадду м
Таи д</w>
Т ан.</w>
Сыка шире,</w>
Стамбу л.</w>
Ста тен</w>
Ст эн</w>
Среднеатлантиче ском</w>
Соб яни
Сити "</w>
Сил ва.</w>
Сер би
Сент-Винсен та-
Семен ари
Самми т</w>
С мет
Ру ландском</w>
Росто ке.</w>
Росси и,</w>
Рой с.</w>
Ри ме</w>
Реги ональным</w>
Радбу дский</w>
Пу ги
Произ вод
Поль ская</w>
Полони я</w>
По лом</w>
Пи к
ПЕ Д
ПЕД АС
От ман</w>
Основ ной</w>
Орего не.</w>
Орего н,</w>
Опера ционная</w>
Ноттинг е
Никола й</w>
Нидерлан ды</w>
Националь ность</w>
Му ссо
Му н
Мо й
Менде лем</w>
Ме ль
Малайзи я</w>
Макна и
Майк ла</w>
Мадрид-Барайас ",</w>
Мадри д,</w>
М ери
Луан да,</w>
Лар рета.</w>
Л ат
Кур курон
Кумберлен д</w>
Ку ба
Коу пер</w>
Кот те</w>
Ко лумбу
Ко л
Кита я.</w>
Каталони и.</w>
Кан дом
Ка си
Ка зан
Итальян ский</w>
Игоро т</w>
Зо рат.</w>
Зитарро са.</w>
З араго
Елиза ветой</w>
Европе йское</w>
Дуб лине</w>
Дж ай
Ден ь</w>
Дейтон ские</w>
Дей р,</w>
Де смон
Де б
Гу не
Город ской</w>
Гонкон га.</w>
Глен-Ридж е,</w>
Глав ные</w>
Гет е
Георгиади с.</w>
Ган г</w>
Га бор</w>
Г ей
Ви кто
Венгри я.</w>
Валь тера</w>
Валь с.</w>
Ва ж
ВК 8</w>
Бу джанг</w>
Брук- Тейлор</w>
Бран доне,</w>
Бразили и</w>
Бор не
Бирминг ем</w>
Берн сом</w>
Бени то</w>
Белы х,</w>
Бе ля
Баэй д,</w>
Бату ми.</w>
Бар ри</w>
Б ру
Ар мандо</w>
Ар дмор
Ан андибен</w>
Амстерда ма,</w>
Алек са</w>
А. М.</w>
А тику</w>
ó n</w>
«Аль- Такаддум
xiao long</w>
wiley-black well</w>
wiley-black well,</w>
wal t</w>
w ell
veintig ation</w>
v ei
up .</w>
un d</w>
u el
uel los</w>
twil ight</w>
townshi p</w>
tor ino</w>
titan s.</w>
them a.</w>
thak ur
technolog y,</w>
te c</w>
tart ,</w>
t or</w>
t )</w>
sv e</w>
st ry</w>
st and
stand ard</w>
solanal es</w>
sol dev
soldev ana
soldevana hal
soldevanahal li,</w>
se at</w>
se ar
sand s</w>
s v.</w>
s b
ro und</w>
re sear
ra p</w>
quar ti
poal es</w>
po p.</w>
pic ture
ped as"</w>
par ac
parac uellos</w>
pal l
pall ac
pallac an
pallacan est
pallacanest ro</w>
p ick
pick ard</w>
p ap
pap erb
on -
on- du
on-du ch
o le
negre .</w>
n u</w>
mother well</w>
mo tion</w>
mi ch
metapá n,</w>
mather ic
lum enz
l air
l ".</w>
k il
ith ac
isi s</w>
is is.</w>
internation al
ii ",</w>
i stry</w>
hoo k</w>
her ald</w>
he ar
hear st</w>
he ad</w>
ham ,</w>
h ay
hay s</w>
fr ance</w>
fo x</w>
fab er</w>
f igh
f al
ex amin
e y,</w>
e m</w>
e all
dyk es,</w>
des mon
d ent
counc il.</w>
co ben
coben d
ch ap
cesen a,</w>
cent ral</w>
cent er</w>
caterpill ar,</w>
cast le</w>
cas ey</w>
californi a,</w>
c eall
c e,</w>
burn s</w>
bur g</w>
blv d.,</w>
blanco )</w>
berlin .</w>
b-uni que</w>
aur on,</w>
arn h
apté- te,</w>
amatrician a.</w>
am ,</w>
al cobend
ahr i</w>
ag e.</w>
af b"</w>
ad ol
ac cord
a9 00</w>
a ethelwald,</w>
992, 6</w>
978 -0
978-0 -1
978-0-1 5-20
978-0-15-20 4
978-0-15-204 77
978-0-15-20477 0-
896468 63.</w>
88 00
8- 28
7-0 3-0
600407 14</w>
6, 65</w>
6 57</w>
6 10
6 1
61 196
5, 6</w>
5 8-28
47 29
4729 0</w>
464517 90
4, 1</w>
4 4</w>
399 2,
352497 000000,0.</w>
3, 5</w>
3 36
288749 000000,0</w>
27 44
254989570. 60815</w>
2014- м</w>
200 2</w>
194 8</w>
185 7-03-0
185 5</w>
170 23</w>
15 58-28
129 6,65</w>
110 4,1</w>
0-7156-3648 -0.</w>
0 1.</w>
(кондитер ская)</w>
(journal )</w>
' ah
"Ювент у
"Фор три
"Туркменистан "</w>
"Туркменистан ",</w>
"Ру бин</w>
"Ме йсон"</w>
"Ма й
"Ледокол "</w>
"Корити ба".</w>
"Инста грам
"Ди ско-музыка"</w>
"Детрой т"</w>
"Гринвилле ",</w>
"Гринвилл "</w>
"Гринвилл ",</w>
"Г виана
"Ванденбер г
"Баксо "</w>
"Б у
"Ари он"</w>
"Альбукер ки",</w>
"АИДАлу на"</w>
"visvesvaray a".</w>
" Яйцо</w>
" Валенси
" ska</w>
" glastonbury</w>
" cooki
" alderne
я :</w>
эн ь</w>
эксплуатиру емая</w>
ь е.</w>
ы ).</w>
черни ла</w>
челове к",</w>
че шире,</w>
цилинд ров,</w>
ц а.</w>
художе ственный</w>
х ано</w>
фло т</w>
фин ны.</w>
фе сси
управля е
университе тов.</w>
тром бо
трансмисси ей,</w>
транс -музы
тон н.</w>
то ф
то вую</w>
теля ми</w>
тель ни
те х
те с
т р
сха ф
сустава ми</w>
ступи ла</w>
строи тель
стер ства</w>
ств .</w>
специфи чен</w>
сокращ ена</w>
собрани е,</w>
со на</w>
серва то
сезоне-201 4.</w>
северо-запа де.</w>
сво ение</w>
сво бо
свобо ду
сан дер</w>
самми т</w>
са хар
са ка</w>
са дь
с ского</w>
с пу
рок-музы ка</w>
род ные</w>
рици анского</w>
рекорд ные</w>
ре цеп
расположен ное</w>
рако вин
раз вер
ра е
путеше ствие</w>
психодели ческую</w>
проспе к
прозви щ
про стран
представи тель</w>
предоста влен</w>
последо вали</w>
пос лом</w>
поп- музыка.</w>
полуостро ва.</w>
подпис ался</w>
подпис ав
поверхност ный</w>
по ми
пла стина</w>
перитони та</w>
пеньет ",</w>
пен бург
пе л
парламен та.</w>
париж ским</w>
па три
п ени
оформи л</w>
открыва тель</w>
осно ванием</w>
организа цию</w>
операцион ную</w>
обо роны</w>
о гаар
о вском</w>
о в,</w>
но чная</w>
неработа ющий</w>
нача вший</w>
наход ясь</w>
называ лся</w>
на че</w>
н. э.</w>
мрамор е</w>
морожено е,</w>
мор е</w>
молодеж ный</w>
моде ль</w>
мо три
минут ы</w>
минда ля,</w>
мин даль</w>
металл ",</w>
мет ис
мер ение</w>
мемори ал</w>
ме ча
малай ского</w>
мала зи
май ор</w>
м м)</w>
лю ди.</w>
льяне ц</w>
ли сточке</w>
летчиком-испыта телем,</w>
летчика-испыта теля</w>
ле с.</w>
ле жит</w>
лан а
ла мент</w>
л ся.</w>
кузо ва</w>
компани я,</w>
комиксо в)</w>
коман де</w>
колле ге</w>
кла виат
квадрат ного</w>
капита л</w>
к ши
к с</w>
йц ами.</w>
й скому</w>
й -
ингредиен та</w>
ин тер
им н</w>
и наче</w>
знач ение</w>
зи я</w>
загород ная</w>
заверши лось</w>
за дней</w>
ж ем</w>
ет ти</w>
енны ми</w>
е л</w>
дюймо в</w>
дочер ней</w>
доступ на</w>
долж ен</w>
до н"</w>
до в,</w>
дисциплин е</w>
дисципли ной</w>
ди ночная</w>
десер тного</w>
десер та,</w>
дер жи
департа мент</w>
демокра тический</w>
да- Барайа
да ми</w>
д няя</w>
гран тов.</w>
государствен ное</w>
город ке,</w>
горо де,</w>
горо да,</w>
ги е</w>
гвоз ди
гварде йской</w>
все-синкроме ш
впечатля ющей</w>
воева вшей</w>
води т</w>
во про
вещатель ном</w>
ве ги
в след</w>
бю ро"</w>
бх анг
бутерб род</w>
бронзо вого</w>
брон зы.</w>
бревиат ура</w>
боро лись</w>
бориген ы</w>
бакалав ра</w>
ба с.</w>
ба зой</w>
б ур
б ный</w>
ат и</w>
архитекто ра</w>
ан о.</w>
ан гра
ан ву
актив но</w>
аго "</w>
агент ством</w>
автомоби ль,</w>
а вока
Яку б.</w>
Эндрю с</w>
Эмануэ ле.</w>
Эли ху</w>
Эйнд хов
Шил линг
Ш у
Христианско- демократический</w>
Хорри ган</w>
Халиско ,</w>
Хади джа</w>
Футбо льный</w>
Фридрих схаф
Фи ше
Ф ью
Ф К.</w>
Ф АС
Уругва й</w>
Тринида да</w>
Тринида д</w>
Тиро ль.</w>
Тес дом.</w>
Тей ш
Там а,</w>
Сы чешире,</w>
Суаре с"</w>
Стив ен
Созда тель</w>
Со лана
Скот т.</w>
Сити »</w>
Семен овском</w>
Се аг
Сан- Марко
Са тем</w>
Са тем,</w>
С мотри
С вя
Родже р</w>
Раши дом</w>
Рах мана</w>
Располож ение</w>
Ран да
Пуигдемон т</w>
Пу й
Президен том</w>
Пра ви
Пос ле</w>
Порт- Артур
Польш и,</w>
Пог сон</w>
Пог сон,</w>
Поакэ .</w>
По п-музы
Пла сту
Пери апсис</w>
Перво открывателем</w>
Пе сака</w>
Парагва е</w>
Парагва е,</w>
Пар ламент</w>
Пар ке</w>
Палле сен.</w>
Па пенбург
П од
Обще ственной</w>
Нью-Гэмпши ре
Ну ри.</w>
Нор веги
Ниймеген .</w>
Неме цкий</w>
Найтсб ридж
Н ье
Мэдисо н.</w>
Мумба и,</w>
Мичиган ским</w>
Михетти .</w>
Мини стерства</w>
Миге ль</w>
Мари ей</w>
Манчестер е</w>
Мадри да-Барайа
Льво в".</w>
Лу ис</w>
Лос-Анджеле са,</w>
Лейден ский</w>
Лаурау и.</w>
Лат инское</w>
Лансинг .</w>
Лайонна ис.</w>
Л энь</w>
Куттиккатто ор
Курити ба,</w>
Коэ ном</w>
Коло н</w>
Коли зея.</w>
Ко ста</w>
Ки хано</w>
Кекалайн ен.</w>
Каталони я</w>
Кар ри</w>
Канавера л"</w>
Калифорни я)</w>
Калифорни йское</w>
Ка сти
К имбер
Ира к</w>
Индонези я</w>
Индианаполи са,</w>
Ингредиент ы</w>
Илойло- Сити,</w>
Иллиной се</w>
Икбал ",</w>
Из мерение</w>
Иг рок</w>
Законодатель ное</w>
За висимо
Елиза вет
Ев г
Дэви да</w>
До ма</w>
Джав анский</w>
Джа зо
Дж ати</w>
Де моном</w>
Де льф
Дани э
Д ру
Гуджара т,</w>
Гренад ы</w>
Грас со.</w>
Герм анской</w>
Гвиан е.</w>
Г имн</w>
Вориди с,</w>
Висай ского</w>
Васп ".</w>
Бёрн с,</w>
Британи и,</w>
Брай ан</w>
Бразили я.</w>
Борман ом</w>
Болдри ни.</w>
Бо огаар
Бо льшим</w>
Бо лон
Биб бо
Бер са
Бананам ане.</w>
Б ена</w>
Ашхаба де.</w>
Атти ка,</w>
Асунсь оне.</w>
Ар п.</w>
Антиоки я,</w>
Амери ки</w>
Алькобенда с,</w>
Аль-Хор .</w>
Алаб ама</w>
Ал ве</w>
Адо льф</w>
Австри йской</w>
Аб бревиатура</w>
А бе
ö l
« И
ya co
x-1 ,</w>
wh eel</w>
werf t.</w>
vil lar
villar i</w>
v al</w>
v 12.</w>
tt er</w>
tow n</w>
thunder ,</w>
t h</w>
shum ai
shipy ard.</w>
s.s. d.</w>
s.p. a.
s ",</w>
româ ne
roman e
roll s</w>
ro villari</w>
ro bu
robu r</w>
ri ti
ram s.</w>
ram s,</w>
pt for
pr int</w>
po tter</w>
po int</w>
park er,</w>
p at
ori z
or it
ol d</w>
ni x.</w>
ni val</w>
mol s</w>
mechel en.</w>
mb h</w>
mb -3
m ell</w>
lam bor
lambor gh
lamborgh in
l "</w>
k -
k- w</w>
j. v.</w>
ithac a,</w>
indian a.</w>
im ah</w>
hungar ica</w>
halla .</w>
hal imah</w>
h ull</w>
garden .</w>
g mbh</w>
fort in,</w>
flibbertig b
fc ",</w>
faver ham,</w>
ent ella.</w>
ef es</w>
e-tr on</w>
e agle</w>
de ptfor
danc er.</w>
count ry.</w>
coun ci
counci l</w>
cooki e</w>
col an</w>
co de</w>
co .,</w>
ch oriz
center .</w>
cast rovillari</w>
car nival</w>
canonic a.</w>
cam pu
cam mell</w>
caball ero</w>
burn s.</w>
bur bank</w>
binign it.</w>
bert one.</w>
bersat u</w>
bb c</w>
battlefiel d,</w>
aust ria</w>
associ ation</w>
as p
aren a,</w>
arem- arem,</w>
araprivinesse "</w>
an adol
anadol u</w>
am ar
aldr in.</w>
alask a,</w>
al v
ai gh
adm in,</w>
adirond ack.</w>
ad o</w>
a. s</w>
9-0 9-0
9 25</w>
9 000.</w>
8 г</w>
70 .</w>
7 8,
7 6
6 15
615 59
56 44
5644 8
55 8</w>
46 -8
46-8 18
44 ,
4 56448
4 -0.</w>
3997100000000 ,0.</w>
30 78,
3 1.
3 .3528</w>
3 .
28 l.</w>
27 250</w>
23 -й</w>
2006-12 -3
2 70
2 13</w>
196 9-09-0
196 9
196 7</w>
196 1</w>
19 29</w>
18, 52</w>
16 1,
161, 54</w>
15 .</w>
135589 000,0.</w>
129 9,0</w>
124950000 000,0.</w>
10 46-818
1-56947-30 1
1-56947-301 -3
03 r</w>
0269 -93
0001-8 39
0-439-1768 4-0.</w>
-Харать ят
-Х и
(США )</w>
( персонаж</w>
( основана</w>
( мм)</w>
( аббревиатура</w>
( "
'Донне лл,</w>
"о диночная</w>
"Туркмен баши
"Тур кменаба
"Торпедо ",</w>
"Сент-Луис а</w>
"Секрет ным</w>
"Сампдори я"</w>
"С хипхо
"С та
"С аго"</w>
"Пена рол"</w>
"Ма кка
"М ери
"Де Сото</w>
"Д анву
"Гамиль тон</w>
"Блэкпу л"</w>
"Бананам ан"</w>
"Ба рабан</w>
"Б хаджи"</w>
"Атти ка",</w>
"Атлан та",</w>
"Аполло-1 4"</w>
"Антаре с",</w>
"Аль-Хор ".</w>
"Аль-За ура
"Аль-Ва кра</w>
"Аль ма</w>
"А ура
"А кеем</w>
"А ЕК</w>
"alderne y"</w>
" Христианско-демократический</w>
" О</w>
" purple</w>
" into</w>
" ace</w>
" accademia</w>
" 10</w>
яйц а</w>
язы ков.</w>
я ")</w>
ющ ую</w>
ю т,</w>
эксплуа та
экипа же</w>
э тот</w>
ы :</w>
щ ее</w>
шу м
член ами</w>
чи ли,</w>
чемпиона ми.</w>
че м.</w>
ч сти
це м.</w>
хо ль
хип-хо п,</w>
ха рак
ха й</w>
ха .</w>
фор ме.</w>
участ ником</w>
устано в
университе тов</w>
у ке
трен е
транспорт ных</w>
транс -
тор т.</w>
то му</w>
типи чная</w>
техниче ский</w>
те хнологи
та ми.</w>
сыгра ют</w>
сы р</w>
супру гой</w>
судо вой</w>
суд ьей</w>
су ще
студент ка</w>
страни ц,</w>
сти ля</w>
сти ль,</w>
старто вала</w>
спроектиров ан
сотрудни ча
сообще ство,</w>
сообще ства</w>
солда там,</w>
со вый</w>
сме щение</w>
служи вшую</w>
слу же
служе б
сколь ку</w>
си м
сервато рии</w>
семей ства</w>
сезоне-201 4-1
сделан ное</w>
связ ано</w>
сб уке
с к.</w>
с ент-
с -музыкан
с-музыкан т"</w>
ря дом</w>
ря д
ры бы,</w>
рок- ролльную</w>
ро ",</w>
ремесе л</w>
реги она.</w>
реги он
раковин ы</w>
раз мером</w>
пуско вая</w>
проспек те</w>
производи тели</w>
производ ная.</w>
прозвищ у</w>
про шла</w>
про вед
принадлеж ность</w>
приду ман
приготовл енной</w>
приво д</w>
при ходит</w>
премьер- лиге.</w>
преми и</w>
представи тели</w>
предвар яет</w>
пра вос
правос лав
православ ного</w>
пост ко
после дним</w>
поряд ка</w>
пор ту</w>
пор те</w>
популяр ным</w>
поп-музы ки</w>
поп-музы ки,</w>
помо г
поль ской</w>
получи вшая</w>
полу острова</w>
полос ы.</w>
полос ы,</w>
по тер
по кры
по каза
пирож ки,</w>
персона л.</w>
перво начально</w>
пенси ю,</w>
пе ль
пе .</w>
патри от
парла ментом</w>
пан к"</w>
отде льную</w>
основ ном</w>
основ анный</w>
осна щен</w>
ори енти
ор бита
опубликов анная</w>
опера тором</w>
об серватории</w>
об ра
нер .</w>
начи на
на ро
мэ рия</w>
мэ рии</w>
мы са</w>
мощ ность</w>
мо тором</w>
миче ская</w>
милли метров.</w>
ми ра</w>
металличе ская</w>
мет ки</w>
место нахождение</w>
мерин го
мемориа ла,</w>
медаль ".</w>
ман ским</w>
максима льную</w>
магист рат
ма ра.</w>
лю че
лондон ском</w>
лла ,</w>
ли рует</w>
ледокол ,</w>
ле ги
ла го
л »</w>
ктур ный</w>
кру из
космиче ской</w>
компани и.</w>
команди р</w>
колба с
канцле ром</w>
кана де
исследовани я".</w>
ингредиент ы.</w>
ингредиен тов,</w>
им я,</w>
ид сви
и ).</w>
записы вает</w>
зало г</w>
заказ е</w>
зака з</w>
з ону</w>
з и</w>
з десь</w>
жи ра</w>
жи е</w>
же ст
ж ис
ж е.</w>
ем цы</w>
ей сбуке
е ле</w>
други е</w>
дне й.</w>
ди т</w>
дзо ре,</w>
десер тное</w>
дей ствует</w>
группу .</w>
групп е,</w>
грам мо
государствен ную</w>
государств енный</w>
горо дом.</w>
горо де.</w>
гвардейц ами</w>
га х</w>
га ван
вычисли тель
выхо да</w>
вы б
вопро сам</w>
вол новая</w>
вой на.</w>
возник ло</w>
валю та,</w>
бывши м</w>
бума ж
бес шум
бан и</w>
бан ан.</w>
б ри
б рас
б лаго
аффили рован
ар кши
апофео з,</w>
аналоги ч
автомоби лем.</w>
австрали йских</w>
Япони я,</w>
Юж ный</w>
Эк сплуа
Э лена</w>
Швейц арский</w>
Ш яр
Чума ков,</w>
Ч ис
Цент р</w>
Хяр тель</w>
Хор чем.</w>
Хле б</w>
Х Е
Фран ко.</w>
Фонтан ",</w>
Фи ре
Уот соном.</w>
Уи лл-
У мер</w>
У .</w>
Тхаку р</w>
Тури не.</w>
Тоба го.</w>
Тичи но.</w>
Тай б.</w>
Суаре с»</w>
Сто гер</w>
Совет ском</w>
Собяни н.</w>
Слад кий</w>
Си ти.</w>
Санти лли
Сан-Хосе-дос-Пинхаис е</w>
Сан со
Сан деш</w>
Самба лом,</w>
Самарас ,</w>
Са х
С м.,</w>
С .,</w>
Руле у.</w>
Ро ч
Ричар дом</w>
Рекор д</w>
Ре идсви
Райх е
Рай ель,</w>
Рай ан.</w>
Раз орванный</w>
Производ ство</w>
Польш и.</w>
Поа кэ</w>
По мидоры,</w>
Писани ем".</w>
Пир с,</w>
Пинхаис ,</w>
Перм ь"</w>
Пери од</w>
Пер е
Пенджа бе</w>
Пара гвая</w>
Па гне
П ряд
Оси м</w>
Орхус ского</w>
Олимпи йский</w>
Окру ж
Од ди,</w>
Обще ства</w>
Обер холь
Обасандж о</w>
О но</w>
О Э
Нью порте</w>
Нье то.</w>
Ниини ст
Неа ве
Найтсбридж ,</w>
Най к.</w>
Н емцы</w>
Н ар
Мири ",</w>
Мель бур
Мат чсти
Масу м</w>
Мари и.</w>
Мари и,</w>
Малайзи йские</w>
Макк ей,</w>
Мадри д"</w>
МА ХЕ
М М
Льво в",</w>
Лондо н
Лейпциг ".</w>
Лаци о.</w>
Лахо р,</w>
Лан аркши
Крупней шим</w>
Копенгаген е.</w>
Коннектику те.</w>
Кир би</w>
Кенни .</w>
Катови це,</w>
Кан то.</w>
Ками лла</w>
Ка ль
КЦ .</w>
К люче
К лан
Ио ган
Институ том</w>
Индонези я.</w>
Ин женер
Им ст</w>
Иллиной се,</w>
Иколо-э- Бен
Запеч енные</w>
З ума
Елен ы.</w>
Евро парламент.</w>
Евг ений</w>
Ди м
Ди к</w>
Джаз -музыкант</w>
Десале г.</w>
Дензи л</w>
Дани еле</w>
Д вое</w>
Горба ха"</w>
Гонкон га</w>
Геттисбур г</w>
Гей т
Гар ри</w>
Военно-мор ской</w>
Вин дзоре,</w>
Верф т"</w>
Вашингто не</w>
Вален ского</w>
Важ у
В ьетнам
Буэнос-Айре са.</w>
Бухаре ст.</w>
Буре ром.</w>
Брюин з",</w>
Брит ан
Богаар д,</w>
Бионико .</w>
Берто не.</w>
Берн сом.</w>
Берн с,</w>
Бельги я,</w>
Белга ум.</w>
Банде жа
Баа да,</w>
Ба т
Б хаджи,</w>
Ашхаба да,</w>
Ах ва
Атлан ты</w>
Атлан та,</w>
Архите ктурный</w>
Арен ы".</w>
Антверпен .</w>
Англий ские</w>
Амстерда м,</w>
Аляс ке,</w>
Альбукер ки</w>
Альбер том</w>
Альбе -Юлия,</w>
Альба -Юлия,</w>
Аль-Ан бар,</w>
Александ ров</w>
Алек сандер</w>
Акаде мическая</w>
Ак рон</w>
Аг ин
Авгу ста</w>
Абе ля</w>
Аб ар
А рез
А лу
А М
«Орхус »,</w>
«Амарльо »</w>
«А гра
z f</w>
z e</w>
yaco b</w>
y on
yon g</w>
wildwee ds,</w>
was p</w>
w e
vi ole
viole t</w>
velodrom e.</w>
veinti st
ut ti
u re
tur z
tur ner</w>
texan s</w>
t on.</w>
sy s</w>
suare z</w>
ster n.</w>
stellend am,</w>
st y
spaceport ".</w>
si en
scal es</w>
sc d</w>
s por</w>
roule au</w>
ro y</w>
re public</w>
r ams</w>
r )</w>
powy s,</w>
piazz ia,</w>
par k.</w>
p lan
os mo
osmo sys</w>
or a
on i
o b
negre ,</w>
n. v.</w>
n ai
motor s.</w>
morg an</w>
metap an,</w>
mcqu ade</w>
m "</w>
lumeszan e,</w>
lin n</w>
leipz ig</w>
lasal le.</w>
lamborghin i</w>
l al</w>
l .
kw 4,</w>
ku et</w>
key ston
k öl
k utti
k ey</w>
k 2</w>
jazz ,</w>
jav en
j ,</w>
it "</w>
inc ".</w>
i stan
i an
hou se.</w>
heart ".</w>
he ad
hal l.</w>
guardi an.</w>
geno a</w>
gal e</w>
fyl de,</w>
fran k</w>
fount a
flin t</w>
fen country</w>
fal con</w>
f l
estegh lal</w>
entertainmen t</w>
e agle.</w>
du ane</w>
don al</w>
des ot
depor tiv
de ste
d ay
custom .</w>
club e.</w>
chap in</w>
californi a.</w>
c-1 30</w>
c ep
burl ington,</w>
bu l
bott a.</w>
boogaar d</w>
bo d
blv d,</w>
bioni co.</w>
bar i</w>
bak s
ba an.</w>
b en</w>
b aj
b .
audi .</w>
at to
ash i
ari s</w>
apulensis ".</w>
antar es.</w>
aidalun a,</w>
affair .</w>
af b</w>
ad mi
ac-130 .</w>
ac adem
ab rad
978-1-4165-4253- 7
914 ,8</w>
9 7</w>
9 5</w>
9 -
88057 35
87888 50000
8 -0
771510000 0,0</w>
737 .</w>
70 3,
703, 95</w>
61559 10000
61196 1000,0</w>
610 ,0</w>
6 ".</w>
6 ",</w>
5739224 6.</w>
46451790 .</w>
44, 25</w>
434 9
4- ступенчатую</w>
4 1</w>
4 100
4 ,8</w>
3997100000000 .</w>
39 ,
39, 3</w>
360 -0
360-0 44
36 0,
360, 29</w>
349206 000000,0.</w>
336 265</w>
3310 ,0.</w>
32 .
3 20
29 .</w>
27914 200
277 6,0</w>
26 ,</w>
25 "</w>
21 r</w>
20 -ю</w>
2. 213</w>
193 2-0
187 2</w>
17994200 0,0,</w>
17994 2000,0</w>
17 ,</w>
162 2.213</w>
16 8,</w>
142603 000,0.</w>
14 5,3</w>
12 39,3</w>
11 21
108 0-
1. 9
1-56947-301-3 .</w>
1 360-044
0-374-2613 1-
0 8.</w>
(миллимет ров
(Измир ),</w>
(Афины )</w>
( как</w>
( new</w>
' ceall
"разби ли"</w>
"Юстици я".</w>
"Ювент ус</w>
"Ш ума
"Челси "</w>
"Хип-хо п"</w>
"Ф ейсбуке
"Уттар-Прадеш "</w>
"Тран с-музыкант"</w>
"Торпедо "</w>
"Т ори
"Сент-Луис "</w>
"Сент-Жор ж</w>
"С ерия</w>
"Но вые</w>
"Монтевиде о"</w>
"Мин даль"</w>
"Мери де
"Ли мон
"Кол н"</w>
"Кливлен да"</w>
"Инстаграм ".</w>
"Ин ди</w>
"Даллас "</w>
"Д ом</w>
"Гу джара
"Геттисбург ",</w>
"Бродву д".</w>
"Бит вы</w>
"Ба рай
"Ашхаба д</w>
"Атлан тик</w>
"Аполлон-1 1"</w>
"Антио хи
"Анти э
"Альбукер ки"</w>
"Ай ри</w>
"Аени р",</w>
"Административ но-науч
"Ад мира</w>
" Сою
" Мири",</w>
" До
" Во
" united</w>
" lotus</w>
" ab</w>
" 1101</w>
" 1000</w>
язык "</w>
язы ка,</w>
юго-запа де</w>
эти м</w>
этаж ами,</w>
эпоха льной</w>
э р.</w>
ь его</w>
шу би
штаб-кварти рой</w>
ш ру
шру те</w>
ш ем</w>
ш ади
шади ных</w>
числен ность</w>
чер ной</w>
челове ка.</w>
ч ин
цилинд ров</w>
цветущи й</w>
ц сим
фун т</w>
фи р
фи л
феде раль
ф ,</w>
учи лась</w>
уч ени
установ ки</w>
ул ково
у садь
у рой</w>
ту га
туга ли
тугали и</w>
тромбо ни
транспор та,</w>
трансмисси ю.</w>
тоф у</w>
тера ки
те пло
та х</w>
та ми,</w>
ся :</w>
суд ья</w>
стре чи</w>
страни цы,</w>
стран ой</w>
столиц ей.</w>
стои л</w>
ства "</w>
собствен ност
со л</w>
служ бе</w>
служ ба</w>
следу ющ
следова тельно,</w>
сконча лся.</w>
ско ни.</w>
систе ма
система м</w>
сини й.</w>
сел ение</w>
сделан ы</w>
сдела л</w>
сво бод
с я"</w>
с нимал</w>
с мо
с дик
ру чную</w>
рок- музыка.</w>
ро ля
ро ве.</w>
ри сдик
ри го
рети й</w>
регу лирует</w>
рас хо
разработан ная</w>
раз ные</w>
раз ме
работа вший</w>
ра льная</w>
прямо й-
происхожд ением</w>
програм му</w>
провед ения</w>
про ш
приготовл енная</w>
при нг
принг фил
правитель ством.</w>
потер пе
посвящ енный</w>
поп-музы ке.</w>
получа ет</w>
пол н
под клю
по ка
по е
пое зд
площад и</w>
пластин ку</w>
плава ющей</w>
пери од
пере дним</w>
пер вая</w>
пена .</w>
певиц ей</w>
патриот ы".</w>
па льмовый</w>
очеред ь</w>
основа телем</w>
ору жи
оружи и,</w>
орбита льным</w>
он ".</w>
олимпи йский</w>
од но</w>
обеспе чивает</w>
о ше,</w>
о каза
о в.</w>
о )</w>
о ",</w>
но е.</w>
несколь ко</w>
нер "</w>
нау к"</w>
напис анная</w>
назем ная</w>
назв ана</w>
на ко</w>
н ь</w>
му зея</w>
мощ ностью</w>
морожен ое</w>
млад ше</w>
милли метров</w>
ми т,</w>
ми ном</w>
металличе ской</w>
мер ы</w>
мен ный</w>
ме льный</w>
ме лини
мар шруте</w>
мак ет</w>
м эро
м л
ль ко</w>
ло шадиных</w>
ли сто
лен де,</w>
ле й</w>
ле до
лапш а,</w>
куриц а.</w>
кремесингх е.</w>
кре щ
космо се.</w>
коро ля</w>
концер ты</w>
кондитер ский</w>
командо й.</w>
команди ра.</w>
команд ы,</w>
колумби йское</w>
ков "</w>
ко се,</w>
ко ло
ключе вых</w>
кита йской</w>
кита йского</w>
километ ра,</w>
канцле ра,</w>
канаде ц,</w>
кампу с</w>
кампу с"</w>
ка ми</w>
ка ет</w>
к за
к ве
йц ы.</w>
итальян цы</w>
итальян ского</w>
использу ются</w>
использу емая</w>
использо вать</w>
изготови ло</w>
из дани
и сом</w>
значи тельные</w>
запущ енный</w>
з ы</w>
жис се
живу щи
жан ре.</w>
ер "</w>
един ую</w>
ед я
до к</w>
джа з
десер тов.</w>
ден ный</w>
демократи я"</w>
демократи я",</w>
де кан
д него</w>
гу а</w>
гру зин
гри бо
года )</w>
год ы.</w>
говор ящий</w>
гли ч
ге )</w>
г рии</w>
вычислитель ной</w>
выходи ла</w>
вы ходил</w>
вы бра
все го</w>
вол на".</w>
возве ден</w>
во шли</w>
во да</w>
вл е
ви д</w>
веду щ
вариа то
валю та.</w>
ва ль
в у</w>
буль он,</w>
бразиль ца</w>
бом бар
бомбар ди
бобсле исто
блюдо -
благо состояни
бионико ,</w>
бе @@</w>
банде же</w>
базиру ющийся</w>
ба таго
б хаджи</w>
б ру
б анан</w>
афро американцами.</w>
астерои да</w>
арми и.</w>
арахис ском</w>
арахи совый</w>
араб ы</w>
англоязы чной</w>
ан глич
ан ",</w>
алдорман у</w>
ал ,</w>
автомоби ля</w>
автома тическая</w>
Юж ная</w>
Ю дин</w>
Эри ка</w>
Эксплуа тиру
Э алдорману</w>
Шри-Лан ке.</w>
Шотланди и</w>
Шест ам
Шепар да</w>
Ш умай</w>
Чирико ва,</w>
Ч е
Церков ь",</w>
Хип-хо п</w>
Хам бург
Хай с,</w>
Франци я.</w>
Форре ст,</w>
Фире до
Фи шер.</w>
Фар мера.</w>
Уругва й,</w>
У дер
Транс -музыкант</w>
Тран спор
Томс к".</w>
Тоба го</w>
Тинхэ ма.</w>
Техас )</w>
Тес дом</w>
Террас а"</w>
Тарран т.</w>
Сумат ре.</w>
Суаре са</w>
Строи тель</w>
Стер н</w>
Стамбу л,</w>
Совет ской</w>
Со фи
Смотри те,</w>
Слад кая</w>
Сла й.</w>
Скот том</w>
Скале с.</w>
Сент-Вин сент-
Се гун
Саскачеван е</w>
Сарава к".</w>
С ин
Рута й.</w>
Рузвель т</w>
Ру дольф
Росто к</w>
Роса ви
Ри ма</w>
Ри ма.</w>
Реидсви лле,</w>
Реги на,</w>
Р Б
Р А
Путраджай я</w>
Путраджай я.</w>
Поттер .</w>
Пор тугалии</w>
Понтезона х</w>
Польш е,</w>
По стро
По ли
Пер вый</w>
Пе рон.</w>
Парагва й</w>
Парагва й,</w>
Палле сен</w>
Па лло
П Ф
Окруж ное</w>
Од нако</w>
Нэшви лл,</w>
Нью-Гэмпшире )</w>
Ниинист ё</w>
Ней мара.</w>
Не брас
Народ ный</w>
Нар ы
На селение</w>
НЖ Д.</w>
Муссо лини</w>
Москва ",</w>
Моск ве</w>
Мой и
Мо га</w>
Мо га.</w>
Мичу рин
Мит тераки
Милан ",</w>
Мери де.</w>
Мельбур н,</w>
Международ ного</w>
Махму да.</w>
Мартине с</w>
Мала ту</w>
Май я</w>
Мадрид-Барайа с</w>
Мадри де.</w>
Магда ли
Лос-Анджеле се.</w>
Лимери к.</w>
Лейпциг "</w>
Кумберлен д.</w>
Крас ная</w>
Кот тинг
Королев ство.</w>
Ком мелини
Ком анд
Кова ком.</w>
Ков рове.</w>
Ко чи</w>
Ко ста
Кен оше,</w>
Кейптау н</w>
Кейптау н.</w>
Ке се
Кар мином</w>
Кар ло</w>
Калифорни йскую</w>
Каду на.</w>
К рис</w>
К ед
Иту ка,</w>
Илоц ано</w>
Икба л.</w>
Игоро т.</w>
Зеланди и.</w>
Законодатель ным</w>
З вание</w>
Дэ ни
Дональ да</w>
До маш
Дим мит,</w>
Джер ри</w>
Дже к</w>
Джав анской</w>
Дербыш ском</w>
Дельф ин
Де мокра
Дари ен,</w>
Д ,</w>
Гу нером</w>
Гроз ном</w>
Гренад ы.</w>
Гонкон ге)</w>
Го й
Галиси и</w>
Г риго
Г ер
Вольф ман</w>
Владе лец</w>
Висайа с,</w>
Видо до,</w>
Вен грии</w>
Бы вшая</w>
Буре ром,</w>
Бундес лиге</w>
Бразили и,</w>
Бори сом</w>
Болдри ни</w>
Блэкпу л</w>
Би рон</w>
Би ллом</w>
Берналль о</w>
Берлу скони.</w>
Белга ме.</w>
Беко н,</w>
Баэй дом,</w>
Бангало ре</w>
Афри ке</w>
Ататюр ка</w>
Асай ай
Аренда тор</w>
Аргентин е,</w>
Арави йского</w>
Ар п"</w>
Анто ниса</w>
Андре ев
Анго ле.</w>
Ан таре
Алдри н</w>
Ал к
Аделаид ы.</w>
Авиа компания</w>
А ди
А И
« гиги
« Антаре
x ".</w>
wilder "</w>
wi en.</w>
wh is
way "</w>
w orth</w>
veil ,</w>
vei l</w>
vant age.</w>
u s,</w>
u .
ti es</w>
ter ,</w>
t e</w>
t ay
stat es,</w>
stat en</w>
sp h
sph in
siom ay
siensis ".</w>
sand es
s r
run cor
runcor n</w>
rs-3 ",</w>
rom anes
rhyth m"</w>
reviv al.</w>
restruction ",</w>
redd y</w>
rap id</w>
r at
public ation
pro per
pp .</w>
populou s.</w>
pog son,</w>
po p
pla z
pl ace</w>
p ag
pag nell</w>
opelik a</w>
oni o</w>
on a</w>
o pp.</w>
nz195 1</w>
neustad t.</w>
nai k</w>
n o
mu se
mo d
mod l
mering u
mat h</w>
mari am</w>
mar c</w>
mar an,</w>
mac ch
macch i</w>
lumeszan e.</w>
lo ,</w>
li m
le inst
lan c
lanc ashi
lak e,</w>
lafay ette
lafayette ,</w>
k y</w>
k m
journal "</w>
jers ey,</w>
javen ese</w>
jacket s</w>
istan bul
istanbul spor</w>
in c</w>
im st,</w>
i bert
hu ibert
ho t</w>
harrietstow n</w>
hardcover ,</w>
hail e
haile mariam</w>
ha aj
haaj .</w>
gi mi
gen re</w>
gazett es,</w>
gar den</w>
galac tic</w>
gal ow
g ett
falcon s.</w>
f ut
f ight
est adio</w>
ers hot</w>
er macchi</w>
e z
e ;</w>
des ale
desale g
de at
deat h</w>
d ay,</w>
cu t</w>
crocier e,</w>
coron et</w>
connecti cut</w>
compan y</w>
club ".</w>
clu b.</w>
ch .</w>
bun galow
bod ley</w>
bioni co,</w>
binign it"</w>
battlefiel d.</w>
batag or,</w>
baks o</w>
baj i
ay ers.</w>
av is</w>
atti ca</w>
at is
at .</w>
ar gimi
an o</w>
an ci
am haaj.</w>
am c.</w>
am a,</w>
ald ershot</w>
aidalun a</w>
ah m
adam s,</w>
accord .</w>
ac-130 ,</w>
ab .</w>
a ermacchi</w>
945 09</w>
9 ,</w>
9 ,8</w>
896468 63</w>
870008 23</w>
836463 15</w>
80 55
771510000 0</w>
77, 41</w>
660 63</w>
60040714 .</w>
6-0 2-0
6, 6
6,6 6</w>
6 53
653 -0
653-0 6
653-06 33
653-0633 -6.</w>
6 2</w>
6 ,0.</w>
535 02</w>
5, 97</w>
5 18
5 00</w>
49 8055
48 2</w>
45 000,0</w>
4349 ,0.</w>
434 9</w>
414984 00000,0</w>
4 6,66</w>
4 5,97</w>
3x n.</w>
3992, 88.</w>
39 -0
39-0 1-0
33 .</w>
3- ступенчатую</w>
3 1,</w>
27914 2000</w>
254989570 ,
2215 ,0.</w>
2014- го.</w>
2005-11- 26.</w>
2, 13</w>
1925 5</w>
19 39-01-0
19 10
187 8</w>
186 8</w>
162 2,13</w>
12 1,9
121,9 2</w>
1,9 558</w>
1, 1</w>
0-7 653-0633-6.</w>
0,0 925</w>
0,0 482</w>
- 7
(Афины ).</w>
( расположена</w>
( крупнейший</w>
( Родился</w>
"Южноураль ское</w>
"Фортри са</w>
"Тран с-
"Тирструп "</w>
"Т ом</w>
"С ума
"С КА</w>
"При своение</w>
"П улково
"Нью-Джерси ".</w>
"Математи ка".</w>
"Ку рити
"Ка й
"К ор
"Зве зда
"З амбоанган
"Бол т",</w>
"Блэкпу л",</w>
"Барсе ".</w>
"Барай ас
"Б лю
"Аполлона -12
"Аполло на"</w>
"Аль -Харатьят
"А шер
"q atar</w>
" вы
" Халтон</w>
" Парти</w>
" Джексон</w>
" Вермон
" st
" samuda</w>
" rhythm"</w>
" long</w>
" dodge</w>
" binignit"</w>
" batcho
" antar
" above</w>
" 1930</w>
яти е</w>
язы ка</w>
я ;</w>
ют ной</w>
южноафриканц ы.</w>
ю ш
ю н
эш н
э п
эп из
эпиз од</w>
ью тер
ью нер</w>
ь я"</w>
ь б
ьб ины</w>
щ его</w>
шуби йц
шри-ланки йская</w>
ши х</w>
ши йся</w>
ш ая</w>
ш а,</w>
чис ле
числе :</w>
чи он
чи нов
чи ли</w>
чер ноко
ч ко
ч анин</w>
ц а,</w>
христи анский</w>
хо де</w>
хле бный</w>
хип-хоп-музы ки,</w>
хип-хо па,</w>
хип-хо п.</w>
хва ста
хваста ться</w>
ха я</w>
х "</w>
фрукто вые</w>
фран ши
филиппин ец</w>
фи н</w>
фи гу
ф фици
ф ре
ф а</w>
ую ся</w>
уэ р
уэр то
уэрто -Ри
учре жден</w>
ут вер
утвер жда
управляе мом</w>
управлени ем.</w>
управл ения</w>
ты ся
тыся ч</w>
ту ,</w>
тр я</w>
то лько</w>
то ге</w>
тино .</w>
те к
творо г.</w>
тали сман</w>
та ро.</w>
т ери
суще ствует</w>
су хая</w>
стру чко
строи телем</w>
столич ном</w>
сто не,</w>
сти ".</w>
ств енни
средне атлантический</w>
спроектиров аны</w>
спор та,</w>
составля ют</w>
сосе д
содержа щая</w>
со льная</w>
сня ла</w>
смо тря</w>
служи вую</w>
следу ют</w>
следо вал</w>
скон и</w>
ски м.</w>
сиома йского</w>
си я</w>
си ловой</w>
си и</w>
седа н</w>
сбург ",</w>
сбор ной,</w>
сай ай
с ской</w>
с м,</w>
с лы
слы ш
с лом</w>
с енат</w>
ры в</w>
ры ба,</w>
ру до
рок ".</w>
рожен о
рожено е"</w>
родил ся,</w>
роди вшегося</w>
ро вания</w>
рет ья</w>
реме с
рез ьбины</w>
реги о
ре зиден
расхо ду
расходу емого</w>
рабо та</w>
ра ми,</w>
ра л-
пу ч
пу дры</w>
пу д
произо шел</w>
произ несен
произнесен ном</w>
прое кти
продолж ением</w>
про фесси
про водит</w>
про ве
придуман ной</w>
при об
при нима
префектур ы</w>
преем ником.</w>
представля ют</w>
представля вший</w>
председа теля</w>
председа тель
предоста вля
предвар я
правитель ством</w>
похо ж</w>
постко до
пост -
популяр ная</w>
популяр на</w>
поп-музы ка</w>
поми до
подпис ана</w>
подклю чается</w>
пода ва
по хвастаться</w>
плот ностью</w>
пищ ей,</w>
пита л
пи т
перип ета</w>
период ,</w>
пери пе
перипе том</w>
пери а
передвиж ения.</w>
пе со.</w>
пе й
париж скими</w>
пар а</w>
панк- рок.</w>
пала той</w>
п ение</w>
п ена</w>
офис е</w>
от мет
осно вал</w>
ос ью.</w>
ос манским</w>
орг е,</w>
оран ж
опубликов ан
окомо тив</w>
оккупи ру
одна жд
однажд ы</w>
овощ и.</w>
овощ ей</w>
обра зи
облож ке.</w>
об у</w>
о теля</w>
о зву
о г
о бита
нынеш ним</w>
ны "</w>
но ме
ниче ский</w>
нер ,</w>
нем юн
не му</w>
не во
нево кза
нача та</w>
нача ло.</w>
насчиты вающий</w>
названи я</w>
н эшн
н ный</w>
мыш ленный</w>
мучени ков</w>
муниципа льная</w>
музыкан т.</w>
мрамо ра.</w>
мрамо ра,</w>
монархо м,</w>
моде ли</w>
мо м.</w>
ми ли
меринго м,</w>
менедже ра.</w>
мемори ала</w>
ме ся
малайзи йская</w>
мадри дского</w>
ма- Ма
ма стер
м ь</w>
м м,</w>
м ),</w>
ль щи
ль м</w>
ло той</w>
ло мар
лло кан
лл ".</w>
листо вке</w>
ли чи
ледо кола</w>
ле с,</w>
ле й.</w>
кур с</w>
кур с,</w>
культур ы.</w>
кру шени
кре щен</w>
которо й,</w>
консер вы</w>
ко рейской</w>
ко пей
ключе вого</w>
клу ба,</w>
ки слом</w>
кел ви
квар та
калифорни йском</w>
к ту
к с.</w>
й с
итальян ском</w>
исполни тель,</w>
испол н
ирланд ский</w>
интер нэшн
инстру мент</w>
институ те,</w>
индонези йское</w>
ин е.</w>
имуще ство,</w>
игра вший</w>
и тоге</w>
и ),</w>
звезд ный</w>
запущ ены</w>
запа д.</w>
зам у
зали ве</w>
за печ
за ба
за ".</w>
з рыв</w>
з ный</w>
з ей
живут .</w>
жд анской</w>
жан ро
ж жен
ери ва
ем пи
до й</w>
дискоте ку.</w>
дизай нером</w>
действи я</w>
дебютирова вший</w>
дебю тной</w>
дво ра.</w>
даль ",</w>
да ется</w>
д ы.</w>
д но</w>
д ерива
д »,</w>
д ;</w>
губернато ра</w>
группу ,</w>
группа м</w>
город ским</w>
горо дом,</w>
год ы</w>
говяж ьего</w>
го дов.</w>
гитари ст,</w>
генера льным</w>
гварди и</w>
гвар дей
вяди на</w>
выб ран
входящ ая</w>
восточ ный</w>
вой ну</w>
вой на,</w>
возглавля л</w>
воз действия</w>
во жд
во в</w>
вклю ч
вице- губернатором</w>
ви ш
ви олонче
ви дов</w>
ви дами</w>
ви д
ви га
вер то
вариаци я</w>
бханг ра</w>
бу ду
боле льщи
бо е
благосостояни я</w>
бекона-бутерб рода</w>
бекон-бутерб род,</w>
бан дж
б орге,</w>
аффили рованный</w>
архитектур ной</w>
анг ар
ана "</w>
ан г</w>
автомоби ль.</w>
авто хар
авианосц ах</w>
ав ангар
абсолю тное</w>
аббревиат урой</w>
а ".</w>
Яку б,</w>
Язы ком</w>
ЮА Р</w>
Эрра те</w>
Э ти</w>
Шри-Лан ки.</w>
Шнайдер-Амман н</w>
Шиллинг .</w>
Шарлотте городе</w>
Чумако ва</w>
Чис ло</w>
Чинато ре,</w>
Чи анг</w>
Ч емпи
Хьюст он,</w>
Хамбург ер</w>
Хали д</w>
Фредери к</w>
Фи льм</w>
Фи ли
Федераль ным</w>
Уол том</w>
Ты у
Туркменистан е.</w>
Тур ция</w>
Тро цкий</w>
Тито ва</w>
Тинхэ м.</w>
Техниче ского</w>
Тем ный</w>
Теланг ана</w>
Таи ба</w>
Т рэ
Су митра</w>
Су дно</w>
Столиц ей</w>
Сти ль</w>
Стеу бен</w>
Стелленда ме,</w>
Спа те</w>
Созд анная</w>
Со льная</w>
Смет ана</w>
Скрип ник.</w>
Сиэт л</w>
Сипи ла</w>
Сингапур ского</w>
Семенари -Ридж
Сегун де</w>
Саскачеван .</w>
Сарава ке</w>
Сарава ке,</w>
Сантилли .</w>
Сан-Марко с.</w>
Сальвадо ра.</w>
СПИД а.</w>
С ты
С во
С в.</w>
С К
Румыни я</w>
Росси и.</w>
Родриге с,</w>
Ри б
Рекор д
Рам си.</w>
Р О
Пэй н.</w>
Произ води
Про тив</w>
Прес с"</w>
Председа телем</w>
Польш е.</w>
Пой сом.</w>
Петрако в.</w>
Пе чат
Пауэ лл</w>
Палло т
П уэрто-Ри
П рин
П ри</w>
П ли
П ена,</w>
Ор д
Од ди</w>
Обнару ж
Обасандж о,</w>
Нынеш ние</w>
Ниини сто
Непту н-
Ней мар</w>
Нары шки
Народ ного</w>
На пис
НЖ Д,</w>
Москва ".</w>
Моно к
Молодеж ный</w>
Мехи ко.</w>
Мер ке
Мекси ки</w>
Мекси ка.</w>
Маха джан
Матер ,</w>
Марко лини</w>
Мар чион
Мар са,</w>
Манхэт тен</w>
Манито ба,</w>
Мадрид-Барайа с,</w>
Луан да.</w>
Лондо на,</w>
Локомотив ",</w>
Ле он</w>
Лаци о,</w>
Ла-Па с,</w>
Л ья
Л ам
Кэ питал
Ку к,</w>
Крокер е,</w>
Кор н
Команд а</w>
Ко лли
Кароли ны.</w>
Кароли на,</w>
Канза с.</w>
Канза с-
Кандом бе
Калифорни я),</w>
Калифорни йском</w>
Калифорни йский</w>
Кай -
К ни
К лы
Итальян цы</w>
Исп ыта
Исаа ка</w>
Инфан тино.</w>
Им ст,</w>
Ило ка
Изми ре.</w>
Из начально</w>
И ван</w>
Зеланди я</w>
Запа де</w>
Дэни ел</w>
Дуурсе ма</w>
Дру гие</w>
Доусона ,</w>
Домаш няя</w>
Ди л
Ди ви
Ди а
Джорджтау н</w>
Джордж ем</w>
Джексо н
Джвайд аном</w>
Джано- Тосун,</w>
Десер т</w>
Департа мент</w>
Демокра т</w>
Деб ютной</w>
Даг гет
Д вига
Григо рий</w>
Гренад у</w>
Граждан ство</w>
Готтинг ене.</w>
Го вядина</w>
Гете борге,</w>
Гвадала ха
Г ита
Всеинди йским</w>
Восточ ный</w>
Военно-мор ском</w>
Висконсин е,</w>
Вермон та</w>
Великобритании )</w>
Вари ации</w>
Вари ант</w>
Вар немюн
В олк</w>
В зрыв</w>
Бэй д",</w>
Бухаре ст</w>
Брэн дон</w>
Босто не.</w>
Бирминге ма.</w>
Биббо ев
Би-би-си .</w>
Би нигне
Берлу скони</w>
Банило у</w>
Бакин ском</w>
Баду й</w>
Бадж жи
Б ьюнер</w>
Б обу</w>
Ачар ь
Ахиг бе</w>
Афин .</w>
Ататюр ка,</w>
Асунсь оне</w>
Арен е".</w>
Ардмор »</w>
Ар бор
Андре е
Андалуси и.</w>
Анго ла.</w>
Ан ни</w>
Ан ге
Алькобенда с</w>
Аль пена</w>
Аль ба.</w>
Алк ма
Александри я»</w>
Ал дерни
Австро-Венгри и.</w>
Австри я,</w>
Ав то
Абубакар а</w>
А му
А "</w>
«И мущество
«А ддис-Абе
« Инфанте
« За</w>
« Ардмор»</w>
« Александрия»</w>
y ".</w>
x bur
whit man,</w>
wheel er</w>
w hig
w a</w>
veintist ico</w>
v aj
vaj u
vaju bhai</w>
ure n</w>
u .s.</w>
tr avis</w>
to p
top k
thakur .</w>
tex as,</w>
te go
tay lo
taylo r</w>
t s</w>
st adi
sp ace,</w>
son s</w>
sam m
samm y</w>
s. c.</w>
s on.</w>
romanes que</w>
romanc e"</w>
romagn o
ro xbur
ro land</w>
riti ba</w>
rich land,</w>
r. s.c.</w>
r "</w>
que en
qu wa</w>
public ations</w>
proper ties</w>
pop -музы
pol .,</w>
pog son</w>
po p</w>
pat ri
p un
oreg on,</w>
on y</w>
on is</w>
on )</w>
nw c,</w>
nr-1 ,</w>
ni b
nib ale</w>
n and
music ",</w>
mor c
morc illa
morcilla ),</w>
mil an</w>
metap an.</w>
metal ".</w>
math .
mar s,</w>
manu zz
manag em
lo c
lin e</w>
leipz ig.</w>
le ".</w>
l l
ll c
llc n</w>
l es
k o</w>
k k
k arn
karn at
jo ko</w>
ing ham
indian a
ic al</w>
i bi
hotel ,</w>
hol d
har tel</w>
har db
ham ilton</w>
h aver
h .</w>
gun er.</w>
guar ds</w>
gu anci
green ville,</w>
gloom ".</w>
gi adi
giadi s</w>
gett y
ger man
geor giadis</w>
g or
g aff
fre d</w>
fr ang
fight er</w>
fen v
f ow
er te
em ,</w>
eg g</w>
ed ,</w>
e apté-te,</w>
d ino</w>
d a,</w>
count y
cooki es</w>
com m
col n</w>
classic .</w>
can ad
c ur
burl ington</w>
bundelk ard.</w>
bu uren</w>
bor ed</w>
ben tego
be ach</w>
bay ma
bath s.</w>
bar aj
baraj as</w>
awh ,</w>
awad h</w>
aw i
at k,</w>
at al
atal ant
atalant a</w>
as i
ar ah
ant onio</w>
and ,</w>
an nibale</w>
an ia</w>
an e,</w>
amat ers
alderne y,</w>
al-j awi
al- quwa</w>
ak e</w>
air aluna</w>
ai ds</w>
ahm et</w>
ag .</w>
ad onis</w>
ac ur
abar th,</w>
a90 7</w>
a el</w>
a a907</w>
99 9</w>
9-0 4-0
9 00</w>
87000823 .</w>
836463 15.</w>
8, 2</w>
77 .</w>
767983 17.</w>
7 33
7 14
605718 000</w>
6 4,
64, 00
64,00 8</w>
523329 000</w>
5 1969
51969 17
498055 01.</w>
414984 0000
377016 000000,0.</w>
37 46,66</w>
36 l</w>
36 0</w>
35 00,0.</w>
34 ,</w>
3360. 12.</w>
320 2
3- ступенчатая</w>
299196 00000,0</w>
29 89
29 00,0.</w>
277 6,0.</w>
26 8,0</w>
26 5,0</w>
254989570, 60815</w>
25 8,2</w>
24, 4.</w>
236 -5
236-5 29
200 9-04-0
2 ,0.</w>
1980-04- 23</w>
1969-09-0 1</w>
195 5.</w>
193 0-0
1930-0 1-
19 2000,0</w>
189 6-02-0
18,52 .</w>
18 00</w>
162447 00,0</w>
16 8.</w>
16 -й</w>
14 18</w>
1080- 63
1- м</w>
1, 8</w>
0965-214 0</w>
0-374-26131- 8.</w>
0,0 999</w>
0 236-529
. К
-Хи лл.</w>
-Ри дж</w>
-8 .</w>
-1 1-0
- истреби
( morcilla),</w>
'ceall aigh</w>
"Хип-хо п</w>
"Ф ун
"То мь</w>
"Тирструп ",</w>
"Сиома й"</w>
"Сент-Луис е".</w>
"СПИД ".</w>
"Росто к"</w>
"Реа ла"</w>
"Пеньа рол",</w>
"Мо роженое"</w>
"Мемори ала</w>
"Кливлен де
"Ка шубийц
"Зве зд
"Данву д"</w>
"Гра жданской</w>
"Г ластонбери</w>
"Бар ни</w>
"Аура кле
"Атлан ту
"Анахай м".</w>
"Ан далуси
"Альби на",</w>
"Аль- Ш
"А- Ро
"А чар
"А сайай
"А ль</w>
"А з</w>
"st v
"antar es"</w>
" блюз"</w>
" Со
" Р
" Мэ
" Кандомбе
" Джон</w>
" whis
" spaceport".</w>
" schipho
" s
" p</w>
" ela-3
" aida</w>
" acura</w>
" 1634
ё т
ёт тинг
ё ль
язык и</w>
язы ка.</w>
я х</w>
я ».</w>
юго-запа де.</w>
этаж ами</w>
электро передач
элект рон
э р,</w>
э ль
ьютер ных</w>
ы х</w>
ы »</w>
ща док</w>
шта том</w>
шта та.</w>
ше б
ш ло</w>
ш и</w>
ш ей</w>
чи лся</w>
чи к-испытатель</w>
четы ре.</w>
чесно к.</w>
ч ка
ч бе
цефало голо
цефалоголо вые</w>
цент ра"</w>
цветущи м</w>
цве та.</w>
ц ев,</w>
ц ами</w>
хэт чбе
ху сского</w>
хреб те,</w>
хардкор .</w>
хар ский</w>
хаджи .</w>
х ель
х )</w>
фор му</w>
фло те</w>
физи ки</w>
федера ция</w>
ф они
ф о
успе ха</w>
усадь ба</w>
управл ения.</w>
университе том,</w>
университе тов,</w>
углево дов.</w>
у стоявшаяся</w>
у роженец</w>
у н</w>
тури стическое</w>
ту л</w>
транспорт ного</w>
то н"</w>
то вая</w>
то -
тива м</w>
тенни са</w>
тенни с,</w>
те ли,</w>
тар то
тар о</w>
таки е</w>
т ретий</w>
т :</w>
съе дается</w>
супру га</w>
суб мар
су пер
студен ческое</w>
стручко вые</w>
стри б
стриб ью
стиче ским</w>
сти ческий</w>
сти ла</w>
стер ской</w>
ств енным</w>
ста фони
ст ь,</w>
ст ен
ст е.</w>
ст ве,</w>
сред ства
сред ств.</w>
спи ральный</w>
сокращ енным</w>
содержа щее</w>
содер жат
со ли
служи вший</w>
служи вшая</w>
сла ви
сконча вшимся</w>
сена те</w>
сена та,</w>
сед ан.</w>
с ные</w>
с вета</w>
с )</w>
рупи я,</w>
роля х</w>
рок-музыкан т.</w>
рок- форма
рождествен ской</w>
роди вш
род у</w>
ро ном</w>
ри са,</w>
ри но</w>
ри на</w>
ри аль
регион у.</w>
ре с,</w>
ре ктором</w>
ран о
рай она
разно образи
развер ну
раз бита
рабо ту</w>
раб ский</w>
ра ции</w>
ра лли".</w>
р ".</w>
производ ны
прожи вал</w>
проек та</w>
провинци аль
провин ция,</w>
про гре
приня ла</w>
призы в".</w>
при меча
пресс- службой</w>
премьер- лиге,</w>
преем ник</w>
предыдущи м</w>
предоставля ющих</w>
предлага емы
правитель ством,</w>
правитель ства</w>
прави тельство</w>
почто вый</w>
почто вые</w>
постро или</w>
поста вляется</w>
пост код</w>
после дней</w>
популяр ный</w>
получи ла</w>
получи вший</w>
получа ют</w>
получа телем</w>
полнопривод ным</w>
поверхност ь.</w>
по- китай
по чет
по сол</w>
по кро
по бе
площади ,</w>
пло щадок</w>
пита ется</w>
печа ти,</w>
перво открыватель</w>
пер вую</w>
пеньет ".</w>
пе ко
пеко рино</w>
париж ский</w>
пала ту</w>
па ко
отмет ке</w>
от не
от дел
орден а</w>
ор хусского</w>
опыта ".</w>
ол шеб
оказа лся</w>
одна ко</w>
овощ ей,</w>
област ном</w>
обита ют</w>
о нером</w>
о ".</w>
но в</w>
неработа ющего</w>
не выполненный</w>
направл ение</w>
назем ный</w>
названи я,</w>
на ступила</w>
на рез
на знач
на »</w>
н ят</w>
мэро м.</w>
мрамор ный</w>
монар хи
мо вая</w>
мм с.</w>
ми ".</w>
металл .</w>
мет ь</w>
менедж ер
мас ла.</w>
маги стра
ма-матер "</w>
ма ".</w>
м ский</w>
ль да".</w>
ль вы
ло с,</w>
лл е</w>
лиде ра
ли ра</w>
лет ной</w>
ле докол</w>
лан ом.</w>
л- Ку
л .
кэ .</w>
куриц ы,</w>
кун ж
кунж ут
круиз ный</w>
кре пость</w>
крас ный</w>
компани ю</w>
комп ьютерных</w>
комик са</w>
комик с-
командо й,</w>
команди ров.</w>
колба су</w>
ко й,</w>
ко вым</w>
ко -
кни ге</w>
кита йском</w>
километр ).</w>
ки м</w>
келви нов
картош ку</w>
кар и
капита л,</w>
канцле ра.</w>
ка д
к ции</w>
к к
к )</w>
й ский.</w>
исто рии</w>
ис хождение</w>
интернэшн л"</w>
индонези йский.</w>
ин де
и меть</w>
зерв ным</w>
зем ля
защи т
запу ск.</w>
запис ь</w>
запа сные</w>
занима ться</w>
заказ ом</w>
заво д</w>
за кончил</w>
за бель</w>
жима ли"</w>
жа т</w>
ж ных</w>
ет чуп</w>
ет чик-испытатель</w>
ени е,</w>
ен ци
ей мут</w>
еди к
ев ".</w>
е ся</w>
е :</w>
ду .</w>
дочер нее</w>
доба вл
дне й,</w>
длин ная</w>
дли ны.</w>
дизай нер</w>
диамет ре.</w>
держи вает</w>
дер ни</w>
ден а</w>
дей ствующим</w>
д мун
д зо</w>
губернато ром.</w>
групп ами,</w>
гриб ке</w>
грече ском</w>
гре ческий</w>
гре ки.</w>
года х,</w>
гита ру.</w>
гим н,</w>
ге ро
г лоязы
выпол ня
вы м,</w>
вы да
ву мя</w>
вторж ения</w>
все-синкромеш ка,</w>
воч ный</w>
вод ы.</w>
во в.</w>
ви ру
в ен
бутерб рода</w>
больш его</w>
блюдо м,</w>
ближай шим</w>
ближай ший</w>
бекон-бутерб род</w>
бекон-бутерб род.</w>
бази рования</w>
ба ",</w>
аэропор т"</w>
афро американцев,</w>
афри кан
ат ь</w>
асфаль товую</w>
астронав тов.</w>
ано "</w>
англий ским</w>
американц ы".</w>
американ ско
аль мы</w>
академиче ским</w>
аджи б</w>
автома тическую</w>
авиа база</w>
а фи
а сам</w>
а пофе
а лом</w>
а -
Яко ба.</w>
Юж ном</w>
Юж но
Эрнанде са</w>
Эрнанде с"</w>
Эразму с</w>
Э регу
Э лект
Шти рии.</w>
Шри-Лан ке</w>
Шри- Джаяварденепура</w>
Ш ей
Черны ш</w>
Чарль зом</w>
Церков ь"</w>
Цент ральная</w>
Хорриган .</w>
Холлоуэ й.</w>
Фор ту
Филли д</w>
Фи цсим
Фергю сон</w>
Фаллудж а.</w>
Фаверх э
ФК ,</w>
Ф лори
Ф РА
ФРА Е
ФРАЕ РО
Уор дом</w>
Уол л-Ку
Уильям сбурге,</w>
У чился</w>
Турци я.</w>
Туркменистан .</w>
Тури не,</w>
Ту ды
Тро ц
Томс к"</w>
То мом</w>
Ти тул</w>
Ти тан
Техниче ском</w>
Тейло р.</w>
Те перь</w>
Суматр ы.</w>
Стокголь ме</w>
Сто гер,</w>
Стамбу ле,</w>
Ст ё
Спаллет ти</w>
Со то
Служ бой</w>
Служ ба</w>
Сити ".</w>
Син дзо</w>
Си ба
Се сси
Се веро-
Сво ю</w>
Сбор ная</w>
Самара сом,</w>
Са лем.</w>
США ;</w>
СПИД а</w>
СМ А</w>
С тарто
С проекти
Румыни я,</w>
Рудольф .</w>
Роч дей
Роха с</w>
Род ное</w>
Ричар д
Ри ма,</w>
Ре зервным</w>
Рахимо вым.</w>
Расиза де,</w>
Ра за
Ра бо
Ра "</w>
Р енци
Пуй я.</w>
Про исхождение</w>
Прин ца</w>
Порт- Арту
По скольку</w>
По зднее</w>
Пинхаис е.</w>
Пик чи.</w>
Печат ная</w>
Пенджа бе.</w>
Параку эль
Папенбург .</w>
Панам у</w>
Паис а,</w>
ПФК ",</w>
ПФ Р.</w>
П рей
П о</w>
П ена»</w>
Ости на.</w>
Ости на,</w>
Орху се</w>
Оллан д.</w>
Од ди.</w>
Обнаруж енный</w>
Оберхоль ман.</w>
Обер хель
Об ь</w>
О ле
Нью-Гэмпши р,</w>
Норвеги и.</w>
Никола ем</w>
Нигери и.</w>
Неаве ",</w>
Н аф
Н аджиб</w>
Н ФРАЕРО
Мэ н,</w>
Мэ н
Молда вии</w>
Мичиган ский</w>
Мичиган е,</w>
Мих етти</w>
Мит че
Ми лон
Международ ная</w>
Махму д;</w>
Матер ин
Мар раке
Манхэттен е.</w>
Малайзи я.</w>
Малай ском</w>
Мала йцы</w>
Макнаи ру.</w>
Маки са</w>
Мадри да,</w>
МАХЕ 9
М. С.,</w>
Лю ди,</w>
Луанд а</w>
Лу ж
Ливор но,</w>
Ли вии</w>
Ле ван</w>
Лаци о</w>
Ла-Па се,</w>
Л етчик-испытатель</w>
Л ам</w>
Куши ке.</w>
Ку ри
Кот те,</w>
Коста -
Корни ш</w>
Копенга г
Кита йский</w>
Кимбер ли,</w>
Кем пе</w>
Квин с</w>
Квин с,</w>
Кай- Ше
К етчуп</w>
Иу со.</w>
Испыта тель</w>
Ис полни
Ир ла
Инженер но-
Индианаполи са.</w>
Им ст
ИКА О.</w>
И забель</w>
Зума .</w>
Зеланди я,</w>
Зеланди я")</w>
Зеланди и,</w>
Зе стафони
Запеч енную</w>
За кари
З десь</w>
Ж Алу
Елизавет у</w>
Дэв ис
Дональ д</w>
До й
Диа с.</w>
Ди ком</w>
Джон соном,</w>
Джей ми</w>
Дербыши р
ДеМар се,</w>
Двига тель</w>
Дании ла</w>
Дагга ш.</w>
Д о</w>
Д вумя</w>
Гуне ром.</w>
Гру зин
Го род,</w>
Геттисбург е,</w>
Гамиль тоне,</w>
Г ёттинг
Г лен</w>
Вьетнам цы</w>
Вольфсбург ".</w>
Владикавка з".</w>
Виргини и.</w>
Викто рия.</w>
Вестмин стерской</w>
Венизе лос</w>
Венизе лос.</w>
Важу хай</w>
Ва ла.</w>
В фл</w>
В стречи</w>
Бы вшие</w>
Буэнос-Айре с.</w>
Буэнос-Ай рес</w>
Буре ром</w>
Бундес лиги.</w>
Брук лин</w>
Британ ские</w>
Бразили а.</w>
Бра ун.</w>
Болатин ский,</w>
Бо ер</w>
Блю до,</w>
Блан к.</w>
Бирминге ма,</w>
Бертрамва й,</w>
Берто не</w>
Бен едик
Бел гра
Баэй д</w>
Бату ми</w>
Бара ка</w>
Бандежа а</w>
Баа да.</w>
Ба си
Б ром,</w>
Б ли
Ачарь я,</w>
Афины "</w>
Ататюр ку,</w>
Асунсь он,</w>
Арлингто н,</w>
Аренда тором</w>
Аргентин е.</w>
Аргенти на</w>
Ара пира
Антони о</w>
Андер сон.</w>
Андер сон"</w>
Анго ле</w>
Анге ла</w>
Ан далу
Ан глоязы
Амстерда м</w>
Аматриче .</w>
Ам харский</w>
Ам пара</w>
Ам дава
Аля ски</w>
Альдри н</w>
Альбукер ки.</w>
Аль-Хор ,</w>
Аль-Ор дон"</w>
Аль бани</w>
Александри я</w>
Ал бани
Аки хи
Адси т.</w>
Аден а</w>
Ад рес,</w>
Австрали я.</w>
АРИ Б.</w>
А ри
А рабский</w>
А дольф
А ЗАЛ</w>
ü r
ür k</w>
á di
ádi o</w>
«гиги ена»</w>
«Антаре с»</w>
«Аль-Такаддум »</w>
«Агра »</w>
« Туркменистан
« Орхус</w>
« Афонсу</w>
z e.</w>
z e
ze al
xiao long,</w>
x m
wolfsbur g,</w>
win ne
winne b
wilder .</w>
wash ington.</w>
wart on,</w>
w b
w av
vec tra</w>
v .
usaf .</w>
usaf ,</w>
toekom st.</w>
tl x"</w>
ti c
th .</w>
ter r
teow .</w>
te s</w>
tart "</w>
ta q
taq ad
taqad du
taqaddu m</w>
t ony</w>
t ar
t .s.</w>
system s.</w>
sti k</w>
ster n</w>
stat es</w>
st ri
st or
sportiv a"</w>
sp r
spr ing
solan ales
shi vers
shi re,</w>
shepar d,</w>
se x</w>
se "</w>
sch ap
schap .</w>
sand s.</w>
samu el</w>
sal ass
salass an</w>
s w
s q</w>
s la
s em
sem in
roy ce.</w>
române !</w>
ro ger</w>
que ens</w>
quart ing,</w>
pudding .</w>
pudding )</w>
pu ig</w>
pu ig.</w>
poy et</w>
powy s.</w>
polonic a"</w>
pla stik</w>
peny et</w>
paperb ack.</w>
p 18
ow l</w>
ori da</w>
or ge</w>
ol den
olden d
oldend or
o c
o aa907</w>
new por
neustad t</w>
ne i
nand ez</w>
n )</w>
music "</w>
modl ing
min istry</w>
mich ig
meringu e,</w>
mendrisi o.</w>
mendrisi o"</w>
mb-3 39</w>
mb a</w>
mather ica</w>
marysvil le".</w>
mart in
mar k</w>
managem ent,</w>
m ö
lin coln</w>
lim it
legen ds,</w>
las s</w>
l ",</w>
jon es,</w>
joh ann</w>
j orge</w>
it al
international "</w>
ingham shire,</w>
infraer o.</w>
in f.
in du
indu stri
il lo,</w>
ii i,</w>
i .
hotel .</w>
hor se</w>
heinle in,</w>
hardcover .</w>
hardco ver</w>
harbo r</w>
h p18
groun ds.</w>
gro up.</w>
gre gor
gregor y</w>
gra af
graaf schap.</w>
g us
g lass</w>
g er,</w>
fut bol</w>
frang ip
fow le</w>
fly de</w>
flibbertigibb et.</w>
flibbertigb et.</w>
fl orida</w>
fiorentin a.</w>
ficti on.</w>
fenv es</w>
fenc ury</w>
fenc ent
fencent ury</w>
f ein
et "</w>
est ádio</w>
est in
es sex</w>
ep st
eat ers,</w>
e arth</w>
dolphin s.</w>
deste apt
desteapt a-
desot o</w>
desaleg n</w>
deptfor d.</w>
dent .</w>
dani el</w>
danc e-
custom ,</w>
custom "</w>
cur tis</w>
cu ban
cuban el
cti on</w>
crocier e.</w>
coron et.</w>
conferenc e,</w>
cla y
ck inghamshire,</w>
chrysl er.</w>
chin at
ch ilton</w>
ces ana</w>
canonic a,</w>
canad a.</w>
c "</w>
bur g,</w>
bu ckinghamshire,</w>
br v.</w>
boo k</w>
bloom sbur
blackpool "</w>
bert ram</w>
beno it,</w>
baji k.</w>
ba an</w>
b ald
bald er</w>
avenu e,</w>
ation .</w>
ass e</w>
arrabbiat a.</w>
arr tes</w>
arin anesp
ar d,</w>
ar ab
an ne</w>
an it
amar illo,</w>
am man
am az
alm ak
alcobend as</w>
al e,</w>
airast ella,</w>
air man</w>
air man,</w>
ag ue</w>
admi ra</w>
addicti on,</w>
ab brv.</w>
a.s. d.</w>
a por
978-0-15-204770- 2.</w>
906 40
90640 84
9 00,0.</w>
87 53
80 15
8 14</w>
7877 11
767983 17</w>
69862200 ,0.</w>
657 .</w>
60040714 ,</w>
5739224 6</w>
5196917 3.</w>
5- ступенчатую</w>
5 6</w>
497 ,0.</w>
44 11
44 ".</w>
40 4</w>
4 hp18
4 0000,0</w>
3x n</w>
3990 ,0.</w>
37 12
3712 40000,0</w>
349206 0000
32. 2.</w>
318 8753
3 2</w>
28 l</w>
27914200 0000
23 3</w>
2006 .
2006. 12.
200 7</w>
2 30</w>
2 -я</w>
196 5</w>
193 7</w>
190 8</w>
18 73
1732-24 21.</w>
17 r</w>
17 9
17 3,0</w>
164 ",</w>
16216409 1.
162164091. 8388</w>
16 v</w>
1588-2632 .</w>
1558-28 68
1533 ,0.</w>
15 33</w>
14 8015
14 18.</w>
12 r</w>
1080-63 77.</w>
0269-93 70.</w>
0001-839 2.</w>
- Юлия</w>
, 2</w>
(футболист ),</w>
(любители ).</w>
(любители ),</w>
(Испани я).</w>
(Великобритани я)</w>
( расположен</w>
( на</w>
( келвинов
( Нью-Мексико
( abbrv.</w>
( "Новая</w>
'ah n.</w>
"вы жимали"</w>
"Ювенту с".</w>
"Туркменистан ".</w>
"Туркменбаши ".</w>
"Транс- музыка"</w>
"Тори но
"Схипхо л"</w>
"Сан -
"Самтреди я",</w>
"Сампдори я".</w>
"Пена рол".</w>
"Открыти е".</w>
"О ладипо</w>
"Мо ро"</w>
"Милан "</w>
"Мемори а
"Ме даль",</w>
"Лимон "</w>
"Л окомотив</w>
"Корити ба"</w>
"Кол н".</w>
"К ру
"Звезда ".</w>
"Замбоанган ы"</w>
"Гуджара та"</w>
"Греймаши но
"Грей маш
"Гамиль тона</w>
"Г рано
"Ар ро
"Аполлона-1 1",</w>
"Аполлона -8
"Анахай ма",</w>
"Аль- Наф
"Аль пена
"Алпена ",</w>
"Ала б
"Аб нер"</w>
"АИДАлу на",</w>
"А ппле
"А в
"А МАХЕ9
"schipho l"</w>
"infraero ",</w>
" Фонтан",</w>
" Филли
" Уолтер</w>
" У
" Роза</w>
" Ор
" Народного</w>
" Мар
" Карната
" Ирла
" Инф
" Инди
" Зестафони
" Е
" marysville".</w>
" marriott</w>
" galileo</w>
" enaire
" bhangr
" american</w>
" albert</w>
" 978-1-4165-4253-7
" 1923</w>
ёль н"</w>
япон ской</w>
языка х.</w>
язы ки.</w>
я м</w>
я -
юш ни</w>
южноафрикан цев.</w>
ю тю
ютю нер</w>
ю рисдик
ю но
юно ше
эро дро
эпо х</w>
электро акустическую</w>
экспона том</w>
эксплуата ции.</w>
э ффици
э тому</w>
э стра
шко ла,</w>
ши "</w>
ш ви
ш а"</w>
числен ностью</w>
черноко жие</w>
черни ла,</w>
чемпио ном.</w>
челове ком,</w>
ча .</w>
ч ь</w>
художни цей</w>
холод ную</w>
хи т
хит лер
хитлер и</w>
хар д</w>
х ам,</w>
футболь ными</w>
футболь ная</w>
фортепи ано.</w>
фор мой</w>
фламанд ского</w>
филиппин ец.</w>
ур и</w>
управля емая</w>
уда ли
удали ла</w>
уда лена</w>
у с.</w>
у ри
ури сио</w>
у к
у да</w>
ту рок</w>
ту о
трене ром</w>
тор том</w>
тома ты.</w>
ти пом</w>
ти л</w>
ти "</w>
тем пера
темпера ту
тамиль ский</w>
та л</w>
т ре
т ленде,</w>
сыгра ет</w>
сы р,</w>
счита ться</w>
суд но</w>
ступенча той</w>
стру п</w>
строитель ства</w>
строи тель</w>
стран у,</w>
сти ни
стен ском</w>
ствующи ми</w>
ствен но</w>
ствен ник</w>
ст ве.</w>
ст ани
ст -
спу ст
соу са.</w>
соу с"</w>
сотруд ник</w>
состави ло</w>
сорат ником</w>
сопут ствующим</w>
соответ ствующие</w>
соль ное</w>
созда тели</w>
созд анная</w>
соб ственный</w>
сня лась</w>
сно к</w>
си л.</w>
сер та
сена то
сена та.</w>
секретар ь</w>
северо-запа де</w>
северо-восто ку.</w>
сдела ла</w>
сво я</w>
сбург е.</w>
сантимет р.</w>
сам ым</w>
сам а</w>
сай т</w>
са го</w>
с ингапу
сингапу р
с жа
сжа того</w>
с вет
с ).</w>
ры б
рук лин
рок ",</w>
род ным</w>
ров ки</w>
ро да,</w>
ричне вый</w>
ри ст</w>
ри кан
резиден ция</w>
рез е</w>
реги ону</w>
ре к</w>
расположен о</w>
рас простран
рас по
распо лага
рай она,</w>
развити я,</w>
раз ли
разли чные</w>
р т.</w>
путеше ствует</w>
пу дро
производи ть</w>
производ ства</w>
производ ное.</w>
прожи вающий</w>
проду ктов</w>
програм ме</w>
провинци альный</w>
про чные</w>
при пра
припра вы.</w>
при дает</w>
представи теля</w>
председатель ством</w>
предлагаемы х</w>
преде л</w>
пред прияти
правитель ство.</w>
прави т</w>
похо жая</w>
поступа ют</w>
получ ена</w>
полнопривод ная</w>
полити ком</w>
полити к,</w>
покро ви
поезд ку</w>
подписав шийся</w>
подава емое</w>
погиб ших</w>
по- француз
по т
по кой
писа телем</w>
перво нача
первонача льный</w>
перат ура</w>
парти я"</w>
пад ения</w>
п ский</w>
официаль но</w>
отредакти рована</w>
откры та</w>
остро ва
ору ж
органи зо
он ",</w>
округ ",</w>
окру жа
окружа ющую</w>
обслужива ться</w>
о то
о ста
о ка
ны й"</w>
нико в,</w>
ни ка</w>
ни ж
ниж ний</w>
немец ком</w>
немец кой</w>
немец кий.</w>
не ра.</w>
не мун
не которых</w>
не го.</w>
не "</w>
началь ник</w>
националь ная</w>
нау гу
наугу рации</w>
насиль ником</w>
народ "</w>
называ лось</w>
называ лась</w>
на я"</w>
на падения</w>
на ль
н цер
н ский</w>
н ена
нена ви
ненави дит</w>
музыкаль ном</w>
му том</w>
му ки.</w>
мож ете</w>
мо тивам</w>
многи ми</w>
мно го
много числен
мл н</w>
мероприяти я</w>
мери тельное</w>
медаль ю.</w>
мас ла</w>
магист ра</w>
ма-Ма тер</w>
м по
м -2
лю ционной</w>
ло т</w>
ло с-де-Джара
ло р
лини и</w>
либе рал-
ли мо
ли к</w>
летчиком -истреби
летчи к-испытатель</w>
лей борист
ледокол "</w>
леги онером</w>
лан а</w>
л стоне,</w>
л ке</w>
кур сом.</w>
кур са.</w>
ку пе.</w>
ку бо
ку бан
ксима льная</w>
кревет ки,</w>
кос мический</w>
корот кие</w>
коричне вым</w>
кор енными</w>
конфлик та</w>
комиксо в.</w>
команди ром,</w>
ком "</w>
колумби йском</w>
коло дец</w>
ко эффици
ко дов</w>
классифици рована</w>
кла виш
кита ян
кита йское</w>
кет чу
кварта л"</w>
карьер ы</w>
каде ми
ка м
исследовани я"</w>
использо ванием</w>
инструмент ,</w>
институ та,</w>
ин товое</w>
имуще ства</w>
импери и</w>
импери и,</w>
извест ным</w>
из об
из мерительное</w>
и наугурации</w>
и ды</w>
зо лотой</w>
зи .</w>
звез да</w>
защи тни
заслуги ".</w>
запу ск</w>
запа де,</w>
заму жем</w>
зали ве
законодатель ным</w>
законодатель ной</w>
з ональный</w>
з ар"</w>
жиз нь</w>
жан ра,</w>
жан р.</w>
жай ший</w>
ет ся"</w>
ера н</w>
емы м</w>
ем ые</w>
едя т.</w>
ев из</w>
дру го
доктор ским</w>
до во
дн юю</w>
дискоте ка.</w>
дис хам,</w>
дис серта
дире ктор</w>
дизель- электропередач
депута том</w>
демо на</w>
даль ность</w>
д ские</w>
гущ енное</w>
грен ландском</w>
гранол ы</w>
грани тный</w>
граммо в</w>
граждан ство</w>
граждан ин,</w>
гра ду
государств енным</w>
государ ства,</w>
город ная</w>
горо дов</w>
голо со
говядин у.</w>
говор ящего</w>
го стини
генера льный</w>
гвозди ка,</w>
гараж ного</w>
ган ,</w>
г лый</w>
г де,</w>
г да-то</w>
г -н</w>
выпуск ник</w>
вы ми</w>
волон тер</w>
вой ны".</w>
возглавля емая</w>
военно-мор ском</w>
военно-воздуш ных</w>
вод у</w>
во люционной</w>
во вле
вн »</w>
влияни е</w>
вла ст
включа ть</w>
вклю чен</w>
вице- президентом</w>
вет ер
верх ней</w>
вер сис.</w>
ве сти
вариаци ями</w>
в ре
в кла
в ).</w>
бю ро",</w>
бх ангра
бутербро да,</w>
буду чи</w>
бу ,</w>
брон зы</w>
брон зы,</w>
больни це</w>
бо льница</w>
бо и</w>
бо дро
бо вы
би онико</w>
би .</w>
бер хард</w>
бекона-бутерб рода,</w>
бе сит</w>
бе би-
б хаджи.</w>
б ро
аэропор та.</w>
афроамерикан ка</w>
афро американцы,</w>
аф а
афа э
архитекто р,</w>
амхар ский</w>
ам ат
ам аль
альтернатив ы</w>
альтернатив ным</w>
ала кти
актив ной</w>
академиче ски</w>
академиче ская</w>
автомоби ля.</w>
австрали йский</w>
авианосц ах.</w>
ав ший</w>
а эродро
а хим</w>
а бориген
а ).</w>
Я н</w>
Я ако
Юли ей</w>
Эссек с</w>
Эртегу на,</w>
Эндрю с,</w>
Эдуар да</w>
Э ль
Э лен</w>
Э дмун
Э берхард</w>
Шяр фа.</w>
Штато в"</w>
Шеста йн,</w>
Ш ко
Ченна и,</w>
Чемпи оны</w>
Че снок</w>
Чар лстоне,</w>
Чаллино р,</w>
Хор нцер
Хопкин са,</w>
Хо мери
Харбор ",</w>
Хар тель</w>
Форт-Уор д.</w>
Фише р</w>
Филлип са,</w>
Филли п</w>
Фи на
Фар мер.</w>
Ф аль
Уругва я,</w>
Уот сон.</w>
Уильям сон</w>
Трен тон.</w>
Тем пература</w>
Текст ы"</w>
Тей шер.</w>
Тей шер
Те ис
Сумат ры</w>
Сумат ре</w>
Су валь
Стивен ом</w>
Спроекти рованный</w>
Спор т",</w>
Служ бе</w>
Скот том.</w>
Скот та.</w>
Скале са,</w>
Сиэт л.</w>
Сингапур ской</w>
Сингапу р.</w>
Симон соном.</w>
Сена том</w>
Север ед</w>
Сеаг ле.</w>
Се хитлери</w>
Сбор ка</w>
Санче с</w>
Сансо не.</w>
Санда ш.</w>
Сади к</w>
С гущенное</w>
Рют те,</w>
Ро си
Ричард сон</w>
Ренци .</w>
Реда ктором</w>
Ред ди</w>
Расмус сен,</w>
Рам ис.</w>
Пряд ников</w>
Про "</w>
Прави тельство</w>
Постро енный</w>
Пор тленде,</w>
Поп-музы кант</w>
Под раздел
План те,</w>
Пи лот</w>
Пенджа б,</w>
Паракуэль лос-де-Джара
Парагва я,</w>
Пар ана</w>
Палеобиологи и</w>
ПЕ ДА
ПЕДА С</w>
П рай
П ена.</w>
Орего не</w>
Ор г
Опера ция</w>
Опера ционной</w>
Оле х</w>
О дин
Ноттинге ме,</w>
Нор берт</w>
Ниинисто .</w>
Не смотря</w>
На зем
Н ури</w>
Мэрилен де</w>
Мэдисо н",</w>
Моск ва</w>
Мичиган е.</w>
Ми лле
Мена ша</w>
Мена ша,</w>
Мекси ки.</w>
Маха чка
Материн ская</w>
Масу м.</w>
Мас са</w>
Манхэттен .</w>
Манор ,</w>
Мала я.</w>
Маккен зи</w>
Макк ей.</w>
Мадрида-Барайа са</w>
Мадри д.</w>
Мади ном.</w>
Ма урисио</w>
Ма ксимальная</w>
Луфтха вн»</w>
Ло мпо
Ло ган,</w>
Ли га</w>
Ланаркши р.</w>
Лан ка
Лам мер
Кэме рон.</w>
Кэ рро
Куяхо га</w>
Куттиккаттоор ,</w>
Куркурон не
Куба тов.</w>
Куала-Лумпу р.</w>
Ку ш
Кре сто
Коэ н</w>
Королев ство,</w>
Корнель ским</w>
Корнели ей</w>
Кон юшни</w>
Колумбу с,</w>
Колумби и,</w>
Ко ц
Ко к</w>
Ко гда-то</w>
Клы х.</w>
Клу ба</w>
Кита е</w>
Кент ук
Кен да
Кед ы.</w>
Ке ды</w>
Каталони и,</w>
Касти ль
Карнатак е,</w>
Капи тан
Кан т.</w>
Кам пи
Ка стили
Йо ахим</w>
Ита льянец</w>
Ир ландский</w>
Инва сии</w>
И ме
И здание</w>
Закари я</w>
Евро лиге</w>
Дол ль</w>
До л</w>
До е
Ди я</w>
Ди ректор</w>
Джон с.</w>
Дженнинг са.</w>
Джексон ви
Демократиче ская</w>
Де ер</w>
Даниэ ль</w>
Да лес.</w>
Д евиз</w>
Гю нер.</w>
Губ чатый</w>
Гу став
Гро тоне,</w>
Гра че
Гонкон га,</w>
Го ри
Гви анский</w>
Гви ана,</w>
Гвадалахар ы</w>
Гвадалахар ы,</w>
Гаррет т</w>
Гаррет т.</w>
Га у
Вопере з.</w>
Вольф а</w>
Во версис.</w>
Влади ми
Висконсин е</w>
Ви кремесингхе.</w>
Веро на,</w>
Вар ша
Вар немун
Валь тером</w>
В еймут</w>
Бы вшей</w>
Буэнос-Айре се</w>
Буэнос-Айре с,</w>
Будапеш те,</w>
Бу з</w>
Брюин з"</w>
Борне о</w>
Боогаар да.</w>
Бли жайший</w>
Бинигне в</w>
Беля в
Белы х.</w>
Беко н</w>
Баэй д",</w>
Бату ми,</w>
Баси м</w>
Барбо са,</w>
Бара бан</w>
Баку э
Бай ден
Б ютюнер</w>
Б интовое</w>
Афин ским</w>
Афин ,</w>
Ау лас</w>
Асунсь он</w>
Ари фин</w>
Арез е,</w>
Ар ти
Ар п</w>
Аппле тон.</w>
Антверпен ского</w>
Андре ем</w>
Аляс ку</w>
Альдрин-младши й,</w>
Алкма ар"</w>
Ал дерни</w>
Акхиг бе.</w>
Акхиг бе,</w>
Акаде мии</w>
Ази ломар
Адольф а</w>
Адела иды</w>
Ад сит</w>
Авто моби
Австри я</w>
Абар том.</w>
АМ П</w>
А ни
А ку
А дисхам,</w>
А боригены</w>
А ".</w>
ñ ar
«Имущество ».</w>
«Амарльо »,</w>
«Аль-Аса д»,</w>
« Лиди
y a.</w>
wol f</w>
winneb ago</w>
wildwee ds</w>
we e</w>
w w
w all</w>
vin c
vinc ent</w>
vi g
vig or</w>
veron a"</w>
ver mon
ven er</w>
vec tr
vectr a.</w>
v d
v ad
v ,</w>
us ki
uni v.
uni one</w>
to m</w>
t ze</w>
t ri
tri estin
triestin a</w>
t er</w>
t "</w>
stev e</w>
ste in</w>
ss el
spacewatch ,</w>
solanal es,</w>
solan acea
siomay .</w>
shivers ,</w>
shi it
servic e.</w>
semin .
semin. univ.
se d
se agle.</w>
scri vener</w>
scho ol,</w>
sch nei
sar aw
sandes h</w>
sal vad
s.r. l.</w>
s -
s- royce</w>
roxbur y.</w>
ron a</w>
roll s-royce</w>
ro si
ro bert</w>
reviv al,</w>
resear ch</w>
res el
resel ec
r y,</w>
quarti er.</w>
quart ing
q ,</w>
pu bl
publ is
poy et,</w>
pot enza</w>
post- metal,</w>
popu lo
pop-музы ке.</w>
polonic a.</w>
pol )</w>
po p,</w>
plaz a.</w>
pes car
pescar a</w>
peny et,</w>
pe ñar
pe cor
pecor ino</w>
patri ot
pagn ell.</w>
p in
pin h
p au
p ain</w>
om et
o tt
nw c</w>
nation "</w>
n u
n ael</w>
mö g
music ".</w>
mus u
muchacho s</w>
moyin e.</w>
mo en
min as</w>
math. semin.univ.
marri ott
mad ri
m cc
mcc un
m al
m a</w>
lun a",</w>
loc ation</w>
lin e-
li on-duch
l en
l al
lal bhai</w>
km s.</w>
klin k"</w>
kil omet
k m.</w>
k er
k ell
kell amer
kellamer gh</w>
k ".</w>
jon es.</w>
jar at</w>
j ep
jep son</w>
is land,</w>
is an</w>
internation ari
ing -
in line-
ic a,</w>
ian za</w>
i l</w>
hous e,</w>
her nandez</w>
head .</w>
haver ing.</w>
hard w
hal ton</w>
h uski
guar ds.</w>
guanci ale</w>
gu jarat</w>
gloom "</w>
ger ais
gerais and,</w>
galac ti
g a.</w>
founta in"</w>
flin t)</w>
figh ter.</w>
fein stein</w>
f ino</w>
f air
est eg
esteg hall</w>
es ".</w>
ers on</w>
eng land</w>
el ,</w>
ei re
du ane,</w>
dou g</w>
do om</w>
do l.</w>
dis co,</w>
di anne</w>
depor at
deporat eapté-te,</w>
del fino</w>
danc er
d aw
d alp
cullin s.</w>
county ),</w>
copen son</w>
cop er
coo k</w>
com p
colle ction</w>
co lan
choriz o"</w>
chievo verona"</w>
ch ute</w>
cat ania.</w>
candomb e.</w>
campu s,</w>
cal ero</w>
caball er
c ap
busines s.</w>
bru ssel
boo k
blu es,</w>
bayma x,</w>
batag or</w>
bas k
bas e</w>
banner ".</w>
b s</w>
b et
ay r</w>
av oc
atto or,</w>
ation ,</w>
arr us</w>
arnh em.</w>
argimi ação</w>
ar k</w>
amman n</w>
amaz ing-
alask a.</w>
al um</w>
al ianza</w>
al ba</w>
al b</w>
aktiesel kab
ak .</w>
aja x,</w>
ais h</w>
ai s</w>
agu il
ag en</w>
affair "</w>
acur a.</w>
abh .
abh. math.semin.univ.
a. e.</w>
a 1,</w>
a ),</w>
99 0</w>
9 5
9 312</w>
8788850000 ,0,</w>
87888 5
8 5
8 17,</w>
8 ,0.</w>
8 "</w>
8 ",</w>
787711 00.</w>
7, 9</w>
68 2,</w>
6, 5</w>
6 00,0.</w>
597 ,0.</w>
53 5</w>
4hp18 q
48816 0,0.</w>
4411 4.</w>
40 4.</w>
40 4,</w>
4, 56</w>
4 38
4 29
429 ,9</w>
4 000,0.</w>
4 -й</w>
399710000 0000,0</w>
39447 000,0.</w>
34 6,0</w>
32 r.</w>
31. 12.
31.12. 200
3- ю</w>
3- м)</w>
3, 9.</w>
3 arena,</w>
2907 5</w>
28 r</w>
28 6,5</w>
27 44</w>
24 8</w>
214 ,</w>
201 2</w>
2006-12-3 1.</w>
200 4-0
20 .</w>
2 194
2 158
2158 -3
2158-3 2
2 1,
21, 2.</w>
2 ".</w>
199 8-
194 7</w>
1939-01-0 3</w>
1907-0 7-
190 9.</w>
19 21</w>
19 ,
19, 94</w>
183309 000,0</w>
183309 000,0,</w>
18,52 ,</w>
18 ,0</w>
179 3</w>
17 8</w>
17 ,0</w>
164 .</w>
16 6</w>
142603 000,0,</w>
135589 000,0,</w>
130 17,0</w>
12 ".</w>
1147 3.
11 ,</w>
1046-818 8.</w>
1- ю</w>
1, 905</w>
1 0000</w>
07 .</w>
0001-8 392
00 ,</w>
. С
-младши й.</w>
-Харать ят</w>
-А мин</w>
,0 0</w>
) ;</w>
( с</w>
( полное</w>
( лидер</w>
( которая</w>
( дом</w>
( аффилирован</w>
( i
"Южноураль ским</w>
"Э разму
"Чер ная</w>
"Флори ду</w>
"Уттар-Прадеш ",</w>
"Тур кмени
"Торино ".</w>
"Т рен
"Спар та</w>
"Сент-Жор ж
"Се зар"</w>
"Реа р</w>
"П рай
"П ари
"Оранж евый</w>
"Об ь",</w>
"Но вый</w>
"Н РБ
"Милан ",</w>
"Мемориа ла"</w>
"Мар шви
"Макка ши"</w>
"Лумеззан е"</w>
"Лумеззан е".</w>
"Ле ге</w>
"Ле га</w>
"Курити ба"</w>
"Кру глый</w>
"К ёльн"</w>
"Инф рае
"Е ди
"Динамо ".</w>
"Д АМП</w>
"Греймаши на"</w>
"Грано ла"</w>
"Г алакти
"Вашингто н"</w>
"В ей
"Бо бовы
"Блю з"</w>
"Бирминге ма"</w>
"Бар са"</w>
"Балдер "</w>
"Б уэ
"Б руклин
"Б ост
"Ачар ья"</w>
"Ататюр к",</w>
"Аполло-8 ",</w>
"Аполло-1 4",</w>
"Ан жи</w>
"Ам стерда
"Аль-Ш амаль
"Аль-Андер сон",</w>
"Аль хам
"Алдерни ".</w>
"Агра ".</w>
"А-Ро за"</w>
"А сам</w>
"А бель</w>
"А "</w>
"whis key</w>
"addicti on"</w>
"addicti on
"a 894</w>
" холодную</w>
" сироте</w>
" оранж
" ледокол"</w>
" и</w>
" Энн</w>
" Хьюсто
" Теджан
" Соединенных</w>
" Соединенного</w>
" Мэдисон",</w>
" Игоро
" Джин
" В</w>
" usaf
" chorizo"</w>
" b</w>
" aids</w>
" "</w>
ящи йся</w>
ю дор</w>
эспань о
эм фор
эксплуатиру емой</w>
э фио
ью ,</w>
ы )</w>
ши рина</w>
ши р,</w>
ше го.</w>
ш те
ште й
ш ",</w>
член ами,</w>
чемпиона те</w>
чемпи онов.</w>
че ская</w>
ч ных</w>
ч ное</w>
ч ного</w>
цилинд р</w>
цент ре.</w>
ц вета</w>
художни ком,</w>
хо кк
хлебобуло чной</w>
хип-хо па</w>
хип-хо па.</w>
харак тер
футболи ста</w>
фре д</w>
француз ы</w>
филиппин цы.</w>
фили алом</w>
фика ци
фи рм
фирм ы</w>
фе р</w>
фало под</w>
фак ты</w>
ф ом</w>
ур е</w>
универса л</w>
универса л,</w>
уда лся</w>
у мент</w>
у кти
тха ле,</w>
тре бу
требу ет</w>
транспорт ным</w>
транспор ти
транспорти ровки</w>
транс- музыка,</w>
то ры
то н",</w>
то же.</w>
тин о</w>
технологи и</w>
тех ни
тес но</w>
террито рию</w>
тер "</w>
тель "</w>
те л</w>
творо га.</w>
так "</w>
та х.</w>
та лан
та ва</w>
т ский</w>
т с.</w>
т )</w>
сэндви ч</w>
сы п
сып чатый</w>
су .</w>
страни ц
стран ой,</w>
сто фер</w>
сти л</w>
сти к</w>
стерлинго в.</w>
ства ",</w>
ста н</w>
ста ,</w>
ст ь"</w>
среднеатлантиче ским</w>
сража лась</w>
спуст я</w>
спроектиро вавший</w>
способ ный</w>
спортив ного</w>
сотруднича ет</w>
состо ят</w>
состави л</w>
сосед нем</w>
соревну ются</w>
созда ть</w>
созд аны</w>
содержи т:</w>
собра лась</w>
со н".</w>
служи вающий</w>
следующ ем</w>
слад кого</w>
слад кие</w>
ско м.</w>
ск вер
систем е</w>
син то
син г</w>
си ходели
си х</w>
си с,</w>
си ла
си л</w>
сена тор</w>
секретар я</w>
сезоне-2014-1 5.</w>
северо-восто ке</w>
се )</w>
се "</w>
сдела в</w>
сво и
све та.</w>
сбор ны
сахар "</w>
с с</w>
с ерии</w>
с боро
с бо
с »,</w>
с ;</w>
с ),</w>
ры м</w>
рудо вой</w>
руб лей.</w>
ру чной</w>
ру се,</w>
ру с
роман ом</w>
рожен ое</w>
рожд енный</w>
рова ли</w>
ров е</w>
ро ш
ро си</w>
ри и,</w>
рем-а ре
рей сом</w>
редакти рует</w>
регио ны,</w>
реалити- судь
реалити- Т
реалити-Т В.</w>
ре н</w>
ре жиссе
рас му
рай оне,</w>
разработан ного</w>
разно образ
разверну ли</w>
разбита я"</w>
ра зы
ра дио</w>
ра дар
ра го
раго ц
пуч ок
пу эр
психодели я.</w>
психодели ческий</w>
прямой- четыре.</w>
проспе кто
произо шло</w>
производ ные</w>
прожива ющих</w>
програм мы</w>
про тяженность</w>
при нимал</w>
премьер-минист р.</w>
предше ственник</w>
предприяти е.</w>
прави ло,</w>
пра вочный</w>
похо ж
пот тери
построи вший</w>
посвящ енная</w>
пос ла</w>
помог ли</w>
помо г</w>
полу острове</w>
полос е</w>
полож ение</w>
полн ени
поли тиче
пол ный</w>
под нят</w>
под бо
поверх ности</w>
по-китай ски.</w>
по этому</w>
по зи
по в</w>
площади .</w>
пис а</w>
пи ани
печ ен
персона ла.</w>
перипети и</w>
периап сис,</w>
периа писа</w>
пере ц</w>
пере воз
пер вым</w>
пени и.</w>
пен са"</w>
пел ля
пелля ционной</w>
пар ка</w>
пан к",</w>
пан к
памятни к,</w>
палеонтологи и</w>
пако ра</w>
паис а</w>
п-музы ка</w>
п си</w>
официаль ных</w>
отредакти рован</w>
отнош ение</w>
от ту
от личи
основ е</w>
ориенти рована</w>
ори ги
орг ана.</w>
ор о</w>
опублико вал</w>
он ный</w>
окру га
око ло</w>
оккупа ции</w>
ок ка
обслужива ются</w>
оборо ны.</w>
обнаружен ное</w>
област и.</w>
нос-Ай ре
но м"</w>
нигери йском</w>
нигери йской</w>
ни к,</w>
несколь ких</w>
независимо сти.</w>
не уда
не м.</w>
находи ться</w>
насе лен
наркомани и.</w>
нало го
найд енным</w>
найд енные</w>
на шли</w>
на сты
н штей
н )</w>
мэ ра</w>
мучени ка</w>
музы кой.</w>
му ю</w>
мост у</w>
мор ю</w>
мор кови
моркови .</w>
мо р</w>
мо насты
мисси ю</w>
мили тари
металла ,</w>
мета лл</w>
мет ров,</w>
мест ном</w>
мест ное</w>
мест ная</w>
мер т
медаль "</w>
ме хани
ме да
м-2 1-
м-21- м.</w>
м ени
м ана.</w>
лондон ским</w>
лод ро
ло м",</w>
ллокан о</w>
лит ет</w>
лини ,</w>
лиде ра,</w>
ли ст</w>
ли ст,</w>
ли ра,</w>
ли мент</w>
летчика-испыта теля,</w>
лен ь
лен ых</w>
л. с.</w>
курицу .</w>
куриц у</w>
[...]
