. 25305
entity-1 24135
be 21195
entity-2 19849
vp[aspect=simple,tense=present,voice=active,person=3rd,number=singular] 17503
entity-3 15036
in 13459
dt[form=defined] 12860
the 12685
of 11679
, 11026
entity-4 10810
and 9759
entity-5 6533
vp[aspect=simple,tense=present,voice=active,person=3rd,number=null] 6325
vp[aspect=simple,tense=past,voice=active,person=null,number=null] 6234
a 5184
dt[form=undefined] 5180
vp[aspect=simple,tense=present,voice=passive,person=3rd,number=singular] 3932
by 3690
vp[aspect=simple,tense=past,voice=passive,person=null,number=singular] 3615
have 3250
which 3160
entity-6 3069
located 2961
from 2660
where 2314
leader 2264
vp[aspect=simple,tense=present,voice=active,person=non-3rd,number=plural] 2190
as 1551
to 1477
runway 1300
on 1299
bear 1219
vp[aspect=simple,tense=past,voice=active,person=null,number=singular] 1150
city 1118
serve 1116
ethnic 1074
find 1071
for 1051
with 1017
part 1003
at 979
play 970
capital 962
( 937
speak 934
) 927
who 877
entity-7 854
one 848
also 827
name 811
number 795
come 776
length 748
vp[aspect=simple,tense=present,voice=active,person=non-3rd,number=null] 719
dish 703
operate 669
publish 654
ingredient 650
group 633
level 631
sea 629
ingredients 628
above 611
language 604
write 596
lead 583
location 547
can 545
main 543
member 536
ground 522
region 509
vp[aspect=simple,tense=present,voice=passive,person=null,number=null] 503
create 500
crew 498
members 486
establish 482
vp[aspect=progressive,tense=present,voice=active,person=null,number=null] 464
affiliate 463
'' 455
groups 454
originate 446
`` 444
include 437
metres 429
design 409
leaders 396
vp[aspect=simple,tense=infinitive,voice=active,person=null,number=null] 391
manager 379
know 373
make 368
there 364
graduate 360
call 352
entity-8 351
country 328
die 328
contain 327
complete 319
that 315
whose 304
national 299
use 293
nasa 293
home 287
students 284
academic 276
manage 242
isbn 241
vp[aspect=simple,tense=present,voice=passive,person=non-3rd,number=plural] 239
floors 238
currency 234
food 232
variation 229
staff 226
own 221
issn 221
vp[aspect=perfect,tense=present,voice=active,person=3rd,number=null] 218
both 204
area 202
popular 199
long 198
now 197
order 183
retire 180
precede 177
full 174
architect 172
champions 170
state 168
pages 165
oclc 164
president 160
follow 158
aircraft 154
club 154
select 153
compete 152
: 151
operating 150
season 150
first 149
belong 148
lccn 146
base 145
traditional 139
author 139
meters 136
organisation 134
largest 134
star 133
league 133
people 132
become 130
discipline 129
tenant 128
govern 127
found 122
identifier 118
available 117
pilot 114
under 113
space 110
code 110
dean 110
's 108
floor 108
; 108
' 107
places 107
title 106
register 106
languages 105
historic 105
add 105
award 104
family 104
but 104
attend 102
locate 102
vp[aspect=simple,tense=past,voice=active,person=null,number=plural] 101
campus 100
dedicate 99
current 98
within 98
backup 97
official 96
vp[aspect=simple,tense=past,voice=passive,person=null,number=plural] 96
currently 96
surface 95
company 95
abbreviate 92
1st 90
abbreviated 90
total 89
parent 89
alternative 88
elevation 86
type 84
many 84
categorise 83
live 82
headquarters 81
go 81
style 81
along 80
construct 79
two 79
3rd 77
or 77
southeast 77
icao 76
join 76
inaugurate 76
spend 75
abbreviation 75
publisher 75
situate 74
population 73
eat 73
well 72
attach 69
work 68
character 68
north 68
coden 68
transport 67
municipality 67
broadcast 67
they 66
choose 64
build 64
alma 62
win 62
body 62
anthem 62
sequel 62
mater 61
west 61
lie 61
creator 60
postgraduate 60
- 59
director 59
begin 58
key 58
before 58
higher 56
nickname 56
than 55
student 55
variations 55
same 55
category 55
previously 55
feet 54
division 54
book 54
editor 54
elevated 52
class 52
tenants 52
latin 52
fight 51
significant 51
vp[aspect=perfect,tense=present,voice=active,person=non-3rd,number=null] 51
influence 51
involve 50
air 50
give 49
northeast 49
previous 48
reference 48
vp[aspect=simple,tense=present,voice=active,person=null,number=null] 48
religion 48
owner 47
inhabitants 47
architectural 47
building 47
buildings 47
southwest 47
once 47
among 47
legislature 46
technical 45
status 45
demonym 44
organization 43
later 43
northwest 43
construction 42
originally 42
headquarter 41
fall 41
grounds 41
hire 40
density 40
` 40
fullname 40
battles 38
produce 38
sauce 38
hail 38
after 38
east 38
speaking 38
dt[form=demonstrative] 38
then 38
airport 37
native 37
fighter 37
start 37
variant 37
football 37
local 37
place 36
commander 36
address 36
inhabit 36
run 35
receive 35
count 35
genus 35
while 35
attack 34
represent 34
date 34
another 34
doctoral 34
names 33
perform 33
mission 33
commonly 33
stars 33
player 33
edit 33
deploy 33
south 33
mayor 31
creators 31
advisor 31
offer 30
pass 30
away 30
architecture 29
comic 29
carriers 29
chief 28
vp[aspect=progressive,tense=present,voice=active,person=3rd,number=singular] 28
will 28
categorize 28
up 28
you 28
head 27
motto 27
origin 27
hub 26
nationality 26
awards 26
government 26
person 26
party 25
height 25
former 25
novel 25
like 25
iata 24
birth 24
established 24
river 24
m 24
school 23
cost 23
vp[aspect=perfect,tense=present,voice=passive,person=3rd,number=null] 23
nearest 23
study 23
although 23
other 23
astronaut 22
rank 22
erect 22
county 22
sometimes 22
chairman 22
about 22
typical 22
patient-1 22
command 21
some 21
appear 21
citizen 21
birthplace 20
aboard 20
water 20
show 20
alongside 20
id 19
jurisdiction 19
codes 19
cover 19
provide 19
consider 19
fat 19
rector 19
employees 19
program 19
it 19
hold 19
patient-2 19
time 18
town 18
founder 18
last 18
voice 18
footballer 18
size 18
here 18
pick 18
tourist 17
destination 17
prime 17
minister 17
natives 17
political 17
ethic 17
these 17
mascot 17
third 16
second 16
over 16
office 16
seat 16
regions 16
either 16
all 16
associate 16
sport 16
protein 16
such 16
architects 15
via 15
consist 15
similar 15
almamater 15
reside 15
otherwise 14
vp[aspect=perfect,tense=present,voice=active,person=null,number=null] 14
carbohydrates 14
should 14
their 14
team 14
focus 14
below 14
since 14
aka 14
dishes 14
types 14
strong 14
services 14
between 14
connections 14
operation 13
battle 13
finish 13
measure 13
different 13
district 13
sports 13
authors 13
several 13
this 13
respectively 13
high 12
beds 12
parts 12
invent 12
form 12
notable 12
c@@ 12
during 12
additionally 12
compliment 12
however 12
back 12
helicopter 11
representative 11
senator 11
bird 11
ate 11
inauguration 11
chancellor 11
hometown 11
justice 11
offset 11
preparation 11
championship 11
past 11
impact 11
concern 11
hq 11
plant 11
s 11
page 11
lord 11
too 11
and/or 11
turn 11
neighbouring 11
queen 10
t 10
art 10
museum 10
utc 10
course 10
plants 10
post 10
post-graduate 10
u@@ 10
put 10
factor 10
cities 10
e@@ 10
feature 10
often 10
addition 10
k@@ 10
l@@ 10
fans 10
original 10
llcn 10
es 10
p@@ 10
prequel 10
# 10
episode 10
ata 9
m@@ 9
2nd 9
if 9
! 9
just 9
operator 9
hosts 9
postal 9
genre 9
distribute 9
countries 9
carbs 9
n@@ 9
s@@ 9
stand 9
designer 9
matches 9
h@@ 9
pen 9
out 9
position 9
in@@ 9
n 9
rooms 9
famous 9
enjoy 9
i@@ 9
still 9
monument 9
aircrafts 9
abbrv 9
i.d. 8
appoint 8
alter 8
comics 8
film 8
claim 8
require 8
participate 8
academically 8
get 8
regional 8
foods 8
e 8
cuisine 8
locally 8
facts 8
primary 8
books 8
throughout 8
nationwide 8
affiliation 8
rivers 8
more 8
izmir 8
ft 7
4th 7
5th 7
operators 7
er@@ 7
retirement 7
occupation 7
un@@ 7
behind 7
say 7
most 7
ego 7
appearance 7
so 7
may 7
y 7
hear 7
designers 7
see 7
ly 7
undergraduate 7
re@@ 7
recipient 7
obtain 7
gemstone 7
actually 7
origins 7
important 7
when 7
comprise 7
capacity 7
take 7
series 7
novels 7
host 7
alternatively 7
er 7
publication 7
maryland 7
numbers 7
largely 7
pennsylvania 7
ethnically 7
en@@ 6
a@@ 6
j@@ 6
o@@ 6
organize 6
real 6
formerly 6
bed 6
land 6
o 6
on@@ 6
d 6
think 6
related 6
council 6
affilait 6
colours 6
ranking 6
library 6
congress 6
classification 6
eissn 6
career 6
co@@ 6
we 6
r@@ 6
boast 6
not 6
usually 6
t@@ 6
as@@ 6
w@@ 6
near 6
/ 6
identify 6
example 6
agent-1 6
flight 6
fly 6
f@@ 6
clubs 6
abbr 6
influenced 6
us 6
whilst 6
se@@ 6
exact 6
plane 6
swiss 6
-@@ 5
lo@@ 5
fourth 5
ad@@ 5
term 5
note 5
costs 5
completion 5
r 5
responsible 5
money 5
emperor 5
fictional 5
distributor 5
ro@@ 5
ation 5
classify 5
ethnicity 5
source 5
heads 5
g@@ 5
outlook 5
help 5
residence 5
version 5
prior 5
m. 5
or@@ 5
ts 5
common 5
tv 5
li@@ 5
con@@ 5
recipes 5
politician 5
b@@ 5
games 5
patron 5
saint 5
bomb 5
orders 5
1@@ 5
residents 5
vp[aspect=simple,tense=present,voice=active,person=null,number=singular] 5
al@@ 5
patient-3 5
fe@@ 5
major 5
citizens 5
& 5
d@@ 5
various 5
commemorate 5
neighbours 5
a.s.l. 5
prominent 5
planes 5
navy 5
grant 5
township 4
aircraft-capable 4
crewman 4
walk 4
occupy 4
ar@@ 4
vary 4
recipe 4
ce 4
k 4
ia 4
dictate 4
legislative 4
enrol 4
pro@@ 4
editors 4
assign 4
works 4
ab@@ 4
le@@ 4
populate 4
carry 4
prepare 4
new 4
writer 4
flavour 4
refer 4
obviously 4
neighbor 4
into 4
studies 4
nu@@ 4
ase 4
short 4
ated 4
airbase 4
st 4
only 4
ch 4
superhero 4
capitol 4
ca@@ 4
specifically 4
wh@@ 4
ic 4
counties 4
air@@ 4
control 4
service 4
resident 4
ll@@ 4
si@@ 4
ruler 4
le 4
ing@@ 4
ed@@ 4
cornwall 4
way 4
year 4
ar 4
through 4
onto 4
united 4
states 4
vp[aspect=progressive,tense=present,voice=active,person=non-3rd,number=plural] 4
1962 4
rule 4
english 4
seal 3
iti@@ 3
fossil 3
vice 3
develop 3
sytle 3
project 3
forms 3
di@@ 3
do 3
simply 3
winner 3
cre@@ 3
fruit 3
need 3
ac@@ 3
look 3
branch 3
inter@@ 3
ed 3
loc@@ 3
ated@@ 3
youth 3
around 3
colors 3
ers 3
legislate 3
governing 3
locals 3
ve 3
its 3
tall 3
ents 3
vari@@ 3
surprisingly 3
ty 3
inside 3
su@@ 3
me 3
mainly 3
origin@@ 3
dessert 3
el 3
soccer 3
connect 3
playing 3
stadium 3
manag@@ 3
flow 3
large 3
number@@ 3
subsidiary 3
almost 3
literature 3
sub@@ 3
fighters 3
ans 3
met@@ 3
leadership 3
a.k.a. 3
child 3
explosion 3
itself 3
whole 3
very 3
ally 3
th@@ 3
product 3
officially 3
champion 3
vp[aspect=perfect,tense=past,voice=active,person=null,number=null] 3
memberrs 3
abreviation 3
adviser 3
mat@@ 3
print 3
community 3
runaway 3
tr@@ 3
house 3
ons 3
stre@@ 3
ne@@ 3
postcode 3
st@@ 3
ti@@ 3
al 3
fun 3
following 3
neighbour 3
known 3
homeground 3
ha@@ 3
vp[aspect=simple,tense=past 3
perfect,voice=passive,person=null,number=null] 3
te 3
though 3
measures 3
af@@ 3
until 3
ous 3
nation 3
po@@ 3
three 3
id@@ 2
fier 2
bar@@ 2
fifth 2
administrative 2
arrondissement 2
age 2
utilize 2
am@@ 2
bb@@ 2
ls 2
senators 2
living 2
open 2
developers 2
z@@ 2
municipal 2
res 2
biggest 2
products 2
stare 2
field 2
coll@@ 2
ect 2
w 2
res@@ 2
ult 2
introdu@@ 2
best 2
val@@ 2
founding 2
responsibility 2
non-@@ 2
est@@ 2
employ 2
ap@@ 2
x@@ 2
ately 2
~ 2
graduates 2
op@@ 2
1634 2
studiies 2
devote 2
publ@@ 2
sh 2
publishers 2
discipine 2
abbreivate 2
not@@ 2
carrier 2
runways 2
sti@@ 2
ardmore 2
pur@@ 2
ue 2
cr@@ 2
ci@@ 2
den@@ 2
tally 2
outer 2
life 2
ig@@ 2
oversee 2
inagurate 2
ali@@ 2
ent 2
qu@@ 2
local@@ 2
fry 2
derive 2
others 2
ance 2
king 2
them 2
better 2
c 2
ction 2
ea@@ 2
l 2
'll 2
ant 2
pay 2
hon@@ 2
membership 2
ate@@ 2
teams 2
competition 2
border 2
ent@@ 2
primarily 2
follow-up 2
alum@@ 2
rele@@ 2
is@@ 2
unrelated 2
rel@@ 2
sh@@ 2
ten 2
to@@ 2
therefore 2
ter@@ 2
.the 2
aircarft 2
ve@@ 2
inva@@ 2
sions 2
usa 2
indigen@@ 2
en 2
organise 2
br@@ 2
ho@@ 2
ref 2
houses 2
landmar@@ 2
daughter 2
latter 2
sandwich 2
inclusdes 2
variety 2
kes 2
com@@ 2
ing 2
nic@@ 2
ur@@ 2
correct 2
ethinic 2
closest 2
contribute 2
sit 2
onal 2
1 2
se 2
active 2
today 2
event 2
it@@ 2
formally 2
ver@@ 2
predominantly 2
format 2
mb@@ 2
ities 2
operationg 2
i.d 2
force 2
ni 2
identifiers 2
aircaft 2
et 2
sa@@ 2
f 2
worthy 2
ial 2
widely 2
an@@ 2
zealand 2
he 2
rate 2
sadly 2
affiliations 2
ceive 2
ets 2
link 2
commence 2
who@@ 2
patient-@@ 2
agent 2
components 2
ru@@ 2
les 2
fact 2
sandesh 2
18@@ 2
0 2
together 2
present 2
langauge 2
ks 2
formation 2
ish 2
est 2
winners 2
vin@@ 2
educational 2
institute 2
ic@@ 2
ng@@ 2
vir@@ 2
random 2
ong@@ 2
loca@@ 2
details 2
enti@@ 2
crafts 2
od 2
facility 2
bridge-2 2
achievements 2
graduation 2
recently 2
competitor 2
affiliated 2
austin 2
test 2
structure 2
we@@ 2
site 2
projects 2
predomin@@ 2
patient-4 2
p 2
de@@ 2
features 2
serverd 2
categorization 2
bo@@ 2
south-east 2
İzmir 2
der 2
gr@@ 2
attendance 2
iate 2
danish 2
ently 2
information 2
despite 2
amongst 2
sub-group 2
earn 2
because 2
1963 2
would 2
part@@ 2
rectore 2
death 2
2-@@ 2
carrer 2
2000 2
acti@@ 1
av@@ 1
ri@@ 1
fossi@@ 1
develo@@ 1
pe@@ 1
augur@@ 1
cha@@ 1
ir 1
sen@@ 1
ra@@ 1
alm@@ 1
lis@@ 1
enc@@ 1
i 1
vp[aspect=simple,tense=present,voice=active,person=@@ 1
3rd,number=singular] 1
im@@ 1
under@@ 1
rou@@ 1
neighb@@ 1
ors 1
bord@@ 1
liter@@ 1
ary 1
vp[aspect=progressive,@@ 1
tense=pas@@ 1
t,voice=active,person=null,number@@ 1
=singular] 1
auth@@ 1
ity 1
administr@@ 1
ngly 1
astronau@@ 1
ym 1
fir@@ 1
for@@ 1
ni@@ 1
ens 1
compon@@ 1
ight 1
nick@@ 1
surprisi@@ 1
ng 1
classi@@ 1
coun@@ 1
achie@@ 1
compan@@ 1
iment 1
ds 1
ates 1
gue 1
urs 1
per@@ 1
,@@ 1
bn 1
exampl@@ 1
ma@@ 1
e-@@ 1
ser@@ 1
vers 1
run@@ 1
wi@@ 1
ay 1
figh@@ 1
sion 1
elev@@ 1
el@@ 1
sea@@ 1
mon@@ 1
quar@@ 1
set 1
add@@ 1
cor@@ 1
broadc@@ 1
6 1
ater 1
cur@@ 1
rec@@ 1
pen@@ 1
ways 1
lot 1
alter@@ 1
org@@ 1
cti@@ 1
typic@@ 1
vi@@ 1
ssi@@ 1
play@@ 1
govern@@ 1
an 1
sity 1
occ@@ 1
ur 1
assi@@ 1
ter 1
ace 1
ccn 1
vp[aspect=simple,tense=present,voice=passive,person=@@ 1
3rd,number=null] 1
min@@ 1
? 1
abo@@ 1
me@@ 1
tit@@ 1
ude 1
operati@@ 1
g 1
wis@@ 1
consi@@ 1
idge-2 1
of@@ 1
ree 1
stitute 1
ear@@ 1
side 1
ow 1
wor@@ 1
th 1
spe@@ 1
act 1
bu@@ 1
signific@@ 1
architectur@@ 1
with@@ 1
distric@@ 1
q 1
pre@@ 1
vo@@ 1
sly 1
writ@@ 1
comp@@ 1
ress 1
par@@ 1
2@@ 1
carbohydr@@ 1
fro@@ 1
redien@@ 1
categor@@ 1
clo@@ 1
tur@@ 1
corn@@ 1
high@@ 1
ent-@@ 1
ccer 1
ves 1
back@@ 1
reviation 1
revi@@ 1
abbrevi@@ 1
ub 1
/@@ 1
sit@@ 1
lev@@ 1
ati@@ 1
plan@@ 1
mis@@ 1
inv@@ 1
capit@@ 1
spea@@ 1
main@@ 1
tain 1
leng@@ 1
cont@@ 1
ul@@ 1
be@@ 1
reti@@ 1
ort@@ 1
employe@@ 1
monu@@ 1
ments 1
mes 1
contr@@ 1
ct 1
roo@@ 1
x 1
speci@@ 1
gro@@ 1
politic@@ 1
politici@@ 1
ici@@ 1
fru@@ 1
ke 1
varie@@ 1
ties 1
var@@ 1
fam@@ 1
il@@ 1
use@@ 1
sau@@ 1
eds 1
at@@ 1
ch@@ 1
v@@ 1
sandw@@ 1
hes 1
ants 1
desig@@ 1
und 1
ex@@ 1
ce@@ 1
lea@@ 1
ld 1
memor@@ 1
ou@@ 1
up@@ 1
au@@ 1
vp[aspect=perfect,tense=present,voice=passive,person=@@ 1
non-3rd,number=null] 1
fl@@ 1
agent-@@ 1
is 1
vp[aspect=simple,tense=past,voice=passive,person=null,number@@ 1
=null] 1
dem@@ 1
ite 1
idge-@@ 1
que@@ 1
.@@ 1
mo@@ 1
lish 1
sp@@ 1
aspect@@ 1
cu@@ 1
ure 1
cho@@ 1
4 1
preced@@ 1
ence 1
tra@@ 1
ner 1
ill 1
lat@@ 1
ment 1
establish@@ 1
fil@@ 1
str@@ 1
spen@@ 1
ding 1
ard 1
oper@@ 1
redi@@ 1
6@@ 1
ye@@ 1
dedic@@ 1
| 1
port 1
gradu@@ 1
ay@@ 1
leader@@ 1
ion 1
19@@ 1
0@@ 1
tle 1
