. 50930
the 33313
, 27987
in 27580
of 26335
ENTITY-1 24135
be 21769
is 21504
and 20827
ENTITY-2 19849
VP[aspect=simple,tense=present,voice=active,person=3rd,number=singular] 17503
ENTITY-3 15036
DT[form=defined] 12860
ENTITY-4 10810
a 10351
The 7791
by 7332
ENTITY-5 6533
VP[aspect=simple,tense=present,voice=active,person=3rd,number=null] 6325
which 6318
VP[aspect=simple,tense=past,voice=active,person=null,number=null] 6234
located 5951
from 5454
DT[form=undefined] 5180
was 4743
where 4596
leader 4532
VP[aspect=simple,tense=present,voice=passive,person=3rd,number=singular] 3932
VP[aspect=simple,tense=past,voice=passive,person=null,number=singular] 3615
have 3553
has 3179
as 3092
ENTITY-6 3069
to 2930
on 2656
runway 2613
( 2455
) 2434
are 2398
at 2363
United 2343
city 2338
with 2264
VP[aspect=simple,tense=present,voice=active,person=non-3rd,number=plural] 2190
for 2141
ethnic 2129
States 2112
part 1984
capital 1952
Airport 1907
who 1748
dish 1742
also 1641
number 1606
an 1604
name 1536
language 1528
length 1499
's 1449
County 1446
country 1381
New 1374
one 1357
ingredient 1310
group 1270
ingredients 1268
level 1260
sea 1258
A 1255
University 1244
play 1236
above 1219
bear 1219
born 1202
region 1181
found 1165
ground 1161
VP[aspect=simple,tense=past,voice=active,person=null,number=singular] 1150
" 1149
main 1142
International 1141
serve 1135
It 1111
can 1100
find 1099
member 1074
metres 1068
speak 1027
location 1011
crew 992
members 972
Texas 947
He 917
groups 909
ENTITY-7 854
NASA 847
come 838
spoken 828
lead 824
Alan 809
its 785
leaders 764
airport 758
English 750
it 736
manager 734
that 721
VP[aspect=simple,tense=present,voice=active,person=non-3rd,number=null] 719
pilot 716
operate 702
comes 696
: 672
publish 665
India 663
Apollo 638
club 605
whose 602
there 599
write 596
bacon 594
Americans 588
published 588
served 582
home 574
Aarhus 568
students 567
include 565
sauce 565
academic 552
American 543
people 540
operated 539
City 536
written 535
serves 512
established 509
Indonesia 507
VP[aspect=simple,tense=present,voice=passive,person=null,number=null] 503
create 500
1634 486
food 485
ISBN 484
establish 482
York 482
FC 480
affiliate 477
floors 475
Jersey 474
di 473
Institute 472
Spain 469
currency 467
'' 464
VP[aspect=progressive,tense=present,voice=active,person=null,number=null] 464
character 462
area 459
originate 458
variation 455
Acharya 455
architect 454
Denmark 453
staff 451
ISSN 447
`` 444
Austin 443
affiliated 442
book 441
created 439
national 432
National 430
Monument 429
state 421
In 420
design 410
or 410
both 409
popular 404
Italy 404
designed 399
long 398
School 396
California 395
VP[aspect=simple,tense=infinitive,voice=active,person=null,number=null] 391
know 387
John 386
' 385
Technology 382
make 380
graduate 377
William 376
order 374
now 371
season 369
Infantry 369
Hall 367
Aldrin 366
US 362
made 361
Mendrisio 360
graduated 359
call 357
full 356
contain 356
originates 356
known 353
ENTITY-8 351
called 350
12 350
Akita 343
Madrid 342
played 342
Shepard 341
One 339
Washington 339
died 339
Anders 339
champions 332
Elliot 331
pages 330
die 329
OCLC 329
1 327
retired 327
Buzz 327
See 327
complete 324
dessert 324
Singapore 323
1963 322
plays 321
Bean 321
meters 318
comic 317
use 315
completed 309
aircraft 308
Pennsylvania 304
President 303
operating 301
Air 299
11 298
league 297
first 295
Public 293
LCCN 291
Athens 290
test 289
Malaysia 289
Sri 285
Bacon 285
Britain 284
Philippines 283
Great 283
Adams 282
1st 281
traditional 278
Business 277
AFC 277
sandwich 276
11th 275
organisation 274
Pakistan 273
Al 271
Regional 270
Long 270
largest 269
they 267
abbreviated 266
led 265
author 263
president 262
contains 258
Calcio 256
Accademia 251
Force 250
Ram 250
Mississippi 250
Association 248
Sciences 248
he 246
Baku 246
Switzerland 246
July 245
tenant 244
Bangalore 244
manage 243
discipline 243
Ajax 243
own 242
Asian 240
VP[aspect=simple,tense=present,voice=passive,person=non-3rd,number=plural] 239
Appleton 238
2000 236
Architettura 235
France 234
Greece 233
their 232
Road 232
Atlantic 231
Akron 229
Turkey 229
Historic 228
available 228
Wisconsin 228
AC 228
but 227
Addis 227
fighter 226
Ababa 226
Flint 225
under 224
company 223
Adolfo 223
A.S. 223
Eric 223
Acta 222
British 221
Hampshire 221
Obama 221
pudding 221
; 220
Barack 219
VP[aspect=perfect,tense=present,voice=active,person=3rd,number=null] 218
floor 218
includes 218
Hong 216
250 216
Lanka 216
Visvesvaraya 216
Bavarian 216
U.S. 215
Kong 215
Technological 215
code 214
Ridge 214
Crisis 214
space 213
Bionico 213
Register 212
square 212
Street 212
Social 212
Places 211
family 211
Asad 211
Township 211
Mexico 211
paisa 211
Rebellion 211
Its 211
Ayam 210
languages 209
Conference 209
Blackpool 209
Romania 209
– 208
title 206
Antwerp 206
Maryland 205
Authority 205
Alaska 203
St. 202
Serie 202
South 201
Rome 201
penyet 201
backup 200
were 200
Bandeja 200
Asilomar 199
Java 197
chicken 196
Native 195
Mary 195
Karnataka 195
official 194
North 194
Abilene 194
Alpena 194
Dallas 194
Ohio 194
African 193
Baked 193
Bakewell 192
A.C. 190
compete 189
within 189
currently 189
Kingdom 189
Explosion 189
current 188
Derbyshire 188
Turkish 188
F.C. 188
Louis 187
London 187
Azerbaijan 186
Alcatraz 186
Agra 185
England 185
Spanish 184
Versus 184
surface 183
8 183
Pietro 182
Sportiva 182
style 181
retire 180
Big 180
College 179
total 178
precede 178
parent 178
de 178
Andrews 178
pedas 178
type 177
Evil 176
3rd 175
2014 175
Asam 175
teow 175
journal 175
20 174
Press 174
elevation 172
Science 172
Ajoblanco 172
preceded 172
owned 171
Chinese 171
Alderney 169
European 169
Librarians 169
1932 168
Row 168
Bella 168
Wheeler 167
Birmingham 167
Chicago 167
base 166
many 166
fried 166
Allama 165
Iqbal 165
Colmore 165
beef 165
alternative 164
been 164
Way 164
vegetables 164
Batchoy 164
used 163
Character 163
dean 162
Ashgabat 162
headquarters 161
follow 161
become 159
Italian 159
Loyal 159
Ice 158
kway 158
white 157
Avenue 157
identifier 156
monument 156
Pena 156
Adare 156
Johnson 156
Mars 156
Hotel 155
Zealand 155
B 155
Virginia 155
Dancer 155
Wizard 155
along 154
D.C. 154
Summit 154
ICAO 153
select 153
selected 153
negre 153
belong 152
publisher 151
southeast 151
Delaware 151
Wasp 151
Binignit 150
Cleveland 149
abbreviation 148
Glen 148
Dr. 148
football 147
II 147
Angola 147
Asser 147
Levy 147
UK 147
Amatriciana 147
AIP 147
Bananaman 146
Fortress 146
Grey 146
population 144
St 144
Copenhagen 144
Roma 144
They 143
print 143
Art 143
Province 142
based 142
- 141
1962 141
Bakso 141
Verona 141
followed 141
live 140
well 140
There 139
Amsterdam 139
Japan 139
103 138
Museum 138
star 137
Suárez 137
Beef 137
Technical 136
23 136
Barajas 135
transport 135
north 135
Ardmore 135
Gubbio 135
building 134
municipality 134
Sky 134
Arapiraquense 134
600 133
Iraq 132
Department 132
belongs 132
San 132
Miller 132
oil 132
inhabitants 131
300 131
Marriott 131
Ampara 131
this 130
Indian 130
Poaceae 130
govern 129
broadcast 129
Frank 129
Baths 129
Indiana 129
& 128
Lake 128
Greenville 128
Decembrie 128
1918 128
AIDS 128
Romance 128
CODEN 127
Service 127
Ireland 127
feet 126
Michigan 126
award 125
Kerala 125
Severed 125
anthem 124
sequel 124
Manor 124
Medal 123
1910 123
Journal 123
same 122
Illinois 122
rice 122
property 122
AWH 122
Engineering 122
Johann 122
Glastonbury 122
west 121
Airbase 121
14th 121
Efxeinoupolis 121
Fylde 121
Livorno 121
Quarterly 121
creator 120
campus 120
Council 120
BLT 120
1996 120
Administrative 120
200 119
Grounds 119
founded 119
Volunteer 119
Dimitra 119
body 118
Lumezzane 118
Assault 118
LaSalle 117
Dales 117
Bhajji 117
hardcover 117
higher 116
postgraduate 116
Club 116
BBC 116
Grasso 116
Advances 116
1957 115
Adisham 115
DC 115
Football 115
key 114
October 114
House 114
Grantville 114
than 113
category 113
named 113
Frederick 113
Flemish 112
NWC 112
Square 112
Felipe 112
DeMarce 112
Addiction 112
Main 112
student 111
3Arena 111
VI 111
manages 111
Schneider-Ammann 111
Hessarghatta 111
ni 110
Soldevanahalli 110
Radhakrishnan 110
560090 110
Amdavad 109
Gufa 109
cream 109
Barny 109
Chievo 109
division 108
before 108
airbase 108
Parker 108
Charlie 108
attend 107
architectural 107
novel 107
editor 107
Afonso 107
Indonesian 107
Sarvapalli 107
mission 106
add 106
Madin 106
A.E 106
nickname 105
1927 105
his 105
Mathematics 105
elevated 104
team 104
Uttar 104
Pradesh 104
Civil 104
Andalusia 104
red 104
Martyrs 104
Aviation 103
1955 103
Alba 103
locate 102
Lahore 102
Robert 102
Federal 102
Math 102
This 102
VP[aspect=simple,tense=past,voice=active,person=null,number=plural] 101
Punjab 101
Belgium 101
added 101
milk 101
tenants 100
significant 100
cuisine 100
David 100
Baymax 100
Malaysian 100
dedicate 99
northeast 99
previously 99
Suarez 99
Diagonal 99
banana 99
dedicated 99
Stuart 99
League 98
Turkmenistan 98
T 98
Gettysburg 98
Cornell 98
reference 97
Campus 97
6 97
Egg 97
January 97
Ethiopia 97
B. 97
Ahmet 97
managed 97
Agremiação 97
VP[aspect=simple,tense=past,voice=passive,person=null,number=plural] 96
religion 96
Harbor 96
minutes 96
Malay 96
Batagor 96
sweet 96
became 96
school 95
Prime 95
awarded 95
Joe 95
Biden 95
AZAL 95
Above 95
owner 94
southwest 94
Minister 94
Adirondack 94
starred 94
Memorial 94
Veil 94
stars 93
cakes 93
Cumberland 93
1928 93
buildings 92
legislature 92
abbreviate 92
USA 92
flowering 92
attended 92
Dublin 92
Prefecture 92
Hero 92
Philippine 92
Associazione 92
A.F.C. 92
organization 91
uses 91
Izmir 91
ENAIRE 91
Gujarat 91
potato 91
ACM 91
address 90
status 90
contributing 90
Cesena 90
situated 89
Navy 89
Fenchurch 89
High 89
Aenir 89
demonym 88
variations 88
once 88
mater 88
speaking 88
Alcobendas 88
Elizabeth 88
Brazil 88
23rd 88
Eastern 88
Arros 88
pork 88
Battlefield 88
director 87
later 87
Assembly 87
French 87
UT 87
Hospital 87
garlic 87
Battle 87
C 87
class 86
work 86
grounds 86
With 86
Antioquia 86
Catalonia 86
join 85
eat 85
Borman 85
Manhattan 85
Lars 85
Widodo 85
categorised 85
Monocacy 85
northwest 84
Tirstrup 84
Africa 84
737 84
Joko 84
Ataturk 84
plants 83
categorise 83
Rasmussen 83
700 83
Location 82
go 82
previous 82
course 82
originally 82
Two 82
Distinguished 82
Peter 82
Sumatra 82
AEK 82
AZ 82
Mario 82
Williams 82
100 82
Identifier 81
m 81
e 81
Magdeburg 81
Botta 81
Polonica 81
government 80
density 80
State 80
Paracuellos 80
Jarama 80
III 80
White 80
Jens 80
AS 80
Palaeontologica 80
construct 79
Chancellor 79
fullname 79
Saranac 79
Lockheed 79
inaugurated 79
Paul 79
spend 78
alma 78
air 78
local 78
1923 78
1930 78
1969 78
constructed 78
Morgan 78
Siomay 78
Lippincott 78
Soho 78
Jusuf 78
Kalla 78
Pinhais 77
van 77
1933 77
Stadium 77
Mumbai 77
Wilkins 77
inaugurate 76
south 76
AFIT 76
March 76
Julia 76
Arrabbiata 76
Mattarella 76
Spaniards 76
native 75
two 75
nationwide 75
14 75
Madrid-Barajas 75
dos 75
Reyes 75
Scott 75
Susana 75
meat 75
sausage 75
Sergio 75
Plack 75
Isidro 75
Campeonato 75
Brasileiro 75
Powys 75
situate 74
variant 74
operates 74
Arabic 74
los 74
went 74
Man 74
coconut 74
Hilmi 74
Ankara 74
battles 73
commander 73
among 73
February 73
being 73
olive 73
tart 73
Alkmaar 73
architecture 72
build 72
then 72
Party 72
Parliament 72
Academy 72
Valls 72
Dead 72
Davutoglu 72
system 72
Kuttikkattoor 72
To 71
genus 71
east 71
Brussels 71
competed 71
Republic 71
Arem-arem 71
water 70
film 70
Port 70
Modi 70
15 70
spent 70
Ranil 70
date 69
attach 69
Bengo 69
Narendra 69
Wickremesinghe 69
Larcher 69
Shumai 69
Michele 69
Located 69
attack 68
county 68
district 68
doctoral 68
Dean 68
Vincent-St 68
memorial 68
Thakur 68
Atatürk 68
Stadio 68
Marcolini 68
Brom 68
place 67
cake 67
Community 67
Schiphol 67
binignit 67
den 67
Cowper 67
count 66
East 66
away 66
Airlines 66
April 66
Ryan 66
black 66
Ottoman 66
Metapan 66
Hopkins 66
Carrol 66
run 65
names 65
commonly 65
lie 65
November 65
Pacific 65
Grove 65
Castle 65
Javanese 65
choose 64
Chief 64
player 64
2009 64
Tony 64
Arròs 64
2014-15 64
Prabhukumar 64
Garth 64
Nix 64
Burbank 64
win 63
town 63
Ahmedabad 63
Bolt 63
advisor 62
deploy 62
plant 62
War 62
Bill 62
beans 62
Leipzig 62
Canonica 62
34 61
chosen 61
originated 61
Haputale 61
sour 61
jam 61
Gazette 61
1983 61
eaten 61
bronze 61
footballer 60
amateurs 60
Prokopis 60
Mason 60
Paris 60
China 60
attached 60
Juventus 60
Klaus 60
Belgaum 60
Bucharest 60
university 59
Sandesh 59
Region 59
AC-130 59
Alfred 59
September 59
3 59
noodles 59
Halimah 59
Viking 59
Palaeontol 59
1966 59
begin 58
creators 58
year 58
M.A. 58
won 58
joined 58
leads 58
cooked 58
Yacob 58
Tan 58
Contributing 58
soldiers 58
killed 58
PFK 58
Secret 58
lies 58
Colombian 58
Silvano 58
Aureoles 58
Conejo 58
carriers 57
community 57
Jose 57
poaceae 57
Alexis 57
Harrietstown 57
G. 57
1862 57
Asher 57
Isabelle 57
An 57
Georgia 57
butter 57
eggs 57
Härtel 57
granite 57
marble 57
will 56
construction 56
Latin 56
origin 56
3500 56
Sao 56
De 56
Tsipras 56
Boeing 56
Globemaster 56
June 56
Richardson 56
A.T. 56
Mahajan 56
peanut 56
Nikos 56
up 55
Swiss 55
C-17 55
27 55
Duncan 55
Solanales 55
17000 55
2001 55
Scripture 55
Universities 55
Sumitra 55
Reddy 55
nationality 54
cost 54
motto 54
while 54
18 54
Curitiba 54
15th 54
1959 54
governing 54
Lokke 54
Thomas 54
leaf 54
Huseyin 54
Butuner 54
Guner 54
Gazettes 54
Transactions 54
Systems 54
Paisa 54
Voutsis 54
wrote 54
Artur 54
Rasizade 54
party 53
Alma 53
influence 53
210 53
Chute 53
M.S. 53
built 53
governed 53
Rouleau 53
Blockbuster 53
almonds 53
Série 53
Information 53
MIT 53
hub 52
awards 52
person 52
countries 52
after 52
Pavlopoulos 52
Infraero 52
rupee 52
g 52
Franklin 52
Church 52
Massimo 52
A. 52
Rolando 52
Iohannis 52
Their 52
fight 51
inhabit 51
give 51
VP[aspect=perfect,tense=present,voice=active,person=non-3rd,number=null] 51
typical 51
Luanda 51
Commerce 51
Stern 51
Jayawardenepura 51
cheese 51
Drago 51
Jorge 51
Premier 51
Universitas 51
involve 50
height 50
citizen 50
Jones 50
George 50
including 50
lemon 50
raisins 50
Manuel 50
Valencian 50
A.D. 50
Superleague 50
Italians 50
Maran 50
Johns 50
IATA 49
birth 49
another 49
former 49
der 49
Bundelkhand 49
began 49
Kotte 49
kilometres 49
Madison 49
Peninsula 49
avocado 49
sambal 49
bread 49
granola 49
1907 49
Park 49
Iulia 49
Germans 49
Pol 49
influenced 49
Heinlein 49
VP[aspect=simple,tense=present,voice=active,person=null,number=null] 48
nearest 48
latin 48
Placid 48
Central 48
17th 48
Francisco 48
per 48
J. 48
U.S 48
sarnie 48
flour 48
1500 48
ACF 48
2015 48
All 48
Education 48
Fallujah 48
USAF 47
fought 47
Awadh 47
MA 47
1974 47
butty 47
barm 47
muffin 47
organs 47
shrimp 47
Weymouth 47
Sands 47
Mayor 46
start 46
you 46
Gold 46
28 46
Euro 46
smashed 46
sanger 46
piece 46
given 46
Istanbul 46
Dan 46
Town 46
His 46
headquarter 45
Michael 45
18L/36R 45
Wilson 45
G 45
45 45
1987 45
aired 45
arem 45
rasher 45
cob 45
belly 45
Gerard 45
Fiorentina 45
FK 45
Greek 45
Mathematica 45
Astronaut 44
chairman 44
about 44
like 44
more 44
involved 44
worked 44
1976 44
320 44
Center 44
Africans 44
Cyril 44
Black 44
'n 44
bakewell 44
condensed 44
Hungarica 44
sometimes 43
almond 43
` 43
program 43
river 43
İzmir 43
159 43
Ícolo 43
Charles 43
T. 43
S 43
had 43
Live 43
P. 43
1931 43
Ramaphosa 43
Seagle 43
sponge 43
Stoger 43
Wolf 43
Cameron 43
Visayas 43
Ganges 42
610 42
Base 42
B.S. 42
Worden 42
Nation 42
Entertainment 42
Pain 42
Mendoza 42
Auron 42
Cullins 42
hot 42
cold 42
Jakarta 42
27th 42
1904 42
Patrick 42
Mater 41
Office 41
fall 41
historic 41
neighbouring 41
asphalt 41
VIAG 41
Grand 41
German 41
hired 41
Tudor 41
Cuyahoga 41
Jacob 41
Kansas 41
Standard 41
Jalisco 41
Zamboangans 41
Army 41
Metapán 41
Dave 41
Christian 41
Panucci 41
Kochi 41
McLoughlin 41
head 40
birthplace 40
aboard 40
hire 40
produce 40
regional 40
alongside 40
A/S 40
Taylor 40
Monocotyledon 40
Edwin 40
falls 40
Asherton 40
Albany 40
Balder 40
1986 40
Tim 40
ice 40
warm 40
Humberto 40
Ticino 40
Sc.D 40
1913 40
Sehitleri 40
Aniti 40
architects 39
codes 39
hail 39
all 39
series 39
explosion 39
Cornish 39
sandwiches 39
Labour 39
Margrethe 39
Poales 39
Korean 39
108 39
Anderson 39
Roger 39
Arem 39
egg 39
Guadalajara 39
lira 39
10000 39
Olympic 39
Sportpark 39
Toekomst 39
Tennis 39
Harvard 39
Polish 39
16000 39
jurisdiction 38
fat 38
rector 38
employees 38
DT[form=demonstrative] 38
fish 38
546 38
Anbar 38
Essex 38
Commelinids 38
received 38
August 38
Georges 38
Terrace 38
Irish 38
Zuma 38
Colombia 38
3180 38
Abhandlungen 38
aus 38
dem 38
Mathematischen 38
Seminar 38
Hamburg 38
Admin 38
Sci 38
comics 37
other 37
Sebastian 37
Sebastián 37
Naik 37
18th 37
Buffalo 37
Roberts 37
minced 37
Sweet 37
Enrique 37
Nieto 37
Arabs 37
Arabian 37
Sea 37
Solent 37
Columbian 37
Turk 37
over 36
! 36
founder 36
last 36
size 36
25 36
Lufthavn 36
211 36
Government 36
headquartered 36
December 36
Revival 36
Boris 36
Ernie 36
Lazio 36
hails 36
Fried 36
Christmas 36
plantain 36
hogao 36
Igorot 36
Ealdorman 36
Anglia 36
Challinor 36
Agremiacao 36
Vila 36
Clube 36
Stanford 36
Maiden 36
Massachusetts 36
Cape 36
1-4165-2060-0 36
Fighter 35
receive 35
some 35
form 35
At 35
mascot 35
postcode 35
Tinkham 35
10L/28R 35
911 35
Ellington 35
Grenada 35
included 35
Jr 35
2008 35
Wall 35
Arena 35
Limerick 35
Fernando 35
Auburn 35
Aurakles 35
Steve 35
baked 35
chorizo 35
sago 35
potatoes 35
Hollande 35
Nova 35
Futebol 35
Trans 35
Inf 35
60040714 35
Am 35
containing 35
tourist 34
destination 34
time 34
represent 34
seat 34
political 34
ethic 34
sport 34
Invasion 34
M 34
80002709 34
Desalegn 34
Steven 34
Diaz 34
shredded 34
Seminary 34
Koln 34
El 34
70634 34
Stöger 34
paperback 34
passed 34
Teshome 34
Pallesen 34
16,000 34
Mahe 34
B.M. 34
mayor 33
perform 33
regions 33
edit 33
such 33
km 33
James 33
Hailemariam 33
Atlanta 33
Urich 33
Oddie 33
squeezed 33
ketchup 33
arepa 33
Taro 33
Salvador 33
S.p.A. 33
Psalm 33
HIV/AIDS 33
Ithaca 33
third 32
second 32
Building 32
protein 32
confectionery 32
Director 32
medal 32
10R/28L 32
Al-Taqaddum 32
Maple 32
280 32
Boston 32
Arts 32
Albuquerque 32
Anaheim 32
ajoblanco 32
compressed 32
brown 32
patacones 32
SV 32
SK 32
978-1-4165-4253-7 32
HIV 32
edited 32
publishes 32
offer 31
although 31
department 31
60 31
Dynamics 31
Freedom 31
Panama 31
100305 31
20th 31
Amharic 31
euro 31
Walt 31
Marv 31
Dane 31
Whitman 31
Award 31
tomatoes 31
Penyet 31
metropolitan 31
morcilla 31
sesame 31
Mexican 31
Syst 31
Qiu 31
severed 31
Wiley-Blackwell 31
produced 31
Shirley 31
Construction 30
via 30
either 30
similar 30
almaMater 30
pass 30
politician 30
invasion 30
Also 30
rock 30
-3.3528 30
Texans 30
General 30
Fighting 30
Falcon 30
Eagle 30
performed 30
Beach 30
Riverside 30
Graeme 30
Garden 30
Almond 30
celery 30
chicharon 30
ChievoVerona 30
Antonio 30
Luciano 30
Coaracy 30
Mata 30
C. 30
Austria 30
Wien 30
Telangana 30
Baltic 30
Galileo 30
Affair 30
Universität 30
Wolters 30
Kluwer 30
serving 30
Banyumasan 30
14L/32R 30
battle 29
otherwise 29
here 29
Ethnic 29
specific 29
AGR 29
88 29
Parana 29
F-16 29
17 29
million 29
dollars 29
Populous 29
Løkke 29
kilometre 29
Kesel 29
Wolfman 29
fillings 29
Avocado 29
batchoy 29
Kway 29
oyster 29
chilli 29
chopped 29
Lega 29
Spalletti 29
da 29
Fonseca 29
Mols 29
Management 29
93645978 29
Ajo 29
VP[aspect=progressive,tense=present,voice=active,person=3rd,number=singular] 28
fruit 28
carbohydrates 28
should 28
categorize 28
study 28
below 28
short 28
strong 28
between 28
grant 28
connections 28
497.0 28
Douglas 28
degree 28
started 28
Rahm 28
Emanuel 28
Karl 28
Brooke-Taylor 28
Desmond 28
Colon 28
ink 28
Lauraceae 28
Cakes 28
gram 28
Laura 28
Boldrini 28
Filipino 28
Ilocano 28
Moro 28
Estadio 28
Horrigan 28
Xiaolong 28
Land 28
28th 28
high 27
natives 27
different 27
often 27
writer 27
types 27
back 27
Southeast 27
Aktieselskab 27
S. 27
Tejano 27
McDonnell 27
Enduring 27
1981 27
competing 27
30843.8 27
Richard 27
87000823 27
Kenny 27
Ben 27
guanciale 27
ayam 27
using 27
categorized 27
Property 27
Stockport 27
KV 27
Mechelen 27
Apulensis 27
Nurturing 27
Excellence 27
tennis 27
Federation 27
448 27
Born 27
1985 27
Meride 27
blanco 27
operation 26
bird 26
voice 26
sports 26
authors 26
After 26
dishes 26
services 26
respectively 26
Hungar 26
fruits 26
institute 26
08/26 26
Icolo 26
Michel 26
F-15 26
Operation 26
Test 26
L. 26
3XN 26
Enda 26
Oregon 26
Union 26
Arion 26
Jan 26
Bright 26
Adsit 26
Gene 26
tomato 26
La 26
gula 26
dried 26
dark 26
soy 26
lengkuas 26
soya 26
39371 26
D 26
D. 26
Paulo 26
Sousa 26
Gus 26
Poyet 26
Amsterdamsche 26
Lokomotive 26
Berliner 26
07 26
Carrarese 26
Chesterfield 26
89646863 26
19238 26
Faber 26
Number 25
several 25
these 25
TV 25
latter 25
too 25
compliment 25
publication 25
districts 25
2776.0 25
Schipol 25
3800.0 25
U.S.A. 25
Sharif 25
represented 25
Jr. 25
System 25
Jackson 25
Chinatown 25
Australia 25
Lankan 25
Colan 25
tapioca 25
noodle 25
Melaka 25
sliced 25
bhajji 25
bionico 25
Claude 25
Putrajaya 25
Davutoğlu 25
AK 25
Babelsberg 25
03 25
Torino 25
SC 25
Wiener 25
Neustadt 25
Vicenza 25
Aarhusiensis 25
Physics 25
Into 25
973 25
Carroll 25
army 25
2nd 24
beds 24
notable 24
since 24
show 24
squid 24
playing 24
2777.0 24
11/29 24
Gregory 24
Perth 24
1980 24
512 24
Asterix 24
Fox 24
Buscema 24
chili 24
freshly 24
broth 24
kailan 24
salted 24
shallots 24
Lemon 24
Bartolone 24
Kuala 24
Lumpur 24
Rovers 24
Youth 24
Vincent 24
1174 24
57392246 24
Hardcover 24
Published 24
0-439-17684-0 24
0-439-92550-9 24
STV 24
cottage 24
0-670-03380-4 24
57059226 24
Queen 23
Of 23
command 23
rank 23
parts 23
VP[aspect=perfect,tense=present,voice=passive,person=3rd,number=null] 23
championship 23
HQ 23
aka 23
near 23
Both 23
1820 23
Airports 23
Taqaddum 23
03L/21R 23
Menasha 23
Mamnoon 23
Hussain 23
1998 23
owns 23
District 23
Crafts 23
Brooklyn 23
Alabama 23
Tom 23
Antioch 23
Dick 23
Lambien 23
Gardner 23
Knight 23
Rosaceae 23
Tomato 23
Sandwich 23
meringue 23
Rutland 23
Arms 23
preserves 23
vermicelli 23
Carles 23
Gérard 23
Manual 23
Pro 23
Rodriguez 23
2014-2015 23
69618 23
Hartel 23
Bari 23
1908 23
1909 23
Olympiacos 23
292 23
0-439-17685-9 23
Wiley 23
0002-9327 23
Columbia 23
Sachsen 23
Diane 23
Dr 23
representative 22
erect 22
art 22
inauguration 22
Reference 22
minister 22
hometown 22
Justice 22
offset 22
postal 22
preparation 22
past 22
reside 22
impact 22
PATIENT-1 22
Additionally 22
Lord 22
turn 22
São 22
José 22
167.94 22
s 22
Bachelor 22
deceased 22
Fenves 22
Australian 22
50 22
HOK 22
Augustus 22
Pugin 22
1911 22
Tamil 22
sugar 22
tender 22
loin 22
chinese 22
Mondelez 22
23900 22
Lancashire 22
Berlin 22
Carpi 22
authored 22
Abh 22
Semin 22
Univ 22
Hambg 22
83646315 22
0001-8392 22
Bhaji 22
taro 22
76798317 22
Duane 22
APGPAC 22
museum 21
prime 21
cover 21
appear 21
cities 21
addition 21
# 21
following 21
varied 21
18R/36L 21
Dale 21
Fuad 21
Haider 21
E. 21
1988 21
erected 21
101 21
Ukrop 21
Movement 21
Conservative 21
Alpharetta 21
Los 21
Houston 21
Airman 21
Broadcasting 21
Sheldon 21
Moldoff 21
Lyle 21
Brown 21
bandeja 21
Francois 21
Matteo 21
Renzi 21
Ximo 21
Puig 21
Köln 21
S.r.l. 21
4150 21
Amateurs 21
Admira 21
Wacker 21
Steyr 21
Breaz 21
Valer 21
Daniel 21
Paleobiology 21
Q 21
SAGE 21
Publications 21
Penguin 21
Random 21
5300 21
Established 21
U 21
Leader 20
Helicopter 20
People 20
UTC 20
alter 20
post 20
post-graduate 20
put 20
Discipline 20
By 20
ID 20
Among 20
fans 20
original 20
LLCN 20
prequel 20
service 20
However 20
lives 20
episode 20
Faroese 20
Nawaz 20
ranks 20
Helmut 20
Cook 20
Vietnamese 20
ing 20
Lee 20
Angeles 20
Dillin 20
Reith 20
Larry 20
Bolatinsky 20
Gary 20
Cohn 20
Jack 20
Kirby 20
cuttlefish 20
Another 20
pastry 20
batagor 20
Paz 20
Vala 20
Abu 20
Zahar 20
Ujang 20
shumai 20
Hüseyin 20
Bütüner 20
Güner 20
inhabited 20
Jong 20
Vitesse 20
Arnhem 20
Adv. 20
46451790 20
13/31 20
bajji 20
0567-7920 20
ATA 19
hosts 19
chancellor 19
ego 19
provide 19
consider 19
matches 19
factor 19
hold 19
Variations 19
PATIENT-2 19
page 19
books 19
throughout 19
and/or 19
Cornwall 19
measures 19
Danish 19
war 19
ORAA 19
Don 19
Masum 19
commanded 19
Jahn 19
140000.0 19
Alexandria 19
Jill 19
Shilling 19
b@@ 19
Carmine 19
Almonds 19
Rosids 19
4.8 19
Iloilo 19
cookie 19
rupiah 19
Vajubhai 19
Abdul 19
Halim 19
Kedah 19
Æthelwald 19
Olimpico 19
2011 19
Qarabag 19
Boer 19
stories 19
0-7156-3648-0 19
Garrett 19
507 19
Malatu 19
Baduy 19
Operated 19
helicopter 18
if 18
operator 18
senator 18
genre 18
consist 18
carbs 18
out 18
pick 18
rooms 18
famous 18
primary 18
flight 18
itself 18
ia 18
still 18
aircrafts 18
abbrv 18
West 18
2215.0 18
3800 18
4000 18
Greenlandic 18
Provincial 18
Blvd. 18
Filipinos 18
Potter 18
Duursema 18
Baron 18
Mark 18
Infantino 18
Roy 18
Inkpot 18
considered 18
Tomatoes 18
cephalopod 18
cubanelle 18
peppers 18
Sago 18
Puigdemont 18
llocano 18
D.C 18
1907-07-11 18
Alvinegro 18
Real 18
S.S.D. 18
Milan 18
S.S. 18
Uab 18
Kempe 18
Gowda 18
0-374-26131-8 18
388 18
Sanderson 18
Sons 18
picked 18
him 18
Leinster 18
Mishkin 18
desserts 18
3000 18
having 18
Hook 18
Malays 18
fictional 17
s@@ 17
15/33 17
3992.88 17
09L/27R 17
3310.0 17
Guardian 17
Democratic 17
Greeks 17
HAL 17
Light 17
Combat 17
Jinnah 17
Francis 17
Pickard 17
Chilton 17
events 17
Quay 17
1964 17
Craftsman 17
1980-04-23 17
Andrew 17
Indians 17
Attica 17
Bay 17
Kupperberg 17
Simonson 17
appeared 17
McKenzie 17
Puerto 17
classed 17
pepper 17
asam 17
condiment 17
Lira 17
Efxeinoupoli 17
Counties 17
A.S 17
Armando 17
Picchi 17
Denzil 17
Bury 17
Chelsea 17
Virtus 17
Entella 17
Inter 17
magistrate 17
ed 17
Q. 17
Brandon 17
Afonsa 17
Libya 17
3360.12 17
SVE 17
Netherland 17
Kolin 17
5000 17
competes 17
'em 17
1700 17
Philippe 17
ft 16
I.D. 16
ribbon 16
As 16
designer 16
designers 16
associate 16
academically 16
Although 16
foods 16
e@@ 16
locally 16
facts 16
Part 16
Previous 16
affiliation 16
force 16
Other 16
rivers 16
A@@ 16
governs 16
Brasilia 16
100305.0 16
Feinstein 16
gold 16
Slay 16
111484 16
Munster 16
Williamsburg 16
Giles 16
476 16
Anandiben 16
Patel 16
sq 16
.@@ 16
Len 16
Wein 16
Stan 16
Pirate 16
Goscinny 16
Olive 16
Municipal 16
Genoa 16
associated 16
Drogheda 16
8805735 16
1732-2421 16
Society 16
Four 16
World 16
Trade 16
Herald 16
1.8 16
F.C 16
78771100 16
id 15
just 15
land 15
council 15
Congress 15
m. 15
capacity 15
/ 15
novels 15
clubs 15
05L/23R 15
Chris 15
52 15
Dianne 15
Romanesque 15
Place 15
Cyrus 15
Vance 15
Representatives 15
n@@ 15
Astérix 15
Odinson 15
Ballistic 15
Disney 15
Studios 15
Bread 15
Rosales 15
Celery 15
Ground 15
rutaceae 15
Acehnese 15
Dino 15
Manuzzi 15
Development 15
Gordon 15
Marsden 15
Colwyn 15
offered 15
0269-9370 15
1473-5571 15
Print 15
Annie 15
Dunne 15
AMAHE9 15
1588-2632 15
0965-2140 15
states 15
Mulatu 15
shown 15
broadcasted 15
palm 15
Atalanta 15
Deșteaptă-te 15
române 15
printed 15
1-56947-301-3 15
tenanted 15
Bungalows 15
Deportiva 15
That 15
Brazilians 15
4th 14
5th 14
operators 14
retirement 14
occupation 14
behind 14
appearance 14
Arrow 14
may 14
VP[aspect=perfect,tense=present,voice=active,person=null,number=null] 14
focus 14
works 14
career 14
recipient 14
gemstone 14
actually 14
origins 14
important 14
recipes 14
during 14
astronaut 14
managing 14
River 14
numbers 14
l@@ 14
a.s.l. 14
plane 14
largely 14
17L/35R 14
Madrid-Barejas 14
al 14
Country 14
Kimberly 14
4/22 14
T.S. 14
Patten 14
Eugene 14
1969-09-01 14
22 14
concerts 14
P 14
America 14
Hearst 14
sterling 14
Ann 14
Arbor 14
King 14
Ahri'ahn 14
Geering 14
Motion 14
starring 14
Rican 14
Ketchup 14
Meringue 14
shortcrust 14
soup 14
Gram 14
Sour 14
Carrie 14
Lam 14
Javenese 14
Karnatka 14
Martyr 14
50000 14
Marc 14
Rodríguez 14
47290 14
Max 14
Huiberts 14
Tranmere 14
Netherlands 14
Zaragoza 14
Robur 14
Siena 14
offers 14
1558-2868 14
Computing 14
978-0-15-204770-2 14
Found 14
84 14
Sardar 14
Ayaz 14
doctorate 14
88002539 14
Examiner 14
holds 14
17023 14
K-W 14
graduating 14
real 13
finish 13
measure 13
so 13
claim 13
related 13
most 13
version 13
we 13
On 13
While 13
alternatively 13
nice 13
formation 13
exact 13
Study 13
Runway 13
i@@ 13
Aktieselkab 13
3078.48 13
2900.0 13
8.0 13
4000.0 13
al-Abadi 13
es 13
C-130 13
Hercules 13
Nov 13
f@@ 13
Collin 13
Ambassador 13
Norway 13
1929 13
hotel 13
1961 13
42 13
A.M. 13
Georgian 13
1995 13
Blvd 13
Gale 13
Brewer 13
Coloured 13
Arlington 13
covers 13
t@@ 13
Moench 13
Pictures 13
Rochdale 13
condiments 13
Sesame 13
François 13
provided 13
27250 13
Bentegodi 13
N.V. 13
Minicipal 13
RB 13
Graafschap 13
Anderlecht 13
Castrovillari 13
1046-8188 13
J.V. 13
Paleontology 13
bombing 13
Sadiq 13
518.0 13
NJ 13
originating 13
tofu 13
32024459 13
45644811 13
Sc 13
conference 13
studied 13
These 13
ScD 13
formerly 12
bed 12
invent 12
heads 12
colours 12
Library 12
Classification 12
EISSN 12
position 12
firm 12
not 12
usually 12
patron 12
example 12
Now 12
AKA 12
peninsula 12
abbr 12
Influenced 12
KABI 12
610.0 12
3,500 12
3500.0 12
4349 12
1800 12
3990.0 12
Little 12
07/25 12
900.0 12
Turkmenabat 12
21st 12
120 12
62145.3 12
110 12
Lewis 12
Cottingham 12
Philip 12
Hardwick 12
finished 12
Route 12
83 12
Clancy 12
Khalid 12
Mahmood 12
Gates 12
Legislative 12
Springfield 12
Some 12
Drake 12
Kapitan 12
Harry 12
Sahle 12
Doug 12
Maya 12
Rudolph 12
arrabbiata 12
invented 12
Peanut 12
Teow 12
Chicharrón 12
Cesana 12
Warton 12
Futbol 12
Alkmaair 12
Catania 12
romane 12
ATISET 12
hardback 12
AMHAAJ 12
1360-0443 12
behalf 12
1080-6377 12
Violet 12
Keystone 12
international 12
Spata 12
Shephard 12
i 12
1533.0 12
belonging 12
Aethelwald 12
B.S 12
Pa 12
living 11
ethnicity 11
see 11
concern 11
superhero 11
specifically 11
citizens 11
whilst 11
various 11
p@@ 11
o 11
B@@ 11
Asphalt 11
1121.0 11
Aiport 11
4349.0 11
1800.0 11
Peoples 11
2744.0 11
2744 11
Mobility 11
1411 11
597.0 11
03R/21L 11
94 11
N.J. 11
1873 11
airlines 11
21 11
commerce 11
finch 11
1933-10-17 11
Redefine 11
Properties 11
121.92 11
Jacobean 11
Dimmit 11
Liberal 11
Democrats 11
Abe 11
Amarillo 11
titled 11
Stevens 11
Albert 11
Uderzo 11
Comic 11
Bibbowski 11
Tudyk 11
Jamie 11
Chung 11
Jerry 11
Ordway 11
Squeezed 11
Southeastern 11
Pork 11
pakora 11
Chicharron 11
sandesh 11
Solanaceae 11
AD 11
Calero 11
Srl 11
53502 11
Eredivisie 11
Estádio 11
R.S.C. 11
Alianza 11
Maccabi 11
Tel 11
Aviv 11
Modling 11
Rapid 11
Vorwärts 11
Varese 11
Irlam 11
Runcorn 11
Halton 11
Ammann 11
Ring 11
Fire 11
E 11
Computer 11
Machinery 11
Aids 11
0-7653-0633-6 11
Bodley 11
Head 11
49805501 11
Wizards 11
Harcourt 11
focused 11
Samuel 11
Curtis 11
Graduate 11
Scrivener 11
1878 11
Lincoln 11
Nebraska 11
BS 11
MS 11
Byron 11
Lalbhai 11
CEPT 11
opp 11
Pecorino 11
Romano 11
cookies 11
Red 11
Udinese 11
Written 11
0025-5858 11
surfaced 11
Dutch 11
Californian 11
siomay 11
texas 11
fourth 10
term 10
Nasa 10
completion 10
responsible 10
radio 10
distributor 10
source 10
ranking 10
residence 10
Code 10
common 10
n 10
feature 10
From 10
You 10
enjoy 10
comprise 10
games 10
studies 10
First 10
residents 10
host 10
when 10
During 10
counties 10
major 10
Lead 10
neighbours 10
Here 10
/@@ 10
prominent 10
planes 10
a@@ 10
features 10
1,121 10
Works 10
600.0 10
2989.0 10
75 10
23.0 10
Paraná 10
Turkmenbashi 10
Mar 10
1930-01-20 10
1971 10
Nockalls 10
3746.66 10
27nd 10
Bloomsbury 10
Monroe 10
Rona 10
Manley 10
voiced 10
Bibbo 10
Roland 10
Eisner 10
Banana 10
Cephalopod 10
Cubanelle 10
Sausage 10
Tapioca 10
Arifin 10
Zakaria 10
stands 10
Soldiers 10
Liga 10
A.E. 10
Kellamergh 10
Pallotta 10
nicknamed 10
Topklasse 10
Portugal 10
Mödling 10
Blackburn 10
h@@ 10
Desteapta-te 10
Schneider 10
et 10
AAIDBI 10
51969173 10
I@@ 10
360 10
concerned 10
Pure 10
Bones 10
2702.0 10
headed 10
10/03/1983 10
amatriciana 10
consists 10
frangipane 10
Chorizo 10
Mechanics 10
Vorwarts 10
Pol. 10
honey 10
V 10
Aarus 10
Anwar 10
Zaheer 10
Jamali 10
SBCT 10
Feb 10
township 9
Space 9
t 9
ate 9
Architect 9
Emperor 9
distribute 9
stand 9
undergraduate 9
pen 9
orders 9
landmark 9
a.k.a. 9
hall 9
d@@ 9
as@@ 9
3,990 9
3,992.88 9
03/21 9
5 9
Outagamie 9
12R/30L 9
3048.0 9
Clayton 9
Winnebago 9
leading 9
F@@ 9
1998-07-21 9
appointed 9
Sept 9
crewed 9
Limited 9
44114 9
Monastery 9
ated 9
Mitchell 9
Ethiopian 9
Akihito 9
Bethesda 9
CA 9
Orange 9
S@@ 9
distributed 9
Book 9
Brooke 9
Guanciale 9
Laurales 9
Condiments 9
Sponge 9
Mindanao 9
Condensed 9
Granola 9
ic@@ 9
Najib 9
Razak 9
SpA 9
EPSTH 9
S.p.A 9
Klubu 9
Asa 9
Gigante 9
C.F.C. 9
Arapiraca 9
ADO 9
Den 9
Haag 9
A.S.D. 9
Vigor 9
500 9
10@@ 9
L 9
90640840 9
Paperback 9
318875313 9
0236-5294 9
paleontology 9
233 9
r@@ 9
1480153 9
o@@ 9
Glendower 9
obtained 9
Bridge 9
814 9
Dalpatbhai 9
lettuce 9
Phillippines 9
1936 9
Salvadoran 9
Primera 9
Affiliated 9
1,533 9
Pilot 9
Jon 9
arem-arem 9
Cookies 9
.The 9
Designed 9
-@@ 8
Arrondissement 8
aircraft-capable 8
Commander 8
crewman 8
appoint 8
say 8
recipe 8
require 8
legislative 8
participate 8
Champions 8
outlook 8
help 8
coden 8
editors 8
Before 8
get 8
obviously 8
saint 8
take 8
into 8
Available 8
only 8
fly 8
capitol 8
came 8
whole 8
Within 8
house 8
resident 8
ruler 8
through 8
Language 8
onto 8
nation 8
k@@ 8
Ethnically 8
re@@ 8
Saint 8
17R/35L 8
Habbaniyah 8
09R/27L 8
733.0 8
Eberhard 8
Laan 8
2014.0 8
3@@ 8
2,@@ 8
1,982 8
1982 8
12/30 8
34.0 8
Transportation 8
Stephen 8
Dilts 8
de@@ 8
Defense 8
Legion 8
Merit 8
purple 8
an@@ 8
Brutalist 8
Rafael 8
J 8
McManus 8
Musuem 8
Kendall 8
Palace 8
Westminster 8
Shinzo 8
Ski 8
404 8
it@@ 8
Fountain 8
Pierce 8
Travis 8
Amazing-Man 8
Fairhead 8
Damon 8
Wayans 8
Aberdeen 8
Rene 8
René 8
Gustavson 8
Garlic 8
Fruit 8
Tart 8
bakso 8
grams 8
18.0 8
Noodles 8
Palm 8
requires 8
Sapindales 8
Batak 8
solanaceae 8
Solanum 8
Bundesliga 8
Jepson 8
Al-Shamal 8
Sports 8
Pavloopoulos 8
C.D. 8
Aguila 8
Empoli 8
Potenza 8
Lamezia 8
Vienna 8
LASK 8
Linz 8
Unione 8
Triestina 8
2012 8
Weber 8
resides 8
2158-3226 8
1.524 8
Tor 8
Books 8
penned 8
Universitat 8
1865-8784 8
Abh.Math.Semin.Univ.Hambg 8
Springer 8
248 8
Australians 8
Warsaw 8
Poland 8
Sara 8
McCune 8
Publishers 8
m@@ 8
,@@ 8
NY 8
1932-03-15 8
got 8
y 8
Erie 8
DuPage 8
Link 8
Ad@@ 8
M. 8
U.K. 8
Persea 8
dumpling 8
Türk 8
Delfino 8
Pescara 8
B.C. 8
BC 8
Vica 8
addiction 8
L@@ 8
craftsman 8
Mans 8
Monarchy 8
130 8
joining 8
she 8
working 8
BSc 8
G.P. 8
Senate 7
ce 7
hear 7
around 7
Governing 7
publishers 7
obtain 7
inside 7
stadium 7
literature 7
Natives 7
houses 7
child 7
Coming 7
Along 7
co 7
province 7
ac@@ 7
Group 7
three 7
25.0 7
4100.0 7
3400.0 7
Am@@ 7
16/34 7
public 7
Appletone 7
900 7
1873.0 7
Kurdish 7
Al-Abadi 7
Shehbaz 7
LaVern 7
1974-08-01 7
Aug 7
dead 7
13017 7
american 7
ates 7
Benedict 7
Haputhale 7
Jacabian 7
Nakadori 7
Koreans 7
Pound 7
Fulton 7
Hays 7
Capitol 7
Kelvin 7
Mao 7
g@@ 7
Colón 7
w@@ 7
onion 7
Lemper 7
ad@@ 7
Cake 7
K@@ 7
Oyster 7
potatotes 7
Rutaceae 7
lemons 7
heard 7
Shiitake 7
placed 7
1932-07-27 7
stone 7
Pro/A 7
Lane 7
A.S.Roma 7
Shuvalan 7
PDL 7
Giorgos 7
Kaminis 7
A.Ş 7
Istanbulspor 7
SSD 7
Archarya 7
63 7
Th 7
V. 7
672 7
Cowpher 7
Owen 7
Macmillan 7
3990 7
973.0 7
distinguished 7
pound 7
Created 7
Benjamin 7
at@@ 7
Negre 7
arros 7
said 7
Phillipines 7
Chicken 7
Bronze 7
on@@ 7
Apostle 7
Adv 7
C@@ 7
retiring 7
Shepherd 7
Retired 7
H@@ 7
Frangipane 7
u@@ 7
Germania 7
Schoneiche 7
Asociación 7
Asociacion 7
M.S 7
college 7
Aso 7
positioned 7
seal 6
Aircraft 6
organize 6
fossil 6
Senator 6
vice 6
Architectural 6
sytle 6
money 6
project 6
municipal 6
forms 6
simply 6
field 6
winner 6
think 6
Valencia 6
branch 6
youth 6
affilait 6
~ 6
Undergraduate 6
colors 6
Body 6
prior 6
carry 6
locals 6
tall 6
boast 6
flavour 6
meal 6
mainly 6
soccer 6
Previously 6
large 6
subsidiary 6
almost 6
identify 6
fighters 6
AGENT-1 6
leadership 6
Popular 6
very 6
product 6
Like 6
officially 6
champion 6
memberrs 6
abreviation 6
adviser 6
runaway 6
control 6
Where 6
way 6
homeground 6
Current 6
te 6
though 6
us 6
kilometer 6
ans 6
until 6
structure 6
Languages 6
ethnically 6
information 6
E@@ 6
P@@ 6
k 6
18@@ 6
ABI 6
2194.0 6
2,195 6
N.Y. 6
1818 6
3,310 6
Aplena 6
3453.0 6
18C/36C 6
3,800 6
1510.0 6
ATW 6
1960 6
KACY 6
1,873 6
T@@ 6
Malik 6
Muhammad 6
Rafique 6
Rajwana 6
1923-11-18 6
13017.0 6
9 6
organized 6
52.0 6
Purple 6
kingdom 6
8820.0 6
1978 6
arena 6
28.0 6
begun 6
Tadao 6
Ando 6
Dáil 6
Éireann 6
kilometers 6
6@@ 6
Linn 6
Berry 6
Fall 6
Creek 6
Williamson 6
Aman 6
Everett 6
Laird 6
st@@ 6
Birkenhead 6
R@@ 6
Bozo 6
Iron 6
Brenner 6
Rick 6
thought 6
Basko 6
1999 6
Pakora 6
corn 6
Coconut 6
Citrus 6
Peña 6
dollar 6
Minangkabau 6
Regionalliga 6
A.C 6
A.F.C 6
Bryning 6
NV 6
Peşəkar 6
Zaanstreek 6
Qarabağ 6
CFC 6
Alagoas 6
İstanbulspor 6
FAS 6
ASD 6
Licita 6
y@@ 6
Barrow 6
Team 6
Favoritner 6
Cantania 6
Sparta 6
affilaited 6
orange 6
Farrar 6
Straus 6
Giroux 6
560 6
Media 6
Blackwell 6
1461102 6
1080 6
Alexander 6
the@@ 6
2900 6
Centre 6
J@@ 6
Benitoite 6
1966-02-28 6
Completed 6
Salle 6
j@@ 6
Bo 6
er@@ 6
boasts 6
Blanco 6
romano 6
pecorino 6
Nola 6
1925 6
Division 6
Based 6
Barcelona 6
amateur 6
Johannis 6
Magistrate 6
2777 6
TS 6
1533 6
poales 6
becoming 6
Criona 6
Ni 6
Dhalaigh 6
baths 6
is@@ 6
Kate 6
Hardie 6
oregano 6
am@@ 6
U.S.A 6
coloured 6
enjoyed 6
1/19 6
M.A 6
St.Louis 6
Tarō 6
Asō 6
Germanic 6
big 6
Oct 6
administrative 5
note 5
costs 5
do 5
vary 5
barny 5
classify 5
I 5
authority 5
life 5
prepare 5
tv 5
el 5
competition 5
neighbor 5
bomb 5
VP[aspect=simple,tense=present,voice=active,person=null,number=singular] 5
PATIENT-3 5
event 5
format 5
le@@ 5
Leaders 5
un@@ 5
commemorate 5
ha@@ 5
facility 5
website 5
places 5
c@@ 5
-1@@ 5
port 5
2@@ 5
SLK 5
1219.0 5
4,100 5
911.0 5
618 5
APN 5
7/25 5
Haarlemmermeer 5
O@@ 5
Zwanenburgbaan 5
E11 5
2/20 5
mobility 5
8002 5
3/21 5
1411.0 5
2953 5
ASB 5
Flanders 5
Iraqi 5
dinar 5
Ahora 5
Texan 5
noted 5
days 5
ted 5
00@@ 5
0@@ 5
07/23/1927 5
1973 5
120m 5
Exchange 5
Bank 5
venue 5
JP 5
Admisham 5
Asians 5
30@@ 5
Benton 5
765 5
678 5
-8 5
Tarrant 5
DeKalb 5
man 5
Seattle 5
pe@@ 5
li@@ 5
Randall 5
ri@@ 5
provides 5
Ralph 5
Payne 5
Buxton 5
Oregano 5
padeh 5
Shortcrust 5
Arepa 5
Honey 5
Fruits 5
Cookie 5
peso 5
> 5
GROUP 5
AE 5
Lucky 5
Laughlin 5
es@@ 5
FSV 5
Zwickau 5
CD 5
Footballer 5
attending 5
Blue 5
physics 5
H. 5
Crespi 5
Bernard 5
Gerstman 5
Masaaki 5
Tanaka 5
Enge 5
Wang 5
ce@@ 5
Simon 5
Schuster 5
press 5
wasp 5
ADICE5 5
L'Engle 5
Elkin 5
Mathews 5
Air@@ 5
Serving 5
held 5
en@@ 5
2 5
N@@ 5
Cuttlefish 5
spanish 5
Pedas 5
Barney 5
dumplings 5
bananas 5
ds 5
participated 5
St@@ 5
Amsterdam-Centrum 5
Marousi 5
lulia 5
ter 5
abbreviating 5
7877110 5
U@@ 5
identified 5
4 5
Par@@ 5
bombed 5
4@@ 5
Críona 5
Ní 5
Dhálaigh 5
Marriot 5
22nd 5
Valor 5
sia 5
ay@@ 5
indonesia 5
Vermicelli 5
Indonesi@@ 5
shiitake 5
si@@ 5
Brazilian 5
took 5
Syst. 5
Grant 5
14R/32L 5
Phillipe 5
M@@ 5
Vinoly 5
Pudding 5
Lentivirus 5
granted 5
fifth 4
arrondissement 4
walk 4
senators 4
developers 4
occupy 4
biggest 4
products 4
need 4
Money 4
Capital 4
founding 4
responsibility 4
dictate 4
enrol 4
studiies 4
assign 4
discipine 4
populate 4
carrier 4
runways 4
chief 4
outer 4
new 4
others 4
refer 4
surprisingly 4
them 4
When 4
better 4
'll 4
membership 4
teams 4
primarily 4
follow-up 4
ase 4
unrelated 4
Literature 4
therefore 4
aircarft 4
en 4
Class 4
Crew 4
co@@ 4
son 4
daughter 4
inclusdes 4
variety 4
ethinic 4
closest 4
active 4
governor 4
r 4
predominantly 4
however 4
operationg 4
metre 4
I.D 4
airforce 4
identifiers 4
aircaft 4
widely 4
con@@ 4
affiliations 4
components 4
fun 4
fact 4
Home 4
present 4
Since 4
winners 4
mat@@ 4
educational 4
virus 4
random 4
le 4
loca@@ 4
details 4
crafts 4
achievements 4
Prior 4
graduation 4
recently 4
competitor 4
VP[aspect=progressive,tense=present,voice=active,person=non-3rd,number=plural] 4
rule 4
projects 4
ed@@ 4
er 4
Which 4
serverd 4
categorization 4
attendance 4
amongst 4
sub-group 4
because 4
would 4
ain 4
Postgraduate 4
Students 4
spending 4
death 4
years 4
3678 4
7202 4
2195.0 4
6573 4
2003.0 4
4,349 4
2988 4
4019.0 4
3090 4
Ald@@ 4
04/22 4
oo@@ 4
Polderbaan 4
2939 4
1773.0 4
4000ft 4
Bart 4
Wever 4
1982.0 4
12L/30R 4
Wellington 4
69 4
20,1930 4
7@@ 4
walked 4
Smilodon 4
8820 4
AUD 4
1200 4
142 4
Millar 4
2009-10-02 4
Hopsital 4
Winkler 4
Japanese 4
SqKm 4
7 4
Lafayette 4
Washtenaw 4
214 4
z 4
Marcos 4
gre@@ 4
et@@ 4
produces 4
Rico 4
W@@ 4
adding 4
laurales 4
Lettuce 4
Hogao 4
kidney 4
bean 4
fritters 4
wheat 4
Chopped 4
Apium 4
classified 4
sapindales 4
cauliflower 4
paneer 4
Count 4
martyrs 4
saw 4
am 4
A.F.C.Fylde 4
Barbetti 4
Hoofdklasse 4
Bakou 4
AFAS 4
Stadion 4
ens 4
Left 4
Ecology 4
Mendriso 4
enrolled 4
blue 4
Institue 4
Monarch 4
E-Book 4
loyal 4
jo@@ 4
Sage 4
bimonthly 4
bi-monthly 4
Retrovirus 4
in@@ 4
Dark 4
Ages 4
Madeleine 4
MacDonald 4
populated 4
2702 4
3684 4
3684.0 4
Has 4
210m 4
3.3528 4
te@@ 4
12.0 4
united 4
al@@ 4
po@@ 4
Ave. 4
Lasalle 4
140000 4
1988-11-22 4
Mckenzie 4
ger 4
comprised 4
fi@@ 4
ish 4
penet 4
standard 4
goes 4
referred 4
french 4
18g 4
Vegetables 4
V@@ 4
ment 4
Şehitleri 4
Anıtı 4
1FC 4
Founded 4
neighboring 4
parented 4
counts 4
th 4
Librarian 4
Math. 4
Scriptures 4
english 4
central 4
india 4
airports 4
ating 4
F16 4
497 4
runs 4
speaks 4
3048 4
Be@@ 4
h 4
flew 4
20@@ 4
covering 4
u 4
americans 4
chicharron 4
ti@@ 4
F. 4
I. 4
ville 4
Is 4
Admin.Sci.Q 4
.It 4
ll@@ 4
ak@@ 4
Doshi 4
She 4
.Its 4
tenderloin 4
ric@@ 4
ts 4
academy 4
Romanian 4
se@@ 4
Brit@@ 4
ruled 4
Balgalore 4
Techology 4
monarchy 4
NASA-operated 4
utilize 3
develop 3
Area 3
Seat 3
look 3
legislate 3
sh 3
office 3
component 3
me 3
ve 3
pay 3
lab@@ 3
connect 3
hs 3
flow 3
Order 3
monarch 3
ref 3
VP[aspect=perfect,tense=past,voice=active,person=null,number=null] 3
assi@@ 3
Many 3
rate 3
link 3
republic 3
loc@@ 3
street 3
ing@@ 3
neighbour 3
ci@@ 3
ch 3
Then 3
VP[aspect=simple,tense=past 3
perfect,voice=passive,person=null,number=null] 3
call@@ 3
du@@ 3
main@@ 3
king 3
great 3
Vice 3
reg@@ 3
sauces 3
bo@@ 3
com@@ 3
site 3
1,219 3
1818.0 3
4,019 3
3090.0 3
Anne 3
ay 3
877.0 3
9001 3
lpena 3
ol@@ 3
Oostbaan 3
09/27 3
ser@@ 3
Aalsmeerbaan 3
9@@ 3
39 3
1773 3
little 3
chute 3
1,411 3
12467 3
Concrete 3
gu@@ 3
Harrietsown 3
sh@@ 3
io 3
battled 3
involving 3
performs 3
Se@@ 3
l 3
representing 3
beginning 3
Finch 3
Ausitin 3
39599.0 3
Viñoly 3
120770.0 3
developed 3
Addid 3
Halls 3
id@@ 3
ham 3
1-4-2 3
30 3
hospital 3
Birr 3
birr 3
Shinzō 3
Joh 3
14.2 3
286.5 3
429.9 3
161.54 3
.0 3
144.7 3
Dougherty 3
54 3
1104.1 3
Bernalillo 3
755.3 3
1.0 3
55.4 3
992.6 3
-7 3
25.2 3
131.6 3
48.0 3
Tait 3
336265 3
107.43 3
268.0 3
523.9 3
Steuben 3
524.5 3
74.33 3
Manager 3
75.324 3
102372 3
94509 3
94531 3
682 3
817 3
469 3
972 3
470 3
347.1 3
609 3
Clerk 3
1421.2 3
4.14 3
Logan 3
783.1 3
1.7 3
140.8 3
368.65 3
914.8 3
1296.65 3
Corvallis 3
Legislature 3
De@@ 3
ie 3
ul@@ 3
Navajo 3
San@@ 3
Richland 3
Olympia 3
O'Neal 3
O'Neil 3
does 3
ca 3
ore 3
Dillian 3
Alley 3
Arem-Arem 3
Basil 3
ia@@ 3
arròs 3
alaska 3
Cooking 3
Rice 3
apple 3
contained 3
Pol@@ 3
ian 3
Casillas 3
Romero 3
citrus 3
pi@@ 3
dictates 3
D@@ 3
participating 3
Mag@@ 3
italy 3
Antonis 3
Milionis 3
A.S.Livorno 3
Pesokar 3
PremierLeague 3
john 3
Eehoorn 3
Noord 3
Amsterdam-Noord 3
CF 3
Licata 3
Rotterdam 3
istr@@ 3
Si@@ 3
AIT 3
?? 3
kke 3
Desteapta 3
Vicent 3
Glastonbuy 3
assigned 3
wizard 3
ASCQAG 3
Fantasy 3
fantasy 3
ch@@ 3
Orthoretrovirinae 3
publications 3
Bundsgaard 3
2776 3
4100 3
733 3
Schuphol 3
159m 3
Owned 3
280m 3
Auckland 3
UTAA 3
211m 3
su@@ 3
ge@@ 3
ranked 3
prepared 3
par@@ 3
occupied 3
Postmodern 3
0 3
cted 3
Kevin 3
Eastman 3
winning 3
di@@ 3
movie 3
Northbrook 3
Gar@@ 3
Hugh 3
Hazzard 3
spain 3
Amatricana 3
Rupiah 3
Catalonian 3
Sumatran 3
ty 3
fresh 3
persea 3
Ban@@ 3
Lemons 3
ag@@ 3
por@@ 3
ks 3
Binig@@ 3
desert 3
connected 3
División 3
flows 3
ura 3
Aaarhus 3
1635 3
Cannon 3
Law 3
ased 3
ica 3
Am.J.Math 3
1.337 3
2,776 3
2,194 3
2215m 3
ra 3
4019 3
eral 3
ons 3
island 3
33@@ 3
12@@ 3
1.@@ 3
518 3
monocotyledon 3
commelinids 3
air@@ 3
chose 3
se 3
ure 3
LaSelle 3
mm@@ 3
examiner 3
Ethopia 3
Bu@@ 3
ajo 3
Andalusian 3
ro@@ 3
Originating 3
av@@ 3
coming 3
ga@@ 3
ta@@ 3
Antioquio 3
mushrooms 3
solanales 3
Philippin@@ 3
e-@@ 3
el@@ 3
Mar@@ 3
ou@@ 3
A.@@ 3
N.@@ 3
an-@@ 3
Chieti 3
1600 3
Universi@@ 3
predecessor 3
Authored 3
os 3
Hungar. 3
Danes 3
2195 3
Alcobenda 3
controlled 3
gr@@ 3
pen@@ 3
a.The 3
896 3
are@@ 3
WI 3
597 3
rated 3
ut@@ 3
193@@ 3
1927-07-23 3
ked 3
198@@ 3
Built 3
ded 3
her 3
Fransisco 3
Ethiopa 3
showed 3
broadcasting 3
lor 3
featured 3
cuisine.The 3
llo@@ 3
Puidgemont 3
In@@ 3
Car@@ 3
commemorated 3
ar@@ 3
Metro 3
St.Mary 3
Architetturia 3
Led 3
Univerrsity 3
Mahé 3
Palaeontol.Pol 3
uring 3
Jo@@ 3
U.S.A.F. 3
14/32 3
Mr 3
Concerts 3
hosted 3
metro 3
Sandoval 3
Turkeys 3
battlefield 3
Dept 3
H 3
idenitifier 2
loaction 2
admin 2
average 2
Headquarters 2
amoun@@ 2
fossils 2
open 2
developer 2
augur@@ 2
zone 2
Most 2
Population 2
ares 2
chair 2
stare 2
coll@@ 2
resul@@ 2
creation 2
list 2
introdu@@ 2
best 2
snack 2
interested 2
non-abbreviated 2
locatedd 2
employ 2
Approximately 2
undergraduates 2
roughly 2
adop@@ 2
proud 2
neighbors 2
borders 2
devote 2
publ@@ 2
Coden 2
literary 2
abbreivate 2
notableWork 2
administr@@ 2
leve 2
interestingly 2
pur@@ 2
recru@@ 2
astronauts 2
om 2
coincidentally 2
denonym 2
reig@@ 2
rents 2
oversee 2
inagurate 2
screens 2
varient 2
locale 2
fry 2
derive 2
If 2
might 2
Ingredients 2
nicknames 2
enhance 2
liking 2
surprising 2
love 2
tasty 2
consu@@ 2
classic 2
introduction 2
dis 2
counrty 2
want 2
accompaniment 2
kinds 2
originiates 2
hon@@ 2
Once 2
crowd 2
menbers 2
legue 2
managerof 2
unsurprisingly 2
Outlook 2
Ranking 2
border 2
Municipality 2
percentage 2
number,@@ 2
IBN 2
Editor 2
alumnus 2
rele@@ 2
ISNN 2
unrelatedly 2
shor@@ 2
subject 2
examples 2
totally 2
unreleated 2
Factor 2
make-up 2
servers 2
runwiay 2
fighter.The 2
veterans 2
invasions 2
1rst 2
indigenes 2
meteres 2
elevelation 2
sealevel 2
organise 2
set 2
addres 2
incorpor@@ 2
case 2
broadcasts 2
creater 2
currecncy 2
always 2
lot 2
alternatives 2
orgin@@ 2
typically 2
whic 2
further 2
So 2
CORRECT 2
est@@ 2
contribute 2
visit 2
nad 2
professional 2
managers 2
Today 2
loc 2
informally 2
recor 2
Abbreviation 2
matter 2
numberr 2
ace 2
numbere 2
KCCN 2
minorities 2
Groups 2
? 2
aboce 2
identfier 2
OR 2
altitude 2
jet 2
operations 2
noteworthy 2
airbases 2
material 2
slang 2
oft 2
pf 2
op@@ 2
whree 2
sadly 2
earlier 2
side 2
fellow 2
stint 2
conce@@ 2
ive 2
local-born 2
streets 2
worth 2
formally 2
commence 2
end 2
speech 2
act 2
business 2
significance 2
architecturally 2
withreference 2
Designer 2
whom 2
PATIENT-@@ 2
prevously 2
role 2
substantial 2
AGENT 2
cones 2
rules 2
separate 2
originaly 2
Said 2
ingedients 2
few 2
Either 2
carbohydrate 2
nutritional 2
value 2
fron 2
together 2
Fun 2
igredient 2
try 2
too.The 2
langauge 2
categorisation 2
Close 2
Turks 2
interest 2
highly 2
hone 2
Tenants 2
Members 2
inabit@@ 2
Soccer 2
additionally 2
coccer 2
far 2
Northwest 2
co-@@ 2
altogether 2
whos 2
nuber 2
copy 2
what 2
background 2
Novel 2
bbreviation 2
abreviated 2
abbreviatedform 2
LCCn 2
things 2
Originally 2
even 2
latest 2
longest 2
stret@@ 2
levle 2
locationa 2
airway 2
entity 2
missiles 2
aircfrafts 2
jets 2
likes 2
Weapons 2
ade 2
capitalod 2
Under 2
speaker 2
Inhabitants 2
BRIDGE-2 2
ruway 2
metes 2
lenght 2
environs 2
controls 2
ece@@ 2
ultimately 2
befor 2
retiral 2
Shortly 2
Sadly 2
graduates 2
employee 2
Who 2
landmarks 2
Floors 2
monuments 2
Work 2
homes 2
numerous 2
resume 2
contru@@ 2
Key 2
emperor 2
roots 2
mix 2
predominant 2
PATIENT-4 2
grop 2
Best 2
worthy 2
politics 2
politicians 2
delicious 2
Genus 2
sizes 2
versions 2
Dishes 2
varieties 2
origintes 2
varation 2
adn 2
Often 2
familiar 2
Just 2
Types 2
Traditional 2
leds 2
enthnicities 2
Naturally 2
purch@@ 2
Vl 2
variants 2
designation 2
nearby 2
South-east 2
except 2
south-east 2
lea@@ 2
old 2
indigenous 2
honour 2
upkeep 2
inaugr@@ 2
affliate 2
TechnIcal 2
collection 2
subsequently 2
demographic 2
next 2
sequ@@ 2
predominently 2
despite 2
mostly 2
pun@@ 2
sppoken 2
aspects 2
culture 2
good 2
Chosen 2
earn 2
precedence 2
adult 2
no 2
wonder 2
Former 2
alumni 2
tr@@ 2
part@@ 2
Despite 2
Latun 2
rectore 2
establishedin 2
ff@@ 2
ili@@ 2
directore 2
strongly 2
Staff 2
board 2
2-@@ 2
lifetime 2
carrer 2
credit 2
IN 2
dedication 2
| 2
sup@@ 2
Posgraduayed 2
leaderr 2
Southwest 2
relgiion 2
well-known 2
19@@ 2
entit@@ 2
today 2
7,202 2
6,573 2
Kheria 2
Station 2
2743.0 2
MAT 2
877 2
3300.0 2
3,453 2
derbaan 2
Buitenveldertbaan 2
Pl@@ 2
929.0 2
929 2
13,123 2
13123 2
15@@ 2
Zeland 2
Curitaba 2
own@@ 2
bengo 2
13017,0 2
13@@ 2
ence 2
Ribbon 2
01 2
7th 2
197@@ 2
/01 2
1971-07-01 2
Ju@@ 2
Willian 2
ders 2
opened 2
Johannesburg 2
ret 2
re 2
Loc@@ 2
Benedicts 2
style`@@ 2
30th 2
2007 2
movement 2
Gujurat 2
Julie 2
Bethseda 2
SqK 2
Albilene 2
524.0 2
.88 2
q@@ 2
0.@@ 2
Sq 2
Km 2
1239.3 2
62.0 2
535.0 2
541 2
458 2
0,@@ 2
008 2
4.@@ 2
505 2
575 2
486.2 2
N.M. 2
490.9 2
1142.3 2
6.81 2
26@@ 2
5@@ 2
770 2
346.0 2
806 2
109@@ 2
9.0 2
746 2
657 2
714 2
16.55 2
734 2
Christopher 2
82.8 2
258.2 2
344.9 2
129@@ 2
334 2
686.0 2
703.95 2
Contra 2
Costa 2
bb@@ 2
Covington 2
ka 2
Lansing 2
Newark 2
Tripp 2
chez 2
Greater 2
ater 2
Tacoma 2
Canyon 2
Fort 2
Worth 2
ying 2
Un@@ 2
Re@@ 2
ps 2
Round 2
Rock 2
p 2
BCC 2
stared 2
Bian@@ 2
af@@ 2
actor 2
hero 2
Bolf 2
Onion 2
basil 2
Arr@@ 2
abb@@ 2
ita 2
Dessert 2
needed 2
Plantain 2
Strawberries 2
Strawberry 2
ced 2
whet 2
Bing@@ 2
Apiaceae 2
apium 2
Jesús 2
Jes@@ 2
ct@@ 2
look@@ 2
Monuments 2
infantry 2
ad 2
Ahmet_Davutoğlu 2
Fiorentia 2
Shuvulan 2
Azal 2
Pfk 2
Eenhoorn 2
Akrons 2
Os 2
ly@@ 2
Pall@@ 2
ot@@ 2
Rod@@ 2
outh@@ 2
PeterStöger 2
employs 2
Technolog@@ 2
Institude 2
Associ@@ 2
Telagana 2
hel@@ 2
Rebelllion 2
media 2
devoted 2
fortress 2
PR6031 2
.0867 2
PR6031O867 2
PS3523.E55 2
S4 2
+ 2
abbreivated 2
ma@@ 2
Machine 2
Unversity 2
orthoretrovirinae 2
Retroviruses 2
Europe 2
Blaenau 2
Ffest@@ 2
ini@@ 2
lo@@ 2
Oliver 2
Porius 2
Julius 2
Airportis 2
adrid-@@ 2
Airpor 2
00.00 2
fighting 2
carried 2
ft. 2
Commelinid 2
29@@ 2
25@@ 2
2989m 2
2989 2
orities 2
jersey 2
covered 2
100,305 2
v. 2
uni@@ 2
ree 2
Eliot 2
28,1966 2
28@@ 2
02@@ 2
/1966 2
24@@ 2
Du 2
Page 2
Dupage 2
Mariott 2
overseen 2
Man@@ 2
aba 2
styled 2
ished 2
inagurated 2
Easter 2
ark 2
Wor@@ 2
3/10/1983 2
Tayler 2
Brooke-@@ 2
ban@@ 2
U.K 2
G@@ 2
INf@@ 2
ge 2
ight 2
ariciana 2
be@@ 2
Compressed 2
lled 2
ab@@ 2
derives 2
've 2
Pi@@ 2
ece 2
sandwhich 2
Cream 2
dales 2
colombian 2
pasta 2
pore 2
ae 2
Bajji 2
makes 2
ys 2
Bhaj@@ 2
serts 2
Solan@@ 2
les 2
ignit 2
Bionic@@ 2
Puig@@ 2
jji 2
Zamboangan 2
PA 2
Ant@@ 2
gl@@ 2
Ar@@ 2
ab 2
acy 2
Pet@@ 2
A.C.Chievo 2
An@@ 2
th@@ 2
Dimit@@ 2
FC. 2
SS 2
19,238 2
17,000 2
bordered 2
crisis 2
pu@@ 2
J.V 2
Mac@@ 2
mi@@ 2
0-@@ 2
Xialong 2
As@@ 2
ned 2
Ma@@ 2
don@@ 2
388-page 2
Mat@@ 2
Math.Hungar 2
Conrnell 2
versus 2
320-page 2
Denamrk 2
AIr@@ 2
Lufthaven 2
3500m 2
cur@@ 2
ane 2
indian 2
For@@ 2
ard 2
Falcons 2
Al-@@ 2
F15 2
lac@@ 2
97@@ 2
Allam 2
3,300 2
4,000 2
2439.0 2
0.9 2
men@@ 2
istan 2
ters 2
Allan 2
NWS 2
ren 2
organised 2
late 2
ic 2
Winckler 2
helped 2
ll 2
manor 2
Dalpat@@ 2
Pro@@ 2
Frenchman 2
Fair@@ 2
Banaman 2
Billie 2
Roule@@ 2
ea@@ 2
appears 2
ma 2
alu@@ 2
aceae 2
sian 2
Jusef 2
ese 2
des 2
em 2
Jav@@ 2
sausages 2
claimed 2
fran@@ 2
preser@@ 2
ve@@ 2
Bakew@@ 2
Con@@ 2
ining 2
ado 2
Colomb@@ 2
quia 2
Bartalone 2
Bat@@ 2
bhaji 2
philippines 2
Filippino 2
mexico 2
Mexicans 2
Gett@@ 2
lan@@ 2
Ethelwald 2
ical 2
om@@ 2
lost 2
ra@@ 2
Val@@ 2
S.S.D 2
X 2
ary 2
l. 2
RSC 2
Attached 2
Med@@ 2
Accadmia 2
Academ@@ 2
technolog@@ 2
Foundation 2
Visvesaraya 2
Arhus 2
follows 2
Preceded 2
Gran@@ 2
Heinlen 2
al. 2
Tr@@ 2
t. 2
Advance 2
ile 2
har@@ 2
399@@ 2
English-@@ 2
focuses 2
math 2
Hungar@@ 2
Palaeontological 2
27367194 2
management 2
met@@ 2
ics 2
brarians 2
Romane 2
Infrareo 2
als 2
3.@@ 2
AC@@ 2
ada 2
Lo@@ 2
Ac-130 2
3310 2
Al@@ 2
06/24 2
Kaagbaan 2
ur@@ 2
Austin.@@ 2
Eng@@ 2
lu@@ 2
Green@@ 2
v@@ 2
Kimb@@ 2
Poacea 2
Airlines.The 2
38@@ 2
Spain.It 2
2215 2
ea 2
2.@@ 2
11@@ 2
obtaining 2
7.@@ 2
dying 2
10/@@ 2
17/@@ 2
09/01/1969 2
1969.09.01 2
ived 2
sting 2
Colman 2
39599 2
linked 2
205 2
Dail 2
Eireann 2
-speaking 2
commenced 2
2013 2
ler 2
Guj@@ 2
4/2@@ 2
Tor@@ 2
Spain@@ 2
lic@@ 2
leader@@ 2
Ital@@ 2
y.@@ 2
sauce@@ 2
squ@@ 2
att@@ 2
ped@@ 2
Malay@@ 2
a.@@ 2
Ba@@ 2
Singapore.It 2
banyumasan 2
mashed 2
Mal@@ 2
well.The 2
uk 2
.BLT 2
States.Its 2
Served 2
gipane-based 2
Bakwell 2
chocolate 2
flavoured 2
Shitake 2
a.Its 2
no@@ 2
pines 2
confectionary 2
Mexic@@ 2
o.It 2
aj@@ 2
tarts 2
nati@@ 2
peoples 2
legislated 2
7and 2
pr@@ 2
ek 2
F.c 2
unded 2
Souza 2
Inter@@ 2
Aklmaar 2
eb@@ 2
itali@@ 2
Karanataka 2
ort 2
AlP 2
A.T 2
advances 2
caucasian 2
he@@ 2
R 2
L/@@ 2
610m 2
Brasil 2
911m 2
2,215 2
Wars 2
US@@ 2
11/39 2
8m 2
Helipad 2
Te@@ 2
Wiconsin 2
going 2
Beintoite 2
louis 2
Wiliam 2
Dc 2
3/@@ 2
Mad@@ 2
Barak 2
airing 2
cia 2
Kaila 2
ya 2
Considered 2
Metropolitan 2
Mcloughlin 2
Aristoteles 2
Deryshire 2
Missi@@ 2
ysburg 2
Izm@@ 2
Kuttittattoor 2
Services 2
Den@@ 2
sen 2
eric@@ 2
mar@@ 2
earned 2
navy 2
-born 2
ined 2
porting 2
ered 2
Azer@@ 2
AEthelwald 2
Accadem@@ 2
Dr.Sarvapalli 2
Alcharya 2
pilo@@ 2
passing 2
commemorates 2
fed@@ 2
char@@ 2
ect 1
VP[aspect=simple,tense=present,voice=active,person=@@ 1
non-@@ 1
3rd,number=singular] 1
VP[aspect=progressive,@@ 1
tense=pas@@ 1
t,voice=active,person=null,number@@ 1
=singular] 1
ue 1
achi@@ 1
ten 1
lose 1
occu@@ 1
st 1
VP[aspect=simple,tense=present,voice=passive,person=@@ 1
3rd,number=null] 1
umber 1
RIDGE-2 1
stitute 1
q 1
comp@@ 1
ress 1
red@@ 1
ents 1
b 1
plan@@ 1
inv@@ 1
tain 1
ct 1
ister 1
und 1
VP[aspect=perfect,tense=present,voice=passive,person=@@ 1
non-3rd,number=null] 1
AG@@ 1
ENT@@ 1
VP[aspect=simple,tense=past,voice=passive,person=null,number@@ 1
=null] 1
RIDG@@ 1
ele 1
lish 1
ner 1
ill 1
jo 1
sit 1
-01 1
ern@@ 1
Schiph@@ 1
stbaan 1
Buitenvel@@ 1
dam 1
Sci@@ 1
phol 1
10 1
75@@ 1
crete 1
Bel@@ 1
im 1
utili@@ 1
z@@ 1
Or@@ 1
pard 1
1/@@ 1
ST@@ 1
Ter@@ 1
ran@@ 1
Str@@ 1
Delaw@@ 1
J.@@ 1
Gro@@ 1
524@@ 1
53@@ 1
4,@@ 1
114@@ 1
6,@@ 1
81 1
occupi@@ 1
5.0 1
46.0 1
minu@@ 1
inhab@@ 1
258.@@ 1
214@@ 1
68@@ 1
enate 1
Was@@ 1
Sch@@ 1
represent@@ 1
atives 1
á@@ 1
Sa@@ 1
occup@@ 1
Georg@@ 1
Amaz@@ 1
adio 1
Her@@ 1
é 1
Cast@@ 1
Bi@@ 1
owski 1
ected 1
Wolf@@ 1
ang 1
idney 1
nit 1
burg 1
Arapiraqu@@ 1
Fon@@ 1
bur@@ 1
gs 1
riguez 1
qu@@ 1
ez 1
x 1
ial 1
,000 1
ati@@ 1
Roman@@ 1
universi@@ 1
form@@ 1
legisl@@ 1
cal 1
John@@ 1
onis 1
urn@@ 1
Alcat@@ 1
inery 1
Vi@@ 1
Luf@@ 1
46@@ 1
pot 1
Barejas 1
00m 1
pena 1
N 1
34@@ 1
00 1
jano 1
Har@@ 1
our 1
Auth@@ 1
auth@@ 1
ited 1
asa 1
Californ@@ 1
ians 1
No@@ 1
Ret@@ 1
itoite 1
1969@@ 1
09@@ 1
liament 1
unds 1
85@@ 1
3.8 1
Ch@@ 1
ago 1
bu@@ 1
lic 1
1400@@ 1
,0 1
isham 1
abian 1
Fin@@ 1
47@@ 1
Gard@@ 1
Constru@@ 1
Ethi@@ 1
Hailem@@ 1
arian 1
Steph@@ 1
renchman 1
aur@@ 1
Od@@ 1
anaman 1
arn@@ 1
tino 1
cy 1
Go@@ 1
cian 1
ker 1
ars 1
ves 1
fill@@ 1
Gras@@ 1
iata 1
But@@ 1
arnie 1
asher 1
slic@@ 1
med 1
vocado 1
eda 1
Sin@@ 1
Singa@@ 1
eg@@ 1
ables 1
enjo@@ 1
achiev@@ 1
sn@@ 1
inig@@ 1
ai@@ 1
sin@@ 1
aha@@ 1
Philli@@ 1
ppin@@ 1
egro 1
EN@@ 1
oring 1
Mon@@ 1
Nar@@ 1
Cali@@ 1
Mor@@ 1
atten@@ 1
Spall@@ 1
ett 1
Pau@@ 1
la 1
orent@@ 1
ina 1
ayed 1
2014@@ 1
anu@@ 1
lspor 1
Spor@@ 1
tive 1
otto 1
Studi@@ 1
chi@@ 1
ett@@ 1
akes 1
DeMar@@ 1
ystems 1
stud@@ 1
hard@@ 1
llian 1
number@@ 1
36@@ 1
sig@@ 1
lin@@ 1
ald 1
ten@@ 1
abbrevi@@ 1
Elizabet@@ 1
ein@@ 1
ir 1
Austr@@ 1
produ@@ 1
ction 1
Co@@ 1
Tirstru@@ 1
Luftha@@ 1
219@@ 1
olfo 1
Airpo@@ 1
itiba 1
ports 1
ces 1
Anb@@ 1
gen@@ 1
Oper@@ 1
deplo@@ 1
McDonn@@ 1
cobend@@ 1
erney 1
22@@ 1
877@@ 1
L/36R 1
10.0 1
97 1
Ang@@ 1
600@@ 1
982 1
349 1
Out@@ 1
gam@@ 1
98@@ 1
Tur@@ 1
Ash@@ 1
port@@ 1
mbat 1
icop@@ 1
oing 1
lobemaster 1
La@@ 1
Sadi@@ 1
substan@@ 1
Harri@@ 1
ondack 1
War@@ 1
enti@@ 1
Gradu@@ 1
Bus@@ 1
1966-0@@ 1
-0@@ 1
ences 1
Represen@@ 1
design@@ 1
polit@@ 1
ican 1
Ramapho@@ 1
Pu@@ 1
ven@@ 1
Ho@@ 1
Enter@@ 1
inment 1
Architect@@ 1
Li@@ 1
erick 1
au@@ 1
tale 1
Wickre@@ 1
singhe 1
bhai 1
Distr@@ 1
Juli@@ 1
Asi@@ 1
mar 1
bir@@ 1
mingham 1
servative 1
Ab@@ 1
ba 1
Gu@@ 1
arat 1
avad 1
show@@ 1
Ser@@ 1
ies 1
chan@@ 1
jamin 1
Pict@@ 1
Col@@ 1
ton 1
sch@@ 1
cre@@ 1
indone@@ 1
alia 1
Jap@@ 1
Chil@@ 1
sau@@ 1
Span@@ 1
ards 1
Putraj@@ 1
ney 1
Bak@@ 1
gin@@ 1
pat@@ 1
ry 1
any 1
per@@ 1
ature 1
astern 1
Av@@ 1
pa@@ 1
tio@@ 1
sha@@ 1
mai 1
vari@@ 1
il 1
haj@@ 1
Vaju@@ 1
ai 1
mitra 1
Jal@@ 1
Pes@@ 1
oa 1
mex@@ 1
um 1
sbury 1
est 1
Penn@@ 1
sy@@ 1
ly 1
ble 1
Can@@ 1
istor@@ 1
Monoc@@ 1
Batt@@ 1
A.C.@@ 1
Lam@@ 1
ex@@ 1
cio 1
Ben@@ 1
odi 1
Che@@ 1
voVerona 1
col@@ 1
sis 1
ages 1
Sr@@ 1
portiva 1
Le@@ 1
perleague 1
Aja@@ 1
Arn@@ 1
Agr@@ 1
acao 1
Brazili@@ 1
mmit 1
ero 1
risio 1
fer@@ 1
sembly 1
Sar@@ 1
cap@@ 1
alli 1
foun@@ 1
der@@ 1
oc@@ 1
actions 1
sted 1
AD@@ 1
Char@@ 1
Gr@@ 1
hard 1
57@@ 1
46 1
Z@@ 1
iaolong 1
establish@@ 1
Hun@@ 1
pale@@ 1
obiology 1
ool 1
publish@@ 1
Math@@ 1
rn@@ 1
Libr@@ 1
ari@@ 1
Ver@@ 1
ses 1
17R/@@ 1
19 1
Baraj@@ 1
ana@@ 1
stat@@ 1
e.The 1
Alf@@ 1
Sha@@ 1
kur 1
Id@@ 1
entifi@@ 1
az@@ 1
addum 1
84.0 1
He@@ 1
Gen@@ 1
che@@ 1
enada 1
qbal 1
Shari@@ 1
Zw@@ 1
mb@@ 1
gbaan 1
Tex@@ 1
77@@ 1
Andre@@ 1
serv@@ 1
Stat@@ 1
colo 1
Applet@@ 1
ap@@ 1
plet@@ 1
ery 1
ley 1
R/21L 1
13 1
31 1
Belgi@@ 1
un 1
Hel@@ 1
oper@@ 1
Fallu@@ 1
ja 1
Mas@@ 1
Abadi 1
adu@@ 1
Shir@@ 1
f 1
coun@@ 1
ales 1
Po@@ 1
acea@@ 1
stit@@ 1
hore 1
w 1
Harrietst@@ 1
ow 1
03.@@ 1
11-1@@ 1
8-@@ 1
192@@ 1
1966@@ 1
.0@@ 1
33 1
d 1
1114@@ 1
1,4@@ 1
200@@ 1
constru@@ 1
ion@@ 1
843.8 1
12077@@ 1
Sus@@ 1
mark 1
Amhar@@ 1
196@@ 1
1-@@ 1
14@@ 1
Jac@@ 1
Hapu@@ 1
otta 1
27@@ 1
46.66 1
act@@ 1
Aki@@ 1
Prefect@@ 1
medabad 1
Ah@@ 1
med@@ 1
para 1
ech 1
Fransi@@ 1
Manhatt@@ 1
/0@@ 1
'@@ 1
let@@ 1
y-@@ 1
Cor@@ 1
ation 1
erto 1
yk 1
irate 1
gar@@ 1
predomin@@ 1
ely 1
cuisin@@ 1
compris@@ 1
lem@@ 1
alon@@ 1
rom@@ 1
ent 1
eez@@ 1
mash@@ 1
too@@ 1
hu@@ 1
condi@@ 1
ent@@ 1
clai@@ 1
ms 1
Des@@ 1
cook@@ 1
chichar@@ 1
rón 1
.00 1
we@@ 1
ber@@ 1
ries 1
ls 1
ilo 1
Philipp@@ 1
me@@ 1
sou@@ 1
ajji 1
Indi@@ 1
confect@@ 1
ion 1
es.Its 1
ord@@ 1
Guadalaj@@ 1
Guad@@ 1
lar@@ 1
Sand@@ 1
Fran@@ 1
avo@@ 1
ite 1
iana 1
opl@@ 1
choy 1
ru@@ 1
Cat@@ 1
egor@@ 1
iz@@ 1
Fall@@ 1
ol 1
rol 1
pl@@ 1
ack 1
190@@ 1
At@@ 1
Ag@@ 1
deburg 1
AK@@ 1
ro 1
Lumezz@@ 1
anne 1
Y@@ 1
enza 1
ini 1
Salv@@ 1
lli@@ 1
anza 1
Ex@@ 1
Vout@@ 1
park 1
Bry@@ 1
ng 1
gro@@ 1
Portu@@ 1
erb@@ 1
aijan 1
Q@@ 1
aba@@ 1
ron 1
Vit@@ 1
pp@@ 1
ove 1
Fut@@ 1
Es@@ 1
adi@@ 1
Cha@@ 1
irman 1
Su@@ 1
Assau@@ 1
C.@@ 1
Amsterdam-@@ 1
Noo@@ 1
rd@@ 1
So@@ 1
Kuttik@@ 1
attoor 1
provi@@ 1
ding 1
Architett@@ 1
Joh@@ 1
Vis@@ 1
varaya 1
annis 1
rest 1
Th@@ 1
ity 1
978-1-4165-4253@@ 1
res 1
Hein@@ 1
lin 1
Sh@@ 1
Trans@@ 1
Inf@@ 1
HIV/@@ 1
AID@@ 1
Advan@@ 1
es.The 1
7156-3648-0 1
cret 1
rit@@ 1
foc@@ 1
us@@ 1
sed 1
Add@@ 1
ition 1
1-8392 1
ative 1
45@@ 1
44811 1
ine 1
ret@@ 1
rovirus 1
R/@@ 1
Ai@@ 1
Ram@@ 1
ussen 1
Akti@@ 1
skab 1
meas@@ 1
112@@ 1
1@@ 1
3,@@ 1
434@@ 1
9m 1
1,@@ 1
800 1
desh 1
274@@ 1
identifi@@ 1
Ass@@ 1
glas 1
AF@@ 1
inva@@ 1
Gover@@ 1
Ig@@ 1
bal 1
10m 1
533 1
1533@@ 1
8.@@ 1
ins 1
2439@@ 1
Gree@@ 1
Comm@@ 1
900@@ 1
Airlin@@ 1
Turk@@ 1
Turkmenbas@@ 1
Tsi@@ 1
23@@ 1
portis 1
aid 1
Bunde@@ 1
hand 1
ku@@ 1
rdish 1
Commelin@@ 1
anac 1
NASA-@@ 1
195@@ 1
Whee@@ 1
atten 1
Fo@@ 1
ow@@ 1
.D 1
She@@ 1
represen@@ 1
educ@@ 1
accomp@@ 1
ani@@ 1
Oh@@ 1
Me@@ 1
kson 1
concer@@ 1
Wash@@ 1
els 1
Rasm@@ 1
use@@ 1
Ed@@ 1
na 1
Jayaw@@ 1
den@@ 1
epura 1
Ak@@ 1
hito 1
Ru@@ 1
pee 1
Musue@@ 1
tered 1
Manh@@ 1
ter@@ 1
Bir@@ 1
min@@ 1
abour 1
ling 1
pro@@ 1
Andalu@@ 1
anese 1
on-@@ 1
wide 1
Is@@ 1
Catalon@@ 1
Ped@@ 1
Ay@@ 1
pan@@ 1
yet 1
tit@@ 1
ar 1
ash@@ 1
ington 1
san@@ 1
ich 1
bac@@ 1
ong 1
Bas@@ 1
Cl@@ 1
fied 1
ven 1
Coun@@ 1
ty@@ 1
ort@@ 1
ewell 1
Pat@@ 1
ust@@ 1
Rut@@ 1
Pal@@ 1
sa 1
Clu@@ 1
Wido@@ 1
ator 1
spo@@ 1
ke 1
Narend@@ 1
S.@@ 1
Karnat@@ 1
ake 1
feat@@ 1
Arist@@ 1
ó@@ 1
ail@@ 1
mont 1
crust 1
bak@@ 1
wall 1
consi@@ 1
bas@@ 1
ko 1
Serg@@ 1
Sau@@ 1
ey 1
Chin@@ 1
ocano 1
Phili@@ 1
Igor@@ 1
il@@ 1
ino 1
And@@ 1
ci 1
poken 1
ssippi 1
Pen@@ 1
sylvania 1
memor@@ 1
ur 1
erala 1
Mend@@ 1
risi@@ 1
Sc@@ 1
ne@@ 1
ider 1
Ac@@ 1
dem@@ 1
neighb@@ 1
cha@@ 1
ach@@ 1
nolog@@ 1
Dr.@@ 1
G.@@ 1
Instit@@ 1
nown 1
Coll@@ 1
age 1
lia 1
Lar@@ 1
preced@@ 1
Klu@@ 1
wh@@ 1
reland 1
pre@@ 1
sity 1
.C. 1
Apo@@ 1
ong@@ 1
New@@ 1
Fen@@ 1
Dall@@ 1
ved 1
/2@@ 1
8@@ 1
figh@@ 1
onu@@ 1
antry 1
ssi@@ 1
pi 1
Fred@@ 1
rs 1
baijan 1
dict@@ 1
Eth@@ 1
wald 1
Volun@@ 1
Ahmet_@@ 1
Davutogl@@ 1
tur@@ 1
Kuttikk@@ 1
Mendris@@ 1
iliated 1
Tech@@ 1
B.@@ 1
M.@@ 1
Mumb@@ 1
leng@@ 1
ana 1
Telang@@ 1
Ioh@@ 1
ann@@ 1
Aarhu@@ 1
ensis 1
rece@@ 1
ving 1
memb@@ 1
pt 1
Met@@ 1
Jer@@ 1
/01/@@ 1
Americ@@ 1
Do@@ 1
ctor@@ 1
199@@ 1
head@@ 1
ebruary 1
day 1
ig@@ 1
tember 1
hit@@ 1
bi@@ 1
jan 1
urk 1
Schneider-@@ 1
ph@@ 1
Radhak@@ 1
hnan 1
Kar@@ 1
ataka 1
aya 1
ute 1
eration 1
Aarh@@ 1
Ras@@ 1
Ke@@ 1
ala 1
Ro@@ 1
ist 1
IT 1
Pe@@ 1
esen 1
iversi@@ 1
5600@@ 1
